<unk>	0
<s>	0
</s>	0
he	-0
▁t	-1
▁a	-2
in	-3
er	-4
on	-5
re	-6
▁the	-7
ed	-8
is	-9
▁s	-10
▁w	-11
or	-12
en	-13
at	-14
an	-15
▁c	-16
es	-17
▁o	-18
it	-19
▁f	-20
ar	-21
al	-22
▁T	-23
▁b	-24
as	-25
▁p	-26
▁of	-27
nd	-28
▁in	-29
▁m	-30
ou	-31
ing	-32
▁The	-33
▁h	-34
ic	-35
▁and	-36
ion	-37
▁d	-38
▁to	-39
le	-40
▁is	-41
ro	-42
▁S	-43
▁H	-44
il	-45
▁l	-46
ent	-47
am	-48
▁n	-49
▁A	-50
▁was	-51
▁re	-52
el	-53
st	-54
om	-55
▁I	-56
▁C	-57
ow	-58
ol	-59
ac	-60
ly	-61
▁e	-62
ad	-63
ot	-64
ter	-65
iv	-66
▁th	-67
ur	-68
▁be	-69
im	-70
▁g	-71
ir	-72
▁for	-73
id	-74
us	-75
▁B	-76
▁al	-77
▁M	-78
ig	-79
▁on	-80
▁st	-81
et	-82
ct	-83
ver	-84
ation	-85
her	-86
ay	-87
ch	-88
▁He	-89
▁P	-90
▁are	-91
ut	-92
un	-93
ce	-94
▁L	-95
ers	-96
em	-97
ith	-98
▁It	-99
ul	-100
so	-101
▁as	-102
and	-103
av	-104
ain	-105
▁with	-106
▁con	-107
ist	-108
▁by	-109
▁R	-110
ies	-111
od	-112
▁"	-113
um	-114
▁F	-115
▁he	-116
ag	-117
▁W	-118
▁D	-119
▁at	-120
▁also	-121
▁pro	-122
os	-123
▁com	-124
est	-125
▁r	-126
ab	-127
▁se	-128
if	-129
▁it	-130
▁G	-131
art	-132
ity	-133
▁E	-134
pp	-135
ri	-136
▁an	-137
th	-138
▁N	-139
▁v	-140
ud	-141
ere	-142
▁de	-143
oc	-144
ated	-145
op	-146
▁Th	-147
ill	-148
▁his	-149
▁O	-150
all	-151
ame	-152
▁were	-153
ate	-154
rom	-155
▁su	-156
se	-157
qu	-158
ore	-159
▁or	-160
ak	-161
igh	-162
our	-163
ap	-164
res	-165
nt	-166
ew	-167
▁from	-168
ort	-169
▁has	-170
▁ch	-171
▁ex	-172
▁pl	-173
ld	-174
ave	-175
ial	-176
ess	-177
▁that	-178
▁tr	-179
ard	-180
ant	-181
ive	-182
end	-183
ost	-184
▁sh	-185
ge	-186
ell	-187
red	-188
▁J	-189
ong	-190
own	-191
▁us	-192
▁sp	-193
ound	-194
▁This	-195
▁wor	-196
ment	-197
ther	-198
▁not	-199
▁u	-200
ia	-201
▁k	-202
▁y	-203
ear	-204
ally	-205
ous	-206
▁le	-207
ater	-208
ec	-209
▁this	-210
wo	-211
ack	-212
ever	-213
▁have	-214
any	-215
ip	-216
ov	-217
ber	-218
▁K	-219
cl	-220
▁In	-221
▁wh	-222
▁comp	-223
ast	-224
▁ar	-225
".	-226
ans	-227
ine	-228
gh	-229
▁un	-230
ions	-231
ome	-232
ok	-233
▁She	-234
ary	-235
per	-236
du	-237
wn	-238
ish	-239
ool	-240
cc	-241
fter	-242
▁cont	-243
ub	-244
ark	-245
ide	-246
▁Al	-247
ure	-248
ight	-249
▁can	-250
for	-251
og	-252
▁part	-253
ian	-254
▁te	-255
▁been	-256
ust	-257
▁St	-258
irst	-259
ount	-260
▁two	-261
▁work	-262
ass	-263
ical	-264
▁ser	-265
ie	-266
act	-267
low	-268
out	-269
▁her	-270
▁comm	-271
are	-272
orn	-273
ult	-274
▁ad	-275
▁had	-276
chool	-277
ff	-278
▁one	-279
▁V	-280
▁j	-281
rit	-282
▁gr	-283
▁app	-284
ue	-285
ely	-286
ign	-287
ree	-288
▁They	-289
pl	-290
pt	-291
ents	-292
ail	-293
ied	-294
ire	-295
▁cl	-296
ings	-297
▁loc	-298
ction	-299
ations	-300
owever	-301
iz	-302
▁U	-303
ang	-304
ice	-305
▁first	-306
▁their	-307
ite	-308
▁its	-309
▁Ch	-310
ough	-311
tern	-312
able	-313
▁bec	-314
▁int	-315
age	-316
ild	-317
ime	-318
ond	-319
▁im	-320
ition	-321
ood	-322
ord	-323
▁dis	-324
land	-325
▁res	-326
▁used	-327
▁up	-328
ance	-329
▁other	-330
ach	-331
▁kn	-332
▁ro	-333
ra	-334
ind	-335
▁en	-336
clud	-337
▁play	-338
ne	-339
hed	-340
ry	-341
ced	-342
fer	-343
ould	-344
ade	-345
ick	-346
▁ab	-347
ates	-348
▁includ	-349
form	-350
▁att	-351
▁There	-352
ng	-353
ric	-354
▁all	-355
▁later	-356
oth	-357
▁per	-358
▁year	-359
ru	-360
oin	-361
one	-362
▁me	-363
▁pr	-364
mer	-365
▁His	-366
aw	-367
ik	-368
ake	-369
ich	-370
les	-371
ors	-372
▁sc	-373
ence	-374
ious	-375
▁rec	-376
ib	-377
ect	-378
ved	-379
▁col	-380
▁she	-381
ob	-382
hen	-383
ten	-384
▁after	-385
▁known	-386
amp	-387
ily	-388
vel	-389
▁ag	-390
▁bu	-391
over	-392
ities	-393
ational	-394
▁became	-395
ank	-396
ory	-397
port	-398
▁only	-399
ms	-400
ook	-401
ress	-402
▁des	-403
▁sub	-404
ee	-405
oy	-406
sh	-407
▁Y	-408
ubl	-409
▁ev	-410
▁no	-411
lect	-412
nder	-413
very	-414
▁many	-415
▁produ	-416
ons	-417
▁out	-418
alled	-419
▁However	-420
gr	-421
ts	-422
ace	-423
gan	-424
▁ne	-425
ived	-426
▁act	-427
▁new	-428
▁pre	-429
▁name	-430
▁they	-431
ck	-432
ase	-433
man	-434
▁Un	-435
▁do	-436
▁qu	-437
ited	-438
▁fam	-439
▁fol	-440
▁may	-441
▁nam	-442
▁rem	-443
▁most	-444
▁stud	-445
▁time	-446
ces	-447
ned	-448
ock	-449
ve	-450
ren	-451
reat	-452
▁him	-453
au	-454
rib	-455
▁born	-456
▁spec	-457
▁there	-458
▁follow	-459
ft	-460
ath	-461
itt	-462
ased	-463
ters	-464
▁All	-465
arri	-466
ular	-467
▁but	-468
▁off	-469
▁sur	-470
ounty	-471
▁over	-472
▁writ	-473
▁school	-474
ens	-475
hes	-476
ral	-477
rop	-478
ual	-479
yst	-480
▁New	-481
▁cur	-482
▁mod	-483
▁four	-484
te	-485
ife	-486
ener	-487
▁num	-488
▁you	-489
ually	-490
uring	-491
▁cons	-492
▁into	-493
▁town	-494
▁called	-495
eld	-496
ern	-497
ose	-498
▁Ar	-499
ific	-500
igin	-501
imes	-502
▁Com	-503
▁man	-504
▁rel	-505
▁some	-506
▁them	-507
▁located	-508
ll	-509
oh	-510
iss	-511
let	-512
use	-513
▁Le	-514
▁rep	-515
ained	-516
ivers	-517
▁publ	-518
▁named	-519
▁three	-520
▁under	-521
▁School	-522
air	-523
ays	-524
oup	-525
ove	-526
son	-527
ower	-528
▁For	-529
▁sec	-530
ather	-531
▁After	-532
▁found	-533
io	-534
ics	-535
old	-536
▁An	-537
▁co	-538
ince	-539
ouse	-540
outh	-541
rent	-542
▁ret	-543
▁area	-544
▁made	-545
▁oper	-546
▁origin	-547
yp	-548
▁ac	-549
▁fl	-550
ward	-551
▁met	-552
▁city	-553
▁team	-554
ix	-555
arg	-556
ont	-557
▁Sh	-558
▁pe	-559
▁fil	-560
▁mem	-561
ystem	-562
▁would	-563
▁perform	-564
ile	-565
row	-566
ton	-567
ven	-568
▁As	-569
▁so	-570
aint	-571
ered	-572
ning	-573
▁dep	-574
▁ter	-575
▁var	-576
ccess	-577
rough	-578
▁then	-579
up	-580
▁At	-581
▁Re	-582
▁Sc	-583
▁Wh	-584
▁fe	-585
ains	-586
ield	-587
ural	-588
▁Ind	-589
▁reg	-590
ended	-591
▁high	-592
▁will	-593
▁about	-594
▁these	-595
▁current	-596
its	-597
iver	-598
ople	-599
▁inv	-600
ished	-601
▁form	-602
▁more	-603
▁well	-604
▁family	-605
we	-606
ale	-607
als	-608
ars	-609
ert	-610
ike	-611
▁we	-612
ital	-613
vers	-614
▁Eng	-615
▁Joh	-616
▁ent	-617
▁fin	-618
▁now	-619
ating	-620
▁These	-621
▁second	-622
enn	-623
ict	-624
ley	-625
uch	-626
▁Is	-627
▁br	-628
▁ed	-629
ames	-630
ures	-631
▁cap	-632
ident	-633
▁both	-634
▁dist	-635
▁prov	-636
▁rece	-637
▁sing	-638
▁when	-639
arried	-640
▁again	-641
▁child	-642
▁inter	-643
▁trans	-644
▁which	-645
▁commun	-646
iversity	-647
ett	-648
oun	-649
ros	-650
way	-651
▁av	-652
▁bl	-653
▁em	-654
ives	-655
oint	-656
▁Col	-657
▁add	-658
▁bel	-659
▁def	-660
▁dif	-661
▁mon	-662
▁occ	-663
▁own	-664
▁who	-665
ative	-666
ently	-667
▁build	-668
▁gener	-669
▁sever	-670
▁County	-671
▁however	-672
app	-673
ork	-674
rew	-675
ves	-676
▁On	-677
▁Sp	-678
▁gu	-679
▁sm	-680
omet	-681
urch	-682
▁bur	-683
▁ear	-684
▁exp	-685
▁pop	-686
▁sim	-687
meric	-688
other	-689
velop	-690
▁John	-691
▁inst	-692
▁mark	-693
▁rele	-694
▁sign	-695
▁elect	-696
▁group	-697
▁number	-698
▁people	-699
▁develop	-700
▁several	-701
▁through	-702
br	-703
ey	-704
ug	-705
▁'	-706
ets	-707
▁De	-708
ange	-709
ason	-710
here	-711
ides	-712
olog	-713
▁Her	-714
▁any	-715
▁art	-716
▁imp	-717
▁inc	-718
▁min	-719
▁mov	-720
ision	-721
ister	-722
▁disc	-723
▁head	-724
▁show	-725
▁song	-726
▁local	-727
▁during	-728
▁system	-729
hy	-730
sp	-731
anc	-732
ash	-733
att	-734
▁Be	-735
▁Gr	-736
▁am	-737
▁dr	-738
aced	-739
fore	-740
gram	-741
ired	-742
ists	-743
orth	-744
osed	-745
ract	-746
▁Mar	-747
▁aut	-748
▁bet	-749
▁ind	-750
▁pol	-751
▁run	-752
▁win	-753
overn	-754
▁High	-755
▁Many	-756
▁main	-757
▁power	-758
▁still	-759
▁years	-760
▁Americ	-761
by	-762
fl	-763
ph	-764
uc	-765
iet	-766
ott	-767
ues	-768
ants	-769
rict	-770
▁Car	-771
▁bro	-772
▁pos	-773
▁typ	-774
ement	-775
▁band	-776
▁cent	-777
▁conc	-778
▁hist	-779
▁home	-780
▁such	-781
▁record	-782
▁served	-783
▁program	-784
▁received	-785
ea	-786
bum	-787
elf	-788
ful	-789
ink	-790
ins	-791
ism	-792
und	-793
augh	-794
eter	-795
lege	-796
▁Its	-797
▁acc	-798
▁ass	-799
▁ele	-800
▁str	-801
ively	-802
pport	-803
▁left	-804
▁long	-805
▁pres	-806
itions	-807
▁organ	-808
▁start	-809
▁design	-810
▁played	-811
▁include	-812
aj	-813
ann	-814
der	-815
ilt	-816
med	-817
oon	-818
uss	-819
▁Br	-820
▁cr	-821
ilar	-822
ines	-823
ized	-824
ject	-825
ross	-826
▁day	-827
▁did	-828
▁est	-829
▁son	-830
aster	-831
▁back	-832
▁feat	-833
▁lead	-834
▁prom	-835
▁same	-836
▁very	-837
▁South	-838
▁avail	-839
▁event	-840
▁series	-841
▁success	-842
▁various	-843
▁University	-844
ci	-845
aim	-846
ane	-847
eng	-848
ise	-849
ium	-850
led	-851
oot	-852
▁Fr	-853
lish	-854
ween	-855
▁end	-856
▁mat	-857
▁mus	-858
▁ref	-859
▁use	-860
irect	-861
urned	-862
▁cour	-863
▁larg	-864
▁last	-865
▁album	-866
▁being	-867
▁great	-868
▁never	-869
▁world	-870
▁contro	-871
▁differ	-872
▁between	-873
▁married	-874
▁available	-875
ah	-876
ym	-877
▁Z	-878
alk	-879
day	-880
ina	-881
ird	-882
par	-883
ron	-884
▁Am	-885
▁Bl	-886
▁go	-887
▁po	-888
▁sl	-889
ator	-890
bert	-891
cept	-892
fess	-893
ured	-894
vent	-895
▁tak	-896
ility	-897
ional	-898
ments	-899
ribut	-900
▁Park	-901
▁Town	-902
▁book	-903
▁life	-904
▁list	-905
▁pass	-906
▁seat	-907
▁term	-908
▁house	-909
▁often	-910
▁govern	-911
▁public	-912
▁season	-913
ometimes	-914
ep	-915
eal	-916
ier	-917
iew	-918
int	-919
ior	-920
ody	-921
ull	-922
▁Ad	-923
▁Pr	-924
▁Tr	-925
ajor	-926
ause	-927
ined	-928
ivid	-929
ling	-930
omen	-931
▁You	-932
▁air	-933
▁cor	-934
▁few	-935
▁hum	-936
▁law	-937
▁par	-938
erson	-939
ittle	-940
▁Comm	-941
▁char	-942
▁desc	-943
▁find	-944
▁serv	-945
▁River	-946
▁major	-947
▁since	-948
▁compet	-949
▁contin	-950
▁father	-951
▁children	-952
az	-953
ery	-954
inc	-955
lex	-956
por	-957
rem	-958
▁Cl	-959
ands	-960
ball	-961
bers	-962
ford	-963
itut	-964
rodu	-965
ship	-966
▁Chr	-967
▁Con	-968
▁One	-969
▁eff	-970
▁mak	-971
▁won	-972
▁care	-973
▁film	-974
▁line	-975
▁rest	-976
▁stre	-977
▁than	-978
▁trad	-979
▁wife	-980
ically	-981
▁Other	-982
▁const	-983
▁every	-984
▁short	-985
▁track	-986
▁water	-987
▁repres	-988
▁against	-989
▁support	-990
▁community	-991
ternational	-992
af	-993
my	-994
to	-995
els	-996
iam	-997
iqu	-998
rap	-999
uck	-1000
vil	-1001
▁Ge	-1002
▁Or	-1003
▁Ph	-1004
▁Ro	-1005
▁ph	-1006
aged	-1007
ases	-1008
icip	-1009
ised	-1010
ival	-1011
ness	-1012
reen	-1013
sequ	-1014
▁And	-1015
▁Cal	-1016
▁Can	-1017
▁Har	-1018
▁car	-1019
▁dec	-1020
▁dem	-1021
▁equ	-1022
▁med	-1023
▁old	-1024
arent	-1025
wards	-1026
▁Aust	-1027
▁Both	-1028
▁Cent	-1029
▁Part	-1030
▁That	-1031
▁fore	-1032
▁near	-1033
▁took	-1034
▁tour	-1035
emeter	-1036
▁began	-1037
▁early	-1038
▁incre	-1039
▁young	-1040
▁direct	-1041
▁English	-1042
▁company	-1043
▁popular	-1044
▁similar	-1045
▁special	-1046
▁written	-1047
▁following	-1048
lp	-1049
ty	-1050
adu	-1051
aid	-1052
ape	-1053
ble	-1054
erc	-1055
get	-1056
hip	-1057
hod	-1058
hor	-1059
ops	-1060
ued	-1061
urg	-1062
▁bo	-1063
ages	-1064
cted	-1065
ends	-1066
ible	-1067
oted	-1068
soci	-1069
▁But	-1070
▁Ger	-1071
▁adv	-1072
▁beh	-1073
▁eng	-1074
▁ext	-1075
▁fri	-1076
▁sit	-1077
ences	-1078
ified	-1079
▁Russ	-1080
▁What	-1081
▁came	-1082
▁crit	-1083
▁down	-1084
▁five	-1085
▁game	-1086
▁grow	-1087
▁held	-1088
▁tele	-1089
▁vers	-1090
▁vill	-1091
astern	-1092
▁Later	-1093
▁Their	-1094
▁chang	-1095
▁death	-1096
▁music	-1097
▁offic	-1098
▁point	-1099
▁small	-1100
▁appear	-1101
▁around	-1102
▁common	-1103
▁import	-1104
▁member	-1105
▁currently	-1106
▁sometimes	-1107
▁government	-1108
bs	-1109
co	-1110
yl	-1111
yn	-1112
arm	-1113
ats	-1114
chn	-1115
con	-1116
ham	-1117
idd	-1118
urn	-1119
▁Ex	-1120
▁Se	-1121
▁op	-1122
▁tw	-1123
ague	-1124
ards	-1125
arge	-1126
most	-1127
used	-1128
▁arr	-1129
▁cle	-1130
▁cre	-1131
▁iss	-1132
▁men	-1133
ially	-1134
round	-1135
ument	-1136
▁Comp	-1137
▁Some	-1138
▁camp	-1139
▁died	-1140
▁does	-1141
▁help	-1142
▁just	-1143
▁mean	-1144
▁post	-1145
estern	-1146
ferred	-1147
▁based	-1148
▁built	-1149
▁exper	-1150
▁place	-1151
▁polit	-1152
▁those	-1153
▁times	-1154
▁where	-1155
emetery	-1156
▁Christ	-1157
▁career	-1158
▁former	-1159
▁modern	-1160
▁result	-1161
▁College	-1162
▁profess	-1163
▁station	-1164
▁attended	-1165
▁followed	-1166
▁original	-1167
▁returned	-1168
▁including	-1169
ax	-1170
bo	-1171
ex	-1172
ks	-1173
The	-1174
ene	-1175
ney	-1176
urs	-1177
ury	-1178
▁Eu	-1179
adem	-1180
arch	-1181
aves	-1182
ctor	-1183
ests	-1184
ians	-1185
idge	-1186
iter	-1187
ored	-1188
ring	-1189
wood	-1190
▁Bar	-1191
▁Par	-1192
▁fac	-1193
▁opp	-1194
▁rev	-1195
▁rul	-1196
▁six	-1197
ately	-1198
field	-1199
ories	-1200
▁City	-1201
▁Dist	-1202
▁Lake	-1203
▁conf	-1204
▁good	-1205
▁live	-1206
▁requ	-1207
▁went	-1208
ention	-1209
▁Saint	-1210
▁State	-1211
▁could	-1212
▁count	-1213
▁daugh	-1214
▁final	-1215
▁games	-1216
▁level	-1217
▁manag	-1218
▁story	-1219
▁women	-1220
▁United	-1221
▁author	-1222
▁buried	-1223
▁charac	-1224
▁compan	-1225
▁county	-1226
▁histor	-1227
▁method	-1228
▁single	-1229
▁though	-1230
▁within	-1231
▁worked	-1232
▁command	-1233
▁introdu	-1234
▁subsequ	-1235
▁usually	-1236
▁national	-1237
▁important	-1238
▁tradition	-1239
▁eventually	-1240
",	-1241
cy	-1242
gy	-1243
cle	-1244
cts	-1245
flu	-1246
ner	-1247
ots	-1248
ple	-1249
reg	-1250
rel	-1251
ump	-1252
yle	-1253
▁Bo	-1254
▁No	-1255
▁We	-1256
▁es	-1257
▁sw	-1258
ably	-1259
ison	-1260
iven	-1261
ming	-1262
oney	-1263
▁Pro	-1264
▁Two	-1265
▁Val	-1266
▁War	-1267
▁bre	-1268
▁bus	-1269
▁hon	-1270
▁leg	-1271
▁val	-1272
ators	-1273
ature	-1274
eared	-1275
useum	-1276
ville	-1277
▁Geor	-1278
▁Will	-1279
▁York	-1280
▁appl	-1281
▁arch	-1282
▁best	-1283
▁coun	-1284
▁days	-1285
▁each	-1286
▁expl	-1287
▁flow	-1288
▁love	-1289
▁make	-1290
▁much	-1291
▁seen	-1292
▁word	-1293
aining	-1294
icular	-1295
ission	-1296
urther	-1297
▁Europ	-1298
▁activ	-1299
▁along	-1300
▁belie	-1301
▁claim	-1302
▁north	-1303
▁pract	-1304
▁right	-1305
▁seven	-1306
▁state	-1307
▁techn	-1308
▁white	-1309
ificant	-1310
ultural	-1311
▁States	-1312
▁before	-1313
▁entire	-1314
▁should	-1315
▁strong	-1316
▁Austral	-1317
▁capital	-1318
▁central	-1319
▁National	-1320
▁includes	-1321
▁produced	-1322
▁released	-1323
▁students	-1324
▁surround	-1325
▁companies	-1326
▁published	-1327
'.	-1328
ai	-1329
xt	-1330
▁Q	-1331
ady	-1332
cer	-1333
gin	-1334
hel	-1335
iod	-1336
isc	-1337
ius	-1338
off	-1339
ted	-1340
uel	-1341
▁To	-1342
▁fr	-1343
aces	-1344
atic	-1345
ices	-1346
ners	-1347
nown	-1348
olut	-1349
oman	-1350
ries	-1351
rown	-1352
ruct	-1353
self	-1354
side	-1355
▁Ham	-1356
▁bas	-1357
▁che	-1358
▁lim	-1359
▁non	-1360
▁unt	-1361
▁war	-1362
ality	-1363
erous	-1364
jects	-1365
ograp	-1366
oined	-1367
ondon	-1368
rench	-1369
▁West	-1370
▁With	-1371
▁cond	-1372
▁dest	-1373
▁educ	-1374
▁insp	-1375
▁kill	-1376
▁land	-1377
▁like	-1378
▁mult	-1379
▁priv	-1380
▁repl	-1381
▁sett	-1382
▁appro	-1383
▁award	-1384
▁books	-1385
▁eight	-1386
▁large	-1387
▁moved	-1388
▁party	-1389
▁separ	-1390
▁sound	-1391
▁taken	-1392
▁works	-1393
ination	-1394
ividual	-1395
▁During	-1396
▁Europe	-1397
▁London	-1398
▁consid	-1399
▁depart	-1400
▁little	-1401
▁person	-1402
▁England	-1403
▁complex	-1404
▁describ	-1405
▁species	-1406
▁Cemetery	-1407
▁district	-1408
▁included	-1409
▁programs	-1410
▁buildings	-1411
▁different	-1412
▁represent	-1413
▁production	-1414
▁performance	-1415
▁subsequently	-1416
de	-1417
ada	-1418
ald	-1419
eds	-1420
erv	-1421
nal	-1422
nam	-1423
ows	-1424
ret	-1425
roy	-1426
unt	-1427
▁Ag	-1428
▁Ed	-1429
▁Fl	-1430
▁Ir	-1431
▁Me	-1432
▁Ne	-1433
▁Te	-1434
▁el	-1435
▁if	-1436
▁sk	-1437
ales	-1438
aper	-1439
ches	-1440
iber	-1441
ient	-1442
ises	-1443
msel	-1444
orts	-1445
oyed	-1446
▁Air	-1447
▁Cam	-1448
▁Man	-1449
▁Min	-1450
▁Sec	-1451
▁fre	-1452
▁led	-1453
▁see	-1454
▁set	-1455
▁tem	-1456
▁tre	-1457
▁way	-1458
▁wee	-1459
▁wid	-1460
ample	-1461
enced	-1462
iforn	-1463
iness	-1464
ither	-1465
iving	-1466
olved	-1467
ption	-1468
▁Each	-1469
▁Hall	-1470
▁Most	-1471
▁When	-1472
▁bank	-1473
▁fact	-1474
▁fail	-1475
▁foot	-1476
▁full	-1477
▁happ	-1478
▁look	-1479
▁move	-1480
▁open	-1481
▁real	-1482
▁rock	-1483
▁room	-1484
▁said	-1485
▁side	-1486
▁situ	-1487
▁wind	-1488
▁wood	-1489
ctions	-1490
ements	-1491
ending	-1492
▁James	-1493
▁North	-1494
▁allow	-1495
▁court	-1496
▁estab	-1497
▁exist	-1498
▁gradu	-1499
▁money	-1500
▁month	-1501
▁noted	-1502
▁while	-1503
ifornia	-1504
mselves	-1505
▁French	-1506
▁church	-1507
▁effect	-1508
▁engine	-1509
▁events	-1510
▁fourth	-1511
▁invest	-1512
▁making	-1513
▁market	-1514
▁mother	-1515
▁office	-1516
▁brother	-1517
▁control	-1518
▁largest	-1519
▁working	-1520
▁American	-1521
▁addition	-1522
▁appeared	-1523
▁California	-1524
▁individual	-1525
▁themselves	-1526
▁significant	-1527
ke	-1528
mp	-1529
ys	-1530
aff	-1531
cil	-1532
ead	-1533
eak	-1534
eel	-1535
iff	-1536
ipp	-1537
men	-1538
ony	-1539
oor	-1540
oss	-1541
ude	-1542
▁Ab	-1543
▁El	-1544
▁If	-1545
▁Sk	-1546
▁ap	-1547
▁ve	-1548
adio	-1549
alls	-1550
angu	-1551
bour	-1552
burg	-1553
ched	-1554
ecut	-1555
entr	-1556
hood	-1557
ideo	-1558
ilit	-1559
play	-1560
reek	-1561
work	-1562
ying	-1563
▁Hen	-1564
▁Pol	-1565
▁Res	-1566
▁Sam	-1567
▁Win	-1568
▁Wor	-1569
▁ann	-1570
▁bar	-1571
▁dam	-1572
▁deb	-1573
▁dra	-1574
▁fif	-1575
▁fun	-1576
▁hal	-1577
▁lab	-1578
▁pat	-1579
▁soc	-1580
▁sou	-1581
▁ten	-1582
▁tri	-1583
ached	-1584
aving	-1585
known	-1586
ports	-1587
shire	-1588
thern	-1589
▁Mill	-1590
▁Phil	-1591
▁Wood	-1592
▁anim	-1593
▁club	-1594
▁east	-1595
▁fell	-1596
▁fish	-1597
▁less	-1598
▁lies	-1599
▁lost	-1600
▁next	-1601
▁park	-1602
▁resp	-1603
▁site	-1604
▁soon	-1605
▁suff	-1606
▁west	-1607
endent	-1608
ercial	-1609
ertain	-1610
everal	-1611
ulture	-1612
vision	-1613
▁Scott	-1614
▁Since	-1615
▁cross	-1616
▁given	-1617
▁human	-1618
▁influ	-1619
▁liter	-1620
▁oppos	-1621
▁parts	-1622
▁resid	-1623
▁today	-1624
▁until	-1625
ication	-1626
ilities	-1627
▁George	-1628
▁German	-1629
▁period	-1630
▁placed	-1631
▁proble	-1632
▁Company	-1633
▁Several	-1634
▁William	-1635
▁attract	-1636
▁constru	-1637
▁history	-1638
▁schools	-1639
▁service	-1640
▁started	-1641
▁studied	-1642
▁version	-1643
▁village	-1644
▁District	-1645
▁building	-1646
▁daughter	-1647
▁football	-1648
▁generally	-1649
▁commercial	-1650
▁considered	-1651
▁introduced	-1652
▁particular	-1653
▁development	-1654
▁traditional	-1655
▁international	-1656
be	-1657
gg	-1658
tr	-1659
alt	-1660
ata	-1661
ems	-1662
gen	-1663
ger	-1664
ief	-1665
igr	-1666
ips	-1667
irl	-1668
isl	-1669
ize	-1670
min	-1671
not	-1672
ocr	-1673
oid	-1674
oke	-1675
osp	-1676
udi	-1677
unn	-1678
▁Af	-1679
▁Co	-1680
▁Gu	-1681
▁Pl	-1682
▁ra	-1683
abor	-1684
ades	-1685
anch	-1686
apan	-1687
ared	-1688
atch	-1689
back	-1690
ense	-1691
etry	-1692
iews	-1693
ique	-1694
itar	-1695
itch	-1696
olic	-1697
omin	-1698
oper	-1699
rest	-1700
roll	-1701
ster	-1702
ways	-1703
▁Bas	-1704
▁Ber	-1705
▁May	-1706
▁Mem	-1707
▁Met	-1708
▁aff	-1709
▁ant	-1710
▁emb	-1711
▁inf	-1712
▁inj	-1713
▁ins	-1714
▁say	-1715
▁tit	-1716
ances	-1717
arest	-1718
asure	-1719
ering	-1720
itive	-1721
itted	-1722
odern	-1723
posed	-1724
ronic	-1725
ublic	-1726
▁Jack	-1727
▁Penn	-1728
▁Pres	-1729
▁Rich	-1730
▁Then	-1731
▁Thus	-1732
▁away	-1733
▁base	-1734
▁edge	-1735
▁fire	-1736
▁heav	-1737
▁host	-1738
▁indu	-1739
▁plan	-1740
▁rail	-1741
▁sour	-1742
▁spir	-1743
▁stat	-1744
▁surv	-1745
▁take	-1746
▁trav	-1747
atural	-1748
gether	-1749
lement	-1750
overed	-1751
▁Frank	-1752
▁Henry	-1753
▁House	-1754
▁World	-1755
▁added	-1756
▁among	-1757
▁champ	-1758
▁field	-1759
▁impro	-1760
▁langu	-1761
▁match	-1762
▁means	-1763
▁occur	-1764
▁quick	-1765
▁songs	-1766
▁south	-1767
▁stand	-1768
▁third	-1769
▁using	-1770
▁video	-1771
ivision	-1772
ization	-1773
olution	-1774
ulation	-1775
▁Church	-1776
▁almost	-1777
▁altern	-1778
▁famous	-1779
▁parent	-1780
▁remain	-1781
▁widely	-1782
▁Russian	-1783
▁another	-1784
▁awarded	-1785
▁because	-1786
▁changed	-1787
▁complet	-1788
▁created	-1789
▁general	-1790
▁meaning	-1791
▁members	-1792
▁nearest	-1793
▁present	-1794
▁private	-1795
▁writing	-1796
▁Township	-1797
▁designed	-1798
▁position	-1799
▁separate	-1800
▁together	-1801
▁Australia	-1802
▁contribut	-1803
▁described	-1804
▁developed	-1805
bl	-1806
of	-1807
pr	-1808
ps	-1809
sk	-1810
uz	-1811
ana	-1812
aur	-1813
awn	-1814
cul	-1815
ees	-1816
era	-1817
ese	-1818
fic	-1819
ges	-1820
hab	-1821
ibr	-1822
igg	-1823
ler	-1824
ogn	-1825
oom	-1826
orm	-1827
ote	-1828
str	-1829
uff	-1830
umb	-1831
ung	-1832
▁Ac	-1833
▁En	-1834
▁Im	-1835
▁Oh	-1836
▁gl	-1837
▁my	-1838
▁ob	-1839
alth	-1840
ania	-1841
cess	-1842
chol	-1843
ding	-1844
empt	-1845
enth	-1846
head	-1847
ials	-1848
iety	-1849
ieut	-1850
ione	-1851
itan	-1852
more	-1853
omes	-1854
oned	-1855
ours	-1856
ourt	-1857
oved	-1858
pper	-1859
rote	-1860
teen	-1861
vert	-1862
▁App	-1863
▁Bel	-1864
▁Cap	-1865
▁Dav	-1866
▁Hol	-1867
▁Mor	-1868
▁Pat	-1869
▁Per	-1870
▁Sim	-1871
▁Vir	-1872
▁Wil	-1873
▁adj	-1874
▁arg	-1875
▁due	-1876
▁gen	-1877
▁jud	-1878
▁mag	-1879
▁put	-1880
▁sym	-1881
▁tou	-1882
▁unc	-1883
▁ven	-1884
▁vol	-1885
ables	-1886
andid	-1887
atory	-1888
atter	-1889
attle	-1890
aught	-1891
conom	-1892
enant	-1893
ength	-1894
ersey	-1895
ician	-1896
iddle	-1897
ience	-1898
ights	-1899
ilton	-1900
isted	-1901
lands	-1902
orpor	-1903
tered	-1904
thing	-1905
▁Brit	-1906
▁Char	-1907
▁Cons	-1908
▁Inst	-1909
▁Mary	-1910
▁More	-1911
▁capt	-1912
▁case	-1913
▁cast	-1914
▁coll	-1915
▁even	-1916
▁fort	-1917
▁hand	-1918
▁hold	-1919
▁jour	-1920
▁late	-1921
▁must	-1922
▁poss	-1923
▁prev	-1924
▁prot	-1925
▁quar	-1926
▁rank	-1927
▁read	-1928
▁road	-1929
▁runs	-1930
▁sent	-1931
▁sons	-1932
▁star	-1933
▁vict	-1934
▁wide	-1935
atform	-1936
ential	-1937
ibrary	-1938
igious	-1939
ording	-1940
unicip	-1941
▁Every	-1942
▁break	-1943
▁clear	-1944
▁colon	-1945
▁corre	-1946
▁defin	-1947
▁fifth	-1948
▁films	-1949
▁ident	-1950
▁lives	-1951
▁model	-1952
▁occas	-1953
▁offer	-1954
▁owned	-1955
▁print	-1956
▁range	-1957
▁shows	-1958
▁store	-1959
▁super	-1960
▁treat	-1961
▁weeks	-1962
ability	-1963
atively	-1964
ecutive	-1965
ilitary	-1966
ountain	-1967
▁Associ	-1968
▁Center	-1969
▁Commun	-1970
▁Indian	-1971
▁League	-1972
▁Robert	-1973
▁accept	-1974
▁access	-1975
▁associ	-1976
▁behind	-1977
▁concer	-1978
▁econom	-1979
▁either	-1980
▁inform	-1981
▁issues	-1982
▁joined	-1983
▁museum	-1984
▁recogn	-1985
▁select	-1986
▁struct	-1987
▁tracks	-1988
▁America	-1989
▁collect	-1990
▁college	-1991
▁example	-1992
▁foreign	-1993
▁friends	-1994
▁growing	-1995
▁himself	-1996
▁players	-1997
▁provide	-1998
▁quickly	-1999
▁release	-2000
▁systems	-2001
▁without	-2002
ieutenant	-2003
ification	-2004
▁election	-2005
▁features	-2006
▁institut	-2007
▁involved	-2008
▁numerous	-2009
▁politics	-2010
▁replaced	-2011
▁situated	-2012
▁specific	-2013
▁character	-2014
▁operation	-2015
▁performed	-2016
▁activities	-2017
▁originally	-2018
▁successful	-2019
▁television	-2020
▁Association	-2021
oe	-2022
yd	-2023
▁z	-2024
ael	-2025
ago	-2026
alm	-2027
aps	-2028
ask	-2029
aul	-2030
aut	-2031
bon	-2032
den	-2033
eck	-2034
eep	-2035
hic	-2036
hys	-2037
ils	-2038
ini	-2039
itz	-2040
mir	-2041
ode	-2042
oes	-2043
ope	-2044
ota	-2045
oul	-2046
que	-2047
ray	-2048
umn	-2049
urp	-2050
usb	-2051
war	-2052
wed	-2053
▁By	-2054
▁Hy	-2055
▁Of	-2056
▁Qu	-2057
▁Sl	-2058
▁lo	-2059
▁sn	-2060
▁ut	-2061
ails	-2062
akes	-2063
ampl	-2064
bell	-2065
ceed	-2066
cell	-2067
clus	-2068
eder	-2069
eles	-2070
emin	-2071
ened	-2072
erem	-2073
ette	-2074
hern	-2075
hers	-2076
hing	-2077
ided	-2078
inds	-2079
iple	-2080
ites	-2081
ixed	-2082
line	-2083
oday	-2084
part	-2085
raft	-2086
reed	-2087
rupt	-2088
time	-2089
uses	-2090
ving	-2091
wide	-2092
▁Acc	-2093
▁Aut	-2094
▁Don	-2095
▁Nor	-2096
▁Oak	-2097
▁Rec	-2098
▁See	-2099
▁age	-2100
▁ath	-2101
▁cho	-2102
▁cir	-2103
▁cop	-2104
▁det	-2105
▁enj	-2106
▁got	-2107
▁imm	-2108
▁lik	-2109
▁low	-2110
▁mar	-2111
▁mot	-2112
▁neg	-2113
▁obs	-2114
▁rid	-2115
▁squ	-2116
▁vac	-2117
▁via	-2118
▁vis	-2119
anded	-2120
anish	-2121
asing	-2122
asons	-2123
eated	-2124
ected	-2125
heast	-2126
level	-2127
octor	-2128
ought	-2129
ouses	-2130
stand	-2131
stant	-2132
▁Also	-2133
▁Army	-2134
▁Cath	-2135
▁Corn	-2136
▁East	-2137
▁Just	-2138
▁Mart	-2139
▁Only	-2140
▁Road	-2141
▁body	-2142
▁call	-2143
▁card	-2144
▁chap	-2145
▁crew	-2146
▁cust	-2147
▁empl	-2148
▁enem	-2149
▁food	-2150
▁free	-2151
▁fres	-2152
▁gave	-2153
▁grew	-2154
▁hall	-2155
▁hard	-2156
▁husb	-2157
▁init	-2158
▁lake	-2159
▁nort	-2160
▁prec	-2161
▁prim	-2162
▁role	-2163
▁type	-2164
▁upon	-2165
▁what	-2166
aching	-2167
eneral	-2168
minist	-2169
mitted	-2170
ported	-2171
reland	-2172
▁Afric	-2173
▁Court	-2174
▁First	-2175
▁Irish	-2176
▁Japan	-2177
▁Party	-2178
▁artic	-2179
▁below	-2180
▁black	-2181
▁cause	-2182
▁cerem	-2183
▁class	-2184
▁condu	-2185
▁divid	-2186
▁dress	-2187
▁drive	-2188
▁force	-2189
▁forms	-2190
▁frequ	-2191
▁grand	-2192
▁honor	-2193
▁inhab	-2194
▁least	-2195
▁maint	-2196
▁names	-2197
▁neigh	-2198
▁night	-2199
▁order	-2200
▁paint	-2201
▁pione	-2202
▁plant	-2203
▁plays	-2204
▁refer	-2205
▁round	-2206
▁rules	-2207
▁rural	-2208
▁schol	-2209
▁share	-2210
▁style	-2211
▁teams	-2212
▁types	-2213
▁wrote	-2214
arriage	-2215
estival	-2216
ibility	-2217
lection	-2218
redited	-2219
▁Canada	-2220
▁Island	-2221
▁Little	-2222
▁Modern	-2223
▁System	-2224
▁academ	-2225
▁across	-2226
▁assist	-2227
▁candid	-2228
▁cannot	-2229
▁doctor	-2230
▁establ	-2231
▁financ	-2232
▁formed	-2233
▁friend	-2234
▁ground	-2235
▁guitar	-2236
▁indust	-2237
▁length	-2238
▁levels	-2239
▁nation	-2240
▁oldest	-2241
▁player	-2242
▁proper	-2243
▁raised	-2244
▁regard	-2245
▁region	-2246
▁screen	-2247
▁sister	-2248
ependent	-2249
▁British	-2250
▁Eastern	-2251
▁Further	-2252
▁Western	-2253
▁archite	-2254
▁believe	-2255
▁certain	-2256
▁council	-2257
▁country	-2258
▁destroy	-2259
▁eastern	-2260
▁elected	-2261
▁element	-2262
▁express	-2263
▁feature	-2264
▁follows	-2265
▁husband	-2266
▁measure	-2267
▁municip	-2268
▁natural	-2269
▁playing	-2270
▁unknown	-2271
▁western	-2272
▁Catholic	-2273
▁business	-2274
▁commonly	-2275
▁concentr	-2276
▁consists	-2277
▁contains	-2278
▁featured	-2279
▁inspired	-2280
▁language	-2281
▁minister	-2282
▁monaster	-2283
▁platform	-2284
▁previous	-2285
▁problems	-2286
▁products	-2287
▁promoted	-2288
▁provides	-2289
▁referred	-2290
▁remained	-2291
▁required	-2292
▁services	-2293
▁southern	-2294
ricultural	-2295
▁attention	-2296
▁continued	-2297
▁relations	-2298
▁religious	-2299
▁treatment	-2300
▁professional	-2301
▁International	-2302
Sh	-2303
ae	-2304
ij	-2305
tt	-2306
yr	-2307
agg	-2308
ama	-2309
arp	-2310
can	-2311
cri	-2312
een	-2313
egr	-2314
emb	-2315
erg	-2316
erm	-2317
eth	-2318
ica	-2319
iec	-2320
ift	-2321
isk	-2322
leg	-2323
lin	-2324
mar	-2325
mas	-2326
nes	-2327
olf	-2328
oso	-2329
ran	-2330
rie	-2331
riz	-2332
ula	-2333
urb	-2334
wer	-2335
ycl	-2336
▁Mo	-2337
▁My	-2338
▁Pe	-2339
▁Su	-2340
▁ca	-2341
▁ep	-2342
▁ru	-2343
abin	-2344
agon	-2345
aign	-2346
amin	-2347
arth	-2348
avor	-2349
cape	-2350
ease	-2351
ells	-2352
ergy	-2353
iced	-2354
iest	-2355
iliz	-2356
ires	-2357
iron	-2358
itor	-2359
like	-2360
omas	-2361
oria	-2362
oses	-2363
oyal	-2364
pite	-2365
pped	-2366
rial	-2367
stre	-2368
tens	-2369
ugby	-2370
ulpt	-2371
umed	-2372
utch	-2373
ware	-2374
▁Ang	-2375
▁Att	-2376
▁Bay	-2377
▁Bir	-2378
▁Bro	-2379
▁Cat	-2380
▁Cub	-2381
▁Cup	-2382
▁Dem	-2383
▁Des	-2384
▁Fil	-2385
▁How	-2386
▁Los	-2387
▁Mon	-2388
▁Mus	-2389
▁Red	-2390
▁Sav	-2391
▁Sch	-2392
▁Sus	-2393
▁alt	-2394
▁cal	-2395
▁cam	-2396
▁cut	-2397
▁deg	-2398
▁dev	-2399
▁dig	-2400
▁dom	-2401
▁don	-2402
▁dou	-2403
▁enc	-2404
▁ess	-2405
▁fle	-2406
▁foc	-2407
▁god	-2408
▁gun	-2409
▁hot	-2410
▁ide	-2411
▁mis	-2412
▁mos	-2413
▁our	-2414
▁pen	-2415
▁ple	-2416
▁too	-2417
▁top	-2418
anced	-2419
avior	-2420
bably	-2421
claim	-2422
class	-2423
ellow	-2424
ental	-2425
ether	-2426
eting	-2427
ginia	-2428
ients	-2429
ilies	-2430
imate	-2431
letic	-2432
obile	-2433
oints	-2434
ology	-2435
order	-2436
ordin	-2437
orean	-2438
orial	-2439
regon	-2440
uture	-2441
▁Bost	-2442
▁Ital	-2443
▁King	-2444
▁Mich	-2445
▁Mont	-2446
▁Ohio	-2447
▁Over	-2448
▁Pass	-2449
▁Sing	-2450
▁Stud	-2451
▁Such	-2452
▁cart	-2453
▁clos	-2454
▁coin	-2455
▁comb	-2456
▁come	-2457
▁data	-2458
▁dead	-2459
▁deal	-2460
▁dial	-2461
▁fall	-2462
▁half	-2463
▁here	-2464
▁jump	-2465
▁know	-2466
▁mach	-2467
▁miss	-2468
▁pair	-2469
▁phot	-2470
▁phys	-2471
▁pick	-2472
▁port	-2473
▁pred	-2474
▁purp	-2475
▁qual	-2476
▁redu	-2477
▁reun	-2478
▁rout	-2479
▁sold	-2480
▁stay	-2481
▁stri	-2482
▁sugg	-2483
▁surf	-2484
▁test	-2485
▁told	-2486
▁view	-2487
▁want	-2488
▁weak	-2489
▁wild	-2490
atives	-2491
elling	-2492
estion	-2493
ficult	-2494
iberal	-2495
icated	-2496
ieties	-2497
ington	-2498
though	-2499
▁Board	-2500
▁Carol	-2501
▁David	-2502
▁Green	-2503
▁India	-2504
▁Today	-2505
▁begin	-2506
▁broad	-2507
▁cases	-2508
▁chair	-2509
▁clean	-2510
▁dance	-2511
▁debut	-2512
▁deter	-2513
▁fresh	-2514
▁heart	-2515
▁label	-2516
▁light	-2517
▁makes	-2518
▁mater	-2519
▁mixed	-2520
▁needs	-2521
▁occup	-2522
▁purch	-2523
▁radio	-2524
▁river	-2525
▁score	-2526
▁spent	-2527
▁study	-2528
▁takes	-2529
▁terms	-2530
▁trees	-2531
▁upper	-2532
▁whole	-2533
ministr	-2534
ologies	-2535
ressive	-2536
▁Academ	-2537
▁Doctor	-2538
▁France	-2539
▁Second	-2540
▁Valley	-2541
▁acting	-2542
▁action	-2543
▁allows	-2544
▁announ	-2545
▁appeal	-2546
▁attend	-2547
▁become	-2548
▁belong	-2549
▁compos	-2550
▁custom	-2551
▁enough	-2552
▁except	-2553
▁experi	-2554
▁extens	-2555
▁forces	-2556
▁island	-2557
▁larger	-2558
▁latter	-2559
▁legisl	-2560
▁listed	-2561
▁longer	-2562
▁marked	-2563
▁middle	-2564
▁months	-2565
▁nearby	-2566
▁preced	-2567
▁scored	-2568
▁serves	-2569
▁sports	-2570
ications	-2571
idential	-2572
▁Angeles	-2573
▁Ireland	-2574
▁Jackson	-2575
▁Liberal	-2576
▁acclaim	-2577
▁appears	-2578
▁disease	-2579
▁divided	-2580
▁enjoyed	-2581
▁fishing	-2582
▁flowers	-2583
▁further	-2584
▁heavily	-2585
▁inhabit	-2586
▁journal	-2587
▁limited	-2588
▁manager	-2589
▁nothing	-2590
▁offered	-2591
▁organis	-2592
▁parents	-2593
▁process	-2594
▁produce	-2595
▁remains	-2596
▁results	-2597
▁running	-2598
▁singing	-2599
▁singles	-2600
▁streets	-2601
▁thought	-2602
▁towards	-2603
▁winners	-2604
▁younger	-2605
itionally	-2606
▁Hamilton	-2607
▁Virginia	-2608
▁academic	-2609
▁actually	-2610
▁apparent	-2611
▁behavior	-2612
▁campaign	-2613
▁contract	-2614
▁division	-2615
▁formerly	-2616
▁function	-2617
▁interior	-2618
▁investig	-2619
▁locality	-2620
▁military	-2621
▁multiple	-2622
▁operates	-2623
▁particip	-2624
▁probably	-2625
▁projects	-2626
▁proposed	-2627
▁question	-2628
▁recorded	-2629
▁reported	-2630
ifications	-2631
▁According	-2632
▁Americans	-2633
▁commander	-2634
▁difficult	-2635
▁distribut	-2636
▁executive	-2637
▁increased	-2638
▁movements	-2639
▁supported	-2640
▁associated	-2641
▁characters	-2642
▁conditions	-2643
▁department	-2644
▁facilities	-2645
▁maintained	-2646
▁operations	-2647
▁represents	-2648
▁surrounded	-2649
▁communities	-2650
▁established	-2651
▁information	-2652
▁represented	-2653
▁construction	-2654
▁institutions	-2655
go	-2656
ha	-2657
ma	-2658
me	-2659
na	-2660
ns	-2661
ox	-2662
su	-2663
sy	-2664
uv	-2665
▁(	-2666
ami	-2667
anz	-2668
aph	-2669
arl	-2670
arr	-2671
bor	-2672
bra	-2673
che	-2674
cot	-2675
edu	-2676
eed	-2677
ele	-2678
gar	-2679
gia	-2680
iga	-2681
ima	-2682
imb	-2683
ims	-2684
iol	-2685
ios	-2686
irm	-2687
irt	-2688
mak	-2689
nce	-2690
olt	-2691
opp	-2692
osh	-2693
owl	-2694
pec	-2695
ply	-2696
raw	-2697
rea	-2698
rey	-2699
ria	-2700
rug	-2701
syl	-2702
the	-2703
ume	-2704
une	-2705
ush	-2706
uty	-2707
vey	-2708
ynt	-2709
▁Dr	-2710
▁Em	-2711
▁Gl	-2712
▁Ke	-2713
▁Ma	-2714
▁Sm	-2715
▁er	-2716
▁ey	-2717
▁ge	-2718
▁ou	-2719
▁vo	-2720
acts	-2721
agan	-2722
aked	-2723
ancy	-2724
anda	-2725
anks	-2726
anth	-2727
ares	-2728
aver	-2729
body	-2730
born	-2731
chan	-2732
chie	-2733
dale	-2734
down	-2735
ears	-2736
elve	-2737
eria	-2738
erve	-2739
etic	-2740
heel	-2741
ickn	-2742
iece	-2743
illy	-2744
irth	-2745
irty	-2746
ivil	-2747
izes	-2748
liam	-2749
lymp	-2750
medi	-2751
ones	-2752
ooks	-2753
osen	-2754
ouri	-2755
phas	-2756
quar	-2757
rast	-2758
reme	-2759
ried	-2760
road	-2761
roat	-2762
sylv	-2763
unch	-2764
vard	-2765
wall	-2766
west	-2767
▁Add	-2768
▁Ben	-2769
▁Bra	-2770
▁Due	-2771
▁Dun	-2772
▁Dur	-2773
▁Ell	-2774
▁Est	-2775
▁Jew	-2776
▁Jim	-2777
▁Mac	-2778
▁Mas	-2779
▁Med	-2780
▁Old	-2781
▁Rem	-2782
▁Rep	-2783
▁Sen	-2784
▁Sol	-2785
▁Ter	-2786
▁amb	-2787
▁ast	-2788
▁bad	-2789
▁box	-2790
▁del	-2791
▁den	-2792
▁der	-2793
▁doc	-2794
▁dog	-2795
▁hom	-2796
▁key	-2797
▁log	-2798
▁mic	-2799
▁net	-2800
▁nov	-2801
▁ord	-2802
▁pot	-2803
▁ran	-2804
▁rot	-2805
▁sex	-2806
▁sil	-2807
▁ste	-2808
▁thr	-2809
▁tro	-2810
▁try	-2811
▁und	-2812
▁voc	-2813
▁wat	-2814
acher	-2815
aches	-2816
amine	-2817
ander	-2818
antic	-2819
arden	-2820
aries	-2821
arily	-2822
cient	-2823
craft	-2824
elled	-2825
ember	-2826
ender	-2827
estic	-2828
force	-2829
gment	-2830
grade	-2831
icago	-2832
ieces	-2833
ifest	-2834
illed	-2835
inity	-2836
ising	-2837
itors	-2838
itude	-2839
itute	-2840
izing	-2841
mical	-2842
osion	-2843
ouple	-2844
overs	-2845
owers	-2846
ropri	-2847
umber	-2848
urity	-2849
▁Arab	-2850
▁Bank	-2851
▁Camp	-2852
▁Club	-2853
▁Cong	-2854
▁Fair	-2855
▁Fore	-2856
▁Fred	-2857
▁From	-2858
▁Here	-2859
▁Hist	-2860
▁Like	-2861
▁Once	-2862
▁Paul	-2863
▁Port	-2864
▁Post	-2865
▁Soon	-2866
▁Swed	-2867
▁Vict	-2868
▁Walk	-2869
▁Zeal	-2870
▁able	-2871
▁alge	-2872
▁anti	-2873
▁cele	-2874
▁cost	-2875
▁dark	-2876
▁date	-2877
▁decl	-2878
▁dens	-2879
▁done	-2880
▁duck	-2881
▁girl	-2882
▁gold	-2883
▁hear	-2884
▁hill	-2885
▁hosp	-2886
▁hunt	-2887
▁impl	-2888
▁lack	-2889
▁lawy	-2890
▁loss	-2891
▁onto	-2892
▁poor	-2893
▁race	-2894
▁resc	-2895
▁rese	-2896
▁slow	-2897
▁supp	-2898
▁swim	-2899
▁talk	-2900
▁tree	-2901
▁uses	-2902
▁vary	-2903
▁your	-2904
action	-2905
amples	-2906
bridge	-2907
ground	-2908
hedral	-2909
icient	-2910
idence	-2911
isions	-2912
istics	-2913
itting	-2914
ounded	-2915
retary	-2916
spaper	-2917
ternal	-2918
uments	-2919
vement	-2920
ynthes	-2921
▁Black	-2922
▁Champ	-2923
▁Creek	-2924
▁Found	-2925
▁Marsh	-2926
▁Peter	-2927
▁Roman	-2928
▁Spain	-2929
▁Under	-2930
▁White	-2931
▁above	-2932
▁adult	-2933
▁armed	-2934
▁avoid	-2935
▁birth	-2936
▁bound	-2937
▁close	-2938
▁coast	-2939
▁color	-2940
▁ended	-2941
▁espec	-2942
▁finds	-2943
▁going	-2944
▁grave	-2945
▁holds	-2946
▁instr	-2947
▁issue	-2948
▁lines	-2949
▁lived	-2950
▁mayor	-2951
▁minor	-2952
▁obser	-2953
▁overl	-2954
▁quite	-2955
▁scene	-2956
▁serve	-2957
▁shape	-2958
▁shoot	-2959
▁speak	-2960
▁staff	-2961
▁steel	-2962
▁stock	-2963
▁think	-2964
▁towns	-2965
▁trade	-2966
▁train	-2967
▁uncle	-2968
▁veget	-2969
▁voted	-2970
liament	-2971
ocratic	-2972
ography	-2973
pportun	-2974
▁Africa	-2975
▁Boston	-2976
▁Jersey	-2977
▁Museum	-2978
▁Oregon	-2979
▁Public	-2980
▁Thomas	-2981
▁actual	-2982
▁adjust	-2983
▁amount	-2984
▁arrang	-2985
▁campus	-2986
▁cancer	-2987
▁change	-2988
▁claims	-2989
▁closed	-2990
▁column	-2991
▁coming	-2992
▁cooper	-2993
▁corpor	-2994
▁couple	-2995
▁damage	-2996
▁degree	-2997
▁distin	-2998
▁earned	-2999
▁emphas	-3000
▁energy	-3001
▁failed	-3002
▁forest	-3003
▁gained	-3004
▁groups	-3005
▁houses	-3006
▁humans	-3007
▁immedi	-3008
▁injury	-3009
▁integr	-3010
▁itself	-3011
▁killed	-3012
▁lasted	-3013
▁league	-3014
▁leaves	-3015
▁mainly	-3016
▁matter	-3017
▁occurs	-3018
▁offers	-3019
▁passed	-3020
▁pieces	-3021
▁points	-3022
▁poison	-3023
▁produc	-3024
▁promot	-3025
▁rather	-3026
▁reform	-3027
▁sculpt	-3028
▁signal	-3029
▁signed	-3030
▁simply	-3031
▁statue	-3032
▁strate	-3033
▁studio	-3034
▁transl	-3035
▁troops	-3036
▁turned	-3037
▁twelve	-3038
▁unable	-3039
▁valley	-3040
▁writer	-3041
sylvania	-3042
▁Academy	-3043
▁Airport	-3044
▁Capital	-3045
▁Charles	-3046
▁Chicago	-3047
▁General	-3048
▁Italian	-3049
▁Johnson	-3050
▁Similar	-3051
▁Zealand	-3052
▁appoint	-3053
▁becomes	-3054
▁carried	-3055
▁changes	-3056
▁critics	-3057
▁culture	-3058
▁engaged	-3059
▁greatly	-3060
▁instead	-3061
▁library	-3062
▁mention	-3063
▁musical	-3064
▁numbers	-3065
▁outside	-3066
▁planned	-3067
▁refused	-3068
▁related	-3069
▁removed	-3070
▁respons	-3071
▁restaur	-3072
▁reviews	-3073
▁scholar	-3074
▁seasons	-3075
▁serious	-3076
▁sources	-3077
▁spirits	-3078
▁stories	-3079
▁tourist	-3080
▁windows	-3081
▁Carolina	-3082
▁Minister	-3083
▁Scottish	-3084
▁Williams	-3085
▁accepted	-3086
▁advanced	-3087
▁ceremony	-3088
▁chemical	-3089
▁composed	-3090
▁concerts	-3091
▁controll	-3092
▁critical	-3093
▁decision	-3094
▁directly	-3095
▁educated	-3096
▁families	-3097
▁headquar	-3098
▁historic	-3099
▁hospital	-3100
▁interest	-3101
▁location	-3102
▁majority	-3103
▁marriage	-3104
▁occurred	-3105
▁official	-3106
▁opportun	-3107
▁opposite	-3108
▁practice	-3109
▁property	-3110
▁recently	-3111
▁regional	-3112
▁research	-3113
▁starting	-3114
▁stations	-3115
▁survived	-3116
▁training	-3117
▁Christian	-3118
▁announced	-3119
▁architect	-3120
▁assistant	-3121
▁beginning	-3122
▁champions	-3123
▁completed	-3124
▁condition	-3125
▁contained	-3126
▁countries	-3127
▁education	-3128
▁financial	-3129
▁monastery	-3130
▁newspaper	-3131
▁platforms	-3132
▁political	-3133
▁purchased	-3134
▁therefore	-3135
▁typically	-3136
▁afterwards	-3137
▁collection	-3138
▁controvers	-3139
▁definition	-3140
▁electronic	-3141
▁especially	-3142
▁historical	-3143
▁identified	-3144
▁increasing	-3145
▁lieutenant	-3146
▁university	-3147
▁Independent	-3148
▁alternative	-3149
▁application	-3150
▁immediately	-3151
▁individuals	-3152
▁inhabitants	-3153
▁residential	-3154
▁surrounding	-3155
▁Additionally	-3156
▁Pennsylvania	-3157
▁agricultural	-3158
▁particularly	-3159
▁relationship	-3160
▁opportunities	-3161
dd	-3162
dy	-3163
oo	-3164
uf	-3165
va	-3166
ze	-3167
abb	-3168
acy	-3169
aft	-3170
ait	-3171
ali	-3172
alo	-3173
amb	-3174
ani	-3175
apt	-3176
ara	-3177
ari	-3178
arn	-3179
awa	-3180
bac	-3181
bol	-3182
cel	-3183
com	-3184
ctu	-3185
ein	-3186
ena	-3187
ero	-3188
hib	-3189
hur	-3190
ico	-3191
igs	-3192
inn	-3193
ino	-3194
kee	-3195
law	-3196
lit	-3197
oad	-3198
oan	-3199
oms	-3200
ona	-3201
orr	-3202
oti	-3203
pre	-3204
pro	-3205
rik	-3206
sen	-3207
ses	-3208
uis	-3209
usp	-3210
ute	-3211
von	-3212
yan	-3213
ymn	-3214
▁Bu	-3215
▁Ev	-3216
▁Hu	-3217
▁Iv	-3218
▁La	-3219
▁Mc	-3220
▁Mr	-3221
▁Ni	-3222
▁Ol	-3223
▁aw	-3224
▁fa	-3225
acks	-3226
ager	-3227
airs	-3228
alys	-3229
amic	-3230
anta	-3231
aped	-3232
atal	-3233
atre	-3234
atus	-3235
aven	-3236
avia	-3237
cill	-3238
edar	-3239
ella	-3240
fort	-3241
gypt	-3242
ider	-3243
igan	-3244
iled	-3245
iles	-3246
imed	-3247
imer	-3248
imin	-3249
iner	-3250
isis	-3251
isor	-3252
less	-3253
mann	-3254
mond	-3255
obby	-3256
ogen	-3257
ogue	-3258
oked	-3259
onom	-3260
opes	-3261
ords	-3262
otes	-3263
pher	-3264
reet	-3265
rian	-3266
rief	-3267
sych	-3268
tain	-3269
unte	-3270
uous	-3271
▁Abb	-3272
▁Ann	-3273
▁Bow	-3274
▁Bul	-3275
▁Bur	-3276
▁Bus	-3277
▁Che	-3278
▁Cop	-3279
▁Cor	-3280
▁Imm	-3281
▁Lat	-3282
▁Leg	-3283
▁Luc	-3284
▁Mag	-3285
▁Mel	-3286
▁Not	-3287
▁Ott	-3288
▁Pre	-3289
▁Que	-3290
▁Reg	-3291
▁Rev	-3292
▁Rob	-3293
▁Sea	-3294
▁Sou	-3295
▁Syd	-3296
▁Toy	-3297
▁Way	-3298
▁aer	-3299
▁bay	-3300
▁boy	-3301
▁eas	-3302
▁fer	-3303
▁fru	-3304
▁how	-3305
▁ice	-3306
▁lad	-3307
▁mel	-3308
▁nor	-3309
▁odd	-3310
▁pet	-3311
▁pil	-3312
▁pup	-3313
▁rob	-3314
▁sac	-3315
▁saf	-3316
▁sal	-3317
▁san	-3318
▁sat	-3319
▁sen	-3320
▁sum	-3321
▁sun	-3322
▁sup	-3323
▁tax	-3324
▁tea	-3325
▁ton	-3326
▁tot	-3327
▁yet	-3328
abama	-3329
aired	-3330
anger	-3331
ashes	-3332
assad	-3333
bacco	-3334
board	-3335
ecess	-3336
empor	-3337
feder	-3338
fully	-3339
ibert	-3340
icate	-3341
inent	-3342
inese	-3343
ipped	-3344
irmed	-3345
ishop	-3346
ittee	-3347
iture	-3348
ivity	-3349
light	-3350
miral	-3351
named	-3352
onent	-3353
onstr	-3354
ontin	-3355
oring	-3356
press	-3357
right	-3358
rises	-3359
ropol	-3360
ufact	-3361
uster	-3362
uther	-3363
viron	-3364
▁Anne	-3365
▁Braz	-3366
▁Buff	-3367
▁Cook	-3368
▁Dick	-3369
▁Fort	-3370
▁Hill	-3371
▁Hong	-3372
▁Hunt	-3373
▁Kong	-3374
▁Lanc	-3375
▁Long	-3376
▁Matt	-3377
▁Mayo	-3378
▁Miss	-3379
▁Musl	-3380
▁None	-3381
▁Nort	-3382
▁Oper	-3383
▁Pine	-3384
▁Scot	-3385
▁Serv	-3386
▁Sher	-3387
▁Trib	-3388
▁Wies	-3389
▁anth	-3390
▁audi	-3391
▁ball	-3392
▁batt	-3393
▁beat	-3394
▁bene	-3395
▁bigg	-3396
▁boat	-3397
▁coal	-3398
▁cold	-3399
▁crop	-3400
▁disp	-3401
▁door	-3402
▁draw	-3403
▁earl	-3404
▁ever	-3405
▁farm	-3406
▁fast	-3407
▁fine	-3408
▁furn	-3409
▁give	-3410
▁harm	-3411
▁idea	-3412
▁imag	-3413
▁join	-3414
▁keep	-3415
▁lear	-3416
▁mass	-3417
▁mill	-3418
▁need	-3419
▁pain	-3420
▁pict	-3421
▁poet	-3422
▁purs	-3423
▁rain	-3424
▁roll	-3425
▁rule	-3426
▁ship	-3427
▁shot	-3428
▁sick	-3429
▁size	-3430
▁skin	-3431
▁sole	-3432
▁stop	-3433
▁subs	-3434
▁trib	-3435
▁true	-3436
▁unit	-3437
▁vari	-3438
▁viol	-3439
▁vote	-3440
▁wait	-3441
▁wear	-3442
▁webs	-3443
▁whom	-3444
acking	-3445
alysis	-3446
ection	-3447
ension	-3448
ership	-3449
ftware	-3450
ighter	-3451
ingham	-3452
inking	-3453
ishing	-3454
itable	-3455
letics	-3456
ograph	-3457
onents	-3458
remely	-3459
stream	-3460
ulated	-3461
▁Among	-3462
▁Brown	-3463
▁Canal	-3464
▁China	-3465
▁Cross	-3466
▁Dutch	-3467
▁Egypt	-3468
▁Force	-3469
▁Moore	-3470
▁Often	-3471
▁Olymp	-3472
▁Patri	-3473
▁Royal	-3474
▁Stand	-3475
▁Susan	-3476
▁Third	-3477
▁Trust	-3478
▁While	-3479
▁Young	-3480
▁achie	-3481
▁actor	-3482
▁agent	-3483
▁alone	-3484
▁apply	-3485
▁autom	-3486
▁basis	-3487
▁brack	-3488
▁brief	-3489
▁capac	-3490
▁chann	-3491
▁charg	-3492
▁chief	-3493
▁civil	-3494
▁compl	-3495
▁confl	-3496
▁cover	-3497
▁creat	-3498
▁depos	-3499
▁depth	-3500
▁drawn	-3501
▁equip	-3502
▁estim	-3503
▁favor	-3504
▁floor	-3505
▁front	-3506
▁inner	-3507
▁leads	-3508
▁liked	-3509
▁lower	-3510
▁media	-3511
▁metal	-3512
▁might	-3513
▁mosqu	-3514
▁nickn	-3515
▁notes	-3516
▁paper	-3517
▁peace	-3518
▁plane	-3519
▁plans	-3520
▁princ	-3521
▁prote	-3522
▁psych	-3523
▁rugby	-3524
▁sales	-3525
▁shown	-3526
▁sides	-3527
▁stage	-3528
▁teach	-3529
▁thous	-3530
▁title	-3531
▁uninc	-3532
▁valid	-3533
▁write	-3534
ctional	-3535
ionally	-3536
mingham	-3537
ogether	-3538
olished	-3539
ropical	-3540
venture	-3541
▁Altern	-3542
▁Before	-3543
▁Centre	-3544
▁Forest	-3545
▁Freder	-3546
▁Govern	-3547
▁Jewish	-3548
▁Korean	-3549
▁Miller	-3550
▁Others	-3551
▁Prince	-3552
▁Samuel	-3553
▁Sports	-3554
▁Street	-3555
▁Sydney	-3556
▁advert	-3557
▁agreed	-3558
▁albums	-3559
▁animal	-3560
▁attack	-3561
▁border	-3562
▁branch	-3563
▁broadc	-3564
▁camera	-3565
▁carbon	-3566
▁caught	-3567
▁caused	-3568
▁centre	-3569
▁copies	-3570
▁course	-3571
▁crater	-3572
▁critic	-3573
▁determ	-3574
▁eating	-3575
▁estate	-3576
▁excell	-3577
▁expert	-3578
▁filmed	-3579
▁future	-3580
▁gather	-3581
▁growth	-3582
▁having	-3583
▁health	-3584
▁immigr	-3585
▁inspir	-3586
▁interp	-3587
▁interv	-3588
▁living	-3589
▁mechan	-3590
▁memory	-3591
▁models	-3592
▁mostly	-3593
▁negoti	-3594
▁parish	-3595
▁passes	-3596
▁powers	-3597
▁refers	-3598
▁revers	-3599
▁riding	-3600
▁social	-3601
▁spring	-3602
▁square	-3603
▁stands	-3604
▁street	-3605
▁strike	-3606
▁symbol	-3607
▁tables	-3608
▁taught	-3609
▁temple	-3610
▁territ	-3611
▁transm	-3612
▁travel	-3613
▁yellow	-3614
cription	-3615
ecessary	-3616
ological	-3617
ropriate	-3618
standing	-3619
stantial	-3620
ynthesis	-3621
▁Admiral	-3622
▁Alabama	-3623
▁Central	-3624
▁Chinese	-3625
▁Conserv	-3626
▁Despite	-3627
▁Instead	-3628
▁Justice	-3629
▁Richard	-3630
▁Spanish	-3631
▁accused	-3632
▁allowed	-3633
▁ancient	-3634
▁applied	-3635
▁arrived	-3636
▁attempt	-3637
▁biggest	-3638
▁climate	-3639
▁closely	-3640
▁concern	-3641
▁coordin	-3642
▁correct	-3643
▁density	-3644
▁descent	-3645
▁designs	-3646
▁details	-3647
▁digital	-3648
▁display	-3649
▁economy	-3650
▁effects	-3651
▁enemies	-3652
▁equival	-3653
▁founder	-3654
▁justice	-3655
▁largely	-3656
▁leading	-3657
▁network	-3658
▁officer	-3659
▁ordered	-3660
▁possess	-3661
▁prevent	-3662
▁railway	-3663
▁reached	-3664
▁reading	-3665
▁records	-3666
▁science	-3667
▁soundtr	-3668
▁starred	-3669
▁student	-3670
▁surface	-3671
▁tobacco	-3672
▁trained	-3673
▁typical	-3674
▁workers	-3675
orporated	-3676
ropolitan	-3677
vironment	-3678
▁Although	-3679
▁Confeder	-3680
▁Congress	-3681
▁European	-3682
▁Festival	-3683
▁Marshall	-3684
▁Memorial	-3685
▁Mountain	-3686
▁Northern	-3687
▁Republic	-3688
▁activity	-3689
▁aircraft	-3690
▁ambassad	-3691
▁anything	-3692
▁approach	-3693
▁approved	-3694
▁argument	-3695
▁attached	-3696
▁believed	-3697
▁brothers	-3698
▁collabor	-3699
▁colonial	-3700
▁continue	-3701
▁contrast	-3702
▁defeated	-3703
▁disaster	-3704
▁domestic	-3705
▁extended	-3706
▁founding	-3707
▁industry	-3708
▁intended	-3709
▁interfer	-3710
▁literary	-3711
▁managing	-3712
▁manufact	-3713
▁movement	-3714
▁neighbor	-3715
▁nickname	-3716
▁occupied	-3717
▁operated	-3718
▁personal	-3719
▁positive	-3720
▁preceded	-3721
▁presence	-3722
▁provided	-3723
▁reaction	-3724
▁strongly	-3725
▁subjects	-3726
▁suggests	-3727
▁versions	-3728
▁villages	-3729
▁Cambridge	-3730
▁Cathedral	-3731
▁Institute	-3732
▁President	-3733
▁Sometimes	-3734
▁acclaimed	-3735
▁administr	-3736
▁attending	-3737
▁attracted	-3738
▁candidate	-3739
▁childhood	-3740
▁conducted	-3741
▁confirmed	-3742
▁continues	-3743
▁corporate	-3744
▁daughters	-3745
▁destroyed	-3746
▁discontin	-3747
▁efficient	-3748
▁elections	-3749
▁establish	-3750
▁extremely	-3751
▁materials	-3752
▁northeast	-3753
▁organized	-3754
▁paintings	-3755
▁potential	-3756
▁preferred	-3757
▁president	-3758
▁primarily	-3759
▁producers	-3760
▁remainder	-3761
▁remaining	-3762
▁residence	-3763
▁residents	-3764
▁structure	-3765
▁technical	-3766
▁transport	-3767
▁varieties	-3768
▁worldwide	-3769
▁Australian	-3770
▁Birmingham	-3771
▁Democratic	-3772
▁Foundation	-3773
▁everything	-3774
▁frequently	-3775
▁graduation	-3776
▁influenced	-3777
▁literature	-3778
▁management	-3779
▁previously	-3780
▁recordings	-3781
▁relatively	-3782
▁structures	-3783
▁throughout	-3784
▁appropriate	-3785
▁competition	-3786
▁constructed	-3787
▁contributed	-3788
▁differences	-3789
▁extensively	-3790
▁competitions	-3791
▁headquarters	-3792
▁municipality	-3793
▁organization	-3794
▁significantly	-3795
▁unincorporated	-3796
Ar	-3797
Ne	-3798
St	-3799
dr	-3800
ds	-3801
ki	-3802
oz	-3803
ta	-3804
ua	-3805
ux	-3806
ye	-3807
Man	-3808
aby	-3809
agh	-3810
ags	-3811
aly	-3812
azi	-3813
bit	-3814
bow	-3815
cam	-3816
cin	-3817
cow	-3818
dam	-3819
def	-3820
duc	-3821
eff	-3822
ept	-3823
ete	-3824
ght	-3825
het	-3826
hew	-3827
hum	-3828
ids	-3829
ila	-3830
ili	-3831
iny	-3832
ipe	-3833
iro	-3834
itc	-3835
itu	-3836
lee	-3837
mat	-3838
mes	-3839
nic	-3840
obi	-3841
oln	-3842
ols	-3843
omb	-3844
omi	-3845
omp	-3846
oos	-3847
oph	-3848
oya	-3849
rad	-3850
ram	-3851
ras	-3852
rif	-3853
rix	-3854
rok	-3855
rol	-3856
ruc	-3857
saf	-3858
sem	-3859
sey	-3860
sky	-3861
ubb	-3862
ugg	-3863
vin	-3864
weg	-3865
xts	-3866
ynn	-3867
ype	-3868
▁Du	-3869
▁Go	-3870
▁Ho	-3871
▁Ju	-3872
▁Ly	-3873
▁Op	-3874
▁Sa	-3875
▁So	-3876
▁Tw	-3877
▁Up	-3878
▁Us	-3879
▁Ze	-3880
▁ir	-3881
▁mo	-3882
abel	-3883
aded	-3884
agne	-3885
aily	-3886
aine	-3887
airn	-3888
airy	-3889
aled	-3890
alty	-3891
andt	-3892
anes	-3893
ango	-3894
anna	-3895
aran	-3896
aron	-3897
arva	-3898
aval	-3899
iji	-3900
ayer	-3901
bach	-3902
boat	-3903
bram	-3904
bury	-3905
cent	-3906
come	-3907
cont	-3908
ders	-3909
draw	-3910
ects	-3911
empl	-3912
ency	-3913
enny	-3914
enty	-3915
esus	-3916
eton	-3917
eway	-3918
gate	-3919
gent	-3920
held	-3921
iana	-3922
ibly	-3923
icit	-3924
icut	-3925
iday	-3926
iffs	-3927
ifts	-3928
ilty	-3929
iman	-3930
imum	-3931
indu	-3932
inks	-3933
iota	-3934
irds	-3935
irls	-3936
izab	-3937
kers	-3938
kins	-3939
lear	-3940
lock	-3941
lter	-3942
many	-3943
miss	-3944
mosp	-3945
nell	-3946
occo	-3947
oken	-3948
olid	-3949
onel	-3950
onia	-3951
onic	-3952
onor	-3953
onto	-3954
ools	-3955
oped	-3956
oral	-3957
ores	-3958
oric	-3959
osop	-3960
otic	-3961
otor	-3962
oust	-3963
oven	-3964
pler	-3965
pond	-3966
pool	-3967
pted	-3968
quir	-3969
rael	-3970
rain	-3971
rant	-3972
rees	-3973
rell	-3974
rock	-3975
rons	-3976
rove	-3977
rows	-3978
thel	-3979
ties	-3980
uchi	-3981
ucky	-3982
udio	-3983
uela	-3984
ully	-3985
ulty	-3986
umar	-3987
umer	-3988
unes	-3989
uter	-3990
vant	-3991
wick	-3992
▁Act	-3993
▁Age	-3994
▁Ant	-3995
▁Art	-3996
▁Ash	-3997
▁Ass	-3998
▁Ath	-3999
▁Atl	-4000
▁Bal	-4001
▁Bot	-4002
▁Cir	-4003
▁Cla	-4004
▁Dam	-4005
▁Dar	-4006
▁Dec	-4007
▁Dis	-4008
▁Eag	-4009
▁Emp	-4010
▁Far	-4011
▁Fin	-4012
▁Fol	-4013
▁Gar	-4014
▁Gib	-4015
▁Gre	-4016
▁Has	-4017
▁Hay	-4018
▁Hel	-4019
▁Hun	-4020
▁Inc	-4021
▁Inf	-4022
▁Jon	-4023
▁Ken	-4024
▁Kim	-4025
▁Law	-4026
▁Leb	-4027
▁Lee	-4028
▁Lim	-4029
▁Loc	-4030
▁Lou	-4031
▁Mad	-4032
▁Mex	-4033
▁Mil	-4034
▁Mos	-4035
▁Nic	-4036
▁Nov	-4037
▁Now	-4038
▁Off	-4039
▁Out	-4040
▁Pal	-4041
▁Pen	-4042
▁Pot	-4043
▁Pud	-4044
▁Rog	-4045
▁Sar	-4046
▁Six	-4047
▁Soc	-4048
▁Str	-4049
▁Sup	-4050
▁Sur	-4051
▁Tai	-4052
▁Tel	-4053
▁Tri	-4054
▁Wal	-4055
▁Wat	-4056
▁abs	-4057
▁ang	-4058
▁bac	-4059
▁ban	-4060
▁ber	-4061
▁bes	-4062
▁bic	-4063
▁big	-4064
▁bit	-4065
▁buy	-4066
▁cat	-4067
▁cit	-4068
▁dro	-4069
▁eld	-4070
▁ens	-4071
▁esc	-4072
▁far	-4073
▁fee	-4074
▁fig	-4075
▁get	-4076
▁har	-4077
▁hig	-4078
▁hit	-4079
▁hol	-4080
▁hun	-4081
▁ill	-4082
▁jew	-4083
▁job	-4084
▁jun	-4085
▁kun	-4086
▁let	-4087
▁lot	-4088
▁lov	-4089
▁mas	-4090
▁mer	-4091
▁mid	-4092
▁nar	-4093
▁nut	-4094
▁pay	-4095
▁pul	-4096
▁rad	-4097
▁raw	-4098
▁red	-4099
▁rum	-4100
▁sad	-4101
▁saw	-4102
▁suc	-4103
▁tim	-4104
▁tor	-4105
▁toy	-4106
▁tug	-4107
▁unl	-4108
▁upd	-4109
▁whe	-4110
▁why	-4111
acent	-4112
ailed	-4113
althy	-4114
amily	-4115
andin	-4116
antry	-4117
apers	-4118
apore	-4119
apped	-4120
apted	-4121
arded	-4122
arely	-4123
arted	-4124
asses	-4125
assie	-4126
avern	-4127
based	-4128
books	-4129
cious	-4130
ctive	-4131
earch	-4132
ecial	-4133
eland	-4134
embly	-4135
ennon	-4136
ensed	-4137
eries	-4138
erved	-4139
estiv	-4140
hurst	-4141
iance	-4142
ichel	-4143
icide	-4144
icine	-4145
icket	-4146
iders	-4147
idges	-4148
iding	-4149
ifies	-4150
igned	-4151
iling	-4152
inion	-4153
iquid	-4154
isode	-4155
istic	-4156
iston	-4157
itual	-4158
mouth	-4159
obson	-4160
odies	-4161
onald	-4162
onian	-4163
onies	-4164
organ	-4165
orney	-4166
orses	-4167
oster	-4168
ounts	-4169
ously	-4170
ovsky	-4171
pherd	-4172
power	-4173
prise	-4174
quedu	-4175
ready	-4176
redit	-4177
ricts	-4178
rizes	-4179
ronom	-4180
ships	-4181
stock	-4182
stone	-4183
stown	-4184
ublin	-4185
ushes	-4186
usion	-4187
ussed	-4188
usted	-4189
usual	-4190
utral	-4191
venue	-4192
verse	-4193
wheel	-4194
ycles	-4195
zuela	-4196
▁Ains	-4197
▁Alex	-4198
▁Balt	-4199
▁Band	-4200
▁Bell	-4201
▁Beng	-4202
▁Benn	-4203
▁Bent	-4204
▁Best	-4205
▁Bill	-4206
▁Blue	-4207
▁Bond	-4208
▁Book	-4209
▁Brad	-4210
▁Buck	-4211
▁Bunn	-4212
▁Cart	-4213
▁Cham	-4214
▁Code	-4215
▁Coun	-4216
▁Crem	-4217
▁Educ	-4218
▁Even	-4219
▁Film	-4220
▁Fire	-4221
▁Fitz	-4222
▁Form	-4223
▁Free	-4224
▁Gall	-4225
▁Game	-4226
▁Gate	-4227
▁Gold	-4228
▁Good	-4229
▁Gram	-4230
▁Greg	-4231
▁Gren	-4232
▁Hart	-4233
▁Home	-4234
▁Jour	-4235
▁Kent	-4236
▁Lane	-4237
▁Linc	-4238
▁Line	-4239
▁Lord	-4240
▁Mark	-4241
▁Pant	-4242
▁Pear	-4243
▁Play	-4244
▁Rest	-4245
▁Rock	-4246
▁Sche	-4247
▁Show	-4248
▁Sign	-4249
▁Star	-4250
▁Vern	-4251
▁Ward	-4252
▁Well	-4253
▁Zapp	-4254
▁abst	-4255
▁alph	-4256
▁army	-4257
▁bark	-4258
▁bowl	-4259
▁buck	-4260
▁buff	-4261
▁chur	-4262
▁circ	-4263
▁cult	-4264
▁dang	-4265
▁didn	-4266
▁dogs	-4267
▁doub	-4268
▁drew	-4269
▁drum	-4270
▁fans	-4271
▁feed	-4272
▁fict	-4273
▁file	-4274
▁fing	-4275
▁fund	-4276
▁gall	-4277
▁goes	-4278
▁hour	-4279
▁hund	-4280
▁hymn	-4281
▁jail	-4282
▁laws	-4283
▁lets	-4284
▁link	-4285
▁meet	-4286
▁merg	-4287
▁mode	-4288
▁moon	-4289
▁nest	-4290
▁news	-4291
▁ones	-4292
▁pack	-4293
▁pale	-4294
▁past	-4295
▁path	-4296
▁plot	-4297
▁prog	-4298
▁pump	-4299
▁rein	-4300
▁rich	-4301
▁root	-4302
▁scar	-4303
▁seem	-4304
▁self	-4305
▁sell	-4306
▁slip	-4307
▁snow	-4308
▁sout	-4309
▁spin	-4310
▁spot	-4311
▁stab	-4312
▁step	-4313
▁stra	-4314
▁stru	-4315
▁susp	-4316
▁tact	-4317
▁thor	-4318
▁turn	-4319
▁unsu	-4320
▁vert	-4321
▁wars	-4322
▁ways	-4323
▁weap	-4324
▁week	-4325
▁wing	-4326
▁wore	-4327
aduate	-4328
ashion	-4329
athers	-4330
ceived	-4331
enburg	-4332
father	-4333
handed	-4334
illing	-4335
incial	-4336
izards	-4337
lected	-4338
lowing	-4339
making	-4340
ontane	-4341
orders	-4342
orious	-4343
orning	-4344
ources	-4345
perion	-4346
rapped	-4347
render	-4348
rested	-4349
rolled	-4350
rought	-4351
ruptcy	-4352
stitut	-4353
terson	-4354
unning	-4355
urning	-4356
verted	-4357
▁About	-4358
▁Basil	-4359
▁Beach	-4360
▁Bible	-4361
▁Billy	-4362
▁Child	-4363
▁Chris	-4364
▁Count	-4365
▁Cuban	-4366
▁Dance	-4367
▁Devon	-4368
▁Edgar	-4369
▁Enter	-4370
▁Field	-4371
▁Fight	-4372
▁Gates	-4373
▁Girls	-4374
▁Grace	-4375
▁Grand	-4376
▁Great	-4377
▁Greek	-4378
▁Guard	-4379
▁Heath	-4380
▁Hence	-4381
▁Jesus	-4382
▁Jimmy	-4383
▁Leeds	-4384
▁Mills	-4385
▁Motor	-4386
▁Mount	-4387
▁Power	-4388
▁Radio	-4389
▁Scout	-4390
▁Smith	-4391
▁Speak	-4392
▁Sport	-4393
▁Still	-4394
▁Super	-4395
▁Theod	-4396
▁Three	-4397
▁Trans	-4398
▁Union	-4399
▁Wales	-4400
▁Where	-4401
▁aband	-4402
▁abuse	-4403
▁apart	-4404
▁areas	-4405
▁basic	-4406
▁beaut	-4407
▁benef	-4408
▁blood	-4409
▁breat	-4410
▁brown	-4411
▁cable	-4412
▁cards	-4413
▁catch	-4414
▁cloth	-4415
▁clubs	-4416
▁coach	-4417
▁coinc	-4418
▁comed	-4419
▁conne	-4420
▁cream	-4421
▁crime	-4422
▁crown	-4423
▁dates	-4424
▁disch	-4425
▁domin	-4426
▁enemy	-4427
▁enter	-4428
▁expel	-4429
▁faced	-4430
▁feder	-4431
▁fight	-4432
▁flows	-4433
▁frame	-4434
▁fruit	-4435
▁genus	-4436
▁gifts	-4437
▁gives	-4438
▁happy	-4439
▁helps	-4440
▁image	-4441
▁invol	-4442
▁joint	-4443
▁judge	-4444
▁kinds	-4445
▁lands	-4446
▁likes	-4447
▁lined	-4448
▁liner	-4449
▁loved	-4450
▁marks	-4451
▁medal	-4452
▁minds	-4453
▁mines	-4454
▁motor	-4455
▁mount	-4456
▁multi	-4457
▁orbit	-4458
▁ought	-4459
▁phone	-4460
▁photo	-4461
▁piece	-4462
▁pilot	-4463
▁popul	-4464
▁recon	-4465
▁reput	-4466
▁ridge	-4467
▁route	-4468
▁seats	-4469
▁seems	-4470
▁shell	-4471
▁ships	-4472
▁shoes	-4473
▁shops	-4474
▁sites	-4475
▁sixth	-4476
▁skill	-4477
▁slave	-4478
▁speed	-4479
▁split	-4480
▁stars	-4481
▁stood	-4482
▁tests	-4483
▁texts	-4484
▁threw	-4485
▁traff	-4486
▁twice	-4487
▁units	-4488
▁vehic	-4489
▁venue	-4490
▁voice	-4491
▁wrest	-4492
actions	-4493
archist	-4494
clusion	-4495
hyletic	-4496
imately	-4497
iratory	-4498
istered	-4499
izabeth	-4500
ologist	-4501
oration	-4502
ouraged	-4503
raction	-4504
related	-4505
respond	-4506
unteers	-4507
uration	-4508
welling	-4509
▁Almost	-4510
▁Appeal	-4511
▁Argent	-4512
▁Battle	-4513
▁Bridge	-4514
▁Clevel	-4515
▁Common	-4516
▁Depart	-4517
▁Direct	-4518
▁Dublin	-4519
▁Empire	-4520
▁Israel	-4521
▁Johann	-4522
▁Martin	-4523
▁Mexico	-4524
▁Native	-4525
▁Newark	-4526
▁Norweg	-4527
▁Office	-4528
▁Pudney	-4529
▁Russia	-4530
▁Spring	-4531
▁Sweden	-4532
▁Unlike	-4533
▁Walker	-4534
▁Winter	-4535
▁active	-4536
▁always	-4537
▁annual	-4538
▁antiqu	-4539
▁artist	-4540
▁atmosp	-4541
▁awards	-4542
▁battle	-4543
▁beside	-4544
▁bishop	-4545
▁bridge	-4546
▁burial	-4547
▁burned	-4548
▁calcul	-4549
▁celebr	-4550
▁chapel	-4551
▁choice	-4552
▁choose	-4553
▁chosen	-4554
▁cities	-4555
▁coined	-4556
▁conven	-4557
▁crisis	-4558
▁deputy	-4559
▁double	-4560
▁edited	-4561
▁eleven	-4562
▁elimin	-4563
▁employ	-4564
▁escape	-4565
▁exists	-4566
▁expand	-4567
▁fellow	-4568
▁festiv	-4569
▁flight	-4570
▁format	-4571
▁fought	-4572
▁guests	-4573
▁guilty	-4574
▁headed	-4575
▁helped	-4576
▁higher	-4577
▁highly	-4578
▁horses	-4579
▁images	-4580
▁inside	-4581
▁intens	-4582
▁jumped	-4583
▁labour	-4584
▁lawyer	-4585
▁leader	-4586
▁legend	-4587
▁lifest	-4588
▁liquid	-4589
▁marker	-4590
▁master	-4591
▁narrow	-4592
▁nature	-4593
▁novels	-4594
▁online	-4595
▁others	-4596
▁places	-4597
▁poetry	-4598
▁police	-4599
▁prepar	-4600
▁prison	-4601
▁prizes	-4602
▁protot	-4603
▁pupils	-4604
▁really	-4605
▁return	-4606
▁revolt	-4607
▁sample	-4608
▁saying	-4609
▁sevent	-4610
▁sexual	-4611
▁silent	-4612
▁simple	-4613
▁source	-4614
▁spaces	-4615
▁staged	-4616
▁stated	-4617
▁status	-4618
▁stream	-4619
▁streng	-4620
▁suburb	-4621
▁telegr	-4622
▁termin	-4623
▁theory	-4624
▁things	-4625
▁thirty	-4626
▁throat	-4627
▁titles	-4628
▁trains	-4629
▁tribes	-4630
▁trying	-4631
▁unique	-4632
▁venues	-4633
▁vocals	-4634
▁winter	-4635
▁writes	-4636
edicated	-4637
emporary	-4638
iability	-4639
inations	-4640
ographic	-4641
ologists	-4642
ronicles	-4643
umentary	-4644
▁Another	-4645
▁Bennett	-4646
▁Buffalo	-4647
▁Georgia	-4648
▁Grenada	-4649
▁Harbour	-4650
▁Library	-4651
▁Lincoln	-4652
▁Matthew	-4653
▁Melbour	-4654
▁Michael	-4655
▁Morocco	-4656
▁Oakland	-4657
▁Olympic	-4658
▁Ottoman	-4659
▁Philipp	-4660
▁Profess	-4661
▁Scandin	-4662
▁Service	-4663
▁Society	-4664
▁Special	-4665
▁Supreme	-4666
▁Theatre	-4667
▁Without	-4668
▁advance	-4669
▁algebra	-4670
▁already	-4671
▁altered	-4672
▁article	-4673
▁artists	-4674
▁briefly	-4675
▁brought	-4676
▁cartoon	-4677
▁century	-4678
▁claimed	-4679
▁clearly	-4680
▁compete	-4681
▁concept	-4682
▁concert	-4683
▁consult	-4684
▁contact	-4685
▁contain	-4686
▁content	-4687
▁counter	-4688
▁defense	-4689
▁defined	-4690
▁depends	-4691
▁derived	-4692
▁dialect	-4693
▁episode	-4694
▁equally	-4695
▁erosion	-4696
▁experim	-4697
▁failure	-4698
▁figures	-4699
▁focuses	-4700
▁herself	-4701
▁hundred	-4702
▁hunting	-4703
▁landown	-4704
▁lasting	-4705
▁letters	-4706
▁lighter	-4707
▁looking	-4708
▁machine	-4709
▁managed	-4710
▁matches	-4711
▁medical	-4712
▁mission	-4713
▁mosques	-4714
▁museums	-4715
▁nations	-4716
▁notable	-4717
▁offices	-4718
▁operate	-4719
▁overall	-4720
▁painter	-4721
▁parties	-4722
▁passage	-4723
▁passing	-4724
▁penalty	-4725
▁pioneer	-4726
▁princip	-4727
▁problem	-4728
▁purpose	-4729
▁quarter	-4730
▁realism	-4731
▁reduced	-4732
▁renamed	-4733
▁reports	-4734
▁request	-4735
▁reserve	-4736
▁resides	-4737
▁resumed	-4738
▁section	-4739
▁shelter	-4740
▁smaller	-4741
▁studies	-4742
▁succeed	-4743
▁touched	-4744
▁undergo	-4745
▁univers	-4746
▁unusual	-4747
▁upgrade	-4748
▁variety	-4749
▁victory	-4750
▁wealthy	-4751
▁website	-4752
▁whether	-4753
▁winning	-4754
▁wounded	-4755
▁writers	-4756
umberland	-4757
▁Campbell	-4758
▁Constant	-4759
▁Cornwall	-4760
▁Hyperion	-4761
▁Japanese	-4762
▁Kentucky	-4763
▁Maryland	-4764
▁Missouri	-4765
▁Particip	-4766
▁Philosop	-4767
▁Research	-4768
▁Richmond	-4769
▁Scotland	-4770
▁Security	-4771
▁Southern	-4772
▁Standard	-4773
▁Students	-4774
▁Victoria	-4775
▁adjacent	-4776
▁affected	-4777
▁arranged	-4778
▁arrested	-4779
▁articles	-4780
▁astronom	-4781
▁belonged	-4782
▁captured	-4783
▁cemetery	-4784
▁champion	-4785
▁channels	-4786
▁chapters	-4787
▁churches	-4788
▁cleaning	-4789
▁composer	-4790
▁conflict	-4791
▁cultural	-4792
▁demonstr	-4793
▁directed	-4794
▁director	-4795
▁dressage	-4796
▁earliest	-4797
▁electron	-4798
▁elements	-4799
▁employed	-4800
▁entirely	-4801
▁feathers	-4802
▁festival	-4803
▁findings	-4804
▁finished	-4805
▁forested	-4806
▁fourteen	-4807
▁graduate	-4808
▁happened	-4809
▁increase	-4810
▁indicate	-4811
▁infantry	-4812
▁medicine	-4813
▁monument	-4814
▁mountain	-4815
▁negative	-4816
▁northern	-4817
▁occasion	-4818
▁partners	-4819
▁performs	-4820
▁powerful	-4821
▁printing	-4822
▁province	-4823
▁publicly	-4824
▁purposes	-4825
▁regarded	-4826
▁relation	-4827
▁releases	-4828
▁remember	-4829
▁repeated	-4830
▁resulted	-4831
▁reunited	-4832
▁sections	-4833
▁selected	-4834
▁sentence	-4835
▁software	-4836
▁standard	-4837
▁straight	-4838
▁strategy	-4839
▁studying	-4840
▁suffered	-4841
▁teaching	-4842
▁withdraw	-4843
orporation	-4844
▁Champions	-4845
▁Christmas	-4846
▁Cleveland	-4847
▁Europeans	-4848
▁Everybody	-4849
▁Following	-4850
▁Frederick	-4851
▁Patriarch	-4852
▁Singapore	-4853
▁alternate	-4854
▁appointed	-4855
▁athletics	-4856
▁broadcast	-4857
▁classical	-4858
▁commanded	-4859
▁comprises	-4860
▁concerned	-4861
▁customers	-4862
▁discovers	-4863
▁equipment	-4864
▁excellent	-4865
▁expressed	-4866
▁functions	-4867
▁furniture	-4868
▁graduated	-4869
▁improving	-4870
▁increases	-4871
▁indicated	-4872
▁initially	-4873
▁installed	-4874
▁interpret	-4875
▁lifestyle	-4876
▁marketing	-4877
▁mentioned	-4878
▁mountains	-4879
▁municipal	-4880
▁necessary	-4881
▁neighbour	-4882
▁operating	-4883
▁originate	-4884
▁perceived	-4885
▁pioneered	-4886
▁prominent	-4887
▁reception	-4888
▁recording	-4889
▁reference	-4890
▁sculpture	-4891
▁secretary	-4892
▁stockings	-4893
▁submitted	-4894
▁suffering	-4895
▁synthesis	-4896
▁technique	-4897
▁travelled	-4898
▁unsuccess	-4899
▁Commission	-4900
▁Department	-4901
▁Lieutenant	-4902
▁Parliament	-4903
▁Republican	-4904
▁accredited	-4905
▁altogether	-4906
▁attendance	-4907
▁bankruptcy	-4908
▁candidates	-4909
▁controlled	-4910
▁demolished	-4911
▁developing	-4912
▁discovered	-4913
▁foundation	-4914
▁generation	-4915
▁impressive	-4916
▁instrument	-4917
▁integrated	-4918
▁interviews	-4919
▁journalist	-4920
▁opposition	-4921
▁performing	-4922
▁population	-4923
▁processing	-4924
▁provincial	-4925
▁publishing	-4926
▁questioned	-4927
▁recognized	-4928
▁registered	-4929
▁reputation	-4930
▁soundtrack	-4931
▁translated	-4932
▁vegetables	-4933
▁Confederate	-4934
▁Furthermore	-4935
▁appearances	-4936
▁authorities	-4937
▁destination	-4938
▁environment	-4939
▁experienced	-4940
▁experiences	-4941
▁legislation	-4942
▁participate	-4943
▁programming	-4944
▁restaurants	-4945
▁substantial	-4946
▁transferred	-4947
▁applications	-4948
▁architecture	-4949
▁discontinued	-4950
▁increasingly	-4951
▁introduction	-4952
▁investigated	-4953
▁metropolitan	-4954
▁neighborhood	-4955
▁organisation	-4956
▁performances	-4957
▁specifically	-4958
▁technologies	-4959
▁Alternatively	-4960
▁controversial	-4961
▁modifications	-4962
▁organisations	-4963
▁responsibility	-4964
▁transportation	-4965
")	-4966
.,	-4967
..	-4968
Ag	-4969
Bl	-4970
Co	-4971
Fl	-4972
He	-4973
In	-4974
Po	-4975
Sp	-4976
Un	-4977
bb	-4978
bi	-4979
bu	-4980
ca	-4981
da	-4982
eh	-4983
ev	-4984
fr	-4985
ga	-4986
hi	-4987
ih	-4988
ji	-4989
mi	-4990
no	-4991
ny	-4992
po	-4993
rm	-4994
vo	-4995
wh	-4996
ya	-4997
▁:	-4998
▁X	-4999
,"	-5000
ka	-5001
za	-5002
zz	-5003
▁-	-5004
Bri	-5005
Men	-5006
abs	-5007
aca	-5008
aco	-5009
acu	-5010
ado	-5011
ads	-5012
agi	-5013
aii	-5014
alf	-5015
alu	-5016
amm	-5017
ano	-5018
aos	-5019
apy	-5020
aum	-5021
avo	-5022
avy	-5023
ayl	-5024
bad	-5025
bar	-5026
bil	-5027
bre	-5028
bro	-5029
bus	-5030
cem	-5031
cen	-5032
cre	-5033
cut	-5034
dal	-5035
dar	-5036
die	-5037
div	-5038
edo	-5039
enf	-5040
equ	-5041
erk	-5042
erl	-5043
ety	-5044
ged	-5045
gil	-5046
got	-5047
gur	-5048
har	-5049
hat	-5050
hey	-5051
idi	-5052
iel	-5053
ien	-5054
igo	-5055
inh	-5056
ioc	-5057
irk	-5058
isi	-5059
ked	-5060
ken	-5061
ker	-5062
lad	-5063
lav	-5064
lem	-5065
lew	-5066
mel	-5067
met	-5068
mit	-5069
mot	-5070
mud	-5071
mut	-5072
nel	-5073
net	-5074
nut	-5075
oba	-5076
oca	-5077
och	-5078
oda	-5079
ola	-5080
ole	-5081
oll	-5082
opy	-5083
orb	-5084
org	-5085
oud	-5086
owe	-5087
pel	-5088
pos	-5089
rim	-5090
ris	-5091
roc	-5092
ror	-5093
see	-5094
set	-5095
sex	-5096
sop	-5097
ugu	-5098
unk	-5099
bec	-5100
hya	-5101
raq	-5102
tak	-5103
upp	-5104
urk	-5105
uum	-5106
uzz	-5107
val	-5108
var	-5109
wan	-5110
yal	-5111
yre	-5112
▁"-	-5113
▁Ap	-5114
▁Fe	-5115
▁Gi	-5116
▁Jo	-5117
▁Ob	-5118
▁Ot	-5119
▁Ov	-5120
▁Po	-5121
▁Ru	-5122
▁Sw	-5123
▁Wr	-5124
▁Ye	-5125
▁af	-5126
▁au	-5127
▁hi	-5128
▁il	-5129
▁la	-5130
▁ov	-5131
Blue	-5132
Jack	-5133
Sand	-5134
abet	-5135
abit	-5136
abol	-5137
ache	-5138
acob	-5139
acon	-5140
acqu	-5141
afts	-5142
agen	-5143
agin	-5144
agit	-5145
agus	-5146
alia	-5147
aman	-5148
aned	-5149
anic	-5150
anon	-5151
apes	-5152
arco	-5153
argo	-5154
arly	-5155
arts	-5156
assy	-5157
atab	-5158
atur	-5159
aved	-5160
avis	-5161
awny	-5162
berg	-5163
bras	-5164
brit	-5165
cean	-5166
city	-5167
dess	-5168
eded	-5169
eler	-5170
elix	-5171
elly	-5172
emak	-5173
emen	-5174
emor	-5175
enag	-5176
eros	-5177
esis	-5178
essa	-5179
esty	-5180
ethe	-5181
etty	-5182
gium	-5183
gred	-5184
hent	-5185
heny	-5186
hest	-5187
hill	-5188
icks	-5189
idol	-5190
iful	-5191
iger	-5192
igid	-5193
ikew	-5194
imir	-5195
ingu	-5196
inus	-5197
irts	-5198
irus	-5199
ipl	-5200
nov	-5201
ogy	-5202
oks	-5203
ubs	-5204
amie	-5205
ansh	-5206
arks	-5207
arov	-5208
bery	-5209
cles	-5210
iano	-5211
iker	-5212
ikes	-5213
ipid	-5214
ipur	-5215
isms	-5216
ithu	-5217
itro	-5218
ivor	-5219
ixes	-5220
king	-5221
lass	-5222
lder	-5223
lers	-5224
lett	-5225
mail	-5226
mark	-5227
mers	-5228
ntar	-5229
obal	-5230
ocks	-5231
oded	-5232
odes	-5233
ogan	-5234
ogie	-5235
oits	-5236
okes	-5237
olas	-5238
ongs	-5239
onse	-5240
onso	-5241
onym	-5242
oods	-5243
ooms	-5244
opia	-5245
orne	-5246
orse	-5247
osie	-5248
osis	-5249
osit	-5250
osts	-5251
otel	-5252
oule	-5253
owed	-5254
ownt	-5255
path	-5256
pert	-5257
plus	-5258
pril	-5259
raid	-5260
rank	-5261
rase	-5262
read	-5263
rich	-5264
riel	-5265
ript	-5266
roes	-5267
room	-5268
rout	-5269
ruid	-5270
sper	-5271
ston	-5272
thur	-5273
ualD	-5274
uary	-5275
uent	-5276
ugal	-5277
uing	-5278
ulin	-5279
ulls	-5280
ulti	-5281
ults	-5282
ulum	-5283
unal	-5284
unar	-5285
urer	-5286
uron	-5287
usso	-5288
utan	-5289
veys	-5290
view	-5291
wing	-5292
writ	-5293
year	-5294
yler	-5295
zero	-5296
▁Alp	-5297
▁Any	-5298
▁Are	-5299
iza	-5300
pty	-5301
▁Ug	-5302
▁Ut	-5303
angl	-5304
arry	-5305
fire	-5306
free	-5307
irms	-5308
nect	-5309
neur	-5310
onda	-5311
otte	-5312
ouns	-5313
rang	-5314
rugs	-5315
stra	-5316
vict	-5317
whel	-5318
yond	-5319
zone	-5320
▁Arn	-5321
▁Bec	-5322
▁Big	-5323
▁Bol	-5324
▁Bon	-5325
▁Bor	-5326
▁Boy	-5327
▁Cox	-5328
▁Cut	-5329
▁Day	-5330
▁Del	-5331
▁Dig	-5332
▁Din	-5333
▁Doc	-5334
▁Dor	-5335
▁Dul	-5336
▁Fif	-5337
▁Gas	-5338
▁Get	-5339
▁Gil	-5340
▁God	-5341
▁Got	-5342
▁Had	-5343
▁Hap	-5344
▁Haw	-5345
▁Hud	-5346
▁Hus	-5347
▁Ins	-5348
▁Isl	-5349
▁Jak	-5350
▁Jan	-5351
▁Jud	-5352
▁Jun	-5353
▁Kam	-5354
▁Lan	-5355
▁Lev	-5356
▁Lil	-5357
▁Lin	-5358
▁Lis	-5359
▁Lom	-5360
▁Lor	-5361
▁Mec	-5362
▁Men	-5363
▁Mim	-5364
▁Mir	-5365
▁Mur	-5366
▁Nan	-5367
▁Nig	-5368
▁Num	-5369
▁Oil	-5370
▁Pan	-5371
▁Pet	-5372
▁Pit	-5373
▁Ple	-5374
▁Pop	-5375
▁Pto	-5376
▁Pur	-5377
▁Rad	-5378
▁Ram	-5379
▁Rap	-5380
▁Rav	-5381
▁Rhe	-5382
▁Rib	-5383
▁Ric	-5384
▁Rod	-5385
▁Rom	-5386
▁Roy	-5387
▁Rud	-5388
▁Sal	-5389
▁San	-5390
▁Sem	-5391
▁Ser	-5392
▁Sil	-5393
▁Sir	-5394
▁Som	-5395
▁Sos	-5396
▁Sov	-5397
▁Sty	-5398
▁Sub	-5399
boy	-5400
ckn	-5401
ohl	-5402
oyd	-5403
amps	-5404
anka	-5405
aths	-5406
auch	-5407
crib	-5408
elet	-5409
lets	-5410
obel	-5411
oons	-5412
oors	-5413
rosc	-5414
safe	-5415
▁Bee	-5416
▁Bob	-5417
▁Sud	-5418
▁Sun	-5419
▁Sym	-5420
▁Taf	-5421
▁Tas	-5422
▁Ten	-5423
▁Tin	-5424
▁Tol	-5425
▁Top	-5426
▁Tor	-5427
▁Tre	-5428
▁Typ	-5429
▁Van	-5430
▁Var	-5431
▁Vib	-5432
▁Vic	-5433
▁Vin	-5434
▁Wik	-5435
▁Yam	-5436
▁ank	-5437
▁ans	-5438
▁arc	-5439
▁arm	-5440
▁awk	-5441
▁bal	-5442
▁bam	-5443
▁bul	-5444
▁cig	-5445
▁cin	-5446
▁dyn	-5447
▁eat	-5448
▁enr	-5449
▁era	-5450
▁eth	-5451
▁exc	-5452
▁fan	-5453
▁fem	-5454
▁fix	-5455
▁fly	-5456
▁gly	-5457
▁gre	-5458
▁ham	-5459
▁hut	-5460
▁inn	-5461
▁jam	-5462
▁joy	-5463
▁kil	-5464
▁lay	-5465
▁lie	-5466
▁lig	-5467
▁loa	-5468
▁lod	-5469
▁max	-5470
▁mes	-5471
▁mob	-5472
▁mor	-5473
▁nin	-5474
▁nob	-5475
▁nom	-5476
▁nuc	-5477
▁oct	-5478
▁oil	-5479
▁pad	-5480
▁pag	-5481
▁pav	-5482
▁pin	-5483
▁pla	-5484
▁pub	-5485
▁pun	-5486
▁pus	-5487
▁rac	-5488
▁rat	-5489
▁rif	-5490
▁rod	-5491
▁rom	-5492
▁sea	-5493
▁seg	-5494
▁shr	-5495
▁sol	-5496
▁sop	-5497
▁spr	-5498
▁sud	-5499
etti	-5500
hair	-5501
mett	-5502
▁Leh	-5503
▁Leo	-5504
▁Why	-5505
▁flo	-5506
▁swe	-5507
▁tab	-5508
▁tal	-5509
▁tub	-5510
▁ult	-5511
▁unw	-5512
▁vag	-5513
▁vic	-5514
▁wax	-5515
▁wed	-5516
▁yaw	-5517
Earth	-5518
about	-5519
acell	-5520
ading	-5521
adium	-5522
after	-5523
aging	-5524
ahour	-5525
aints	-5526
aland	-5527
allet	-5528
almud	-5529
anche	-5530
aneck	-5531
angel	-5532
anges	-5533
aning	-5534
anner	-5535
ansas	-5536
antly	-5537
aples	-5538
aptop	-5539
arged	-5540
asant	-5541
asion	-5542
assed	-5543
assel	-5544
astic	-5545
aters	-5546
atham	-5547
athan	-5548
attan	-5549
augur	-5550
avery	-5551
aylor	-5552
azine	-5553
bairn	-5554
brane	-5555
break	-5556
byter	-5557
cerol	-5558
chief	-5559
child	-5560
clock	-5561
creek	-5562
cript	-5563
ctors	-5564
ellar	-5565
encer	-5566
endar	-5567
enger	-5568
ening	-5569
ennes	-5570
ennis	-5571
enses	-5572
entle	-5573
entor	-5574
ested	-5575
eward	-5576
ewell	-5577
fight	-5578
forth	-5579
hedul	-5580
hound	-5581
house	-5582
iable	-5583
icals	-5584
icial	-5585
iffin	-5586
ifted	-5587
igade	-5588
iment	-5589
inert	-5590
inery	-5591
inson	-5592
ipers	-5593
iring	-5594
ishes	-5595
isman	-5596
itage	-5597
izens	-5598
leans	-5599
Sah	-5600
jah	-5601
pha	-5602
alks	-5603
brid	-5604
bums	-5605
foot	-5606
gery	-5607
ieth	-5608
leep	-5609
lemy	-5610
oufl	-5611
▁Amy	-5612
▁DeL	-5613
▁Laz	-5614
annah	-5615
dange	-5616
ledge	-5617
legal	-5618
lings	-5619
lived	-5620
ockey	-5621
oding	-5622
odium	-5623
offin	-5624
oland	-5625
onard	-5626
onded	-5627
onium	-5628
onsin	-5629
oolly	-5630
orded	-5631
ordon	-5632
orian	-5633
ortly	-5634
oseph	-5635
ottom	-5636
oured	-5637
ouris	-5638
owski	-5639
parts	-5640
phone	-5641
racts	-5642
rance	-5643
rayed	-5644
reece	-5645
remer	-5646
repre	-5647
rical	-5648
rophy	-5649
rowth	-5650
secut	-5651
sized	-5652
state	-5653
table	-5654
teria	-5655
tures	-5656
ueled	-5657
ultan	-5658
undam	-5659
under	-5660
uries	-5661
using	-5662
uting	-5663
utter	-5664
water	-5665
where	-5666
▁Alps	-5667
▁Amar	-5668
▁Bart	-5669
▁Bash	-5670
▁Beam	-5671
▁Beij	-5672
▁Beit	-5673
▁Belz	-5674
▁Bert	-5675
▁Bick	-5676
▁Born	-5677
▁Brem	-5678
▁Brut	-5679
▁Care	-5680
▁Carl	-5681
▁Carn	-5682
▁Cast	-5683
▁Chol	-5684
▁Coll	-5685
▁Comb	-5686
▁Conn	-5687
▁Cont	-5688
▁Cott	-5689
▁Crit	-5690
▁Croy	-5691
▁Dale	-5692
▁Dant	-5693
▁Dark	-5694
▁Down	-5695
▁Drew	-5696
▁Duke	-5697
▁Eric	-5698
▁Firm	-5699
boo	-5700
ercy	-5701
tops	-5702
ycle	-5703
ynom	-5704
achel	-5705
raham	-5706
rison	-5707
shops	-5708
style	-5709
uably	-5710
▁Cape	-5711
▁Ford	-5712
▁Four	-5713
▁Gary	-5714
▁Goth	-5715
▁Hale	-5716
▁Hamp	-5717
▁Happ	-5718
▁Hend	-5719
▁Hert	-5720
▁Horn	-5721
▁Irby	-5722
▁Isle	-5723
▁Kenn	-5724
▁Kuch	-5725
▁Kund	-5726
▁Land	-5727
▁Laur	-5728
▁Lind	-5729
▁Mach	-5730
▁Mann	-5731
▁Marx	-5732
▁Mass	-5733
▁Mick	-5734
▁Mond	-5735
▁Much	-5736
▁Myst	-5737
▁Nazi	-5738
▁Near	-5739
▁Nott	-5740
▁Pall	-5741
▁Past	-5742
▁Peak	-5743
▁Peel	-5744
▁Phot	-5745
▁Pope	-5746
▁Prem	-5747
▁Prim	-5748
▁Prom	-5749
▁Prot	-5750
▁Rail	-5751
▁Rain	-5752
▁Rale	-5753
▁Rang	-5754
▁Rees	-5755
▁Rick	-5756
▁Ring	-5757
▁Rome	-5758
▁Sand	-5759
▁Sark	-5760
▁Shaw	-5761
▁Side	-5762
▁Spir	-5763
▁Stam	-5764
▁Stat	-5765
▁Sund	-5766
▁Surg	-5767
▁Time	-5768
▁Tour	-5769
▁Tren	-5770
▁Tues	-5771
▁Vene	-5772
▁Vick	-5773
▁Viet	-5774
▁Visc	-5775
▁Vist	-5776
▁Vlad	-5777
▁Wall	-5778
▁Whit	-5779
▁Wild	-5780
▁Wisc	-5781
▁Wong	-5782
▁Work	-5783
▁Yale	-5784
▁Zamb	-5785
▁acqu	-5786
▁ages	-5787
▁agre	-5788
▁anal	-5789
▁arms	-5790
▁arts	-5791
▁atom	-5792
▁bars	-5793
▁bass	-5794
▁bear	-5795
▁bell	-5796
▁bill	-5797
▁biod	-5798
▁bite	-5799
door	-5800
load	-5801
▁ski	-5802
Japan	-5803
adesh	-5804
ithet	-5805
keley	-5806
metry	-5807
ossil	-5808
pared	-5809
trane	-5810
unnel	-5811
▁Flor	-5812
▁Guam	-5813
▁Holl	-5814
▁Karl	-5815
▁Manh	-5816
▁Nebr	-5817
▁Resp	-5818
▁Tele	-5819
▁apex	-5820
▁blue	-5821
▁boss	-5822
▁brom	-5823
▁carb	-5824
▁cars	-5825
▁cave	-5826
▁cert	-5827
▁clan	-5828
▁cock	-5829
▁corn	-5830
▁cros	-5831
▁debt	-5832
▁deep	-5833
▁dent	-5834
▁dire	-5835
▁disk	-5836
▁diss	-5837
▁drop	-5838
▁else	-5839
▁exch	-5840
▁face	-5841
▁fair	-5842
▁feel	-5843
▁fill	-5844
▁firm	-5845
▁flag	-5846
▁flee	-5847
▁folk	-5848
▁frag	-5849
▁gang	-5850
▁gett	-5851
▁goal	-5852
▁golf	-5853
▁goul	-5854
▁grad	-5855
▁grav	-5856
▁guid	-5857
▁holy	-5858
▁isol	-5859
▁isot	-5860
▁kept	-5861
▁kind	-5862
▁king	-5863
▁laid	-5864
▁lect	-5865
▁legs	-5866
▁lord	-5867
▁mail	-5868
▁marg	-5869
▁mask	-5870
▁meas	-5871
▁meat	-5872
▁mess	-5873
▁meta	-5874
▁mice	-5875
▁migr	-5876
▁mind	-5877
▁mine	-5878
▁mini	-5879
▁mist	-5880
▁myst	-5881
▁nets	-5882
▁nine	-5883
▁once	-5884
▁orth	-5885
▁owns	-5886
▁perp	-5887
▁phen	-5888
▁pigs	-5889
▁pink	-5890
▁pool	-5891
▁prey	-5892
▁prof	-5893
▁pure	-5894
▁puzz	-5895
▁quot	-5896
▁reve	-5897
▁rice	-5898
▁ring	-5899
ydr	-5900
aska	-5901
embl	-5902
uzon	-5903
▁Joe	-5904
▁urb	-5905
black	-5906
breed	-5907
denly	-5908
itano	-5909
itoba	-5910
itzer	-5911
party	-5912
▁Berk	-5913
▁Doom	-5914
▁Gael	-5915
▁Hyde	-5916
▁Lawn	-5917
▁Meta	-5918
▁Palm	-5919
▁Rena	-5920
▁eyes	-5921
▁geck	-5922
▁glad	-5923
▁hung	-5924
▁lung	-5925
▁owed	-5926
▁rise	-5927
▁salt	-5928
▁sand	-5929
▁sang	-5930
▁sash	-5931
▁save	-5932
▁says	-5933
▁scan	-5934
▁sche	-5935
▁shop	-5936
▁soul	-5937
▁span	-5938
▁styl	-5939
▁subf	-5940
▁subt	-5941
▁sued	-5942
▁sust	-5943
▁tank	-5944
▁teac	-5945
▁tell	-5946
▁text	-5947
▁thin	-5948
▁thir	-5949
▁thus	-5950
▁tiss	-5951
▁toll	-5952
▁tone	-5953
▁twin	-5954
▁wall	-5955
▁wasn	-5956
▁wine	-5957
▁wire	-5958
▁wish	-5959
Americ	-5960
aginaw	-5961
ainage	-5962
alleng	-5963
anning	-5964
ansion	-5965
ashire	-5966
avalry	-5967
bilisi	-5968
brandt	-5969
celled	-5970
cluded	-5971
ealous	-5972
ective	-5973
eeping	-5974
elcome	-5975
eminal	-5976
endall	-5977
engers	-5978
ensely	-5979
entang	-5980
erside	-5981
ersion	-5982
esburg	-5983
estone	-5984
etheus	-5985
ffield	-5986
forced	-5987
formed	-5988
gerald	-5989
geries	-5990
iddles	-5991
ighted	-5992
ighton	-5993
ilized	-5994
illery	-5995
inople	-5996
ismome	-5997
issing	-5998
isters	-5999
rano	-6000
ptoms	-6001
yclot	-6002
▁Area	-6003
▁Earl	-6004
▁Ryan	-6005
▁Tanz	-6006
▁dedu	-6007
▁duty	-6008
▁exha	-6009
▁iron	-6010
▁keen	-6011
▁narr	-6012
▁vacc	-6013
agonal	-6014
assemb	-6015
ilizer	-6016
insula	-6017
istine	-6018
itical	-6019
itives	-6020
ittees	-6021
ivated	-6022
izable	-6023
keeper	-6024
listed	-6025
makers	-6026
modern	-6027
nowned	-6028
omenon	-6029
ominic	-6030
opping	-6031
oughly	-6032
oulder	-6033
ousing	-6034
oustic	-6035
oyment	-6036
ployed	-6037
reases	-6038
rently	-6039
ressed	-6040
rupted	-6041
school	-6042
strong	-6043
teenth	-6044
ternet	-6045
thouse	-6046
ulates	-6047
umably	-6048
umbent	-6049
undant	-6050
urance	-6051
urence	-6052
ustion	-6053
wright	-6054
▁Abert	-6055
▁Abram	-6056
▁Again	-6057
▁Alpha	-6058
▁Apple	-6059
▁April	-6060
▁Autom	-6061
▁Baron	-6062
▁Block	-6063
▁Bloom	-6064
▁Brook	-6065
▁Cabin	-6066
▁Canby	-6067
▁Carib	-6068
▁Cates	-6069
▁Cedar	-6070
▁Charl	-6071
▁Clark	-6072
▁Davis	-6073
▁DualD	-6074
▁Duran	-6075
▁Earth	-6076
▁Eight	-6077
▁Falls	-6078
▁Films	-6079
▁Franc	-6080
▁Group	-6081
▁Grove	-6082
▁Honda	-6083
▁Honor	-6084
▁Hotel	-6085
▁Huber	-6086
▁Kings	-6087
▁Labor	-6088
▁Latin	-6089
▁Laura	-6090
▁Light	-6091
▁Lions	-6092
▁Liter	-6093
▁Liver	-6094
▁Metro	-6095
▁Mimms	-6096
▁Narva	-6097
▁Organ	-6098
▁Paris	-6099
fali	-6100
onze	-6101
afton	-6102
ramer	-6103
rokes	-6104
rooms	-6105
senal	-6106
stein	-6107
visor	-6108
▁Bowd	-6109
▁Dani	-6110
▁cyan	-6111
▁eyel	-6112
▁garn	-6113
cillor	-6114
ctuary	-6115
inguis	-6116
shaped	-6117
▁Abbey	-6118
▁Bobby	-6119
▁Fried	-6120
▁Kedar	-6121
▁Local	-6122
▁Luzon	-6123
▁Pagan	-6124
▁Perry	-6125
▁Point	-6126
▁Pratt	-6127
▁Press	-6128
▁Price	-6129
▁Prime	-6130
▁Queen	-6131
▁Range	-6132
▁Rugby	-6133
▁Santa	-6134
▁Saudi	-6135
▁Seton	-6136
▁Seven	-6137
▁Simon	-6138
▁Stein	-6139
▁Stock	-6140
▁Suits	-6141
▁Techn	-6142
▁Terry	-6143
▁Those	-6144
▁Tower	-6145
▁Trump	-6146
▁Women	-6147
▁Woods	-6148
▁accom	-6149
▁aimed	-6150
▁alleg	-6151
▁angle	-6152
▁ashes	-6153
▁audio	-6154
▁balls	-6155
▁barns	-6156
▁barri	-6157
▁basin	-6158
▁bears	-6159
▁bells	-6160
▁berth	-6161
▁block	-6162
▁board	-6163
▁brand	-6164
▁cabin	-6165
▁caves	-6166
▁chain	-6167
▁check	-6168
▁climb	-6169
▁clips	-6170
▁clock	-6171
▁comes	-6172
▁conce	-6173
▁conqu	-6174
▁coron	-6175
▁cries	-6176
▁crops	-6177
▁crude	-6178
▁curve	-6179
▁daily	-6180
▁dairy	-6181
▁datab	-6182
▁devil	-6183
▁disab	-6184
▁ditch	-6185
▁divor	-6186
▁doesn	-6187
▁doors	-6188
▁draft	-6189
▁elite	-6190
▁equal	-6191
▁exerc	-6192
▁exhib	-6193
▁extra	-6194
▁falls	-6195
▁femin	-6196
▁ferry	-6197
▁fiber	-6198
▁filed	-6199
yomi	-6200
Neill	-6201
▁Jeff	-6202
▁July	-6203
▁Lynn	-6204
▁Prix	-6205
▁bags	-6206
▁bomb	-6207
▁cruc	-6208
▁kitc	-6209
▁slee	-6210
▁taxa	-6211
cember	-6212
humous	-6213
iberty	-6214
rifice	-6215
▁Hoare	-6216
▁Louis	-6217
▁Mabel	-6218
▁Tonto	-6219
▁Twain	-6220
▁fires	-6221
▁flees	-6222
▁focus	-6223
▁fully	-6224
▁funds	-6225
▁genre	-6226
▁grade	-6227
▁grain	-6228
▁grass	-6229
▁green	-6230
▁grown	-6231
▁guard	-6232
▁guide	-6233
▁habit	-6234
▁hands	-6235
▁heads	-6236
▁heavy	-6237
▁hence	-6238
▁herds	-6239
▁hoped	-6240
▁hosts	-6241
▁hours	-6242
▁humid	-6243
▁ideas	-6244
▁imper	-6245
▁inher	-6246
▁initi	-6247
▁islet	-6248
▁items	-6249
▁kumar	-6250
▁landl	-6251
▁lobby	-6252
▁looks	-6253
▁lunch	-6254
▁magic	-6255
▁manus	-6256
▁marry	-6257
▁maybe	-6258
▁micro	-6259
▁moder	-6260
▁movie	-6261
▁newly	-6262
▁nitro	-6263
▁nomin	-6264
▁novel	-6265
▁ocean	-6266
▁orche	-6267
▁outer	-6268
▁parks	-6269
▁pater	-6270
▁phase	-6271
▁pitch	-6272
▁plain	-6273
▁poems	-6274
▁polic	-6275
▁ports	-6276
▁press	-6277
▁prime	-6278
▁queen	-6279
▁races	-6280
▁ready	-6281
▁recre	-6282
▁recru	-6283
▁revel	-6284
▁roles	-6285
▁rooms	-6286
▁roots	-6287
▁ruled	-6288
▁ruler	-6289
▁scrap	-6290
▁shall	-6291
▁sheep	-6292
▁sheet	-6293
▁shook	-6294
▁sight	-6295
▁smell	-6296
▁smoke	-6297
▁solut	-6298
▁spark	-6299
pedo	-6300
Brien	-6301
built	-6302
▁Eyre	-6303
▁Iraq	-6304
▁Navy	-6305
▁Turk	-6306
▁Pearl	-6307
▁evacu	-6308
▁jewel	-6309
▁premi	-6310
▁royal	-6311
▁spoke	-6312
▁spons	-6313
▁sport	-6314
▁spots	-6315
▁stems	-6316
▁stick	-6317
▁stone	-6318
▁stops	-6319
▁stret	-6320
▁suppl	-6321
▁table	-6322
▁tanks	-6323
▁tawny	-6324
▁tears	-6325
▁templ	-6326
▁tempo	-6327
▁tenor	-6328
▁tenth	-6329
▁theme	-6330
▁therm	-6331
▁thing	-6332
▁throw	-6333
▁tooth	-6334
▁total	-6335
▁touch	-6336
▁tower	-6337
▁tract	-6338
▁trail	-6339
▁tried	-6340
▁trigg	-6341
▁truck	-6342
▁trypt	-6343
▁tunes	-6344
▁twent	-6345
▁union	-6346
▁unoff	-6347
▁usage	-6348
▁veins	-6349
▁visit	-6350
▁votes	-6351
▁walls	-6352
▁whist	-6353
▁width	-6354
▁woman	-6355
▁wound	-6356
General	-6357
angular	-6358
aration	-6359
ashwood	-6360
ativity	-6361
atorial	-6362
bellain	-6363
bellion	-6364
defined	-6365
ecution	-6366
eminary	-6367
enagers	-6368
endants	-6369
estions	-6370
eteenth	-6371
iceable	-6372
icholas	-6373
ilitate	-6374
isation	-6375
iveness	-6376
jective	-6377
lements	-6378
lington	-6379
manager	-6380
naments	-6381
nington	-6382
onomous	-6383
onsored	-6384
ormally	-6385
oughing	-6386
queduct	-6387
quirrel	-6388
redibly	-6389
relates	-6390
ressing	-6391
ression	-6392
ributed	-6393
romatic	-6394
routine	-6395
rowding	-6396
sterdam	-6397
tenance	-6398
theless	-6399
Druid	-6400
cribed	-6401
hentic	-6402
ntario	-6403
▁Early	-6404
▁Felix	-6405
▁Jacob	-6406
▁Josie	-6407
▁Liger	-6408
▁Likew	-6409
▁Lithu	-6410
▁Multi	-6411
▁Tyler	-6412
▁firms	-6413
▁renov	-6414
▁rigid	-6415
▁urban	-6416
Saharan	-6417
brities	-6418
ouflage	-6419
owntown	-6420
riculum	-6421
through	-6422
ulators	-6423
umbered	-6424
umented	-6425
vention	-6426
▁Albums	-6427
▁Amanda	-6428
▁Andrea	-6429
▁Andrew	-6430
▁Arabia	-6431
▁Arabic	-6432
▁Around	-6433
▁Arthur	-6434
▁Barren	-6435
▁Basque	-6436
▁Benton	-6437
▁Branch	-6438
▁Brazil	-6439
▁Brooke	-6440
▁Calder	-6441
▁Carmen	-6442
▁Cassie	-6443
▁Circle	-6444
▁Columb	-6445
▁Cooper	-6446
▁Donald	-6447
▁Eagles	-6448
▁Estate	-6449
▁Farden	-6450
▁Forces	-6451
▁Former	-6452
▁Fundam	-6453
▁Gibson	-6454
▁Golden	-6455
▁Gordon	-6456
▁Greece	-6457
▁Growth	-6458
▁Hawaii	-6459
▁Histor	-6460
▁Howard	-6461
▁Hunter	-6462
▁Indust	-6463
▁Johnny	-6464
▁Joseph	-6465
▁Kitano	-6466
▁Legisl	-6467
▁Living	-6468
▁Luther	-6469
▁Master	-6470
▁Mennon	-6471
▁Middle	-6472
▁Milton	-6473
▁Moscow	-6474
▁Muslim	-6475
▁Nation	-6476
▁Nether	-6477
▁Nights	-6478
▁Norway	-6479
▁Orange	-6480
▁Origin	-6481
▁Parish	-6482
▁Parker	-6483
▁Penner	-6484
▁Peters	-6485
▁Please	-6486
▁Polish	-6487
▁Postal	-6488
▁Potter	-6489
▁Region	-6490
▁Rivers	-6491
▁Rogers	-6492
▁Romans	-6493
▁Sahour	-6494
▁Saints	-6495
▁Schull	-6496
▁Season	-6497
▁Sevent	-6498
▁Sharon	-6499
▁Skagit	-6500
▁Soviet	-6501
▁Sussex	-6502
▁Tafoya	-6503
▁Taiwan	-6504
▁Tasman	-6505
▁Taylor	-6506
▁Telugu	-6507
▁Tennes	-6508
▁Thirty	-6509
▁Toyota	-6510
▁Uganda	-6511
▁Valour	-6512
▁Viborg	-6513
▁Virgil	-6514
▁Warner	-6515
▁Watson	-6516
▁Wilson	-6517
▁Within	-6518
▁Worlds	-6519
▁abroad	-6520
▁absorb	-6521
▁abuses	-6522
▁actors	-6523
▁affili	-6524
▁afraid	-6525
▁answer	-6526
▁apolog	-6527
▁approx	-6528
▁arrows	-6529
▁ascent	-6530
▁assess	-6531
▁attest	-6532
▁autobi	-6533
▁ballot	-6534
▁bamboo	-6535
▁banned	-6536
▁banner	-6537
▁belief	-6538
▁better	-6539
▁beyond	-6540
▁blooms	-6541
▁bodies	-6542
▁bought	-6543
▁brakes	-6544
▁breaks	-6545
▁brings	-6546
▁capped	-6547
▁center	-6548
▁charge	-6549
▁circle	-6550
▁circul	-6551
▁circus	-6552
▁cliffs	-6553
▁colour	-6554
▁comedy	-6555
▁compar	-6556
▁concur	-6557
▁confer	-6558
▁config	-6559
▁convey	-6560
▁credit	-6561
▁cyclot	-6562
▁democr	-6563
▁denied	-6564
▁depict	-6565
▁devast	-6566
▁disapp	-6567
▁dragon	-6568
▁drinks	-6569
▁easily	-6570
▁editor	-6571
▁elabor	-6572
▁eldest	-6573
▁embarr	-6574
▁ensure	-6575
▁entity	-6576
▁essent	-6577
▁exceed	-6578
▁explan	-6579
▁facial	-6580
▁factor	-6581
▁female	-6582
▁fields	-6583
▁filled	-6584
▁finger	-6585
▁forced	-6586
▁forgot	-6587
▁foster	-6588
▁gentle	-6589
▁global	-6590
▁golden	-6591
▁guides	-6592
▁halluc	-6593
▁happen	-6594
▁harass	-6595
▁hiatus	-6596
▁hockey	-6597
▁hosted	-6598
▁hotels	-6599
▁impact	-6600
▁ingred	-6601
▁intent	-6602
▁issued	-6603
▁junior	-6604
▁knives	-6605
▁kunwar	-6606
▁leaked	-6607
▁leases	-6608
▁libert	-6609
▁lively	-6610
▁looked	-6611
▁marine	-6612
▁mascot	-6613
▁melody	-6614
▁merely	-6615
▁missed	-6616
▁mobile	-6617
▁mosque	-6618
▁nearly	-6619
▁nutrit	-6620
▁operas	-6621
▁outlaw	-6622
▁overse	-6623
▁papers	-6624
▁petrel	-6625
▁piston	-6626
▁plants	-6627
▁plaque	-6628
▁primes	-6629
▁proton	-6630
▁proved	-6631
▁pursue	-6632
▁pushed	-6633
▁racial	-6634
▁rarely	-6635
▁reason	-6636
▁recent	-6637
▁reclus	-6638
▁relief	-6639
▁remake	-6640
▁remote	-6641
▁remove	-6642
▁rescue	-6643
▁resort	-6644
▁rotary	-6645
▁ruling	-6646
▁safety	-6647
▁saving	-6648
▁scarce	-6649
▁scheme	-6650
▁script	-6651
▁senior	-6652
▁settle	-6653
▁shield	-6654
▁silver	-6655
▁singer	-6656
▁skills	-6657
▁soccer	-6658
▁sought	-6659
▁sounds	-6660
▁spoken	-6661
▁spread	-6662
▁stable	-6663
▁stairs	-6664
▁states	-6665
▁stayed	-6666
▁stones	-6667
▁stores	-6668
▁struck	-6669
▁submar	-6670
▁summer	-6671
▁supply	-6672
▁survey	-6673
▁taking	-6674
▁tavern	-6675
▁temper	-6676
▁tennis	-6677
▁thanks	-6678
▁themes	-6679
▁threat	-6680
▁ticket	-6681
▁topics	-6682
▁totals	-6683
▁toured	-6684
▁tribut	-6685
▁triple	-6686
▁tunnel	-6687
▁underg	-6688
▁unlike	-6689
▁upheld	-6690
▁utiliz	-6691
▁vacuum	-6692
▁valves	-6693
▁voiced	-6694
▁wanted	-6695
▁waxing	-6696
▁weapon	-6697
▁window	-6698
▁winner	-6699
▁wooden	-6700
▁woolly	-6701
▁worker	-6702
American	-6703
abetical	-6704
analysis	-6705
arriages	-6706
atically	-6707
byterian	-6708
icularly	-6709
ificance	-6710
inertial	-6711
ionately	-6712
necticut	-6713
olidated	-6714
ordinary	-6715
otherapy	-6716
oulevard	-6717
overning	-6718
regation	-6719
rounding	-6720
tainment	-6721
▁Abraham	-6722
▁African	-6723
▁Atlanta	-6724
▁Attempt	-6725
▁Austria	-6726
▁Bashall	-6727
▁Because	-6728
▁Beijing	-6729
▁Belgium	-6730
▁Bengali	-6731
▁Brigade	-6732
▁Chamber	-6733
▁Cooking	-6734
▁Copland	-6735
▁Council	-6736
▁Country	-6737
▁Digital	-6738
▁Dominic	-6739
▁Durango	-6740
▁Express	-6741
▁Germany	-6742
▁Grammar	-6743
▁Griffin	-6744
▁Hammett	-6745
▁Harvard	-6746
▁Herbert	-6747
▁History	-6748
▁Indiana	-6749
▁Indians	-6750
▁Indones	-6751
▁Islamic	-6752
▁Journal	-6753
▁Lebanon	-6754
▁Lehmann	-6755
▁Leonard	-6756
▁Liberty	-6757
▁Limited	-6758
▁Meeting	-6759
▁Members	-6760
▁Minster	-6761
▁Montana	-6762
▁Muslims	-6763
▁Nigeria	-6764
▁Ontario	-6765
▁Orleans	-6766
▁Panther	-6767
▁Players	-6768
▁Premier	-6769
▁Ptolemy	-6770
▁Raleigh	-6771
▁Rangers	-6772
▁Renault	-6773
▁Russell	-6774
▁Saginaw	-6775
▁Savings	-6776
▁Senator	-6777
▁Shafton	-6778
▁Sheriff	-6779
▁Shortly	-6780
▁Spencer	-6781
▁Student	-6782
▁Subsequ	-6783
▁Surgery	-6784
▁Swedish	-6785
▁Tbilisi	-6786
▁Teaneck	-6787
▁Tourism	-6788
▁Trinity	-6789
▁Tuesday	-6790
▁Various	-6791
▁Vietnam	-6792
▁Winters	-6793
▁account	-6794
▁actress	-6795
▁adapted	-6796
▁advisor	-6797
▁airport	-6798
▁animals	-6799
▁arrives	-6800
▁artwork	-6801
▁assumed	-6802
▁awkward	-6803
▁battles	-6804
▁benefit	-6805
▁bracket	-6806
▁breathe	-6807
▁bridges	-6808
▁burning	-6809
▁calling	-6810
▁capture	-6811
▁carries	-6812
▁castles	-6813
▁cavalry	-6814
▁cemeter	-6815
▁chaired	-6816
▁charges	-6817
▁charted	-6818
▁clashes	-6819
▁clients	-6820
▁closest	-6821
▁coastal	-6822
▁collaps	-6823
▁commune	-6824
▁conduct	-6825
▁conserv	-6826
▁consist	-6827
▁courses	-6828
▁covered	-6829
▁crosses	-6830
▁crucial	-6831
▁decided	-6832
▁despite	-6833
▁devoted	-6834
▁dismiss	-6835
▁disrupt	-6836
▁divorce	-6837
▁doubled	-6838
▁dropped	-6839
▁endured	-6840
▁enforce	-6841
▁enraged	-6842
▁entered	-6843
▁epithet	-6844
▁estates	-6845
▁examine	-6846
▁existed	-6847
▁exposed	-6848
▁factors	-6849
▁faculty	-6850
▁fashion	-6851
▁fiction	-6852
▁fission	-6853
▁forests	-6854
▁formats	-6855
▁founded	-6856
▁gallery	-6857
▁getting	-6858
▁grounds	-6859
▁happily	-6860
▁hymnals	-6861
▁illegal	-6862
▁impacts	-6863
▁imports	-6864
▁improve	-6865
▁inaugur	-6866
▁initial	-6867
▁insulin	-6868
▁invaded	-6869
▁jumping	-6870
▁kilomet	-6871
▁kitchen	-6872
▁lawyers	-6873
▁leaders	-6874
▁leather	-6875
▁leaving	-6876
▁ligands	-6877
▁locally	-6878
▁massive	-6879
▁methods	-6880
▁microsc	-6881
▁million	-6882
▁minimum	-6883
▁missing	-6884
▁morning	-6885
▁neutral	-6886
▁noticed	-6887
▁nowhere	-6888
▁opening	-6889
▁opinion	-6890
▁opposed	-6891
▁organic	-6892
▁organiz	-6893
▁origins	-6894
▁patents	-6895
▁pattern	-6896
▁pension	-6897
▁picture	-6898
▁plastic	-6899
▁playoff	-6900
▁pointed	-6901
▁polynom	-6902
▁powered	-6903
▁predict	-6904
▁primary	-6905
▁printed	-6906
▁proceed	-6907
▁project	-6908
▁prosper	-6909
▁pumping	-6910
▁ratings	-6911
▁realist	-6912
▁reasons	-6913
▁regular	-6914
▁reorgan	-6915
▁repairs	-6916
▁reprodu	-6917
▁require	-6918
▁rescues	-6919
▁resided	-6920
▁retains	-6921
▁retreat	-6922
▁revenue	-6923
▁robbery	-6924
▁roughly	-6925
▁schedul	-6926
▁seconds	-6927
▁senator	-6928
▁setting	-6929
▁settled	-6930
▁settler	-6931
▁sheaves	-6932
▁shifted	-6933
▁shortly	-6934
▁sixteen	-6935
▁sleeves	-6936
▁soprano	-6937
▁stained	-6938
▁strange	-6939
▁strateg	-6940
▁studios	-6941
▁subject	-6942
▁suicide	-6943
▁supreme	-6944
▁surgery	-6945
▁surplus	-6946
▁survive	-6947
▁sympath	-6948
▁talking	-6949
▁teacher	-6950
▁torpedo	-6951
▁tourism	-6952
▁trading	-6953
▁traffic	-6954
▁transit	-6955
▁treated	-6956
▁underst	-6957
▁updated	-6958
▁utility	-6959
▁vagrant	-6960
▁vehicle	-6961
▁victims	-6962
▁visible	-6963
▁waiting	-6964
▁wedding	-6965
▁whereas	-6966
▁wrapped	-6967
angladesh	-6968
assembled	-6969
ciousness	-6970
clusively	-6971
formation	-6972
inguished	-6973
inguishes	-6974
ismometer	-6975
repreneur	-6976
riculture	-6977
stitution	-6978
▁Anderson	-6979
▁Attorney	-6980
▁Berkeley	-6981
▁Bickford	-6982
▁Brazoria	-6983
▁Brighton	-6984
▁Bucknell	-6985
▁Business	-6986
▁Carnival	-6987
▁Coltrane	-6988
▁Cremorne	-6989
▁Cultural	-6990
▁December	-6991
▁Division	-6992
▁DualDisc	-6993
▁Egyptian	-6994
▁Examples	-6995
▁Fighting	-6996
▁Firmness	-6997
▁Governor	-6998
▁Graduate	-6999
▁Hertford	-7000
▁Jakobson	-7001
▁Jonathan	-7002
▁Judgment	-7003
▁Junction	-7004
▁Laurence	-7005
▁Likewise	-7006
▁Manitoba	-7007
▁Michigan	-7008
▁Military	-7009
▁Nebraska	-7010
▁Numerous	-7011
▁Recently	-7012
▁Saraland	-7013
▁Scheimer	-7014
▁Stamford	-7015
▁Tanzania	-7016
▁Theodore	-7017
▁Treniota	-7018
▁Trustees	-7019
▁Viscount	-7020
▁Vladimir	-7021
▁Westwood	-7022
▁accident	-7023
▁achieved	-7024
▁acoustic	-7025
▁admitted	-7026
▁advertis	-7027
▁algebras	-7028
▁although	-7029
▁altitude	-7030
▁appealed	-7031
▁archival	-7032
▁arguably	-7033
▁assembly	-7034
▁athletic	-7035
▁attempts	-7036
▁baseball	-7037
▁bicycles	-7038
▁birthday	-7039
▁calendar	-7040
▁capacity	-7041
▁changing	-7042
▁cheating	-7043
▁citizens	-7044
▁colonies	-7045
▁combined	-7046
▁commemor	-7047
▁competed	-7048
▁competes	-7049
▁compiled	-7050
▁computer	-7051
▁confined	-7052
▁contacts	-7053
▁creating	-7054
▁credited	-7055
▁criteria	-7056
▁database	-7057
▁deadlock	-7058
▁declared	-7059
▁demanded	-7060
▁dialogue	-7061
▁discover	-7062
▁dressing	-7063
▁economic	-7064
▁electric	-7065
▁employee	-7066
▁entrance	-7067
▁eventual	-7068
▁evidence	-7069
▁expanded	-7070
▁exploits	-7071
▁external	-7072
▁failures	-7073
▁favorite	-7074
▁feedback	-7075
▁fixtures	-7076
▁gameplay	-7077
▁generate	-7078
▁glycerol	-7079
▁greatest	-7080
▁harmonic	-7081
▁honorary	-7082
▁improved	-7083
▁inducted	-7084
▁infected	-7085
▁injuries	-7086
▁instance	-7087
▁internal	-7088
▁invasion	-7089
▁invested	-7090
▁isotopes	-7091
▁judgment	-7092
▁keyboard	-7093
▁learning	-7094
▁longtime	-7095
▁magazine	-7096
▁markings	-7097
▁material	-7098
▁meanings	-7099
▁measures	-7100
▁meetings	-7101
▁membrane	-7102
▁memorial	-7103
▁modified	-7104
▁musician	-7105
▁narrated	-7106
▁nitrogen	-7107
▁observer	-7108
▁officers	-7109
▁opposing	-7110
▁organist	-7111
▁outbreak	-7112
▁overlook	-7113
▁overwhel	-7114
▁paternal	-7115
▁physical	-7116
▁pictures	-7117
▁planting	-7118
▁possible	-7119
▁prepared	-7120
▁produces	-7121
▁prompted	-7122
▁prosecut	-7123
▁protests	-7124
▁railroad	-7125
▁rankings	-7126
▁recalled	-7127
▁reformed	-7128
▁relative	-7129
▁renowned	-7130
▁repaired	-7131
▁requires	-7132
▁resolved	-7133
▁response	-7134
▁restored	-7135
▁restrict	-7136
▁retained	-7137
▁romantic	-7138
▁scholars	-7139
▁security	-7140
▁shooting	-7141
▁shopping	-7142
▁shortage	-7143
▁solution	-7144
▁starring	-7145
▁steering	-7146
▁strength	-7147
▁suddenly	-7148
▁suitable	-7149
▁surfaces	-7150
▁surprise	-7151
▁swimming	-7152
▁symptoms	-7153
▁teachers	-7154
▁theology	-7155
▁thorough	-7156
▁thousand	-7157
▁township	-7158
▁tropical	-7159
▁upstream	-7160
▁variants	-7161
▁vertical	-7162
▁vicinity	-7163
▁villains	-7164
▁violated	-7165
▁weakness	-7166
▁workings	-7167
▁youngest	-7168
employment	-7169
ertainment	-7170
olutionary	-7171
responding	-7172
▁Administr	-7173
▁Alexander	-7174
▁Amsterdam	-7175
▁Argentine	-7176
▁Berkshire	-7177
▁Commander	-7178
▁Committee	-7179
▁Communist	-7180
▁Community	-7181
▁Elizabeth	-7182
▁Executive	-7183
▁Fairbairn	-7184
▁Hampshire	-7185
▁Lancaster	-7186
▁Liverpool	-7187
▁Manhattan	-7188
▁Melbourne	-7189
▁Norwegian	-7190
▁Operators	-7191
▁Patterson	-7192
▁Political	-7193
▁Professor	-7194
▁Rebellion	-7195
▁Rembrandt	-7196
▁Riverdale	-7197
▁Secondary	-7198
▁Secretary	-7199
▁Sheffield	-7200
▁Tennessee	-7201
▁Therefore	-7202
▁Venezuela	-7203
▁Victorian	-7204
▁Wisconsin	-7205
▁abandoned	-7206
▁according	-7207
▁additives	-7208
▁adventure	-7209
▁agreement	-7210
▁alongside	-7211
▁antiquity	-7212
▁astronomy	-7213
▁attempted	-7214
▁authentic	-7215
▁authority	-7216
▁beautiful	-7217
▁cancelled	-7218
▁columnist	-7219
▁committee	-7220
▁communism	-7221
▁complaint	-7222
▁component	-7223
▁consisted	-7224
▁constitut	-7225
▁converted	-7226
▁corrected	-7227
▁criticism	-7228
▁dangerous	-7229
▁decreases	-7230
▁dedicated	-7231
▁defending	-7232
▁departure	-7233
▁depending	-7234
▁describes	-7235
▁determine	-7236
▁discussed	-7237
▁disorders	-7238
▁displayed	-7239
▁districts	-7240
▁documents	-7241
▁dominates	-7242
▁estimated	-7243
▁estimator	-7244
▁exhausted	-7245
▁existence	-7246
▁expanding	-7247
▁expansion	-7248
▁explained	-7249
▁explosion	-7250
▁financing	-7251
▁forgeries	-7252
▁formation	-7253
▁frequency	-7254
▁gradually	-7255
▁immensely	-7256
▁implement	-7257
▁influence	-7258
▁inherited	-7259
▁knowledge	-7260
▁landowner	-7261
▁landscape	-7262
▁languages	-7263
▁legendary	-7264
▁limestone	-7265
▁literally	-7266
▁machinery	-7267
▁notorious	-7268
▁observers	-7269
▁occasions	-7270
▁opponents	-7271
▁overlooks	-7272
▁permitted	-7273
▁personnel	-7274
▁petitions	-7275
▁physician	-7276
▁portrayed	-7277
▁positions	-7278
▁practices	-7279
▁preparing	-7280
▁principal	-7281
▁prisoners	-7282
▁professor	-7283
▁promoting	-7284
▁prototype	-7285
▁qualified	-7286
▁quartered	-7287
▁recovered	-7288
▁reflected	-7289
▁regulated	-7290
▁reinforce	-7291
▁remarried	-7292
▁resources	-7293
▁resulting	-7294
▁returning	-7295
▁sacrifice	-7296
▁sanctuary	-7297
▁secondary	-7298
▁selection	-7299
▁selective	-7300
▁seriously	-7301
▁shoulders	-7302
▁similarly	-7303
▁situation	-7304
▁solutions	-7305
▁southeast	-7306
▁southwest	-7307
▁specified	-7308
▁spiritual	-7309
▁subfamily	-7310
▁surrender	-7311
▁suspended	-7312
▁teachings	-7313
▁teenagers	-7314
▁telegraph	-7315
▁telemetry	-7316
▁territory	-7317
▁thousands	-7318
▁triggered	-7319
▁twentieth	-7320
▁unwilling	-7321
▁upwelling	-7322
▁workshops	-7323
▁wrestling	-7324
▁Afterwards	-7325
▁Automobile	-7326
▁Bennington	-7327
▁Christians	-7328
▁Cumberland	-7329
▁Fitzgerald	-7330
▁Government	-7331
▁Huntington	-7332
▁Lancashire	-7333
▁Nottingham	-7334
▁Originally	-7335
▁Passengers	-7336
▁accessible	-7337
▁adjustment	-7338
▁ambassador	-7339
▁apparently	-7340
▁appearance	-7341
▁architects	-7342
▁atmosphere	-7343
▁attractive	-7344
▁attributed	-7345
▁boundaries	-7346
▁businesses	-7347
▁camouflage	-7348
▁capability	-7349
▁celebrated	-7350
▁cemeteries	-7351
▁ceremonies	-7352
▁chronicles	-7353
▁commission	-7354
▁complement	-7355
▁completely	-7356
▁completing	-7357
▁containing	-7358
▁convenient	-7359
▁correlates	-7360
▁cultivated	-7361
▁curriculum	-7362
▁deposition	-7363
▁determined	-7364
▁difference	-7365
▁discharged	-7366
▁doctorates	-7367
▁electrical	-7368
▁elementary	-7369
▁eliminated	-7370
▁emphasized	-7371
▁encouraged	-7372
▁equivalent	-7373
▁facilitate	-7374
▁gatherings	-7375
▁incredibly	-7376
▁industrial	-7377
▁influences	-7378
▁leadership	-7379
▁mainstream	-7380
▁manuscript	-7381
▁mechanical	-7382
▁modulation	-7383
▁nationwide	-7384
▁nineteenth	-7385
▁noticeable	-7386
▁occasional	-7387
▁originated	-7388
▁parliament	-7389
▁performers	-7390
▁phenomenon	-7391
▁physically	-7392
▁playmaking	-7393
▁politician	-7394
▁posthumous	-7395
▁practition	-7396
▁profession	-7397
▁professors	-7398
▁protection	-7399
▁referenced	-7400
▁remembered	-7401
▁resolution	-7402
▁restaurant	-7403
▁settlement	-7404
▁subroutine	-7405
▁subsequent	-7406
▁tryptamine	-7407
▁uncredited	-7408
▁vegetation	-7409
▁volunteers	-7410
▁Connecticut	-7411
▁Corporation	-7412
▁Fundamental	-7413
▁Netherlands	-7414
▁Respiratory	-7415
▁Scandinavia	-7416
▁Significant	-7417
▁Surrounding	-7418
▁achievement	-7419
▁advertising	-7420
▁ambassadors	-7421
▁anthologies	-7422
▁arrangement	-7423
▁attractions	-7424
▁celebrities	-7425
▁collections	-7426
▁competitors	-7427
▁conditional	-7428
▁controversy	-7429
▁cooperation	-7430
▁declaration	-7431
▁departments	-7432
▁disappeared	-7433
▁distinction	-7434
▁distinctive	-7435
▁distributes	-7436
▁documentary	-7437
▁educational	-7438
▁effectively	-7439
▁embarrassed	-7440
▁engineering	-7441
▁equivalence	-7442
▁essentially	-7443
▁festivities	-7444
▁foundations	-7445
▁grandfather	-7446
▁imagination	-7447
▁immigration	-7448
▁inaugurated	-7449
▁independent	-7450
▁influential	-7451
▁ingredients	-7452
▁instruments	-7453
▁interesting	-7454
▁maintenance	-7455
▁methodology	-7456
▁monasteries	-7457
▁negotiation	-7458
▁nutritional	-7459
▁outstanding	-7460
▁personality	-7461
▁populations	-7462
▁productions	-7463
▁publication	-7464
▁restoration	-7465
▁scholarship	-7466
▁seismometer	-7467
▁specialized	-7468
▁territories	-7469
▁tournaments	-7470
▁underground	-7471
▁universally	-7472
▁Agricultural	-7473
▁Championship	-7474
▁Consolidated	-7475
▁Johannesburg	-7476
▁Particularly	-7477
▁Presbyterian	-7478
▁alphabetical	-7479
▁biodiversity	-7480
▁championship	-7481
▁collaborated	-7482
▁collaborator	-7483
▁compositions	-7484
▁concentrated	-7485
▁concurrently	-7486
▁contemporary	-7487
▁coordinating	-7488
▁customizable	-7489
▁developments	-7490
▁distribution	-7491
▁entrepreneur	-7492
▁experimental	-7493
▁historically	-7494
▁implications	-7495
▁inspirations	-7496
▁interference	-7497
▁manufactured	-7498
▁measurements	-7499
▁participated	-7500
▁passionately	-7501
▁periodically	-7502
▁photographic	-7503
▁successfully	-7504
▁transmission	-7505
▁unsuccessful	-7506
▁Distinguished	-7507
▁Entertainment	-7508
▁approximately	-7509
▁concentration	-7510
▁configuration	-7511
▁consciousness	-7512
▁demonstration	-7513
▁distinguishes	-7514
▁entertainment	-7515
▁environmental	-7516
▁extraordinary	-7517
▁investigators	-7518
▁relationships	-7519
▁traditionally	-7520
▁Constantinople	-7521
▁administration	-7522
▁fortifications	-7523
▁hallucinations	-7524
▁representation	-7525
▁representative	-7526
▁specialization	-7527
▁characteristics	-7528
!’	-7529
"'	-7530
"-	-7531
'?	-7532
,'	-7533
,’	-7534
,”	-7535
.?	-7536
Ad	-7537
An	-7538
Az	-7539
Bo	-7540
Bu	-7541
Cr	-7542
Ef	-7543
El	-7544
En	-7545
Er	-7546
Eu	-7547
It	-7548
Ke	-7549
Kh	-7550
Kr	-7551
Ma	-7552
Na	-7553
No	-7554
Oh	-7555
Pe	-7556
Pl	-7557
Qu	-7558
Se	-7559
Sk	-7560
Sw	-7561
Te	-7562
To	-7563
Ur	-7564
We	-7565
aB	-7566
dn	-7567
ef	-7568
fi	-7569
gn	-7570
gu	-7571
iw	-7572
ko	-7573
la	-7574
li	-7575
ls	-7576
mn	-7577
nn	-7578
pa	-7579
rh	-7580
rz	-7581
si	-7582
sm	-7583
sn	-7584
ss	-7585
tc	-7586
tw	-7587
wl	-7588
xy	-7589
yc	-7590
zt	-7591
▁i	-7592
▁—	-7593
▁‘	-7594
▁“	-7595
Act	-7596
Con	-7597
Ere	-7598
Gar	-7599
Af	-7600
Cal	-7601
Car	-7602
Jon	-7603
Mar	-7604
Mis	-7605
Nar	-7606
Pal	-7607
Sea	-7608
She	-7609
Til	-7610
Ver	-7611
Wes	-7612
aer	-7613
aic	-7614
aif	-7615
ais	-7616
aiz	-7617
aky	-7618
anb	-7619
arh	-7620
aya	-7621
ayd	-7622
ayn	-7623
bed	-7624
col	-7625
dec	-7626
dom	-7627
don	-7628
eah	-7629
ean	-7630
ehy	-7631
emo	-7632
enh	-7633
erb	-7634
eta	-7635
flo	-7636
gal	-7637
gom	-7638
gor	-7639
gow	-7640
him	-7641
iad	-7642
ido	-7643
ify	-7644
igz	-7645
jar	-7646
jax	-7647
ket	-7648
kha	-7649
kin	-7650
lec	-7651
lie	-7652
lob	-7653
lon	-7654
mon	-7655
mur	-7656
mus	-7657
nen	-7658
non	-7659
oed	-7660
ogo	-7661
onj	-7662
oop	-7663
opl	-7664
ora	-7665
orf	-7666
osu	-7667
owa	-7668
oys	-7669
phe	-7670
pow	-7671
psw	-7672
rep	-7673
riv	-7674
roC	-7675
roz	-7676
she	-7677
squ	-7678
sub	-7679
sum	-7680
tos	-7681
ulf	-7682
uno	-7683
van	-7684
vas	-7685
via	-7686
was	-7687
wau	-7688
whe	-7689
win	-7690
xer	-7691
yer	-7692
zzo	-7693
▁Ai	-7694
▁Ak	-7695
▁Ga	-7696
▁Mu	-7697
▁Py	-7698
▁Ts	-7699
For	-7700
Hel	-7701
ded	-7702
ede	-7703
gam	-7704
god	-7705
hal	-7706
osi	-7707
rec	-7708
rez	-7709
sek	-7710
sis	-7711
tit	-7712
▁Tu	-7713
▁di	-7714
▁ec	-7715
▁ox	-7716
▁tu	-7717
▁ug	-7718
Aust	-7719
Iron	-7720
Land	-7721
Lord	-7722
Maip	-7723
Mark	-7724
Pope	-7725
Prom	-7726
abwe	-7727
adel	-7728
adua	-7729
agst	-7730
ahom	-7731
aifa	-7732
aimi	-7733
aits	-7734
ajum	-7735
alin	-7736
alph	-7737
angp	-7738
anit	-7739
antz	-7740
aphy	-7741
apor	-7742
appy	-7743
arga	-7744
asma	-7745
asse	-7746
atte	-7747
auen	-7748
awah	-7749
bean	-7750
berl	-7751
blue	-7752
cano	-7753
chus	-7754
dest	-7755
eals	-7756
edad	-7757
eldr	-7758
elic	-7759
elin	-7760
emar	-7761
emic	-7762
enta	-7763
enus	-7764
eous	-7765
eper	-7766
eral	-7767
eren	-7768
erit	-7769
erly	-7770
eser	-7771
ewis	-7772
exas	-7773
fall	-7774
fast	-7775
fern	-7776
fold	-7777
gers	-7778
glow	-7779
hana	-7780
hash	-7781
hecy	-7782
heon	-7783
iale	-7784
ianx	-7785
iate	-7786
ichi	-7787
ieng	-7788
ienn	-7789
ifes	-7790
igen	-7791
igil	-7792
igny	-7793
imba	-7794
inat	-7795
inct	-7796
inez	-7797
inor	-7798
itio	-7799
Dor	-7800
Gor	-7801
Mor	-7802
Tor	-7803
atz	-7804
eni	-7805
eno	-7806
enw	-7807
ypn	-7808
zes	-7809
▁cu	-7810
List	-7811
Rock	-7812
anji	-7813
aret	-7814
atin	-7815
bara	-7816
conj	-7817
eror	-7818
eyto	-7819
itol	-7820
ivic	-7821
leaf	-7822
leed	-7823
leet	-7824
muda	-7825
nage	-7826
ndel	-7827
nedy	-7828
nish	-7829
nith	-7830
nost	-7831
ocom	-7832
odas	-7833
ogit	-7834
ogle	-7835
ogne	-7836
oist	-7837
olar	-7838
oldw	-7839
onan	-7840
oner	-7841
onis	-7842
only	-7843
opon	-7844
orer	-7845
orls	-7846
otta	-7847
otto	-7848
ouch	-7849
ovan	-7850
oxic	-7851
pace	-7852
pton	-7853
real	-7854
rean	-7855
rehe	-7856
rele	-7857
resa	-7858
rika	-7859
rint	-7860
rium	-7861
shaw	-7862
sout	-7863
sten	-7864
stit	-7865
uart	-7866
ugos	-7867
ules	-7868
uloz	-7869
unan	-7870
undo	-7871
unna	-7872
unum	-7873
urel	-7874
uret	-7875
ustr	-7876
vest	-7877
wego	-7878
ycin	-7879
ynne	-7880
zing	-7881
ztec	-7882
▁AaB	-7883
▁Aes	-7884
▁Ait	-7885
▁Ali	-7886
▁Alm	-7887
▁Ark	-7888
▁Aus	-7889
▁Ayr	-7890
▁Bad	-7891
▁Bes	-7892
▁Bib	-7893
▁Bit	-7894
▁Buk	-7895
▁Cel	-7896
▁Cem	-7897
▁Cob	-7898
▁Cro	-7899
Com	-7900
Fal	-7901
Mat	-7902
agl	-7903
alb	-7904
asw	-7905
cht	-7906
ehl	-7907
esl	-7908
sit	-7909
sou	-7910
uit	-7911
▁Aw	-7912
▁os	-7913
Yald	-7914
aphe	-7915
avic	-7916
ccas	-7917
flow	-7918
imal	-7919
imet	-7920
inky	-7921
kill	-7922
lyan	-7923
rate	-7924
tero	-7925
tert	-7926
▁	-7927
e	-7928
a	-7929
t	-7930
i	-7931
o	-7932
n	-7933
s	-7934
r	-7935
h	-7936
l	-7937
d	-7938
c	-7939
u	-7940
m	-7941
.	-7942
f	-7943
p	-7944
g	-7945
w	-7946
y	-7947
b	-7948
v	-7949
T	-7950
,	-7951
k	-7952
S	-7953
H	-7954
A	-7955
I	-7956
C	-7957
"	-7958
B	-7959
M	-7960
'	-7961
P	-7962
-	-7963
x	-7964
L	-7965
R	-7966
F	-7967
D	-7968
W	-7969
G	-7970
E	-7971
N	-7972
z	-7973
O	-7974
j	-7975
q	-7976
J	-7977
K	-7978
V	-7979
U	-7980
Y	-7981
?	-7982
!	-7983
Z	-7984
:	-7985
’	-7986
Q	-7987
;	-7988
(	-7989
)	-7990
X	-7991
–	-7992
—	-7993
‘	-7994
“	-7995
”	-7996
