<unk>	0
<s>	0
</s>	0
he	-0
▁t	-1
in	-2
▁a	-3
er	-4
on	-5
re	-6
▁the	-7
▁s	-8
ed	-9
is	-10
or	-11
an	-12
at	-13
▁c	-14
▁w	-15
en	-16
it	-17
▁o	-18
al	-19
es	-20
▁b	-21
ar	-22
as	-23
▁T	-24
▁f	-25
▁p	-26
▁in	-27
nd	-28
▁of	-29
ion	-30
▁m	-31
ing	-32
▁h	-33
▁l	-34
▁The	-35
▁and	-36
ou	-37
el	-38
▁is	-39
om	-40
▁d	-41
il	-42
▁H	-43
ic	-44
▁re	-45
▁S	-46
ra	-47
ent	-48
▁to	-49
st	-50
▁A	-51
▁was	-52
ro	-53
le	-54
▁I	-55
▁M	-56
▁C	-57
▁be	-58
▁for	-59
ation	-60
ct	-61
▁u	-62
am	-63
et	-64
▁g	-65
▁st	-66
ig	-67
ot	-68
▁n	-69
▁on	-70
▁th	-71
ir	-72
ly	-73
ur	-74
▁e	-75
and	-76
ver	-77
▁He	-78
im	-79
ol	-80
ul	-81
ow	-82
ut	-83
▁B	-84
her	-85
▁al	-86
▁L	-87
ch	-88
id	-89
ter	-90
ad	-91
ay	-92
iv	-93
so	-94
▁"	-95
ith	-96
th	-97
us	-98
▁D	-99
▁with	-100
em	-101
op	-102
▁It	-103
▁are	-104
os	-105
▁P	-106
all	-107
ies	-108
▁as	-109
ag	-110
ist	-111
ity	-112
▁he	-113
ated	-114
▁pro	-115
ck	-116
ia	-117
ld	-118
▁E	-119
▁W	-120
▁r	-121
ain	-122
▁com	-123
▁con	-124
▁also	-125
av	-126
nt	-127
ore	-128
▁de	-129
▁wor	-130
ce	-131
qu	-132
▁N	-133
▁O	-134
ate	-135
ear	-136
igh	-137
ong	-138
▁ex	-139
ab	-140
od	-141
▁F	-142
▁R	-143
for	-144
▁Th	-145
▁or	-146
▁se	-147
ud	-148
un	-149
▁G	-150
ame	-151
ell	-152
ers	-153
ill	-154
▁at	-155
▁has	-156
▁his	-157
▁tra	-158
du	-159
ri	-160
ts	-161
um	-162
▁v	-163
est	-164
our	-165
▁it	-166
▁li	-167
▁lo	-168
ater	-169
ther	-170
▁work	-171
ea	-172
ge	-173
pp	-174
ans	-175
ave	-176
end	-177
ome	-178
ost	-179
▁su	-180
fter	-181
ition	-182
".	-183
ci	-184
ew	-185
ke	-186
se	-187
wn	-188
wo	-189
ail	-190
ant	-191
rom	-192
ure	-193
▁by	-194
▁cl	-195
ally	-196
nder	-197
▁can	-198
▁one	-199
ction	-200
▁This	-201
▁that	-202
▁this	-203
ap	-204
ff	-205
ip	-206
ms	-207
▁J	-208
any	-209
ast	-210
cho	-211
one	-212
ree	-213
ult	-214
▁In	-215
▁an	-216
▁bo	-217
▁pl	-218
▁un	-219
ight	-220
▁bec	-221
▁res	-222
▁ser	-223
▁two	-224
chool	-225
ities	-226
▁comp	-227
▁have	-228
pl	-229
to	-230
ue	-231
▁K	-232
▁y	-233
art	-234
ely	-235
ere	-236
ign	-237
ire	-238
ust	-239
vel	-240
▁An	-241
▁Ch	-242
▁ch	-243
▁el	-244
▁le	-245
▁ra	-246
▁sh	-247
able	-248
ents	-249
ment	-250
ount	-251
vers	-252
▁her	-253
▁inc	-254
▁been	-255
▁town	-256
ations	-257
▁under	-258
ak	-259
gh	-260
iz	-261
ne	-262
uc	-263
▁j	-264
act	-265
ank	-266
ard	-267
are	-268
der	-269
ect	-270
gra	-271
ine	-272
ive	-273
mer	-274
pen	-275
pre	-276
rou	-277
sed	-278
▁ab	-279
▁no	-280
▁up	-281
form	-282
irst	-283
land	-284
ould	-285
outh	-286
very	-287
▁she	-288
alled	-289
▁city	-290
▁from	-291
▁serv	-292
▁some	-293
dition	-294
▁After	-295
▁first	-296
▁later	-297
▁School	-298
ac	-299
bl	-300
ie	-301
if	-302
oy	-303
pe	-304
te	-305
ve	-306
▁V	-307
▁Y	-308
age	-309
amp	-310
ark	-311
cor	-312
ean	-313
gan	-314
ice	-315
ict	-316
ide	-317
ilm	-318
ish	-319
low	-320
now	-321
ock	-322
ort	-323
ory	-324
oth	-325
ous	-326
rit	-327
▁tr	-328
ange	-329
arri	-330
ears	-331
ical	-332
leas	-333
mand	-334
pres	-335
▁all	-336
▁app	-337
▁att	-338
▁bel	-339
▁had	-340
▁loc	-341
▁min	-342
▁ref	-343
▁reg	-344
▁sur	-345
ended	-346
▁They	-347
▁cont	-348
▁used	-349
▁were	-350
▁other	-351
▁produ	-352
▁within	-353
af	-354
aw	-355
dm	-356
hn	-357
ib	-358
ks	-359
li	-360
ng	-361
oc	-362
og	-363
ph	-364
up	-365
▁U	-366
▁k	-367
ach	-368
ade	-369
ari	-370
ary	-371
ass	-372
ced	-373
con	-374
ial	-375
ind	-376
ink	-377
lud	-378
ned	-379
ody	-380
ood	-381
oot	-382
ors	-383
per	-384
red	-385
ten	-386
yst	-387
▁Al	-388
▁De	-389
▁Du	-390
▁Jo	-391
▁ag	-392
▁av	-393
▁ro	-394
▁wh	-395
anag	-396
ates	-397
cial	-398
ings	-399
ital	-400
nown	-401
oted	-402
sion	-403
tern	-404
ural	-405
▁Com	-406
▁His	-407
▁Nor	-408
▁She	-409
▁act	-410
▁dem	-411
▁its	-412
▁may	-413
▁old	-414
▁per	-415
aking	-416
icult	-417
ident	-418
▁High	-419
▁boat	-420
▁conf	-421
▁cour	-422
▁inst	-423
▁most	-424
▁only	-425
▁open	-426
▁same	-427
▁they	-428
▁year	-429
arried	-430
▁There	-431
▁after	-432
▁their	-433
▁three	-434
▁train	-435
▁trans	-436
▁would	-437
▁became	-438
▁called	-439
▁includ	-440
▁progra	-441
▁releas	-442
▁company	-443
▁located	-444
▁married	-445
▁station	-446
▁attended	-447
aj	-448
au	-449
ey	-450
la	-451
ni	-452
pt	-453
ru	-454
ry	-455
sh	-456
ang	-457
ath	-458
ber	-459
bse	-460
ces	-461
eop	-462
ery	-463
ful	-464
ged	-465
hed	-466
ian	-467
ica	-468
ied	-469
ild	-470
ilw	-471
ime	-472
imp	-473
ina	-474
int	-475
les	-476
mun	-477
oon	-478
opy	-479
orn	-480
out	-481
pos	-482
que	-483
ral	-484
rat	-485
ren	-486
ron	-487
row	-488
udg	-489
ull	-490
use	-491
uss	-492
▁Gr	-493
▁La	-494
▁Sc	-495
▁St	-496
▁Wh	-497
▁ar	-498
▁en	-499
▁po	-500
▁pr	-501
▁sc	-502
▁sw	-503
▁vi	-504
ails	-505
aint	-506
ajor	-507
amed	-508
ames	-509
ance	-510
ball	-511
each	-512
ends	-513
ever	-514
ined	-515
ired	-516
kill	-517
omet	-518
ongs	-519
rain	-520
road	-521
ular	-522
ules	-523
uman	-524
uten	-525
▁Con	-526
▁For	-527
▁Her	-528
▁Ind	-529
▁Mon	-530
▁One	-531
▁You	-532
▁but	-533
▁def	-534
▁dep	-535
▁est	-536
▁fol	-537
▁gra	-538
▁ins	-539
▁lie	-540
▁mag	-541
▁not	-542
▁now	-543
▁off	-544
▁out	-545
▁par	-546
▁pos	-547
▁rel	-548
▁say	-549
▁ter	-550
▁unt	-551
▁whe	-552
aract	-553
arent	-554
bsequ	-555
ected	-556
ellow	-557
ement	-558
ented	-559
eople	-560
erred	-561
ility	-562
ister	-563
ounty	-564
rough	-565
uring	-566
▁John	-567
▁That	-568
▁born	-569
▁both	-570
▁cent	-571
▁clos	-572
▁film	-573
▁list	-574
▁made	-575
▁plat	-576
▁post	-577
▁rank	-578
▁stud	-579
▁very	-580
▁writ	-581
eaning	-582
ission	-583
▁South	-584
▁about	-585
▁human	-586
▁known	-587
▁major	-588
▁manag	-589
▁paint	-590
▁rules	-591
▁story	-592
▁there	-593
▁track	-594
ational	-595
ication	-596
ivities	-597
unction	-598
utenant	-599
▁follow	-600
▁people	-601
▁region	-602
▁repres	-603
bsequent	-604
ditional	-605
▁charact	-606
▁command	-607
▁perform	-608
▁through	-609
▁working	-610
▁referred	-611
ditionally	-612
▁subsequent	-613
az	-614
bs	-615
de	-616
ee	-617
ex	-618
fr	-619
ft	-620
ix	-621
lo	-622
mm	-623
ns	-624
sc	-625
tt	-626
uz	-627
ym	-628
ys	-629
▁'	-630
Dis	-631
aim	-632
air	-633
ali	-634
ane	-635
arr	-636
ars	-637
ati	-638
awy	-639
ayo	-640
but	-641
cad	-642
cer	-643
che	-644
cks	-645
ded	-646
eal	-647
eck	-648
eds	-649
eep	-650
elf	-651
elv	-652
ems	-653
eng	-654
ens	-655
eor	-656
eth	-657
ett	-658
ick	-659
ics	-660
iga	-661
ins	-662
ips	-663
irl	-664
ite	-665
kes	-666
led	-667
man	-668
nia	-669
nli	-670
oct	-671
oks	-672
old	-673
ope	-674
ord	-675
ott	-676
oya	-677
par	-678
por	-679
rel	-680
rew	-681
tur	-682
ude	-683
uil	-684
und	-685
ute	-686
ven	-687
yal	-688
▁Ad	-689
▁Br	-690
▁Cl	-691
▁Co	-692
▁El	-693
▁Fr	-694
▁Iv	-695
▁Mo	-696
▁Or	-697
▁Sh	-698
▁So	-699
▁ad	-700
▁am	-701
▁ed	-702
▁em	-703
▁ev	-704
▁fe	-705
▁ge	-706
▁go	-707
▁la	-708
▁me	-709
▁mo	-710
▁ph	-711
▁qu	-712
▁sm	-713
▁te	-714
▁we	-715
Disc	-716
agan	-717
aims	-718
akes	-719
arle	-720
arth	-721
ases	-722
ason	-723
ause	-724
bell	-725
body	-726
dmin	-727
dmir	-728
ence	-729
ener	-730
ered	-731
etro	-732
ford	-733
fore	-734
ible	-735
icro	-736
ifts	-737
ilar	-738
imes	-739
ions	-740
ists	-741
itle	-742
ived	-743
iver	-744
ives	-745
ixed	-746
ized	-747
lish	-748
mark	-749
olis	-750
olog	-751
oned	-752
oney	-753
onth	-754
oped	-755
opes	-756
oses	-757
ough	-758
port	-759
pped	-760
rate	-761
reas	-762
reet	-763
rest	-764
rike	-765
roup	-766
sive	-767
soci	-768
stra	-769
ters	-770
ucin	-771
uous	-772
ustr	-773
vell	-774
vels	-775
vern	-776
▁Ann	-777
▁Bas	-778
▁Eng	-779
▁Ger	-780
▁Nav	-781
▁Net	-782
▁New	-783
▁Rhe	-784
▁Sea	-785
▁Ser	-786
▁Taf	-787
▁Wal	-788
▁agr	-789
▁bus	-790
▁cab	-791
▁cal	-792
▁cap	-793
▁car	-794
▁cur	-795
▁des	-796
▁det	-797
▁did	-798
▁due	-799
▁ear	-800
▁ent	-801
▁equ	-802
▁fam	-803
▁fre	-804
▁him	-805
▁imp	-806
▁int	-807
▁lif	-808
▁med	-809
▁new	-810
▁non	-811
▁num	-812
▁pet	-813
▁pop	-814
▁pow	-815
▁pur	-816
▁rat	-817
▁ren	-818
▁sel	-819
▁sim	-820
▁spe	-821
▁sus	-822
▁tro	-823
▁und	-824
▁win	-825
ained	-826
ainst	-827
ample	-828
anded	-829
ariet	-830
ately	-831
ature	-832
ayers	-833
cadem	-834
dange	-835
elves	-836
eorge	-837
eting	-838
forms	-839
ganis	-840
igned	-841
ilway	-842
indow	-843
ision	-844
itors	-845
itude	-846
ively	-847
nlike	-848
octor	-849
onged	-850
ories	-851
pired	-852
posed	-853
press	-854
thing	-855
ually	-856
veral	-857
▁Amer	-858
▁Cali	-859
▁Dual	-860
▁Line	-861
▁Many	-862
▁Most	-863
▁Part	-864
▁Rock	-865
▁Russ	-866
▁Tean	-867
▁What	-868
▁area	-869
▁band	-870
▁clim	-871
▁copy	-872
▁died	-873
▁done	-874
▁expl	-875
▁fail	-876
▁foot	-877
▁fore	-878
▁four	-879
▁grow	-880
▁hall	-881
▁head	-882
▁held	-883
▁high	-884
▁hist	-885
▁home	-886
▁into	-887
▁jour	-888
▁judg	-889
▁just	-890
▁lawy	-891
▁left	-892
▁like	-893
▁line	-894
▁love	-895
▁many	-896
▁more	-897
▁name	-898
▁oper	-899
▁over	-900
▁prom	-901
▁prov	-902
▁resc	-903
▁root	-904
▁seen	-905
▁ship	-906
▁sign	-907
▁sing	-908
▁soon	-909
▁stay	-910
▁supp	-911
▁swim	-912
▁syst	-913
▁them	-914
▁then	-915
▁unit	-916
▁vers	-917
▁view	-918
▁whom	-919
▁will	-920
▁word	-921
corded	-922
ctions	-923
ection	-924
ectron	-925
ements	-926
fornia	-927
icrosc	-928
ildren	-929
istrat	-930
itions	-931
mander	-932
owever	-933
parate	-934
turned	-935
▁Beach	-936
▁China	-937
▁Earth	-938
▁Frank	-939
▁Grand	-940
▁India	-941
▁North	-942
▁Other	-943
▁These	-944
▁avail	-945
▁books	-946
▁cases	-947
▁const	-948
▁court	-949
▁devel	-950
▁every	-951
▁gener	-952
▁gifts	-953
▁gradu	-954
▁group	-955
▁light	-956
▁mines	-957
▁mixed	-958
▁month	-959
▁mount	-960
▁names	-961
▁often	-962
▁plant	-963
▁races	-964
▁resid	-965
▁shoot	-966
▁skill	-967
▁small	-968
▁songs	-969
▁south	-970
▁thems	-971
▁title	-972
▁until	-973
▁water	-974
▁where	-975
▁works	-976
▁world	-977
bellain	-978
herland	-979
mission	-980
rainage	-981
versity	-982
▁County	-983
▁Doctor	-984
▁George	-985
▁Tafoya	-986
▁Unlike	-987
▁associ	-988
▁become	-989
▁claims	-990
▁commun	-991
▁compet	-992
▁entire	-993
▁famous	-994
▁filmed	-995
▁govern	-996
▁instit	-997
▁making	-998
▁nation	-999
▁number	-1000
▁petrel	-1001
▁rather	-1002
▁saying	-1003
▁school	-1004
▁season	-1005
▁served	-1006
▁serves	-1007
▁should	-1008
▁strike	-1009
▁variet	-1010
▁window	-1011
▁worked	-1012
idential	-1013
lication	-1014
ological	-1015
ometimes	-1016
▁America	-1017
▁Teaneck	-1018
▁against	-1019
▁capital	-1020
▁central	-1021
▁closely	-1022
▁example	-1023
▁express	-1024
▁foreign	-1025
▁increas	-1026
▁meaning	-1027
▁microsc	-1028
▁players	-1029
▁popular	-1030
▁railway	-1031
▁renamed	-1032
▁service	-1033
▁several	-1034
▁similar	-1035
▁travell	-1036
formation	-1037
icultural	-1038
▁DualDisc	-1039
▁Junction	-1040
▁belonged	-1041
▁children	-1042
▁demanded	-1043
▁electron	-1044
▁football	-1045
▁hallucin	-1046
▁inspired	-1047
▁minister	-1048
▁mountain	-1049
▁produced	-1050
▁programs	-1051
▁promoted	-1052
▁proposed	-1053
▁recorded	-1054
▁regional	-1055
▁releases	-1056
▁returned	-1057
▁separate	-1058
▁training	-1059
dministrat	-1060
▁Commander	-1061
▁available	-1062
▁following	-1063
▁installed	-1064
▁performed	-1065
▁platforms	-1066
▁varieties	-1067
ternational	-1068
▁California	-1069
▁activities	-1070
▁associated	-1071
▁characters	-1072
▁everything	-1073
▁government	-1074
▁graduation	-1075
▁lieutenant	-1076
▁themselves	-1077
▁represented	-1078
▁residential	-1079
▁traditional	-1080
▁Additionally	-1081
▁agricultural	-1082
▁subsequently	-1083
▁transmission	-1084
▁hallucinations	-1085
",	-1086
'.	-1087
Ne	-1088
Sh	-1089
Sw	-1090
ai	-1091
ba	-1092
bb	-1093
be	-1094
br	-1095
by	-1096
ca	-1097
cc	-1098
ec	-1099
co	-1100
eh	-1101
ev	-1102
gl	-1103
gn	-1104
gu	-1105
gy	-1106
hl	-1107
io	-1108
kw	-1109
lp	-1110
me	-1111
mi	-1112
mo	-1113
my	-1114
nc	-1115
no	-1116
ok	-1117
oq	-1118
ov	-1119
pi	-1120
pr	-1121
py	-1122
rd	-1123
rs	-1124
sk	-1125
sn	-1126
ss	-1127
tr	-1128
tw	-1129
ub	-1130
yl	-1131
yz	-1132
za	-1133
▁X	-1134
For	-1135
Ket	-1136
Nar	-1137
The	-1138
abb	-1139
ace	-1140
adc	-1141
afe	-1142
ait	-1143
ale	-1144
alf	-1145
alm	-1146
als	-1147
ann	-1148
aps	-1149
arb	-1150
arg	-1151
arh	-1152
arl	-1153
ata	-1154
att	-1155
aug	-1156
aut	-1157
ayn	-1158
ban	-1159
bel	-1160
big	-1161
bit	-1162
ble	-1163
bra	-1164
bre	-1165
car	-1166
cen	-1167
cep	-1168
cul	-1169
dia	-1170
dom	-1171
edu	-1172
edy	-1173
ees	-1174
eks	-1175
elb	-1176
eni	-1177
enn	-1178
eno	-1179
era	-1180
erk	-1181
ern	-1182
ess	-1183
etr	-1184
ety	-1185
fes	-1186
fts	-1187
gel	-1188
ger	-1189
gia	-1190
gin	-1191
gon	-1192
ham	-1193
hen	-1194
hil	-1195
ich	-1196
ico	-1197
ien	-1198
iff	-1199
agh	-1200
agl	-1201
chy	-1202
cog	-1203
day	-1204
ead	-1205
ids	-1206
igm	-1207
ike	-1208
ile	-1209
imo	-1210
inn	-1211
ird	-1212
irs	-1213
irt	-1214
iry	-1215
ise	-1216
itt	-1217
itu	-1218
ked	-1219
lah	-1220
lds	-1221
leg	-1222
let	-1223
lew	-1224
lex	-1225
men	-1226
mes	-1227
mit	-1228
nal	-1229
nce	-1230
net	-1231
ney	-1232
nqu	-1233
nti	-1234
oes	-1235
ogs	-1236
oid	-1237
omb	-1238
omy	-1239
ops	-1240
ori	-1241
ork	-1242
orm	-1243
ose	-1244
osp	-1245
oto	-1246
oty	-1247
owl	-1248
own	-1249
oyz	-1250
pel	-1251
pes	-1252
phy	-1253
pid	-1254
pup	-1255
put	-1256
rea	-1257
rec	-1258
rez	-1259
rix	-1260
sem	-1261
ses	-1262
sid	-1263
sol	-1264
son	-1265
sra	-1266
sue	-1267
sum	-1268
tee	-1269
tre	-1270
ual	-1271
ubl	-1272
uco	-1273
ues	-1274
uff	-1275
uit	-1276
ulw	-1277
unk	-1278
urg	-1279
urm	-1280
uro	-1281
uru	-1282
uto	-1283
utt	-1284
uty	-1285
uzz	-1286
vas	-1287
ved	-1288
vil	-1289
von	-1290
yel	-1291
yle	-1292
▁At	-1293
▁Dr	-1294
▁Ex	-1295
▁Ko	-1296
▁Le	-1297
▁Mc	-1298
▁Me	-1299
aff	-1300
eaf	-1301
eak	-1302
ffe	-1303
gun	-1304
ode	-1305
pap	-1306
swo	-1307
tsm	-1308
ung	-1309
▁Mi	-1310
▁My	-1311
▁Od	-1312
▁Ox	-1313
▁Pr	-1314
▁Sa	-1315
▁Se	-1316
▁Sp	-1317
▁Su	-1318
▁To	-1319
▁Tr	-1320
▁We	-1321
▁ac	-1322
▁aw	-1323
▁bl	-1324
▁co	-1325
▁er	-1326
▁im	-1327
▁ke	-1328
▁sl	-1329
▁us	-1330
▁ut	-1331
Jers	-1332
Land	-1333
List	-1334
Mars	-1335
Well	-1336
abil	-1337
ably	-1338
acts	-1339
aden	-1340
ader	-1341
ague	-1342
alan	-1343
alls	-1344
amat	-1345
anal	-1346
anta	-1347
ants	-1348
apan	-1349
apel	-1350
apup	-1351
ardi	-1352
arts	-1353
arty	-1354
asin	-1355
asit	-1356
asiz	-1357
atic	-1358
atir	-1359
atra	-1360
augh	-1361
aves	-1362
avia	-1363
back	-1364
blin	-1365
blue	-1366
cast	-1367
ceal	-1368
cell	-1369
cket	-1370
cogn	-1371
cond	-1372
ctic	-1373
ctiv	-1374
ctly	-1375
duct	-1376
dust	-1377
ecut	-1378
eder	-1379
elet	-1380
elli	-1381
emet	-1382
empt	-1383
enot	-1384
ense	-1385
eria	-1386
erit	-1387
erry	-1388
erth	-1389
esco	-1390
eway	-1391
ewis	-1392
ffer	-1393
fric	-1394
gend	-1395
gies	-1396
gone	-1397
hera	-1398
hlit	-1399
Coc	-1400
Luc	-1401
aco	-1402
blo	-1403
iza	-1404
Coca	-1405
Port	-1406
acil	-1407
alif	-1408
ampa	-1409
ampl	-1410
angu	-1411
ards	-1412
ayne	-1413
bled	-1414
chie	-1415
chni	-1416
cree	-1417
gree	-1418
icer	-1419
icip	-1420
icks	-1421
ided	-1422
ideo	-1423
ider	-1424
ides	-1425
idge	-1426
ieve	-1427
ifth	-1428
igin	-1429
igns	-1430
igur	-1431
iley	-1432
ills	-1433
imum	-1434
inan	-1435
ince	-1436
inds	-1437
inel	-1438
inkl	-1439
ints	-1440
iple	-1441
irls	-1442
irth	-1443
irts	-1444
ised	-1445
ises	-1446
istr	-1447
itch	-1448
itio	-1449
iven	-1450
izer	-1451
lear	-1452
lege	-1453
lict	-1454
link	-1455
list	-1456
long	-1457
lter	-1458
main	-1459
mart	-1460
more	-1461
most	-1462
nach	-1463
nast	-1464
ngth	-1465
ntly	-1466
ocal	-1467
ocum	-1468
olan	-1469
oles	-1470
oman	-1471
omen	-1472
omes	-1473
omin	-1474
onal	-1475
onic	-1476
onto	-1477
opew	-1478
orea	-1479
ored	-1480
ores	-1481
orre	-1482
oser	-1483
otte	-1484
ouis	-1485
ound	-1486
ourt	-1487
oute	-1488
oyal	-1489
oyed	-1490
pand	-1491
phic	-1492
phin	-1493
pium	-1494
plit	-1495
quar	-1496
rang	-1497
reer	-1498
rist	-1499
aft	-1500
upy	-1501
bert	-1502
ffey	-1503
igib	-1504
lair	-1505
noon	-1506
oung	-1507
pass	-1508
ress	-1509
rodu	-1510
rong	-1511
ront	-1512
ruct	-1513
ruit	-1514
seas	-1515
self	-1516
ship	-1517
sock	-1518
teen	-1519
this	-1520
time	-1521
tole	-1522
toty	-1523
ulpt	-1524
umni	-1525
unes	-1526
urch	-1527
used	-1528
ushn	-1529
utom	-1530
vast	-1531
vent	-1532
vice	-1533
west	-1534
wide	-1535
work	-1536
year	-1537
▁Act	-1538
▁Air	-1539
▁All	-1540
▁App	-1541
▁Ard	-1542
▁Bal	-1543
▁Bay	-1544
▁Bea	-1545
▁Bor	-1546
▁Cla	-1547
▁Col	-1548
▁Div	-1549
▁Fis	-1550
▁Fur	-1551
▁Ham	-1552
▁Hol	-1553
▁Hon	-1554
▁Hul	-1555
▁Hus	-1556
▁Ire	-1557
▁Its	-1558
▁Kim	-1559
▁Lai	-1560
▁Lao	-1561
▁Lie	-1562
▁Los	-1563
▁Mal	-1564
▁Mar	-1565
▁Med	-1566
▁Mex	-1567
▁Mir	-1568
▁Mod	-1569
▁Mrs	-1570
▁Mun	-1571
▁Not	-1572
▁Nuc	-1573
▁Oil	-1574
▁Old	-1575
▁Por	-1576
▁Pre	-1577
▁Pro	-1578
▁Pue	-1579
▁Red	-1580
▁Sac	-1581
▁Sen	-1582
▁Sin	-1583
▁Spe	-1584
▁Sut	-1585
▁Tac	-1586
▁Ter	-1587
▁Tor	-1588
▁Tus	-1589
▁Und	-1590
▁Uni	-1591
▁Vaz	-1592
▁Vir	-1593
▁War	-1594
▁Wes	-1595
▁Who	-1596
▁Wor	-1597
▁ack	-1598
▁aff	-1599
ext	-1600
ubs	-1601
Lord	-1602
buil	-1603
hips	-1604
load	-1605
ribe	-1606
sens	-1607
ucks	-1608
uzon	-1609
veys	-1610
weep	-1611
▁Emo	-1612
▁Imm	-1613
▁adv	-1614
▁ann	-1615
▁art	-1616
▁bot	-1617
▁box	-1618
▁boy	-1619
▁bra	-1620
▁bro	-1621
▁bur	-1622
▁cam	-1623
▁cou	-1624
▁cre	-1625
▁day	-1626
▁dig	-1627
▁div	-1628
▁don	-1629
▁dot	-1630
▁dou	-1631
▁dra	-1632
▁eth	-1633
▁fri	-1634
▁god	-1635
▁got	-1636
▁gun	-1637
▁gym	-1638
▁hav	-1639
▁hut	-1640
▁ill	-1641
▁inf	-1642
▁inj	-1643
▁ink	-1644
▁let	-1645
▁lim	-1646
▁lit	-1647
▁los	-1648
▁man	-1649
▁mem	-1650
▁men	-1651
▁mer	-1652
▁mos	-1653
▁mur	-1654
▁nea	-1655
▁nob	-1656
▁occ	-1657
▁own	-1658
▁pas	-1659
▁pra	-1660
▁pus	-1661
▁ran	-1662
▁rez	-1663
▁rim	-1664
▁saw	-1665
▁see	-1666
▁sol	-1667
▁sou	-1668
▁too	-1669
▁top	-1670
▁uni	-1671
▁unk	-1672
▁upd	-1673
▁via	-1674
ached	-1675
ainly	-1676
airly	-1677
aling	-1678
ality	-1679
ament	-1680
ander	-1681
andin	-1682
andon	-1683
anned	-1684
antic	-1685
areer	-1686
aring	-1687
arris	-1688
arsen	-1689
arted	-1690
aught	-1691
aveat	-1692
ayoff	-1693
azine	-1694
bined	-1695
blems	-1696
brane	-1697
bsite	-1698
built	-1699
▁add	-1700
arley	-1701
buted	-1702
cepts	-1703
cerns	-1704
certo	-1705
corer	-1706
coria	-1707
dered	-1708
derly	-1709
duate	-1710
ealed	-1711
earby	-1712
earce	-1713
earch	-1714
ectar	-1715
enger	-1716
ength	-1717
enter	-1718
ereal	-1719
ereed	-1720
erist	-1721
ersea	-1722
ethod	-1723
etror	-1724
force	-1725
fring	-1726
fully	-1727
ganiz	-1728
geles	-1729
ibers	-1730
ickup	-1731
igade	-1732
illed	-1733
ilman	-1734
ilwer	-1735
iment	-1736
imply	-1737
incor	-1738
inder	-1739
ining	-1740
inked	-1741
ipped	-1742
ishop	-1743
itive	-1744
itled	-1745
ittle	-1746
ivial	-1747
kward	-1748
lated	-1749
leans	-1750
lessn	-1751
light	-1752
lives	-1753
loban	-1754
lower	-1755
manag	-1756
merso	-1757
mming	-1758
nding	-1759
netic	-1760
ocach	-1761
oodst	-1762
ordin	-1763
orses	-1764
osion	-1765
otton	-1766
pense	-1767
plain	-1768
poned	-1769
ports	-1770
poses	-1771
raged	-1772
ralia	-1773
rench	-1774
ribut	-1775
right	-1776
roads	-1777
shire	-1778
sible	-1779
swood	-1780
teins	-1781
terol	-1782
tford	-1783
thern	-1784
treal	-1785
uitar	-1786
ultan	-1787
ulted	-1788
ulwer	-1789
undra	-1790
ureau	-1791
useum	-1792
using	-1793
usual	-1794
utely	-1795
venir	-1796
versy	-1797
vived	-1798
water	-1799
Neil	-1800
alyz	-1801
gnot	-1802
gypt	-1803
mier	-1804
ncil	-1805
safe	-1806
▁Beh	-1807
▁Sno	-1808
▁Tai	-1809
▁cyl	-1810
adcli	-1811
arhus	-1812
augur	-1813
bbies	-1814
braic	-1815
breed	-1816
caran	-1817
cibel	-1818
ciety	-1819
enior	-1820
evans	-1821
ginia	-1822
glass	-1823
oking	-1824
onimo	-1825
place	-1826
preme	-1827
stead	-1828
tertw	-1829
ymore	-1830
yster	-1831
▁Alex	-1832
▁Also	-1833
▁Anne	-1834
▁Aust	-1835
▁Barb	-1836
▁Benn	-1837
▁Blew	-1838
▁Bold	-1839
▁Both	-1840
▁Bowl	-1841
▁Boyz	-1842
▁City	-1843
▁Cong	-1844
▁Core	-1845
▁Cutt	-1846
▁Dame	-1847
▁Dees	-1848
▁Dish	-1849
▁Dist	-1850
▁Dock	-1851
▁Each	-1852
▁East	-1853
▁Edia	-1854
▁Elig	-1855
▁Enqu	-1856
▁Fish	-1857
▁From	-1858
▁Fund	-1859
▁Gate	-1860
▁Good	-1861
▁Gras	-1862
▁Hass	-1863
▁Haut	-1864
▁Hong	-1865
▁Hung	-1866
▁Isra	-1867
▁Ivan	-1868
▁Joan	-1869
▁Judg	-1870
▁Kilm	-1871
▁King	-1872
▁Kong	-1873
▁Lane	-1874
▁Last	-1875
▁Lawn	-1876
▁Leaf	-1877
▁Like	-1878
▁Lomb	-1879
▁Long	-1880
▁Mary	-1881
▁Matt	-1882
▁Mayo	-1883
▁Minn	-1884
▁More	-1885
▁Mute	-1886
▁Myst	-1887
▁Navy	-1888
▁Nott	-1889
▁Once	-1890
▁Over	-1891
▁Palm	-1892
▁Pati	-1893
▁Perk	-1894
▁Phil	-1895
▁Pope	-1896
▁Prix	-1897
▁Sabb	-1898
▁Scot	-1899
uffy	-1900
Wells	-1901
asize	-1902
creek	-1903
paper	-1904
party	-1905
rezia	-1906
sumer	-1907
ublic	-1908
urope	-1909
ville	-1910
▁Liza	-1911
▁Luco	-1912
▁Punk	-1913
▁Shan	-1914
▁Side	-1915
▁Star	-1916
▁Then	-1917
▁Vari	-1918
▁Vast	-1919
▁Wall	-1920
▁Welf	-1921
▁When	-1922
▁With	-1923
▁Xeno	-1924
▁Yard	-1925
▁airs	-1926
▁alge	-1927
▁anti	-1928
▁apes	-1929
▁argu	-1930
▁bank	-1931
▁bark	-1932
▁bass	-1933
▁body	-1934
▁buil	-1935
▁bull	-1936
▁came	-1937
▁carn	-1938
▁club	-1939
▁cold	-1940
▁come	-1941
▁crew	-1942
▁crit	-1943
▁cult	-1944
▁curv	-1945
▁cust	-1946
▁date	-1947
▁dedu	-1948
▁dens	-1949
▁didn	-1950
▁diff	-1951
▁does	-1952
▁dogs	-1953
▁down	-1954
▁duty	-1955
▁east	-1956
▁econ	-1957
▁educ	-1958
▁emph	-1959
▁empl	-1960
▁ends	-1961
▁eyel	-1962
▁feel	-1963
▁fest	-1964
▁fine	-1965
▁form	-1966
▁free	-1967
▁full	-1968
▁gear	-1969
▁girl	-1970
▁give	-1971
▁good	-1972
▁grat	-1973
▁grew	-1974
▁gull	-1975
▁half	-1976
▁hand	-1977
▁hard	-1978
▁help	-1979
▁hill	-1980
▁hosp	-1981
▁hour	-1982
▁isot	-1983
▁keel	-1984
▁kill	-1985
▁laid	-1986
▁lake	-1987
▁land	-1988
▁larg	-1989
▁late	-1990
▁life	-1991
▁long	-1992
▁male	-1993
▁maps	-1994
▁mark	-1995
▁mode	-1996
▁move	-1997
▁mult	-1998
▁next	-1999
nacht	-2000
▁noth	-2001
▁pair	-2002
▁part	-2003
▁past	-2004
▁pati	-2005
▁pers	-2006
▁phys	-2007
▁pict	-2008
▁poor	-2009
▁prec	-2010
▁priv	-2011
▁puzz	-2012
▁rail	-2013
▁rain	-2014
▁rece	-2015
▁reli	-2016
▁reor	-2017
▁requ	-2018
▁ring	-2019
▁room	-2020
▁samp	-2021
▁scra	-2022
▁seat	-2023
▁sent	-2024
▁sick	-2025
▁side	-2026
▁sink	-2027
▁site	-2028
▁situ	-2029
▁slow	-2030
▁stop	-2031
▁stre	-2032
▁sued	-2033
▁susp	-2034
▁tact	-2035
▁tall	-2036
▁tann	-2037
▁team	-2038
▁term	-2039
▁than	-2040
▁thor	-2041
▁thus	-2042
▁time	-2043
▁tips	-2044
▁toen	-2045
▁unqu	-2046
▁upon	-2047
▁vans	-2048
▁vict	-2049
▁vill	-2050
▁viol	-2051
▁wait	-2052
▁well	-2053
▁went	-2054
Jersey	-2055
Keteks	-2056
Naruto	-2057
Switch	-2058
ablish	-2059
amples	-2060
angiga	-2061
apolis	-2062
arents	-2063
arians	-2064
arlett	-2065
arrier	-2066
arring	-2067
asites	-2068
athrow	-2069
atures	-2070
cademy	-2071
cenary	-2072
cially	-2073
cketed	-2074
ctices	-2075
dmiral	-2076
dustry	-2077
eakers	-2078
eeping	-2079
elbach	-2080
ending	-2081
enotes	-2082
ention	-2083
ersion	-2084
estone	-2085
estyle	-2086
frican	-2087
geries	-2088
herapy	-2089
icular	-2090
ienced	-2091
iginal	-2092
igmata	-2093
illery	-2094
incial	-2095
ingham	-2096
inting	-2097
inturm	-2098
inuous	-2099
ipment	-2100
ledged	-2101
legged	-2102
listed	-2103
market	-2104
mittee	-2105
munist	-2106
ometor	-2107
opment	-2108
orians	-2109
ortant	-2110
orting	-2111
otogra	-2112
ountry	-2113
parent	-2114
prised	-2115
render	-2116
rently	-2117
reston	-2118
rongly	-2119
skirts	-2120
straca	-2121
taking	-2122
ternat	-2123
tolemy	-2124
totype	-2125
ulates	-2126
ussian	-2127
ustees	-2128
ustria	-2129
utions	-2130
vasion	-2131
versaw	-2132
▁Agnot	-2133
▁Annie	-2134
▁Bears	-2135
▁Blair	-2136
▁Bolan	-2137
▁Buffy	-2138
▁Cable	-2139
▁Canal	-2140
▁Cemet	-2141
▁Champ	-2142
▁Charl	-2143
▁Child	-2144
▁Clark	-2145
▁Clubs	-2146
▁Court	-2147
▁Damat	-2148
▁Devon	-2149
▁Duchy	-2150
▁Egypt	-2151
▁Every	-2152
▁Falls	-2153
▁Girls	-2154
▁Greer	-2155
▁Hicks	-2156
▁Hopew	-2157
▁Indie	-2158
▁Ivrea	-2159
▁Japan	-2160
▁Korea	-2161
▁Kushn	-2162
▁Later	-2163
▁Leeds	-2164
▁Lewis	-2165
▁Louis	-2166
▁Luzon	-2167
▁Mardi	-2168
▁Metro	-2169
▁Mikes	-2170
▁Mills	-2171
▁Mirza	-2172
▁Moore	-2173
▁Moses	-2174
▁Mount	-2175
▁Naval	-2176
▁Odder	-2177
▁Opium	-2178
▁Pagan	-2179
▁Ragan	-2180
▁Rhett	-2181
▁Riley	-2182
▁River	-2183
▁Roman	-2184
▁Royal	-2185
▁Saiga	-2186
▁Santa	-2187
▁Shirt	-2188
▁Sitio	-2189
▁Sonic	-2190
▁State	-2191
▁Tails	-2192
▁Tesco	-2193
▁Their	-2194
▁Three	-2195
▁Vazov	-2196
▁Vinel	-2197
▁Wales	-2198
▁Walsh	-2199
▁Wayne	-2200
▁absol	-2201
▁achie	-2202
▁admir	-2203
▁along	-2204
▁ambig	-2205
▁among	-2206
▁apply	-2207
▁autom	-2208
▁avoid	-2209
▁basin	-2210
▁began	-2211
▁begun	-2212
▁being	-2213
▁berth	-2214
▁bevel	-2215
▁birth	-2216
▁blood	-2217
▁boats	-2218
▁broad	-2219
▁buses	-2220
▁cabin	-2221
▁cable	-2222
▁campa	-2223
▁cause	-2224
▁caves	-2225
▁climb	-2226
▁clock	-2227
▁close	-2228
▁corre	-2229
▁dance	-2230
▁deals	-2231
▁death	-2232
▁defin	-2233
▁distr	-2234
▁domin	-2235
▁earns	-2236
▁eight	-2237
▁event	-2238
▁exist	-2239
▁expen	-2240
▁exper	-2241
▁exten	-2242
▁facil	-2243
▁feder	-2244
▁ferry	-2245
▁fifth	-2246
▁finan	-2247
▁finds	-2248
▁force	-2249
▁found	-2250
▁frees	-2251
▁front	-2252
▁fruit	-2253
▁games	-2254
▁gears	-2255
▁given	-2256
▁grade	-2257
▁grate	-2258
▁grows	-2259
▁heart	-2260
▁hoped	-2261
▁ident	-2262
▁image	-2263
▁incur	-2264
▁laden	-2265
▁langu	-2266
▁level	-2267
▁liked	-2268
▁likes	-2269
▁lipid	-2270
▁lives	-2271
▁local	-2272
▁loses	-2273
▁loyal	-2274
▁magic	-2275
▁makes	-2276
▁media	-2277
▁metro	-2278
▁might	-2279
▁money	-2280
▁named	-2281
▁never	-2282
▁offer	-2283
▁orbit	-2284
▁orche	-2285
▁order	-2286
▁outer	-2287
▁plain	-2288
▁pleas	-2289
▁poems	-2290
▁posts	-2291
▁power	-2292
▁prime	-2293
▁rafts	-2294
▁range	-2295
▁reput	-2296
▁right	-2297
▁river	-2298
▁roots	-2299
▁route	-2300
▁royal	-2301
▁rural	-2302
▁satir	-2303
▁seeds	-2304
▁seven	-2305
▁shaft	-2306
▁since	-2307
▁slave	-2308
▁split	-2309
▁staff	-2310
▁stand	-2311
▁state	-2312
▁stays	-2313
▁steal	-2314
▁stint	-2315
▁storm	-2316
▁study	-2317
▁sucks	-2318
▁super	-2319
▁takes	-2320
▁teach	-2321
▁tears	-2322
▁terms	-2323
▁these	-2324
▁third	-2325
▁those	-2326
▁today	-2327
▁towns	-2328
▁tribe	-2329
▁tunes	-2330
▁video	-2331
▁vocal	-2332
▁wants	-2333
▁which	-2334
▁while	-2335
▁winem	-2336
▁women	-2337
▁write	-2338
▁years	-2339
▁young	-2340
Shining	-2341
aglider	-2342
alanche	-2343
alified	-2344
alyzing	-2345
amental	-2346
anation	-2347
atesman	-2348
cademic	-2349
cellent	-2350
chnique	-2351
ctivity	-2352
culated	-2353
ecutive	-2354
eletion	-2355
emption	-2356
fession	-2357
ffering	-2358
forming	-2359
gendary	-2360
itality	-2361
lighted	-2362
lishmen	-2363
manager	-2364
martial	-2365
meaning	-2366
mersooq	-2367
nalists	-2368
olished	-2369
porated	-2370
ristian	-2371
roduced	-2372
roversy	-2373
ruction	-2374
ructure	-2375
sidered	-2376
trivial	-2377
tsmouth	-2378
ulpture	-2379
urgical	-2380
weepers	-2381
▁Aarhus	-2382
▁Alumni	-2383
▁Ardagh	-2384
▁Basque	-2385
▁Beaver	-2386
▁Behind	-2387
▁Borgia	-2388
▁Bridge	-2389
▁Bulwer	-2390
▁Bureau	-2391
▁Center	-2392
▁Choles	-2393
▁Claire	-2394
▁Coffey	-2395
▁Cooney	-2396
▁Darley	-2397
▁Drinkl	-2398
▁Dublin	-2399
▁During	-2400
▁Elphin	-2401
▁Europe	-2402
▁Fellow	-2403
▁Fisher	-2404
▁French	-2405
▁German	-2406
▁Gilman	-2407
▁Hammer	-2408
▁Harris	-2409
▁Hearts	-2410
▁Holmes	-2411
▁Honest	-2412
▁Husayn	-2413
▁Israel	-2414
▁Kohlit	-2415
▁Larsen	-2416
▁Lately	-2417
▁Little	-2418
▁Mallet	-2419
▁Marvel	-2420
▁McNeil	-2421
▁Medina	-2422
▁Metror	-2423
▁Mexico	-2424
▁Modern	-2425
▁Monaco	-2426
▁Monica	-2427
▁Museum	-2428
▁Orange	-2429
▁Oxford	-2430
▁Pearce	-2431
▁Pueblo	-2432
▁Radcli	-2433
▁Russia	-2434
▁Sacred	-2435
▁Second	-2436
▁Senate	-2437
▁Snoopy	-2438
▁Street	-2439
▁Sultan	-2440
▁Territ	-2441
▁Wilwer	-2442
▁Woodst	-2443
▁Worlds	-2444
▁Yellow	-2445
▁abroad	-2446
▁acknow	-2447
▁active	-2448
▁actors	-2449
▁advise	-2450
▁almost	-2451
▁arrang	-2452
▁before	-2453
▁billed	-2454
▁bishop	-2455
▁bother	-2456
▁buries	-2457
▁camera	-2458
▁career	-2459
▁caveat	-2460
▁centre	-2461
▁cereal	-2462
▁chapel	-2463
▁church	-2464
▁cities	-2465
▁comedy	-2466
▁cotton	-2467
▁county	-2468
▁courts	-2469
▁degree	-2470
▁depict	-2471
▁detail	-2472
▁devast	-2473
▁dragon	-2474
▁during	-2475
▁earned	-2476
▁eligib	-2477
▁enough	-2478
▁estate	-2479
▁ethics	-2480
▁events	-2481
▁expand	-2482
▁fairly	-2483
▁flower	-2484
▁former	-2485
▁gained	-2486
▁guitar	-2487
▁having	-2488
▁headed	-2489
▁horses	-2490
▁inside	-2491
▁intent	-2492
▁lawyer	-2493
▁layoff	-2494
▁leader	-2495
▁league	-2496
▁length	-2497
▁levels	-2498
▁libert	-2499
▁linked	-2500
▁listed	-2501
▁losing	-2502
▁lovers	-2503
▁mainly	-2504
▁method	-2505
▁months	-2506
▁moored	-2507
▁mosque	-2508
▁nearby	-2509
▁nectar	-2510
▁nobody	-2511
▁novels	-2512
▁occupy	-2513
▁office	-2514
▁oldest	-2515
▁opened	-2516
▁operas	-2517
▁others	-2518
▁oyster	-2519
▁passed	-2520
▁pickup	-2521
▁points	-2522
▁public	-2523
▁pursue	-2524
▁pushed	-2525
▁quoted	-2526
▁really	-2527
▁recogn	-2528
▁remain	-2529
▁remark	-2530
▁rescue	-2531
▁scorer	-2532
▁seldom	-2533
▁senior	-2534
▁series	-2535
▁simply	-2536
▁sister	-2537
▁skills	-2538
▁sports	-2539
▁stabil	-2540
▁strate	-2541
▁street	-2542
▁sunder	-2543
▁supply	-2544
▁surrou	-2545
▁system	-2546
▁taught	-2547
▁theory	-2548
▁trains	-2549
▁troops	-2550
▁trophy	-2551
▁trucks	-2552
▁tundra	-2553
▁versif	-2554
▁versus	-2555
▁weight	-2556
▁worker	-2557
▁writes	-2558
▁yellow	-2559
Lucrezia	-2560
andoning	-2561
atically	-2562
cialized	-2563
concerto	-2564
consumer	-2565
eristics	-2566
graduate	-2567
herlands	-2568
icularly	-2569
iculture	-2570
lessness	-2571
mentally	-2572
ocaching	-2573
quarters	-2574
semantic	-2575
thermore	-2576
▁Academy	-2577
▁Admiral	-2578
▁African	-2579
▁Airport	-2580
▁Angeles	-2581
▁Austria	-2582
▁Barbour	-2583
▁Bennett	-2584
▁Blewett	-2585
▁Boyzone	-2586
▁Brigade	-2587
▁College	-2588
▁Convent	-2589
▁Country	-2590
▁Decoria	-2591
▁England	-2592
▁Enquiry	-2593
▁Explain	-2594
▁However	-2595
▁Hungary	-2596
▁Instead	-2597
▁Ireland	-2598
▁Johnson	-2599
▁Kilmore	-2600
▁Kimball	-2601
▁Lombard	-2602
▁Meeting	-2603
▁Municip	-2604
▁Mystery	-2605
▁Network	-2606
▁Newport	-2607
▁Notable	-2608
▁Nuclear	-2609
▁Orleans	-2610
▁Overall	-2611
▁Perkins	-2612
▁Premier	-2613
▁Preston	-2614
▁Ptolemy	-2615
▁Russian	-2616
▁Sabbath	-2617
▁Scandin	-2618
▁Service	-2619
▁Sinatra	-2620
▁Society	-2621
▁Special	-2622
▁Supreme	-2623
▁Theater	-2624
▁Toronto	-2625
▁Tussock	-2626
▁Various	-2627
▁Welfare	-2628
▁Western	-2629
▁accepts	-2630
▁anymore	-2631
▁appears	-2632
▁artists	-2633
▁awkward	-2634
▁barrier	-2635
▁bearing	-2636
▁because	-2637
▁becomes	-2638
▁believe	-2639
▁belongs	-2640
▁boating	-2641
▁brother	-2642
▁builder	-2643
▁bullpup	-2644
▁climate	-2645
▁commune	-2646
▁compare	-2647
▁conceal	-2648
▁conduct	-2649
▁contact	-2650
▁contain	-2651
▁council	-2652
▁courses	-2653
▁created	-2654
▁custody	-2655
▁debuted	-2656
▁decibel	-2657
▁defense	-2658
▁defined	-2659
▁demerit	-2660
▁denotes	-2661
▁density	-2662
▁depends	-2663
▁designs	-2664
▁details	-2665
▁digital	-2666
▁divided	-2667
▁doubled	-2668
▁economy	-2669
▁editors	-2670
▁elderly	-2671
▁elected	-2672
▁enforce	-2673
▁enraged	-2674
▁erosion	-2675
▁estates	-2676
▁eyelids	-2677
▁failure	-2678
▁follows	-2679
▁freeway	-2680
▁friends	-2681
▁growing	-2682
▁gymnast	-2683
▁herself	-2684
▁history	-2685
▁however	-2686
▁illustr	-2687
▁impacts	-2688
▁inaugur	-2689
▁include	-2690
▁infring	-2691
▁intertw	-2692
▁journey	-2693
▁justice	-2694
▁killing	-2695
▁largest	-2696
▁lawyers	-2697
▁letters	-2698
▁lobbies	-2699
▁looking	-2700
▁managed	-2701
▁manager	-2702
▁medical	-2703
▁minimum	-2704
▁mission	-2705
▁nearest	-2706
▁notable	-2707
▁nothing	-2708
▁officer	-2709
▁opening	-2710
▁organis	-2711
▁organiz	-2712
▁ostraca	-2713
▁overall	-2714
▁oversaw	-2715
▁painted	-2716
▁parents	-2717
▁patient	-2718
▁picture	-2719
▁powered	-2720
▁program	-2721
▁puzzles	-2722
▁reached	-2723
▁rebuilt	-2724
▁refused	-2725
▁related	-2726
▁release	-2727
▁rescues	-2728
▁rezoned	-2729
▁sampans	-2730
▁samples	-2731
▁scanned	-2732
▁shelter	-2733
▁signing	-2734
▁singing	-2735
▁singles	-2736
▁sinking	-2737
▁smaller	-2738
▁someone	-2739
▁stained	-2740
▁started	-2741
▁staying	-2742
▁studies	-2743
▁surveys	-2744
▁swimmer	-2745
▁systems	-2746
▁tallest	-2747
▁tanning	-2748
▁terrain	-2749
▁undocum	-2750
▁unincor	-2751
▁unknown	-2752
▁unusual	-2753
▁updated	-2754
▁usually	-2755
▁utility	-2756
▁village	-2757
▁waiting	-2758
▁website	-2759
▁whether	-2760
▁windows	-2761
▁written	-2762
iguration	-2763
passenger	-2764
ributions	-2765
sensitive	-2766
▁Alternat	-2767
▁Bolangan	-2768
▁Cemetery	-2769
▁Congress	-2770
▁Connacht	-2771
▁Cuttings	-2772
▁Damaturu	-2773
▁Division	-2774
▁Drainage	-2775
▁Eligible	-2776
▁Fishkill	-2777
▁Geronimo	-2778
▁Heathrow	-2779
▁Hertford	-2780
▁Hopewell	-2781
▁Huldange	-2782
▁Judgment	-2783
▁Maryland	-2784
▁Minnelli	-2785
▁Montreal	-2786
▁National	-2787
▁Northern	-2788
▁Patients	-2789
▁Prussian	-2790
▁Scarlett	-2791
▁Scotland	-2792
▁Speakers	-2793
▁Tacloban	-2794
▁Trustees	-2795
▁Vineland	-2796
▁Virginia	-2797
▁academic	-2798
▁achieved	-2799
▁affected	-2800
▁annually	-2801
▁apparent	-2802
▁appealed	-2803
▁arguably	-2804
▁calibers	-2805
▁combined	-2806
▁composer	-2807
▁concerns	-2808
▁conflict	-2809
▁constant	-2810
▁criteria	-2811
▁cultural	-2812
▁cylinder	-2813
▁designed	-2814
▁district	-2815
▁drainage	-2816
▁educated	-2817
▁election	-2818
▁elements	-2819
▁employed	-2820
▁entirely	-2821
▁equipped	-2822
▁explores	-2823
▁features	-2824
▁feelings	-2825
▁fourteen	-2826
▁function	-2827
▁generate	-2828
▁grouping	-2829
▁included	-2830
▁includes	-2831
▁increase	-2832
▁industry	-2833
▁infected	-2834
▁injuring	-2835
▁invasion	-2836
▁isotopes	-2837
▁language	-2838
▁magazine	-2839
▁magnetic	-2840
▁majority	-2841
▁membrane	-2842
▁multiple	-2843
▁murdered	-2844
▁nobility	-2845
▁original	-2846
▁overseas	-2847
▁personal	-2848
▁photogra	-2849
▁physical	-2850
▁pleasure	-2851
▁position	-2852
▁possible	-2853
▁printing	-2854
▁problems	-2855
▁produces	-2856
▁proteins	-2857
▁provides	-2858
▁purposes	-2859
▁received	-2860
▁refereed	-2861
▁regiment	-2862
▁relation	-2863
▁released	-2864
▁reliance	-2865
▁required	-2866
▁research	-2867
▁resulted	-2868
▁scrapped	-2869
▁sections	-2870
▁sentence	-2871
▁shooting	-2872
▁situated	-2873
▁skillful	-2874
▁solitude	-2875
▁souvenir	-2876
▁starring	-2877
▁stigmata	-2878
▁strength	-2879
▁strongly	-2880
▁students	-2881
▁survived	-2882
▁suspense	-2883
▁sweeping	-2884
▁teaching	-2885
▁thorough	-2886
▁toenails	-2887
▁township	-2888
▁undersea	-2889
▁unlisted	-2890
▁unquoted	-2891
▁untitled	-2892
▁violated	-2893
▁workings	-2894
▁workload	-2895
Switchback	-2896
ablishment	-2897
ationships	-2898
ganisation	-2899
meaningful	-2900
ordination	-2901
▁Alexander	-2902
▁Annapolis	-2903
▁Australia	-2904
▁Balangiga	-2905
▁Charlotte	-2906
▁Christian	-2907
▁Committee	-2908
▁Communist	-2909
▁Ediacaran	-2910
▁Everybody	-2911
▁Immersion	-2912
▁Kushnapup	-2913
▁Lawnswood	-2914
▁Metrolink	-2915
▁Metrorail	-2916
▁Northwest	-2917
▁Radcliffe	-2918
▁Rheinturm	-2919
▁Sometimes	-2920
▁Wallpaper	-2921
▁Woodstock	-2922
▁afternoon	-2923
▁algebraic	-2924
▁ambiguous	-2925
▁attention	-2926
▁avalanche	-2927
▁bracketed	-2928
▁broadcast	-2929
▁commanded	-2930
▁confident	-2931
▁confusing	-2932
▁copyright	-2933
▁correctly	-2934
▁currently	-2935
▁curvature	-2936
▁deduction	-2937
▁depending	-2938
▁developed	-2939
▁difficult	-2940
▁dominates	-2941
▁emphasize	-2942
▁equipment	-2943
▁excellent	-2944
▁executive	-2945
▁exemption	-2946
▁expensive	-2947
▁extensive	-2948
▁financial	-2949
▁forgeries	-2950
▁gratitude	-2951
▁important	-2952
▁including	-2953
▁increased	-2954
▁institute	-2955
▁legendary	-2956
▁lifestyle	-2957
▁limestone	-2958
▁marketing	-2959
▁mercenary	-2960
▁mountains	-2961
▁operation	-2962
▁orchestra	-2963
▁outskirts	-2964
▁paintings	-2965
▁parasites	-2966
▁positions	-2967
▁postponed	-2968
▁practices	-2969
▁precision	-2970
▁privately	-2971
▁prototype	-2972
▁qualified	-2973
▁railroads	-2974
▁regulates	-2975
▁residence	-2976
▁residents	-2977
▁satirises	-2978
▁sculpture	-2979
▁selection	-2980
▁signaling	-2981
▁sometimes	-2982
▁specially	-2983
▁standards	-2984
▁statesman	-2985
▁structure	-2986
▁suffering	-2987
▁surprised	-2988
▁surrender	-2989
▁suspended	-2990
▁technique	-2991
▁therefore	-2992
▁travelled	-2993
▁undergone	-2994
▁victories	-2995
▁Basbellain	-2996
▁Considered	-2997
▁Devonshire	-2998
▁Distillery	-2999
▁Drinklange	-3000
▁Englishmen	-3001
▁Hasselbach	-3002
▁Lieutenant	-3003
▁Mikesville	-3004
▁Mountevans	-3005
▁Nottingham	-3006
▁Philometor	-3007
▁Portsmouth	-3008
▁Sermersooq	-3009
▁Sutherland	-3010
▁Undeletion	-3011
▁University	-3012
▁abandoning	-3013
▁absolutely	-3014
▁admiration	-3015
▁birthplace	-3016
▁calculated	-3017
▁campaigned	-3018
▁carnations	-3019
▁continuous	-3020
▁definition	-3021
▁demolished	-3022
▁devastated	-3023
▁facilities	-3024
▁federation	-3025
▁generation	-3026
▁geocaching	-3027
▁geological	-3028
▁gratefully	-3029
▁historians	-3030
▁humanities	-3031
▁identities	-3032
▁introduced	-3033
▁judgements	-3034
▁liturgical	-3035
▁management	-3036
▁microscope	-3037
▁nationwide	-3038
▁paraglider	-3039
▁paralyzing	-3040
▁profession	-3041
▁provincial	-3042
▁recognized	-3043
▁remarkable	-3044
▁represents	-3045
▁reputation	-3046
▁stabilizer	-3047
▁strategies	-3048
▁supporting	-3049
▁translated	-3050
▁travelling	-3051
▁underwater	-3052
▁university	-3053
▁winemaking	-3054
dministrator	-3055
▁Administrat	-3056
▁Agnotherapy	-3057
▁Application	-3058
▁Beavercreek	-3059
▁Cholesterol	-3060
▁Fundamental	-3061
▁Furthermore	-3062
▁Hautbellain	-3063
▁Netherlands	-3064
▁Scandinavia	-3065
▁Territories	-3066
▁Wilwerdange	-3067
▁application	-3068
▁arrangement	-3069
▁communities	-3070
▁competitors	-3071
▁conditional	-3072
▁controversy	-3073
▁deformation	-3074
▁development	-3075
▁eligibility	-3076
▁experienced	-3077
▁explanation	-3078
▁festivities	-3079
▁highlighted	-3080
▁hospitality	-3081
▁inaugurated	-3082
▁intertwined	-3083
▁journalists	-3084
▁microscopes	-3085
▁performance	-3086
▁plantations	-3087
▁platforming	-3088
▁productions	-3089
▁programming	-3090
▁sericulture	-3091
▁specialized	-3092
▁supermarket	-3093
▁surrounding	-3094
▁theological	-3095
▁transparent	-3096
▁undertaking	-3097
▁Municipality	-3098
▁Particularly	-3099
▁acknowledged	-3100
▁competitions	-3101
▁conformation	-3102
▁construction	-3103
▁headquarters	-3104
▁infringement	-3105
▁institutions	-3106
▁judgmentally	-3107
▁libertarians	-3108
▁minesweepers	-3109
▁organization	-3110
▁photographic	-3111
▁productivity	-3112
▁undocumented	-3113
▁Alternatively	-3114
▁International	-3115
▁administrator	-3116
▁automatically	-3117
▁configuration	-3118
▁contributions	-3119
▁establishment	-3120
▁illustrations	-3121
▁international	-3122
▁organisations	-3123
▁relationships	-3124
▁traditionally	-3125
▁undergraduate	-3126
▁versification	-3127
▁reorganisation	-3128
▁unincorporated	-3129
▁weightlessness	-3130
▁characteristics	-3131
Aa	-3132
Ac	-3133
Ad	-3134
Ag	-3135
Ai	-3136
Al	-3137
Am	-3138
An	-3139
Ap	-3140
Ar	-3141
At	-3142
Au	-3143
Ba	-3144
Be	-3145
Bl	-3146
Bo	-3147
Br	-3148
Bu	-3149
Ca	-3150
Ch	-3151
Ci	-3152
Cl	-3153
Co	-3154
Cu	-3155
Da	-3156
De	-3157
Di	-3158
Dr	-3159
Du	-3160
Ea	-3161
Ed	-3162
Eg	-3163
El	-3164
Em	-3165
En	-3166
Eu	-3167
Ev	-3168
Ex	-3169
Fa	-3170
Fe	-3171
Fi	-3172
Fo	-3173
Fr	-3174
Fu	-3175
Ga	-3176
Ge	-3177
Gi	-3178
Go	-3179
Gr	-3180
Ha	-3181
He	-3182
Hi	-3183
Ho	-3184
Hu	-3185
Im	-3186
In	-3187
Ir	-3188
Is	-3189
It	-3190
Iv	-3191
Ja	-3192
Je	-3193
Jo	-3194
Ju	-3195
Ke	-3196
Ki	-3197
Ko	-3198
Ku	-3199
Af	-3200
Ce	-3201
Do	-3202
La	-3203
Le	-3204
Li	-3205
Lo	-3206
Lu	-3207
Ma	-3208
Mc	-3209
Me	-3210
Mi	-3211
Mo	-3212
Mr	-3213
Mu	-3214
My	-3215
Na	-3216
No	-3217
Nu	-3218
Od	-3219
Oi	-3220
Ol	-3221
On	-3222
Op	-3223
Or	-3224
Ot	-3225
Ov	-3226
Ox	-3227
Pa	-3228
Pe	-3229
Ph	-3230
Po	-3231
Pr	-3232
Pt	-3233
Pu	-3234
Ra	-3235
Re	-3236
Rh	-3237
Ri	-3238
Ro	-3239
Ru	-3240
Sa	-3241
Sc	-3242
Se	-3243
Si	-3244
Sn	-3245
So	-3246
Sp	-3247
St	-3248
Su	-3249
Ta	-3250
Te	-3251
Th	-3252
To	-3253
Tr	-3254
Tu	-3255
Un	-3256
Va	-3257
Vi	-3258
Wa	-3259
We	-3260
Wh	-3261
Wi	-3262
Wo	-3263
Xe	-3264
Ya	-3265
Ye	-3266
Yo	-3267
ae	-3268
ah	-3269
ao	-3270
bi	-3271
bo	-3272
bu	-3273
cN	-3274
cl	-3275
cr	-3276
cs	-3277
cu	-3278
cy	-3279
da	-3280
dc	-3281
dd	-3282
dg	-3283
di	-3284
dn	-3285
do	-3286
dq	-3287
dr	-3288
ds	-3289
dv	-3290
dy	-3291
eb	-3292
ef	-3293
eg	-3294
ei	-3295
ek	-3296
eo	-3297
ep	-3298
eq	-3299
eu	-3300
ez	-3301
fa	-3302
fe	-3303
fi	-3304
fl	-3305
fo	-3306
fu	-3307
fy	-3308
ga	-3309
gf	-3310
gg	-3311
gi	-3312
gm	-3313
go	-3314
gr	-3315
gs	-3316
gt	-3317
ha	-3318
hb	-3319
hi	-3320
hk	-3321
hm	-3322
ho	-3323
hp	-3324
hr	-3325
hs	-3326
ht	-3327
hu	-3328
hw	-3329
hy	-3330
ik	-3331
iq	-3332
iu	-3333
jo	-3334
ju	-3335
ka	-3336
ki	-3337
kl	-3338
kn	-3339
ku	-3340
lD	-3341
lb	-3342
lc	-3343
lf	-3344
lg	-3345
ll	-3346
lm	-3347
lr	-3348
ls	-3349
lt	-3350
lu	-3351
lv	-3352
lw	-3353
ma	-3354
mb	-3355
mn	-3356
mp	-3357
mu	-3358
na	-3359
nf	-3360
nj	-3361
nk	-3362
nl	-3363
nm	-3364
nn	-3365
nq	-3366
nr	-3367
nu	-3368
nv	-3369
nw	-3370
ny	-3371
oa	-3372
ob	-3373
oe	-3374
of	-3375
oh	-3376
oi	-3377
oo	-3378
ox	-3379
pa	-3380
pd	-3381
pm	-3382
po	-3383
ps	-3384
pu	-3385
rb	-3386
rc	-3387
rf	-3388
rg	-3389
rh	-3390
rk	-3391
rl	-3392
rm	-3393
rn	-3394
rp	-3395
rr	-3396
rt	-3397
rv	-3398
rw	-3399
rz	-3400
sa	-3401
sb	-3402
si	-3403
sl	-3404
sm	-3405
sp	-3406
sq	-3407
sr	-3408
su	-3409
sv	-3410
sw	-3411
sy	-3412
ta	-3413
tb	-3414
tc	-3415
tf	-3416
ti	-3417
tl	-3418
tp	-3419
tu	-3420
ty	-3421
ua	-3422
uf	-3423
ug	-3424
ui	-3425
uo	-3426
uv	-3427
va	-3428
vi	-3429
vo	-3430
vr	-3431
vy	-3432
wa	-3433
we	-3434
wh	-3435
wi	-3436
wk	-3437
wl	-3438
wp	-3439
wr	-3440
ws	-3441
wy	-3442
xa	-3443
xc	-3444
xe	-3445
xf	-3446
xi	-3447
xp	-3448
xt	-3449
ya	-3450
yb	-3451
ye	-3452
yi	-3453
yn	-3454
yo	-3455
yp	-3456
yr	-3457
yt	-3458
ze	-3459
zi	-3460
zl	-3461
zo	-3462
zz	-3463
▁i	-3464
▁q	-3465
Aar	-3466
Bal	-3467
Ben	-3468
Bol	-3469
Bor	-3470
Bot	-3471
Bul	-3472
Cal	-3473
Can	-3474
Cen	-3475
Con	-3476
Div	-3477
Ear	-3478
Eas	-3479
Fel	-3480
Fis	-3481
Fre	-3482
Gat	-3483
Ger	-3484
Gir	-3485
Gre	-3486
Har	-3487
Has	-3488
Her	-3489
His	-3490
Hon	-3491
Ire	-3492
Jer	-3493
Kim	-3494
Kin	-3495
Kon	-3496
Lan	-3497
Lar	-3498
Lat	-3499
Ble	-3500
Lin	-3501
Lis	-3502
Lom	-3503
Lon	-3504
Lor	-3505
Man	-3506
Mar	-3507
Mat	-3508
Med	-3509
Mil	-3510
Min	-3511
Mon	-3512
Mou	-3513
Nat	-3514
Nor	-3515
Not	-3516
Oil	-3517
Pal	-3518
Pat	-3519
Per	-3520
Por	-3521
Pre	-3522
Pro	-3523
Rad	-3524
Red	-3525
Rhe	-3526
San	-3527
Sen	-3528
Ser	-3529
She	-3530
Sin	-3531
Son	-3532
Ter	-3533
Tor	-3534
Und	-3535
Vin	-3536
Vir	-3537
War	-3538
Wel	-3539
Wes	-3540
Whe	-3541
Wit	-3542
Wor	-3543
Xen	-3544
Yel	-3545
aic	-3546
aig	-3547
alD	-3548
aly	-3549
ana	-3550
anc	-3551
ani	-3552
apu	-3553
ara	-3554
asb	-3555
asu	-3556
atf	-3557
atr	-3558
ats	-3559
atu	-3560
aus	-3561
avy	-3562
awn	-3563
bal	-3564
bar	-3565
bat	-3566
bin	-3567
bis	-3568
bor	-3569
bou	-3570
cal	-3571
can	-3572
cas	-3573
cat	-3574
cel	-3575
chb	-3576
chi	-3577
cin	-3578
cis	-3579
com	-3580
cop	-3581
cot	-3582
cra	-3583
cre	-3584
ctl	-3585
cts	-3586
cue	-3587
cur	-3588
cut	-3589
dan	-3590
dat	-3591
den	-3592
din	-3593
dis	-3594
don	-3595
dou	-3596
dre	-3597
eag	-3598
eas	-3599
Cit	-3600
Fal	-3601
Fur	-3602
Lit	-3603
Mal	-3604
Rom	-3605
Sit	-3606
Tes	-3607
Wal	-3608
alc	-3609
aru	-3610
bil	-3611
des	-3612
dit	-3613
eat	-3614
edg	-3615
edi	-3616
eed	-3617
eel	-3618
een	-3619
eer	-3620
ein	-3621
eld	-3622
ele	-3623
ena	-3624
enc	-3625
enf	-3626
enr	-3627
eol	-3628
eon	-3629
erc	-3630
erd	-3631
erf	-3632
erg	-3633
eri	-3634
erl	-3635
erm	-3636
ero	-3637
err	-3638
ert	-3639
erv	-3640
erw	-3641
esc	-3642
esm	-3643
esv	-3644
eta	-3645
eti	-3646
etw	-3647
fed	-3648
fen	-3649
fer	-3650
fic	-3651
fin	-3652
foy	-3653
fre	-3654
gam	-3655
gen	-3656
gig	-3657
git	-3658
gre	-3659
hal	-3660
han	-3661
hat	-3662
hea	-3663
hei	-3664
hel	-3665
hem	-3666
heo	-3667
hes	-3668
het	-3669
hey	-3670
hic	-3671
hin	-3672
hir	-3673
his	-3674
hom	-3675
hor	-3676
hre	-3677
hur	-3678
iat	-3679
icr	-3680
ier	-3681
iew	-3682
igu	-3683
ila	-3684
ilr	-3685
ilt	-3686
ilu	-3687
ima	-3688
imb	-3689
inc	-3690
inf	-3691
ini	-3692
inj	-3693
inl	-3694
inu	-3695
inv	-3696
ior	-3697
iou	-3698
irg	-3699
Bar	-3700
Bas	-3701
Dar	-3702
Las	-3703
Par	-3704
Var	-3705
Vas	-3706
Yar	-3707
arc	-3708
arn	-3709
arv	-3710
ase	-3711
asi	-3712
asq	-3713
dar	-3714
eam	-3715
eil	-3716
esi	-3717
esw	-3718
gar	-3719
ges	-3720
har	-3721
has	-3722
isa	-3723
isc	-3724
isi	-3725
iso	-3726
iss	-3727
ita	-3728
itc	-3729
iti	-3730
itl	-3731
its	-3732
jor	-3733
ker	-3734
ket	-3735
kin	-3736
lan	-3737
lar	-3738
las	-3739
lat	-3740
lem	-3741
len	-3742
ler	-3743
lic	-3744
lig	-3745
lin	-3746
lis	-3747
lit	-3748
lon	-3749
lum	-3750
mal	-3751
mar	-3752
mat	-3753
med	-3754
mic	-3755
mil	-3756
min	-3757
mis	-3758
mol	-3759
mon	-3760
mou	-3761
nam	-3762
nan	-3763
nas	-3764
nat	-3765
nel	-3766
ner	-3767
nes	-3768
nic	-3769
nin	-3770
nis	-3771
nit	-3772
niz	-3773
non	-3774
not	-3775
nts	-3776
oad	-3777
oan	-3778
oat	-3779
oem	-3780
oen	-3781
oin	-3782
ole	-3783
olu	-3784
omp	-3785
ona	-3786
onc	-3787
ond	-3788
onf	-3789
oni	-3790
onl	-3791
onn	-3792
ono	-3793
ons	-3794
ont	-3795
onv	-3796
onw	-3797
ool	-3798
oom	-3799
Cou	-3800
Ind	-3801
Pop	-3802
Sou	-3803
Wil	-3804
You	-3805
bro	-3806
cti	-3807
duc	-3808
ebs	-3809
icu	-3810
lso	-3811
nda	-3812
nde	-3813
ndi	-3814
ndo	-3815
ndr	-3816
oor	-3817
ora	-3818
orb	-3819
orc	-3820
org	-3821
orl	-3822
oro	-3823
orp	-3824
osq	-3825
otl	-3826
ots	-3827
oug	-3828
oul	-3829
oun	-3830
oup	-3831
ouv	-3832
ove	-3833
owe	-3834
pal	-3835
pan	-3836
pas	-3837
pat	-3838
ped	-3839
pet	-3840
pin	-3841
pit	-3842
ply	-3843
pon	-3844
qui	-3845
rad	-3846
raf	-3847
ran	-3848
rap	-3849
ras	-3850
rav	-3851
reb	-3852
ref	-3853
reg	-3854
rei	-3855
rem	-3856
reo	-3857
rep	-3858
req	-3859
rer	-3860
res	-3861
ret	-3862
ric	-3863
rig	-3864
rim	-3865
rin	-3866
ris	-3867
riv	-3868
roa	-3869
rog	-3870
rol	-3871
roo	-3872
rop	-3873
ror	-3874
ros	-3875
rot	-3876
rre	-3877
rul	-3878
saf	-3879
sel	-3880
sen	-3881
ser	-3882
she	-3883
sia	-3884
sib	-3885
sin	-3886
sit	-3887
siv	-3888
sso	-3889
ste	-3890
str	-3891
sul	-3892
sus	-3893
tab	-3894
tal	-3895
tan	-3896
tar	-3897
tat	-3898
ted	-3899
Com	-3900
Gil	-3901
Kil	-3902
Lou	-3903
Ril	-3904
Som	-3905
ael	-3906
cil	-3907
eli	-3908
elo	-3909
els	-3910
eoc	-3911
gic	-3912
hou	-3913
ici	-3914
ili	-3915
ils	-3916
jou	-3917
kil	-3918
kir	-3919
ley	-3920
lle	-3921
lom	-3922
omm	-3923
omo	-3924
oub	-3925
pic	-3926
ppe	-3927
rac	-3928
rob	-3929
rod	-3930
rov	-3931
sic	-3932
tel	-3933
tes	-3934
the	-3935
ths	-3936
tic	-3937
til	-3938
tin	-3939
tis	-3940
tit	-3941
tom	-3942
ton	-3943
tor	-3944
tra	-3945
uar	-3946
uat	-3947
uch	-3948
uck	-3949
uct	-3950
udy	-3951
ueb	-3952
ued	-3953
uen	-3954
uir	-3955
uis	-3956
uld	-3957
ulp	-3958
une	-3959
uot	-3960
uou	-3961
urn	-3962
urp	-3963
usp	-3964
uti	-3965
uts	-3966
val	-3967
van	-3968
var	-3969
vat	-3970
ves	-3971
vey	-3972
vic	-3973
vin	-3974
vis	-3975
vit	-3976
viv	-3977
vre	-3978
wan	-3979
war	-3980
wat	-3981
way	-3982
wel	-3983
wer	-3984
wes	-3985
wet	-3986
whe	-3987
wim	-3988
win	-3989
wis	-3990
wit	-3991
wor	-3992
xan	-3993
xed	-3994
xic	-3995
xis	-3996
yed	-3997
yer	-3998
yin	-3999
Dam	-4000
Dra	-4001
Jap	-4002
Jun	-4003
cle	-4004
dst	-4005
emy	-4006
gro	-4007
hod	-4008
hro	-4009
idg	-4010
lay	-4011
nst	-4012
nty	-4013
oll	-4014
ple	-4015
rag	-4016
ram	-4017
rle	-4018
rof	-4019
roy	-4020
rst	-4021
sto	-4022
stp	-4023
sts	-4024
tle	-4025
tro	-4026
urc	-4027
you	-4028
ype	-4029
ypt	-4030
zat	-4031
zed	-4032
zer	-4033
zia	-4034
zin	-4035
zon	-4036
▁Ac	-4037
▁Af	-4038
▁Ag	-4039
▁Ai	-4040
▁Am	-4041
▁Ap	-4042
▁Ar	-4043
▁Au	-4044
▁Bl	-4045
▁Ca	-4046
▁Do	-4047
▁Em	-4048
▁En	-4049
▁Ge	-4050
▁Ha	-4051
▁Hi	-4052
▁Ho	-4053
▁Hu	-4054
▁Im	-4055
▁Is	-4056
▁Ma	-4057
▁Mr	-4058
▁Mu	-4059
▁Nu	-4060
▁On	-4061
▁Pa	-4062
▁Pu	-4063
▁Si	-4064
▁Sn	-4065
▁Ta	-4066
▁Te	-4067
▁Tu	-4068
▁Wo	-4069
▁af	-4070
▁ai	-4071
▁ap	-4072
▁au	-4073
▁ba	-4074
▁bi	-4075
▁br	-4076
▁bu	-4077
▁ca	-4078
▁ce	-4079
▁ci	-4080
▁cr	-4081
▁cu	-4082
▁cy	-4083
▁da	-4084
▁di	-4085
▁do	-4086
▁dr	-4087
▁du	-4088
▁ec	-4089
▁es	-4090
▁et	-4091
▁fa	-4092
▁fi	-4093
▁fl	-4094
▁fo	-4095
▁fr	-4096
▁fu	-4097
▁ga	-4098
▁gr	-4099
Net	-4100
Rag	-4101
ake	-4102
amm	-4103
ays	-4104
cam	-4105
cht	-4106
ctr	-4107
ctu	-4108
eet	-4109
eig	-4110
ete	-4111
fig	-4112
fus	-4113
hot	-4114
iet	-4115
igi	-4116
lot	-4117
met	-4118
mir	-4119
nct	-4120
ota	-4121
otb	-4122
tot	-4123
xam	-4124
▁Ce	-4125
▁Cu	-4126
▁Ph	-4127
▁Va	-4128
▁gi	-4129
▁gu	-4130
▁gy	-4131
▁ha	-4132
▁hi	-4133
▁ho	-4134
▁hu	-4135
▁il	-4136
▁ma	-4137
▁mi	-4138
▁mu	-4139
▁ne	-4140
▁nu	-4141
▁oc	-4142
▁ol	-4143
▁op	-4144
▁os	-4145
▁ot	-4146
▁ou	-4147
▁ov	-4148
▁ow	-4149
▁oy	-4150
▁pa	-4151
▁pe	-4152
▁pi	-4153
▁pu	-4154
▁sa	-4155
▁si	-4156
▁sk	-4157
▁so	-4158
▁sp	-4159
▁sy	-4160
▁ta	-4161
▁ti	-4162
▁tu	-4163
▁tw	-4164
▁wa	-4165
▁wi	-4166
▁wo	-4167
▁wr	-4168
Cent	-4169
Ever	-4170
Fall	-4171
King	-4172
Kore	-4173
Over	-4174
With	-4175
Yard	-4176
Yell	-4177
abin	-4178
ache	-4179
aded	-4180
afoy	-4181
aged	-4182
ager	-4183
agic	-4184
aled	-4185
ales	-4186
alib	-4187
alin	-4188
alis	-4189
alit	-4190
alle	-4191
allp	-4192
amer	-4193
amou	-4194
anat	-4195
ands	-4196
anin	-4197
anis	-4198
anit	-4199
Bow	-4200
Dur	-4201
Kus	-4202
agu	-4203
bly	-4204
dow	-4205
geb	-4206
gim	-4207
gly	-4208
gul	-4209
gur	-4210
hol	-4211
ifi	-4212
imm	-4213
ims	-4214
imu	-4215
iol	-4216
irp	-4217
irz	-4218
jur	-4219
lim	-4220
lly	-4221
olm	-4222
olo	-4223
ows	-4224
pol	-4225
pul	-4226
rur	-4227
tim	-4228
tly	-4229
urd	-4230
uri	-4231
urr	-4232
urs	-4233
urt	-4234
urv	-4235
▁Lo	-4236
▁eq	-4237
▁ey	-4238
aper	-4239
arag	-4240
aral	-4241
aran	-4242
aras	-4243
arat	-4244
arce	-4245
arch	-4246
arin	-4247
arly	-4248
arti	-4249
ased	-4250
atel	-4251
athe	-4252
atin	-4253
atit	-4254
ator	-4255
atur	-4256
aver	-4257
ayer	-4258
bach	-4259
band	-4260
bard	-4261
bath	-4262
bers	-4263
blic	-4264
cand	-4265
ccep	-4266
ceiv	-4267
chba	-4268
ciet	-4269
cord	-4270
ctar	-4271
cted	-4272
cter	-4273
ctor	-4274
dder	-4275
dent	-4276
dies	-4277
ding	-4278
eane	-4279
edic	-4280
edin	-4281
edit	-4282
eing	-4283
elan	-4284
elem	-4285
eles	-4286
elig	-4287
elon	-4288
emak	-4289
eman	-4290
emic	-4291
enan	-4292
enar	-4293
enat	-4294
ened	-4295
enin	-4296
enir	-4297
enou	-4298
enra	-4299
Way	-4300
adq	-4301
ads	-4302
aid	-4303
chn	-4304
ech	-4305
eut	-4306
fid	-4307
idn	-4308
lid	-4309
nch	-4310
rid	-4311
say	-4312
tiv	-4313
utb	-4314
vid	-4315
wid	-4316
▁Ba	-4317
▁Be	-4318
▁Bo	-4319
▁Bu	-4320
▁Li	-4321
▁Lu	-4322
▁Ri	-4323
▁id	-4324
Wall	-4325
ailu	-4326
apol	-4327
arut	-4328
ativ	-4329
econ	-4330
elid	-4331
enti	-4332
entl	-4333
entr	-4334
eral	-4335
eras	-4336
erat	-4337
eric	-4338
erin	-4339
eris	-4340
erly	-4341
erol	-4342
eron	-4343
erra	-4344
erre	-4345
erse	-4346
erso	-4347
esig	-4348
eted	-4349
eter	-4350
ethe	-4351
etic	-4352
etim	-4353
etit	-4354
etor	-4355
etre	-4356
evel	-4357
exic	-4358
fare	-4359
fect	-4360
fere	-4361
gest	-4362
gged	-4363
gion	-4364
grap	-4365
head	-4366
hear	-4367
heat	-4368
hein	-4369
here	-4370
herl	-4371
herm	-4372
hern	-4373
hers	-4374
hest	-4375
hind	-4376
hing	-4377
ians	-4378
ican	-4379
icat	-4380
ices	-4381
icul	-4382
iden	-4383
ient	-4384
ific	-4385
igad	-4386
igit	-4387
ilit	-4388
ille	-4389
ilom	-4390
ilro	-4391
imat	-4392
imil	-4393
inag	-4394
inal	-4395
inat	-4396
inav	-4397
inem	-4398
ines	-4399
Rus	-4400
dag	-4401
eiv	-4402
ema	-4403
emb	-4404
emp	-4405
fth	-4406
gem	-4407
gth	-4408
hop	-4409
hus	-4410
iac	-4411
ivi	-4412
liv	-4413
los	-4414
nus	-4415
oci	-4416
oop	-4417
opm	-4418
oss	-4419
rus	-4420
soc	-4421
soo	-4422
thp	-4423
thw	-4424
uab	-4425
ush	-4426
usu	-4427
xem	-4428
yth	-4429
▁Eu	-4430
▁Ne	-4431
▁Pe	-4432
▁Pt	-4433
Vast	-4434
adem	-4435
allu	-4436
bies	-4437
elop	-4438
emer	-4439
emol	-4440
eros	-4441
ffic	-4442
ifor	-4443
inge	-4444
ingf	-4445
ingh	-4446
ingl	-4447
inim	-4448
inin	-4449
inis	-4450
init	-4451
inly	-4452
inst	-4453
ionw	-4454
ious	-4455
ipal	-4456
iral	-4457
iris	-4458
irly	-4459
isat	-4460
ishe	-4461
ishm	-4462
itar	-4463
iter	-4464
ites	-4465
itin	-4466
itiv	-4467
itor	-4468
itud	-4469
itur	-4470
itut	-4471
ivat	-4472
ivel	-4473
ivid	-4474
ivis	-4475
ivit	-4476
just	-4477
kers	-4478
king	-4479
kins	-4480
lant	-4481
lass	-4482
lean	-4483
lems	-4484
lent	-4485
lian	-4486
like	-4487
ling	-4488
lood	-4489
lore	-4490
lows	-4491
lude	-4492
mall	-4493
mata	-4494
ming	-4495
ndam	-4496
ndel	-4497
ndia	-4498
ndie	-4499
Nav	-4500
Old	-4501
ack	-4502
aga	-4503
agn	-4504
cce	-4505
ckn	-4506
hip	-4507
lag	-4508
lav	-4509
nte	-4510
ntr	-4511
ria	-4512
uag	-4513
via	-4514
▁Ea	-4515
▁Ed	-4516
▁Eg	-4517
▁ri	-4518
agem	-4519
ains	-4520
alia	-4521
aval	-4522
edia	-4523
gain	-4524
imag	-4525
inci	-4526
inia	-4527
isti	-4528
lain	-4529
lark	-4530
ldes	-4531
ndin	-4532
ndoc	-4533
ndra	-4534
nell	-4535
ning	-4536
nist	-4537
nter	-4538
ntil	-4539
ntit	-4540
odst	-4541
ogra	-4542
olat	-4543
olit	-4544
olle	-4545
olut	-4546
omat	-4547
omed	-4548
omot	-4549
onac	-4550
ones	-4551
onim	-4552
onin	-4553
onom	-4554
onst	-4555
oopy	-4556
oore	-4557
ople	-4558
opul	-4559
orat	-4560
orce	-4561
orer	-4562
oria	-4563
orig	-4564
orit	-4565
orld	-4566
oron	-4567
orou	-4568
orth	-4569
osed	-4570
osel	-4571
osit	-4572
otes	-4573
othe	-4574
otop	-4575
ovel	-4576
over	-4577
ower	-4578
part	-4579
peci	-4580
peri	-4581
ping	-4582
plan	-4583
ples	-4584
ppor	-4585
prem	-4586
qual	-4587
quir	-4588
quot	-4589
rack	-4590
ract	-4591
rael	-4592
raic	-4593
rail	-4594
rand	-4595
rank	-4596
rapp	-4597
rapy	-4598
rdag	-4599
Jud	-4600
abl	-4601
bod	-4602
equ	-4603
iqu	-4604
jud	-4605
kab	-4606
▁Fu	-4607
▁Op	-4608
▁Ot	-4609
▁Ro	-4610
Gate	-4611
Kong	-4612
adqu	-4613
alsh	-4614
ansp	-4615
asqu	-4616
atef	-4617
ateg	-4618
earb	-4619
ectr	-4620
educ	-4621
eigh	-4622
fest	-4623
forn	-4624
ighl	-4625
ilab	-4626
ligh	-4627
mong	-4628
oder	-4629
osqu	-4630
otab	-4631
pear	-4632
real	-4633
reat	-4634
rect	-4635
reed	-4636
rees	-4637
reig	-4638
rely	-4639
rend	-4640
rent	-4641
reor	-4642
rien	-4643
rier	-4644
righ	-4645
rime	-4646
ring	-4647
rink	-4648
rint	-4649
rite	-4650
room	-4651
roop	-4652
root	-4653
rope	-4654
roph	-4655
rows	-4656
rust	-4657
scop	-4658
sear	-4659
sent	-4660
sequ	-4661
side	-4662
sing	-4663
sity	-4664
stal	-4665
stan	-4666
stem	-4667
ster	-4668
stic	-4669
stit	-4670
stod	-4671
ston	-4672
stru	-4673
tain	-4674
tate	-4675
tens	-4676
tent	-4677
tert	-4678
tfor	-4679
ting	-4680
tion	-4681
tist	-4682
uate	-4683
uded	-4684
udes	-4685
uent	-4686
ulat	-4687
ully	-4688
unct	-4689
unic	-4690
unit	-4691
urat	-4692
urea	-4693
ures	-4694
urre	-4695
urve	-4696
usay	-4697
uses	-4698
ushe	-4699
cum	-4700
eum	-4701
ipp	-4702
ium	-4703
pea	-4704
ppa	-4705
ppl	-4706
pts	-4707
rib	-4708
rik	-4709
rts	-4710
tri	-4711
umb	-4712
umn	-4713
upp	-4714
▁Go	-4715
▁vo	-4716
ansl	-4717
ansm	-4718
bour	-4719
came	-4720
conc	-4721
eare	-4722
elie	-4723
ells	-4724
esty	-4725
illf	-4726
illu	-4727
jour	-4728
lave	-4729
mers	-4730
niqu	-4731
nowl	-4732
orge	-4733
orts	-4734
ourn	-4735
ours	-4736
pans	-4737
pers	-4738
pply	-4739
radu	-4740
rans	-4741
ried	-4742
tend	-4743
ucre	-4744
umer	-4745
usso	-4746
uted	-4747
utel	-4748
uter	-4749
uthe	-4750
utiv	-4751
vans	-4752
verc	-4753
vill	-4754
ving	-4755
ward	-4756
well	-4757
wing	-4758
xand	-4759
xfor	-4760
xist	-4761
yell	-4762
yers	-4763
ying	-4764
zing	-4765
zles	-4766
▁Aar	-4767
▁Afr	-4768
▁Ale	-4769
▁Bar	-4770
▁Ben	-4771
▁Bla	-4772
▁Ble	-4773
▁Bol	-4774
▁Bot	-4775
▁Bow	-4776
▁Boy	-4777
▁Bul	-4778
▁Cab	-4779
▁Cal	-4780
▁Can	-4781
▁Cem	-4782
▁Cit	-4783
▁Cou	-4784
▁Cut	-4785
▁Dam	-4786
▁Dar	-4787
▁Dev	-4788
▁Dis	-4789
▁Dra	-4790
▁Dur	-4791
▁Ear	-4792
▁Eas	-4793
▁Fel	-4794
▁Fre	-4795
▁Gil	-4796
▁Gir	-4797
▁Gre	-4798
▁Har	-4799
cib	-4800
eci	-4801
ewp	-4802
ffy	-4803
hap	-4804
ipm	-4805
nap	-4806
off	-4807
tip	-4808
wns	-4809
xpl	-4810
aire	-4811
anci	-4812
apit	-4813
come	-4814
erms	-4815
keel	-4816
msel	-4817
oone	-4818
ostp	-4819
osts	-4820
pany	-4821
pend	-4822
quip	-4823
rams	-4824
reek	-4825
reew	-4826
rosc	-4827
sult	-4828
tant	-4829
ture	-4830
vail	-4831
wood	-4832
zone	-4833
▁Has	-4834
▁Hic	-4835
▁Hig	-4836
▁Hop	-4837
▁How	-4838
▁Hun	-4839
▁Jap	-4840
▁Jud	-4841
▁Jun	-4842
▁Kus	-4843
▁Lan	-4844
▁Lar	-4845
▁Las	-4846
▁Lat	-4847
▁Lea	-4848
▁Lew	-4849
▁Lin	-4850
▁Lit	-4851
▁Liz	-4852
▁Lom	-4853
▁Lon	-4854
▁Lou	-4855
▁Man	-4856
▁Mat	-4857
▁May	-4858
▁Met	-4859
▁Mil	-4860
▁Min	-4861
▁Mos	-4862
▁Mou	-4863
▁Mus	-4864
▁Mut	-4865
▁Pag	-4866
▁Pal	-4867
▁Par	-4868
▁Pat	-4869
▁Per	-4870
▁Pop	-4871
▁Pri	-4872
▁Pun	-4873
▁Rad	-4874
▁Rag	-4875
▁Ril	-4876
▁Rom	-4877
▁Roy	-4878
▁Rus	-4879
▁Sab	-4880
▁San	-4881
▁Sch	-4882
▁Sid	-4883
▁Sit	-4884
▁Som	-4885
▁Son	-4886
▁Sou	-4887
▁Sul	-4888
▁Tes	-4889
▁Vin	-4890
▁Way	-4891
▁Wel	-4892
▁Whe	-4893
▁Wil	-4894
▁Xen	-4895
▁abs	-4896
▁ach	-4897
▁air	-4898
▁alg	-4899
acl	-4900
ght	-4901
ize	-4902
lue	-4903
mpl	-4904
ngl	-4905
pla	-4906
plo	-4907
tak	-4908
ugh	-4909
acre	-4910
aign	-4911
aliz	-4912
aniz	-4913
erto	-4914
fice	-4915
gram	-4916
guab	-4917
hire	-4918
iliz	-4919
pact	-4920
pare	-4921
pens	-4922
pire	-4923
tact	-4924
thpl	-4925
ucle	-4926
upre	-4927
uste	-4928
zine	-4929
▁Ang	-4930
▁Chr	-4931
▁Kil	-4932
▁Luc	-4933
▁Pto	-4934
▁alm	-4935
▁als	-4936
▁	-4937
e	-4938
a	-4939
t	-4940
i	-4941
o	-4942
n	-4943
s	-4944
r	-4945
l	-4946
h	-4947
d	-4948
c	-4949
u	-4950
m	-4951
.	-4952
f	-4953
g	-4954
p	-4955
y	-4956
w	-4957
b	-4958
v	-4959
T	-4960
k	-4961
,	-4962
H	-4963
S	-4964
A	-4965
"	-4966
I	-4967
M	-4968
C	-4969
'	-4970
L	-4971
B	-4972
x	-4973
D	-4974
-	-4975
P	-4976
W	-4977
E	-4978
N	-4979
z	-4980
q	-4981
F	-4982
O	-4983
R	-4984
G	-4985
j	-4986
J	-4987
K	-4988
V	-4989
Y	-4990
U	-4991
?	-4992
:	-4993
!	-4994
X	-4995
’	-4996
