<unk>	0
<s>	0
</s>	0
00	-0
▁00	-1
▁*	-2
▁0	-3
▁0000	-4
▁이	-5
으로	-6
에서	-7
▁있	-8
▁사	-9
▁대	-10
▁그	-11
▁분	-12
▁분류	-13
▁(	-14
▁수	-15
▁시	-16
▁가	-17
▁아	-18
▁지	-19
었다	-20
▁전	-21
▁기	-22
▁하	-23
▁제	-24
0000	-25
▁:	-26
이다	-27
▁한	-28
▁정	-29
▁있다	-30
▁-	-31
▁주	-32
▁일	-33
▁선	-34
▁중	-35
했다	-36
하였	-37
▁다	-38
▁자	-39
▁것	-40
하는	-41
▁공	-42
▁경	-43
▁유	-44
▁인	-45
▁부	-46
▁보	-47
▁동	-48
▁위	-49
하고	-50
되었다	-51
▁영	-52
▁등	-53
▁조	-54
▁미	-55
▁마	-56
''	-57
▁나	-58
▁오	-59
하여	-60
▁연	-61
▁개	-62
▁모	-63
▁역	-64
▁000	-65
▁소	-66
하였다	-67
▁의	-68
▁《	-69
▁고	-70
▁스	-71
▁발	-72
▁도	-73
▁국	-74
er	-75
▁여	-76
▁구	-77
으며	-78
▁세	-79
▁상	-80
▁서	-81
▁신	-82
학교	-83
에는	-84
▁비	-85
한다	-86
in	-87
an	-88
▁s	-89
▁성	-90
▁후	-91
▁때	-92
▁해	-93
on	-94
000	-95
▁프	-96
▁관	-97
▁**	-98
국의	-99
▁교	-100
▁남	-101
▁방	-102
▁선수	-103
▁t	-104
▁장	-105
▁m	-106
▁파	-107
지만	-108
부터	-109
▁무	-110
▁출	-111
▁않	-112
▁현	-113
▁있는	-114
▁만	-115
▁c	-116
에게	-117
▁바	-118
▁우	-119
▁대한	-120
되어	-121
▁통	-122
▁또	-123
▁최	-124
ar	-125
▁작	-126
▁내	-127
▁문	-128
▁진	-129
▁어	-130
▁강	-131
▁노	-132
),	-133
▁원	-134
▁포	-135
en	-136
까지	-137
▁결	-138
▁불	-139
▁거	-140
▁김	-141
이라	-142
▁생	-143
or	-144
▁"	-145
▁배	-146
적인	-147
된다	-148
al	-149
▁축	-150
▁당	-151
▁f	-152
▁'	-153
적으로	-154
▁반	-155
▁없	-156
▁계	-157
at	-158
▁실	-159
▁~	-160
▁알	-161
▁리	-162
▁태	-163
▁(0000	-164
▁b	-165
▁p	-166
▁따	-167
is	-168
es	-169
▁명	-170
▁d	-171
▁받	-172
▁안	-173
▁설	-174
▁같	-175
▁사용	-176
스트	-177
▁말	-178
▁에	-179
▁축구	-180
에서는	-181
▁재	-182
면서	-183
▁두	-184
들이	-185
하게	-186
▁요	-187
▁차	-188
▁단	-189
되었	-190
▁a	-191
▁함	-192
▁예	-193
▁한다	-194
▁참	-195
하기	-196
▁사람	-197
▁로	-198
:0000	-199
▁특	-200
▁타	-201
he	-202
▁이후	-203
▁군	-204
들은	-205
▁#	-206
▁카	-207
▁일본	-208
리아	-209
▁독	-210
▁k	-211
.00	-212
▁데	-213
▁종	-214
▁''	-215
▁초	-216
▁라	-217
으나	-218
▁감	-219
ic	-220
▁운	-221
▁올	-222
▁되었다	-223
▁o	-224
▁많	-225
▁l	-226
였다	-227
년에	-228
았다	-229
it	-230
레이	-231
▁및	-232
▁추	-233
▁영화	-234
▁코	-235
▁외	-236
▁입	-237
▁양	-238
▁프로	-239
▁매	-240
▁행	-241
▁음	-242
▁형	-243
▁왕	-244
▁변	-245
▁그는	-246
(0000	-247
▁건	-248
▁더	-249
▁활	-250
는데	-251
▁적	-252
▁때문	-253
▁피	-254
re	-255
▁평	-256
▁본	-257
▁그리	-258
▁호	-259
▁회	-260
▁승	-261
▁화	-262
▁산	-263
▁과	-264
▁베	-265
▁위해	-266
들어	-267
▁미국	-268
ro	-269
▁크	-270
▁번	-271
bs	-272
.0	-273
▁되	-274
▁게	-275
▁박	-276
주의	-277
민국의	-278
us	-279
들의	-280
le	-281
▁그러	-282
▁임	-283
▁시작	-284
▁g	-285
▁각	-286
기도	-287
▁메	-288
▁같은	-289
▁열	-290
이며	-291
▁따라	-292
▁북	-293
라는	-294
,000	-295
▁드	-296
▁총	-297
▁경우	-298
▁학	-299
대한	-300
▁표	-301
▁민	-302
▁물	-303
들을	-304
▁n	-305
▁지역	-306
▁목	-307
▁함께	-308
이나	-309
▁처	-310
▁달	-311
시아	-312
▁또한	-313
▁편	-314
▁다른	-315
라고	-316
하며	-317
▁한국	-318
▁간	-319
▁자신	-320
▁w	-321
하지	-322
▁야	-323
▁직	-324
▁새	-325
▁속	-326
▁약	-327
하다	-328
-00	-329
▁항	-330
▁저	-331
▁때문에	-332
ion	-333
등학교	-334
▁세계	-335
as	-336
▁h	-337
▁토	-338
▁e	-339
▁체	-340
▁국가	-341
▁집	-342
▁청	-343
스의	-344
▁이름	-345
▁그러나	-346
▁된다	-347
▁점	-348
▁사이	-349
▁당시	-350
▁천	-351
ol	-352
▁태어	-353
에도	-354
▁현재	-355
▁존	-356
un	-357
▁금	-358
▁그의	-359
▁것을	-360
()	-361
▁광	-362
기를	-363
▁가장	-364
-0	-365
▁뒤	-366
▁법	-367
▁의해	-368
▁기록	-369
▁레	-370
기에	-371
el	-372
▁디	-373
ac	-374
▁것이	-375
▁확	-376
▁못	-377
랜드	-378
▁죽	-379
▁투	-380
▁복	-381
▁했다	-382
▁of	-383
▁삼	-384
▁있었다	-385
되는	-386
▁필	-387
▁애	-388
▁하나	-389
am	-390
▁브	-391
▁합	-392
▁철	-393
▁히	-394
이라고	-395
▁있으며	-396
▁조선	-397
▁창	-398
il	-399
▁파일	-400
▁또는	-401
ing	-402
▁버	-403
▁증	-404
민국	-405
▁것으로	-406
▁the	-407
▁v	-408
리는	-409
▁황	-410
▁서울	-411
▁취	-412
th	-413
▁그리고	-414
▁심	-415
▁살	-416
▁판	-417
um	-418
▁근	-419
지는	-420
and	-421
▁프랑	-422
▁위치	-423
ch	-424
▁백	-425
▁돌	-426
▁언	-427
▁치	-428
리를	-429
▁할	-430
▁참가	-431
▁첫	-432
▁아니	-433
▁‘	-434
라이	-435
▁들어	-436
▁통해	-437
▁충	-438
▁활동	-439
▁병	-440
대한민국의	-441
▁완	-442
▁플	-443
id	-444
는다	-445
ur	-446
▁많은	-447
pg	-448
되고	-449
ig	-450
▁하는	-451
졌다	-452
▁배우	-453
▁출신	-454
▁r	-455
om	-456
▁클	-457
▁트	-458
이라는	-459
▁것이다	-460
st	-461
대학교	-462
▁네	-463
▁다시	-464
▁;	-465
대로	-466
▁용	-467
▁대해	-468
▁쓰	-469
▁j	-470
▁경기	-471
▁손	-472
▁가지	-473
▁게임	-474
▁친	-475
▁높	-476
jpg	-477
림픽	-478
위원	-479
▁〈	-480
▁권	-481
로서	-482
▁있었	-483
▁독일	-484
▁루	-485
했고	-486
▁패	-487
▁월	-488
▁포함	-489
하면서	-490
▁연구	-491
▁아이	-492
▁은	-493
▁페	-494
▁다음	-495
▁순	-496
▁팀	-497
et	-498
▁채	-499
▁사회	-500
일에	-501
▁여러	-502
▁준	-503
니아	-504
▁/	-505
▁감독	-506
하였고	-507
▁대한민국	-508
▁테	-509
이었다	-510
▁i	-511
스는	-512
▁전쟁	-513
▁방송	-514
사를	-515
▁큰	-516
bc	-517
▁)	-518
있는	-519
▁모두	-520
▁이상	-521
보다	-522
▁작품	-523
▁하였다	-524
ed	-525
▁음악	-526
졸업	-527
▁시즌	-528
▁모든	-529
▁올림픽	-530
▁이용	-531
▁허	-532
도로	-533
지를	-534
되었고	-535
라마	-536
-0000	-537
▁있어	-538
자가	-539
▁동문	-540
리스	-541
▁정치	-542
▁일부	-543
▁정부	-544
회의	-545
ad	-546
상을	-547
리그	-548
▁규	-549
▁in	-550
▁등의	-551
이고	-552
성을	-553
▁태어남	-554
▁육	-555
▁즉	-556
▁위한	-557
▁대학	-558
위를	-559
▁처음	-560
ent	-561
력을	-562
이었	-563
▁리그	-564
▁***	-565
이스	-566
▁식	-567
▁이루	-568
거나	-569
▁설립	-570
▁캐	-571
장을	-572
▁대표	-573
▁도시	-574
▁졸업	-575
대의	-576
▁끝	-577
▁것은	-578
▁온	-579
도의	-580
리가	-581
▁존재	-582
▁문제	-583
통령	-584
▁국제	-585
▁0000.00	-586
이는	-587
▁홍	-588
▁제작	-589
▁뉴	-590
▁별	-591
▁키	-592
▁가능	-593
▁영국	-594
나라	-595
▁여자	-596
디오	-597
▁중국	-598
▁맞	-599
개의	-600
▁알려	-601
▁농	-602
부분	-603
..	-604
▁환	-605
▁러	-606
기의	-607
▁자신의	-608
▁걸	-609
년대	-610
▁검	-611
▁길	-612
▁0,000	-613
▁프랑스	-614
이트	-615
▁되어	-616
리카	-617
▁폭	-618
▁우승	-619
▁남자	-620
▁구성	-621
▁일반	-622
).	-623
▁나타	-624
▁하지만	-625
▁앞	-626
▁윤	-627
▁공격	-628
이션	-629
▁프로그	-630
란드	-631
▁중심	-632
ia	-633
▁협	-634
if	-635
▁논	-636
리에	-637
스터	-638
▁이러	-639
기가	-640
▁담	-641
▁송	-642
▁대통령	-643
iv	-644
▁개발	-645
▁전투	-646
로부터	-647
os	-648
▁이러한	-649
▁교육	-650
▁하고	-651
▁이어	-652
▁st	-653
▁맡	-654
하면	-655
▁사건	-656
▁새로	-657
▁없다	-658
▁발표	-659
▁볼	-660
자의	-661
▁날	-662
▁주장	-663
했으며	-664
시키	-665
세기	-666
년부터	-667
▁폐	-668
ag	-669
년에는	-670
op	-671
도록	-672
▁섬	-673
▁수상	-674
인의	-675
▁밀	-676
▁좋	-677
ir	-678
▁극	-679
▁귀	-680
▁곳	-681
▁접	-682
▁0.0	-683
기는	-684
▁잘	-685
ul	-686
사가	-687
▁등을	-688
이자	-689
▁갖	-690
학자	-691
▁와	-692
버지	-693
서는	-694
▁앨	-695
▁문화	-696
▁동안	-697
▁이를	-698
아있는	-699
▁밝	-700
▁엔	-701
들과	-702
▁발견	-703
▁이는	-704
▁향	-705
▁“	-706
ation	-707
대학	-708
로는	-709
▁관련	-710
▁이전	-711
▁블	-712
▁번째	-713
군의	-714
▁막	-715
im	-716
km	-717
▁설치	-718
▁대부분	-719
▁u	-720
▁면	-721
▁대한민국의	-722
에서도	-723
미국의	-724
'')	-725
리의	-726
▁최초	-727
▁석	-728
이지	-729
ap	-730
(0	-731
▁프로그램	-732
났다	-733
▁얻	-734
정을	-735
▁영향	-736
...	-737
▁지방	-738
▁관계	-739
되었으며	-740
▁발생	-741
텔레	-742
▁발매	-743
▁이에	-744
ter	-745
em	-746
▁헤	-747
시에	-748
들에게	-749
고등학교	-750
▁줄	-751
▁생각	-752
▁봉	-753
▁독립	-754
어진	-755
성이	-756
와의	-757
했던	-758
명의	-759
▁지원	-760
:00	-761
가지	-762
리즈	-763
살아있는	-764
▁효	-765
▁기술	-766
▁역사	-767
하였으며	-768
▁그녀	-769
비전	-770
▁등이	-771
ot	-772
일본	-773
도를	-774
▁진행	-775
▁0000.	-776
▁시간	-777
▁누	-778
스타	-779
다는	-780
프트	-781
▁is	-782
▁and	-783
▁대학교	-784
▁운영	-785
탈리아	-786
자를	-787
므로	-788
▁의미	-789
▁된	-790
ct	-791
▁슈	-792
▁중앙	-793
▁책	-794
대표	-795
▁타이	-796
▁사실	-797
▁경제	-798
▁결과	-799
▁절	-800
▁골	-801
▁인해	-802
대를	-803
▁등장	-804
▁변경	-805
월에	-806
▁만들어	-807
▁곡	-808
▁일어	-809
▁침	-810
ut	-811
▁글	-812
▁니	-813
od	-814
스를	-815
▁이것	-816
▁(0	-817
▁커	-818
▁대회	-819
으로는	-820
▁암	-821
▁자유	-822
▁로마	-823
사의	-824
▁머	-825
▁필요	-826
▁데뷔	-827
ay	-828
▁갈	-829
▁(0000)	-830
▁아들	-831
다고	-832
▁계속	-833
▁유럽	-834
▁받아	-835
▁스타	-836
▁잡	-837
▁쿠	-838
▁뜻	-839
▁러시아	-840
▁드라마	-841
자로	-842
▁특히	-843
▁질	-844
▁수도	-845
▁혼	-846
▁부분	-847
▁y	-848
▁kbs	-849
-000	-850
머니	-851
비아	-852
▁탈	-853
▁소속	-854
▁월드	-855
화국	-856
▁형태	-857
▁새로운	-858
▁사망	-859
▁참여	-860
르는	-861
▁상태	-862
▁텔레	-863
으로서	-864
▁케	-865
인이	-866
▁탄	-867
위원회	-868
oc	-869
우스	-870
▁라이	-871
▁난	-872
자는	-873
▁측	-874
르크	-875
▁가수	-876
▁범	-877
년까지	-878
▁있고	-879
다가	-880
▁매우	-881
▁tv	-882
초등학교	-883
▁있던	-884
▁*0000	-885
▁벌	-886
▁결정	-887
▁급	-888
▁가지고	-889
도가	-890
▁같이	-891
▁최고	-892
▁싱	-893
▁찾	-894
▁넘	-895
▁들	-896
▁악	-897
▁없는	-898
에서의	-899
▁운동	-900
식을	-901
부의	-902
!!	-903
처럼	-904
~0000	-905
▁텔레비전	-906
▁아버지	-907
과의	-908
(,	-909
▁돌아	-910
▁성공	-911
거리	-912
▁앨범	-913
기로	-914
▁00.	-915
▁제공	-916
▁re	-917
렸다	-918
명을	-919
▁다양	-920
▁인구	-921
▁주로	-922
해서	-923
▁중요	-924
스가	-925
▁조직	-926
특별	-927
▁힘	-928
▁미국의	-929
▁터	-930
전을	-931
▁아니라	-932
▁받았다	-933
▁행정	-934
하기도	-935
번째	-936
▁않았다	-937
▁모습	-938
ow	-939
ers	-940
▁않고	-941
▁고려	-942
▁만들	-943
남도	-944
▁업	-945
권을	-946
▁좌	-947
간의	-948
스템	-949
스크	-950
▁쇼	-951
방송	-952
▁결국	-953
ov	-954
▁이유	-955
▁몇	-956
리스트	-957
되지	-958
대에	-959
▁,	-960
▁떨	-961
장이	-962
▁빠	-963
▁0000.00.00	-964
▁하여	-965
명이	-966
자인	-967
▁학교	-968
▁딸	-969
민주	-970
▁정보	-971
the	-972
▁많이	-973
▁진출	-974
▁여성	-975
하자	-976
운동	-977
드는	-978
▁헌	-979
▁대전	-980
▁mbc	-981
▁컴	-982
▁내용	-983
▁출연	-984
학급	-985
▁인터	-986
▁지정	-987
▁스페	-988
▁마이	-989
했지만	-990
▁기준	-991
▁않는다	-992
센터	-993
으로써	-994
교육	-995
▁능	-996
▁이탈리아	-997
▁레이	-998
▁한편	-999
▁데이	-1000
원의	-1001
문화	-1002
▁계획	-1003
▁애니	-1004
▁야구	-1005
▁폴	-1006
▁콘	-1007
▁외국	-1008
왔다	-1009
▁둘	-1010
▁항공	-1011
▁국민	-1012
운데	-1013
도는	-1014
▁팔	-1015
▁얼	-1016
▁해당	-1017
bn	-1018
ht	-1019
▁눈	-1020
학과	-1021
나는	-1022
ce	-1023
▁방법	-1024
음을	-1025
수의	-1026
▁이미	-1027
▁00.0	-1028
ie	-1029
ra	-1030
리고	-1031
▁생산	-1032
▁전체	-1033
▁국가대표	-1034
▁차지	-1035
▁몸	-1036
수를	-1037
▁공동	-1038
원을	-1039
어로	-1040
메이션	-1041
화를	-1042
사로	-1043
art	-1044
▁떠	-1045
진다	-1046
야마	-1047
▁주요	-1048
▁잠	-1049
▁작곡	-1050
▁「	-1051
▁구조	-1052
하려	-1053
연구	-1054
▁노래	-1055
▁사랑	-1056
군은	-1057
력이	-1058
▁유명	-1059
▁그룹	-1060
▁격	-1061
으로부터	-1062
▁이야	-1063
ist	-1064
(00	-1065
▁관한	-1066
▁붙	-1067
umb	-1068
▁마지	-1069
.)	-1070
▁가운데	-1071
▁역할	-1072
▁00,000	-1073
북도	-1074
▁시리즈	-1075
▁프리	-1076
했으나	-1077
▁de	-1078
▁선거	-1079
스로	-1080
▁각각	-1081
▁지구	-1082
▁ch	-1083
상의	-1084
▁칼	-1085
▁몰	-1086
▁풍	-1087
부에	-1088
ou	-1089
▁부산	-1090
▁시스템	-1091
▁발전	-1092
ae	-1093
▁인정	-1094
사는	-1095
하던	-1096
였던	-1097
▁교수	-1098
▁0000-00	-1099
▁...	-1100
▁따르	-1101
▁홈	-1102
카이	-1103
ab	-1104
▁민주	-1105
▁x	-1106
제로	-1107
▁사업	-1108
인민	-1109
냈다	-1110
성의	-1111
▁표현	-1112
ip	-1113
est	-1114
▁빌	-1115
▁·	-1116
ak	-1117
▁이루어	-1118
▁마지막	-1119
르트	-1120
▁애니메이션	-1121
▁00%	-1122
역시	-1123
▁대신	-1124
▁직접	-1125
버스	-1126
▁기원	-1127
▁브라	-1128
▁엘	-1129
og	-1130
▁보고	-1131
장으로	-1132
▁거의	-1133
잉글	-1134
가는	-1135
▁따라서	-1136
가와	-1137
지의	-1138
▁연결	-1139
▁높은	-1140
▁되는	-1141
시마	-1142
▁특별	-1143
▁뮤	-1144
▁추가	-1145
▁유지	-1146
▁기타	-1147
지고	-1148
▁플레이	-1149
▁울	-1150
▁아래	-1151
tv	-1152
▁–	-1153
▁생활	-1154
스와	-1155
▁노선	-1156
▁기능	-1157
동차	-1158
▁공식	-1159
▁제국	-1160
▁않은	-1161
all	-1162
▁다양한	-1163
점을	-1164
▁어머니	-1165
잉글랜드	-1166
▁엄	-1167
이가	-1168
▁운행	-1169
인다	-1170
어를	-1171
▁상황	-1172
▁결혼	-1173
시켰	-1174
▁영향을	-1175
▁후에	-1176
ess	-1177
▁월드컵	-1178
ight	-1179
군이	-1180
원이	-1181
▁학생	-1182
》(	-1183
▁구간	-1184
▁경상	-1185
제를	-1186
광역시	-1187
해야	-1188
시간	-1189
▁뛰	-1190
ifa	-1191
▁fc	-1192
▁그리스	-1193
지에	-1194
▁정도	-1195
▁0000)	-1196
▁퍼	-1197
수가	-1198
▁나라	-1199
▁이름을	-1200
▁작은	-1201
레스	-1202
▁녹	-1203
▁대상	-1204
프리카	-1205
▁isbn	-1206
운드	-1207
▁먹	-1208
▁도쿄	-1209
▁현대	-1210
조선	-1211
▁바이	-1212
▁지금	-1213
▁과정	-1214
▁않는	-1215
▁하계	-1216
리오	-1217
▁그것	-1218
▁시대	-1219
▁남아	-1220
▁희	-1221
px	-1222
av	-1223
▁싱글	-1224
쪽으로	-1225
었고	-1226
▁건설	-1227
▁압	-1228
▁일본의	-1229
전에	-1230
▁국가대표팀	-1231
이드	-1232
▁워	-1233
▁인물	-1234
▁그가	-1235
달리스트	-1236
thumb	-1237
세의	-1238
▁sbs	-1239
▁동시에	-1240
나다	-1241
▁아르	-1242
▁개최	-1243
장은	-1244
▁자연	-1245
제가	-1246
▁오스트	-1247
▁연합	-1248
▁0.	-1249
▁있는데	-1250
리지	-1251
▁묘	-1252
▁임명	-1253
▁모델	-1254
▁다이	-1255
ang	-1256
▁않았	-1257
▁이동	-1258
▁기본	-1259
인을	-1260
▁평가	-1261
▁뿐	-1262
▁응	-1263
니다	-1264
갔다	-1265
부를	-1266
▁보여	-1267
▁싸	-1268
ef	-1269
(0000)	-1270
▁죽음	-1271
자와	-1272
▁fifa	-1273
트로	-1274
▁색	-1275
▁나오	-1276
▁요구	-1277
▁0-0	-1278
▁취임	-1279
일부터	-1280
모토	-1281
지로	-1282
▁휴	-1283
▁혹	-1284
위에	-1285
▁관리	-1286
▁서로	-1287
린다	-1288
▁일으	-1289
▁위치한	-1290
▁기업	-1291
지가	-1292
치는	-1293
서울	-1294
ard	-1295
▁어린	-1296
▁따르면	-1297
▁배경	-1298
▁역시	-1299
ell	-1300
qu	-1301
▁완전	-1302
▁티	-1303
▁망	-1304
▁반대	-1305
▁크게	-1306
▁방식	-1307
▁느	-1308
▁후보	-1309
▁철도	-1310
피언	-1311
▁알려져	-1312
kbs	-1313
▁의한	-1314
▁비롯	-1315
계를	-1316
▁군사	-1317
▁상대	-1318
중학교	-1319
있다	-1320
▁활약	-1321
경기	-1322
▁위원	-1323
▁긴	-1324
▁출전	-1325
▁낮	-1326
▁선정	-1327
▁하였	-1328
▁핵	-1329
▁명칭	-1330
임을	-1331
▁실시	-1332
▁수록	-1333
▁훈	-1334
▁겸	-1335
▁제외	-1336
이의	-1337
▁0000,	-1338
사에	-1339
se	-1340
장의	-1341
▁to	-1342
됐다	-1343
▁통합	-1344
인은	-1345
치를	-1346
로스	-1347
▁원래	-1348
▁(''	-1349
▁인간	-1350
▁견	-1351
▁이론	-1352
▁un	-1353
문을	-1354
▁아닌	-1355
▁외국인	-1356
)·	-1357
▁지도	-1358
ine	-1359
▁민족	-1360
▁가진	-1361
▁건물	-1362
▁중요한	-1363
▁시절	-1364
ill	-1365
▁과학	-1366
제의	-1367
하였으나	-1368
퓨터	-1369
▁만든	-1370
▁놓	-1371
▁말한다	-1372
스코	-1373
▁경찰	-1374
▁인도	-1375
특별시	-1376
》,	-1377
기관	-1378
전에서	-1379
▁되고	-1380
▁맥	-1381
▁이르	-1382
▁웨	-1383
▁노동	-1384
▁연속	-1385
▁공개	-1386
른다	-1387
▁열린	-1388
▁어떤	-1389
인민공	-1390
▁보통	-1391
▁다음과	-1392
(000	-1393
▁거쳐	-1394
▁챔	-1395
▁교황	-1396
▁있을	-1397
단의	-1398
▁전국	-1399
▁정의	-1400
ant	-1401
▁태양	-1402
군을	-1403
▁형성	-1404
대가	-1405
▁담당	-1406
들에	-1407
▁궁	-1408
▁연방	-1409
ph	-1410
되면서	-1411
▁정책	-1412
(''	-1413
하지만	-1414
▁0.00	-1415
▁소련	-1416
▁슬	-1417
▁0,	-1418
이었던	-1419
▁&	-1420
▁공연	-1421
원으로	-1422
부는	-1423
▁이때	-1424
이어	-1425
▁달리	-1426
▁판매	-1427
격을	-1428
▁기관	-1429
스탄	-1430
▁샤	-1431
▁혁	-1432
▁(00	-1433
▁착	-1434
이를	-1435
▁콜	-1436
▁사이에	-1437
소를	-1438
▁수행	-1439
회를	-1440
▁개인	-1441
▁ro	-1442
▁탑	-1443
ity	-1444
▁챔피언	-1445
드의	-1446
대는	-1447
▁비판	-1448
▁퇴	-1449
▁비슷	-1450
▁처음으로	-1451
▁옮	-1452
▁최초의	-1453
:0	-1454
▁음반	-1455
독교	-1456
▁기간	-1457
▁계약	-1458
원은	-1459
▁지휘	-1460
장에	-1461
체의	-1462
▁도입	-1463
▁탐	-1464
▁마을	-1465
중에	-1466
bo	-1467
호선	-1468
▁밴	-1469
▁소설	-1470
▁시작했다	-1471
한국	-1472
▁그래	-1473
어는	-1474
정한	-1475
▁전문	-1476
과학	-1477
포츠	-1478
마다	-1479
과는	-1480
▁혹은	-1481
▁역할을	-1482
사와	-1483
일의	-1484
▁기존	-1485
▁하며	-1486
▁옥	-1487
트의	-1488
영화	-1489
카와	-1490
ne	-1491
멤버	-1492
▁전라	-1493
▁있다고	-1494
년의	-1495
~00	-1496
▁너	-1497
주시	-1498
▁컴퓨터	-1499
▁이사	-1500
▁경기도	-1501
▁주의	-1502
▁친구	-1503
▁국내	-1504
하는데	-1505
▁지배	-1506
체를	-1507
▁초기	-1508
▁서비	-1509
▁바로	-1510
ri	-1511
▁숙	-1512
▁빈	-1513
무를	-1514
▁환경	-1515
▁우주	-1516
▁특징	-1517
▁사고	-1518
서를	-1519
동을	-1520
성은	-1521
ud	-1522
사업	-1523
▁그림	-1524
▁히로	-1525
트를	-1526
수로	-1527
이기도	-1528
▁육군	-1529
▁개의	-1530
▁차량	-1531
▁종교	-1532
▁대구	-1533
물을	-1534
▁기원전	-1535
선을	-1536
ec	-1537
▁지나	-1538
▁푸	-1539
동안	-1540
▁지하	-1541
▁보호	-1542
▁될	-1543
▁전통	-1544
▁먼	-1545
▁승리	-1546
▁****	-1547
트리	-1548
▁→	-1549
장에서	-1550
▁여기	-1551
▁아시	-1552
적을	-1553
드를	-1554
▁과거	-1555
▁모양	-1556
▁for	-1557
▁산업	-1558
크로	-1559
정부	-1560
주는	-1561
cm	-1562
지역	-1563
▁찾아	-1564
▁보내	-1565
▁벨	-1566
으면	-1567
▁이것은	-1568
▁덕	-1569
시의	-1570
▁클럽	-1571
▁풀	-1572
▁교통	-1573
▁편성	-1574
명은	-1575
사관	-1576
리와	-1577
▁멤버	-1578
▁피해	-1579
▁윈	-1580
사카	-1581
):	-1582
▁떨어	-1583
▁밖	-1584
▁부르	-1585
나이	-1586
되며	-1587
▁인천	-1588
▁낙	-1589
ong	-1590
▁곧	-1591
▁중심으로	-1592
화가	-1593
하라	-1594
▁언어	-1595
▁사상	-1596
▁이끌	-1597
하거나	-1598
▁그를	-1599
▁기반	-1600
드로	-1601
▁위하여	-1602
적은	-1603
체가	-1604
▁받은	-1605
▁주변	-1606
혔다	-1607
▁나가	-1608
▁없이	-1609
▁요시	-1610
촬영	-1611
▁사무	-1612
수는	-1613
▁중화	-1614
▁있지만	-1615
▁실패	-1616
▁어느	-1617
ber	-1618
의를	-1619
▁있다는	-1620
▁on	-1621
▁자기	-1622
▁받고	-1623
▁가까	-1624
▁때문이다	-1625
▁가족	-1626
▁이와	-1627
▁염	-1628
시켰다	-1629
조의	-1630
▁기독교	-1631
스키	-1632
▁유일	-1633
▁!!	-1634
▁방향	-1635
▁되었고	-1636
▁윌	-1637
▁적용	-1638
▁기념	-1639
▁센	-1640
▁비교	-1641
▁마음	-1642
기술	-1643
덜란드	-1644
종의	-1645
▁자신이	-1646
▁al	-1647
프로	-1648
▁물리	-1649
했는데	-1650
▁pro	-1651
▁충청	-1652
▁해외	-1653
▁선택	-1654
▁있어서	-1655
▁상당	-1656
계의	-1657
▁갑	-1658
ord	-1659
▁획	-1660
▁뛰어	-1661
국민	-1662
▁늘	-1663
."	-1664
▁불가	-1665
▁th	-1666
구의	-1667
▁폐지	-1668
도에	-1669
이지만	-1670
▁열차	-1671
▁작업	-1672
라도	-1673
호를	-1674
▁작가	-1675
위로	-1676
▁컨	-1677
▁전기	-1678
▁교장	-1679
▁공간	-1680
▁익	-1681
▁설명	-1682
ge	-1683
▁ar	-1684
메리카	-1685
정보	-1686
시켜	-1687
릭터	-1688
▁받았	-1689
ub	-1690
▁흔	-1691
▁넣	-1692
▁넓	-1693
ian	-1694
io	-1695
~0	-1696
르게	-1697
up	-1698
스턴	-1699
▁역임	-1700
▁촬영	-1701
▁분리	-1702
▁솔	-1703
톨릭	-1704
▁건축	-1705
▁뉴욕	-1706
▁개통	-1707
▁등에	-1708
▁최대	-1709
▁시민	-1710
▁초대	-1711
▁출시	-1712
▁도로	-1713
▁이런	-1714
▁데이터	-1715
▁주인	-1716
▁증가	-1717
일까지	-1718
정에	-1719
▁활동을	-1720
리로	-1721
소년	-1722
▁앤	-1723
▁배경으로	-1724
▁성우	-1725
ive	-1726
▁연주	-1727
▁선발	-1728
ea	-1729
|000	-1730
▁일반적으로	-1731
▁오늘	-1732
▁분야	-1733
ok	-1734
어의	-1735
어가	-1736
일랜드	-1737
식의	-1738
▁흥	-1739
시대	-1740
▁같다	-1741
▁땅	-1742
레일	-1743
▁는	-1744
사회	-1745
▁개칭	-1746
▁씨	-1747
▁팬	-1748
상이	-1749
요일	-1750
▁없었다	-1751
쳤다	-1752
ack	-1753
단을	-1754
▁확인	-1755
▁예정	-1756
당의	-1757
▁좋은	-1758
efa	-1759
▁대부분의	-1760
▁잔	-1761
움을	-1762
먼트	-1763
0,	-1764
▁명의	-1765
▁연기	-1766
세가	-1767
▁우리	-1768
이란	-1769
스티	-1770
인으로	-1771
▁조지	-1772
선의	-1773
▁입학	-1774
▁전자	-1775
군에	-1776
▁최종	-1777
te	-1778
▁괴	-1779
했을	-1780
나무	-1781
세는	-1782
ith	-1783
▁잃	-1784
▁걸쳐	-1785
심을	-1786
▁z	-1787
부가	-1788
▁경기에서	-1789
▁sp	-1790
▁개시	-1791
▁이상의	-1792
▁올라	-1793
▁사진	-1794
ik	-1795
이로	-1796
▁득	-1797
▁흑	-1798
나가	-1799
▁아시아	-1800
고속	-1801
쪽에	-1802
▁개념	-1803
▁대하여	-1804
▁지지	-1805
학년	-1806
▁국립	-1807
▁움	-1808
▁캐릭터	-1809
▁최초로	-1810
▁ne	-1811
▁명령	-1812
드리	-1813
이치	-1814
▁더욱	-1815
tr	-1816
▁내려	-1817
▁미국인	-1818
스카	-1819
▁스페인	-1820
▁좋아	-1821
▁동일	-1822
▁밤	-1823
▁왜	-1824
했다고	-1825
드라마	-1826
▁조약	-1827
▁흐	-1828
기와	-1829
스테	-1830
▁스포츠	-1831
시킨	-1832
성과	-1833
▁라디오	-1834
▁하지	-1835
철도	-1836
리아의	-1837
렇게	-1838
▁com	-1839
▁최근	-1840
▁그녀는	-1841
▁헌법	-1842
▁대체	-1843
▁이름은	-1844
▁하다	-1845
▁에너	-1846
▁표준	-1847
▁con	-1848
원에	-1849
▁등으로	-1850
▁공항	-1851
라의	-1852
▁승격	-1853
▁되었	-1854
만을	-1855
회는	-1856
mm	-1857
▁부족	-1858
▁두고	-1859
일본의	-1860
▁공화국	-1861
함으로써	-1862
류의	-1863
▁서울특별시	-1864
면에	-1865
▁조사	-1866
▁어려	-1867
제는	-1868
▁삼성	-1869
러스	-1870
▁km	-1871
▁공산	-1872
▁이해	-1873
▁점령	-1874
▁가톨릭	-1875
자리	-1876
▁메달리스트	-1877
으므로	-1878
정이	-1879
▁마사	-1880
▁변화	-1881
한다는	-1882
이에	-1883
▁획득	-1884
▁규모	-1885
▁동물	-1886
▁돈	-1887
▁결승	-1888
년간	-1889
'',	-1890
▁베이	-1891
서관	-1892
적이	-1893
▁소재	-1894
▁휘	-1895
und	-1896
▁디지	-1897
세를	-1898
여자	-1899
▁있게	-1900
▁소비	-1901
▁소유	-1902
성에	-1903
공항	-1904
▁꽃	-1905
부르크	-1906
만이	-1907
▁pr	-1908
프랑	-1909
▁보인다	-1910
무라	-1911
▁맺	-1912
스케	-1913
▁메이	-1914
▁효과	-1915
▁빛	-1916
▁슈퍼	-1917
▁가리	-1918
트는	-1919
지방	-1920
▁야마	-1921
난다	-1922
▁소프트	-1923
▁옛	-1924
▁아키	-1925
▁크리스	-1926
sp	-1927
▁하루	-1928
na	-1929
▁선언	-1930
개월	-1931
▁예술	-1932
▁추정	-1933
식으로	-1934
▁버전	-1935
겼다	-1936
▁자료	-1937
일에는	-1938
▁이유로	-1939
내는	-1940
▁캐나다	-1941
▁목표	-1942
▁출판	-1943
학생	-1944
▁칭	-1945
▁가문	-1946
소가	-1947
▁ii	-1948
▁헬	-1949
▁홀	-1950
)'	-1951
▁아시안	-1952
▁태어났다	-1953
fc	-1954
치가	-1955
▁실제	-1956
키는	-1957
▁이야기	-1958
▁모습을	-1959
▁광주	-1960
오카	-1961
▁언론	-1962
▁편입	-1963
▁정신	-1964
mbc	-1965
시키는	-1966
로의	-1967
▁이적	-1968
▁쌍	-1969
▁주민	-1970
디어	-1971
지와	-1972
자들은	-1973
▁맨	-1974
▁불구	-1975
정의	-1976
▁전에	-1977
▁시설	-1978
대상	-1979
▁방영	-1980
▁강화	-1981
대회	-1982
아의	-1983
ver	-1984
▁sh	-1985
▁연극	-1986
시코	-1987
▁움직	-1988
▁법률	-1989
▁경영	-1990
학적	-1991
▁페르	-1992
▁겨	-1993
하이	-1994
나의	-1995
하도록	-1996
▁제한	-1997
ain	-1998
▁런	-1999
▁자리	-2000
라스	-2001
인민공화국	-2002
▁아카	-2003
▁폴란드	-2004
구를	-2005
▁비행	-2006
지지	-2007
회사	-2008
ich	-2009
▁조건	-2010
▁액	-2011
▁징	-2012
▁마르	-2013
end	-2014
호는	-2015
▁예를	-2016
렀다	-2017
차로	-2018
▁수상자	-2019
▁정규	-2020
트남	-2021
▁칸	-2022
명으로	-2023
▁실험	-2024
▁이들은	-2025
▁통일	-2026
▁바탕	-2027
▁덴	-2028
▁믿	-2029
▁후반	-2030
대전	-2031
▁비해	-2032
치고	-2033
비를	-2034
▁이름으로	-2035
man	-2036
메이	-2037
▁선출	-2038
역을	-2039
▁끌	-2040
▁네덜란드	-2041
▁사용하는	-2042
민주주의	-2043
▁깊	-2044
▁se	-2045
▁나온	-2046
▁자주	-2047
학을	-2048
사이	-2049
▁아직	-2050
스에	-2051
▁것이라고	-2052
ate	-2053
▁동생	-2054
▁있었던	-2055
스토	-2056
어서	-2057
▁고대	-2058
인데	-2059
자들이	-2060
▁하나의	-2061
uc	-2062
▁00:00	-2063
▁몽	-2064
▁영어	-2065
▁포르	-2066
상에	-2067
▁행동	-2068
▁엔진	-2069
▁류	-2070
▁그들의	-2071
라인	-2072
협회	-2073
our	-2074
되기	-2075
관리	-2076
▁갖고	-2077
▁통과	-2078
부로	-2079
0)	-2080
▁오른	-2081
▁국회의	-2082
관을	-2083
▁an	-2084
사단	-2085
ast	-2086
▁영토	-2087
▁단체	-2088
ass	-2089
▁인터넷	-2090
▁비디오	-2091
계에	-2092
▁그런	-2093
▁디지털	-2094
▁멀	-2095
▁추진	-2096
▁여객	-2097
▁불교	-2098
▁불구하고	-2099
▁만나	-2100
▁사람이	-2101
▁교회	-2102
▁잉글랜드	-2103
ry	-2104
▁널	-2105
▁불리	-2106
ort	-2107
)》	-2108
▁평균	-2109
▁정당	-2110
금을	-2111
었으며	-2112
루스	-2113
▁at	-2114
▁현재의	-2115
도시	-2116
▁아프리카	-2117
▁깨	-2118
웨어	-2119
▁::	-2120
▁방문	-2121
▁특수	-2122
▁영국의	-2123
▁발달	-2124
▁작사	-2125
▁찬	-2126
쪽으로는	-2127
하의	-2128
ens	-2129
▁he	-2130
▁것에	-2131
▁대중	-2132
▁요청	-2133
법을	-2134
▁거주	-2135
▁회사	-2136
▁정확	-2137
▁물질	-2138
르의	-2139
베이	-2140
웠다	-2141
▁스테	-2142
르고	-2143
▁하이	-2144
▁많다	-2145
▁구분	-2146
▁인구는	-2147
▁정도로	-2148
▁스스로	-2149
산업	-2150
소의	-2151
ile	-2152
미널	-2153
가의	-2154
▁이듬	-2155
▁밝혔다	-2156
▁현재는	-2157
▁↔	-2158
▁유로	-2159
화국의	-2160
ran	-2161
▁말했다	-2162
연합	-2163
▁디자인	-2164
▁종합	-2165
▁확장	-2166
▁『	-2167
▁쓴	-2168
▁알렉	-2169
▁펼	-2170
▁을	-2171
은행	-2172
▁계열	-2173
ib	-2174
점이	-2175
▁칠	-2176
식이	-2177
없이	-2178
▁바뀌	-2179
▁파괴	-2180
▁다카	-2181
▁목적으로	-2182
드가	-2183
▁성격	-2184
▁자동차	-2185
▁강력	-2186
▁프로젝	-2187
학의	-2188
▁않아	-2189
리포	-2190
▁사라	-2191
와는	-2192
▁그대로	-2193
▁멸	-2194
▁중에	-2195
▁이듬해	-2196
예술	-2197
▁완전히	-2198
아가	-2199
▁쉽	-2200
▁드러	-2201
사키	-2202
▁웹	-2203
모리	-2204
▁?	-2205
▁등과	-2206
우리	-2207
워크	-2208
sh	-2209
▁이로	-2210
ob	-2211
바이	-2212
▁아마	-2213
물의	-2214
▁지속	-2215
▁차례	-2216
력은	-2217
▁그들은	-2218
랐다	-2219
▁()	-2220
웨덴	-2221
iz	-2222
▁부문	-2223
▁지역의	-2224
▁식민	-2225
▁윈도	-2226
▁놀	-2227
▁배치	-2228
▁품	-2229
▁클래	-2230
▁황제	-2231
▁때는	-2232
▁만화	-2233
▁거두	-2234
축구	-2235
상으로	-2236
▁고등학교	-2237
위가	-2238
형을	-2239
▁이들	-2240
▁알고	-2241
물관	-2242
신을	-2243
▁le	-2244
위의	-2245
▁유사	-2246
멕시코	-2247
▁정치인	-2248
▁개교	-2249
▁베이스	-2250
▁반응	-2251
▁군인	-2252
▁언급	-2253
oh	-2254
지게	-2255
교회	-2256
▁포함한	-2257
ace	-2258
▁오늘날	-2259
월에는	-2260
▁표시	-2261
식은	-2262
월부터	-2263
▁관할	-2264
▁북한	-2265
프리	-2266
▁경험	-2267
▁전해	-2268
▁분석	-2269
아이	-2270
▁먼저	-2271
▁주인공	-2272
▁제품	-2273
▁유래	-2274
▁우수	-2275
▁발행	-2276
▁밝혀	-2277
▁수준	-2278
~0000)	-2279
▁뮤직	-2280
▁아무	-2281
▁결성	-2282
트가	-2283
▁부여	-2284
▁이곳	-2285
▁시행	-2286
▁경우가	-2287
▁독일의	-2288
베르	-2289
▁사이의	-2290
선거	-2291
▁오브	-2292
▁육상	-2293
▁있도록	-2294
▁천황	-2295
▁경쟁	-2296
▁uefa	-2297
▁있으나	-2298
▁브라질	-2299
이기	-2300
메달	-2301
▁sk	-2302
▁습	-2303
▁때까지	-2304
ss	-2305
었던	-2306
.(	-2307
▁술	-2308
안을	-2309
▁널리	-2310
▁들어가	-2311
▁me	-2312
▁성장	-2313
ory	-2314
▁빅	-2315
직을	-2316
▁몬	-2317
감을	-2318
가를	-2319
▁임시	-2320
▁0)	-2321
▁록	-2322
▁세워	-2323
▁cl	-2324
▁이외	-2325
▁여겨	-2326
▁캠	-2327
▁위해서	-2328
크라	-2329
▁위에	-2330
▁관측	-2331
▁하나이다	-2332
▁패배	-2333
▁기초	-2334
▁그녀의	-2335
▁일어나	-2336
▁설계	-2337
▁궤	-2338
▁제조	-2339
▁가르	-2340
▁앙	-2341
▁상호	-2342
▁제국의	-2343
▁남부	-2344
right	-2345
hy	-2346
▁sc	-2347
되었으나	-2348
▁마찬	-2349
▁00,	-2350
▁못했다	-2351
▁성립	-2352
▁해결	-2353
원에서	-2354
웨이	-2355
▁마찬가지	-2356
니스	-2357
▁핀	-2358
체는	-2359
▁세포	-2360
단이	-2361
▁왕국	-2362
▁알려진	-2363
위는	-2364
▁사람들이	-2365
세이	-2366
워드	-2367
전의	-2368
토리	-2369
▁하나로	-2370
▁바다	-2371
▁나머	-2372
선이	-2373
▁오래	-2374
면을	-2375
일을	-2376
="	-2377
로를	-2378
역으로	-2379
산을	-2380
▁벤	-2381
▁십	-2382
▁외교	-2383
▁가능하다	-2384
▁아내	-2385
▁흡	-2386
▁도착	-2387
▁파이	-2388
ove	-2389
▁바꾸	-2390
▁것이었다	-2391
▁부인	-2392
▁짧	-2393
▁싶	-2394
▁000,000	-2395
경제	-2396
인지	-2397
▁접근	-2398
들도	-2399
테인	-2400
오는	-2401
▁유명한	-2402
▁여름	-2403
▁장관	-2404
▁자치	-2405
상은	-2406
▁촉	-2407
ary	-2408
ii	-2409
ly	-2410
▁종료	-2411
▁혈	-2412
고를	-2413
▁비롯한	-2414
들로	-2415
경을	-2416
지에서	-2417
▁명예	-2418
▁비슷한	-2419
▁나카	-2420
▁미사	-2421
▁승강	-2422
▁공작	-2423
규모	-2424
ex	-2425
인트	-2426
▁숨	-2427
▁규정	-2428
ft	-2429
》(0000	-2430
량이	-2431
▁파견	-2432
▁am	-2433
▁이승	-2434
단에	-2435
▁가져	-2436
▁반란	-2437
▁런던	-2438
▁훈련	-2439
자에	-2440
▁불리는	-2441
▁케이	-2442
왕의	-2443
개발	-2444
▁프랑스의	-2445
만의	-2446
단은	-2447
▁타이틀	-2448
cl	-2449
▁펜	-2450
▁거부	-2451
▁그린	-2452
▁해석	-2453
래프트	-2454
▁졸업식	-2455
▁제시	-2456
▁처리	-2457
민족	-2458
소는	-2459
ction	-2460
▁개편	-2461
▁않다	-2462
▁동맹	-2463
▁대해서	-2464
▁후쿠	-2465
평양	-2466
▁고속	-2467
ign	-2468
▁기준으로	-2469
ide	-2470
▁부정	-2471
▁스위	-2472
▁강원	-2473
▁의하여	-2474
▁(000	-2475
▁일을	-2476
크의	-2477
법인	-2478
군과	-2479
되기도	-2480
지원	-2481
sbs	-2482
▁제주	-2483
▁의원	-2484
스페	-2485
▁0:00	-2486
▁신설	-2487
동으로	-2488
▁근처	-2489
장과	-2490
쿠라	-2491
▁과정에서	-2492
ial	-2493
age	-2494
▁속하는	-2495
ure	-2496
▁bo	-2497
rom	-2498
▁기획	-2499
하다가	-2500
▁복귀	-2501
▁체결	-2502
요시	-2503
한다고	-2504
레이션	-2505
파트	-2506
리엄	-2507
정책	-2508
하였는데	-2509
간다	-2510
▁프로듀	-2511
중앙	-2512
미터	-2513
▁살해	-2514
▁유전	-2515
년을	-2516
불어	-2517
sc	-2518
ep	-2519
▁후지	-2520
▁왼	-2521
▁수용	-2522
받았다	-2523
행을	-2524
▁이주	-2525
지도	-2526
▁선수권	-2527
데미	-2528
▁다르	-2529
▁맡았다	-2530
▁베트남	-2531
해의	-2532
▁위험	-2533
했다는	-2534
▁완성	-2535
▁서비스	-2536
▁친일	-2537
▁문학	-2538
문학	-2539
▁엔터	-2540
▁달성	-2541
▁빨	-2542
▁단순	-2543
▁비밀	-2544
피아	-2545
▁평화	-2546
▁사용한다	-2547
인과	-2548
트워크	-2549
▁우승을	-2550
▁곤	-2551
▁경우에는	-2552
▁즉위	-2553
▁못하고	-2554
▁것과	-2555
▁방어	-2556
▁잇	-2557
▁특정	-2558
▁개혁	-2559
인가	-2560
▁영업	-2561
헝가	-2562
함을	-2563
▁붕	-2564
골을	-2565
▁유니	-2566
▁있기	-2567
▁의하면	-2568
우수	-2569
▁사용할	-2570
',	-2571
▁부임	-2572
▁상징	-2573
▁본선	-2574
▁따른	-2575
권의	-2576
많은	-2577
▁000-0	-2578
ff	-2579
▁근거	-2580
ug	-2581
ies	-2582
▁=	-2583
one	-2584
투갈	-2585
▁중간	-2586
의회	-2587
▁번역	-2588
▁조성	-2589
관은	-2590
pl	-2591
ue	-2592
▁등록	-2593
롯데	-2594
구역	-2595
▁은퇴	-2596
량을	-2597
▁이루어진	-2598
▁편집	-2599
려고	-2600
시로	-2601
▁스트	-2602
▁해군	-2603
▁읽	-2604
▁중단	-2605
▁만에	-2606
▁준비	-2607
우는	-2608
어나	-2609
라노	-2610
▁세이	-2611
구가	-2612
▁신문	-2613
▁보다	-2614
▁형태로	-2615
▁체포	-2616
▁be	-2617
▁겪	-2618
임스	-2619
▁각종	-2620
▁작용	-2621
ond	-2622
주로	-2623
단체	-2624
▁시험	-2625
▁신라	-2626
▁말을	-2627
▁젊	-2628
ld	-2629
ivers	-2630
쪽의	-2631
신의	-2632
▁혁명	-2633
낸다	-2634
리그의	-2635
▁밴드	-2636
ma	-2637
시장	-2638
▁가정	-2639
▁ex	-2640
▁bl	-2641
pe	-2642
데스	-2643
▁당선	-2644
▁회의	-2645
그룹	-2646
도와	-2647
▁것도	-2648
▁달러	-2649
▁내부	-2650
력의	-2651
▁오사카	-2652
주의자	-2653
차전	-2654
▁합병	-2655
▁가입	-2656
▁의사	-2657
▁지역에	-2658
▁기여	-2659
▁중에서	-2660
▁끝에	-2661
▁나무	-2662
▁센터	-2663
세계	-2664
▁.	-2665
▁주도	-2666
pr	-2667
▁금지	-2668
형의	-2669
호로	-2670
▁노르	-2671
▁경상북도	-2672
▁시청	-2673
마을	-2674
▁뇌	-2675
▁pl	-2676
▁프레	-2677
아시아	-2678
▁대해서는	-2679
▁년	-2680
ind	-2681
▁강한	-2682
▁재판	-2683
ix	-2684
ore	-2685
▁뮤지	-2686
▁오후	-2687
▁회원	-2688
공사	-2689
▁미술	-2690
▁일제	-2691
▁수비	-2692
▁죄	-2693
정은	-2694
졌고	-2695
▁투수	-2696
▁필요한	-2697
▁존재한다	-2698
하기로	-2699
주교	-2700
▁본래	-2701
▁오스트리아	-2702
다이	-2703
기업	-2704
음악	-2705
▁실행	-2706
점으로	-2707
▁던	-2708
▁살아	-2709
▁시도	-2710
관이	-2711
▁꾸	-2712
사랑	-2713
▁있지	-2714
다운	-2715
▁수많은	-2716
▁꿈	-2717
사무	-2718
▁객	-2719
▁이렇게	-2720
헨티	-2721
캘리포	-2722
▁에이	-2723
▁못한	-2724
▁더불어	-2725
▁안전	-2726
▁귀족	-2727
▁결합	-2728
▁북부	-2729
▁발사	-2730
we	-2731
▁나타나	-2732
생활	-2733
ish	-2734
▁제기	-2735
브라	-2736
작용	-2737
▁보유	-2738
시는	-2739
▁미래	-2740
sv	-2741
▁스웨덴	-2742
주를	-2743
조를	-2744
▁엘리	-2745
▁윌리엄	-2746
▁바람	-2747
▁계승	-2748
▁촌	-2749
▁이름이	-2750
▁국방	-2751
▁낳	-2752
▁떨어진	-2753
▁죽은	-2754
▁시작하였다	-2755
ont	-2756
▁it	-2757
▁대륙	-2758
일보	-2759
▁마찬가지로	-2760
▁작전	-2761
▁치료	-2762
▁이용하여	-2763
▁듣	-2764
▁필리	-2765
캘리포니아	-2766
▁지적	-2767
▁부른다	-2768
미국	-2769
후의	-2770
▁해안	-2771
co	-2772
우승	-2773
▁바르	-2774
로가	-2775
▁카를	-2776
▁오스트레일	-2777
치의	-2778
▁맹	-2779
▁대응	-2780
▁준공	-2781
으면서	-2782
물이	-2783
부장	-2784
▁la	-2785
▁남편	-2786
▁소개	-2787
라운드	-2788
▁채널	-2789
동생	-2790
/0	-2791
▁벽	-2792
티아	-2793
▁다만	-2794
▁사령	-2795
▁안정	-2796
▁논란	-2797
▁아나	-2798
대와	-2799
▁있었고	-2800
▁얼마	-2801
전쟁	-2802
▁삶	-2803
마이	-2804
롭게	-2805
▁조각	-2806
▁대표적인	-2807
▁충돌	-2808
화된	-2809
▁동부	-2810
▁즐	-2811
▁바탕으로	-2812
▁빼	-2813
▁투표	-2814
▁의견	-2815
▁관련된	-2816
▁내각	-2817
▁상대로	-2818
▁지상	-2819
▁문제가	-2820
▁00)	-2821
소에	-2822
▁회장	-2823
되자	-2824
▁항상	-2825
성우	-2826
▁입단	-2827
▁쌓	-2828
디아	-2829
시설	-2830
▁파리	-2831
▁최고의	-2832
화의	-2833
포르	-2834
▁집합	-2835
per	-2836
구는	-2837
하나	-2838
미야	-2839
시키고	-2840
▁0000:	-2841
시즌	-2842
틀랜드	-2843
▁아사	-2844
▁춘	-2845
았고	-2846
▁구성되어	-2847
치원	-2848
▁활용	-2849
▁ed	-2850
",	-2851
공업	-2852
▁벗	-2853
▁아니다	-2854
에게는	-2855
▁관광	-2856
국제	-2857
자치	-2858
▁아일랜드	-2859
▁스튜	-2860
▁제안	-2861
▁적이	-2862
당은	-2863
fl	-2864
▁인수	-2865
였고	-2866
▁mar	-2867
니는	-2868
ice	-2869
▁납	-2870
▁픽	-2871
▁가능한	-2872
▁연장	-2873
▁블루	-2874
▁국회	-2875
▁근무	-2876
▁0~0	-2877
ng	-2878
▁통치	-2879
러운	-2880
▁여기서	-2881
▁베르	-2882
▁전달	-2883
▁안에	-2884
교통	-2885
▁밑	-2886
▁제거	-2887
▁나머지	-2888
▁남북	-2889
통신	-2890
▁지역에서	-2891
▁:*	-2892
▁값	-2893
력으로	-2894
▁경상남도	-2895
내고	-2896
▁전환	-2897
구려	-2898
▁by	-2899
▁문제를	-2900
▁블랙	-2901
▁마이크로	-2902
ment	-2903
▁시기	-2904
준다	-2905
▁00.00	-2906
상과	-2907
버트	-2908
ust	-2909
▁르	-2910
문에	-2911
▁청소년	-2912
하마	-2913
▁다루	-2914
▁부모	-2915
제국	-2916
▁co	-2917
가로	-2918
▁켄	-2919
소로	-2920
▁국제공항	-2921
계가	-2922
▁너무	-2923
▁떠나	-2924
테인먼트	-2925
▁강점	-2926
▁생성	-2927
권이	-2928
▁를	-2929
▁출생	-2930
스에서	-2931
항공	-2932
▁인식	-2933
나라의	-2934
~000	-2935
▁억	-2936
▁크로	-2937
▁일이	-2938
▁인한	-2939
▁간의	-2940
▁0000-0000	-2941
▁유리	-2942
▁표기	-2943
▁취급	-2944
▁혜	-2945
▁지난	-2946
우주	-2947
대한민국	-2948
미디	-2949
과에	-2950
idae	-2951
▁사실을	-2952
교의	-2953
▁냉	-2954
니어	-2955
▁en	-2956
▁얼굴	-2957
▁알렉산	-2958
▁가는	-2959
▁예선	-2960
▁박사	-2961
▁없어	-2962
▁옮겨	-2963
성으로	-2964
▁종류	-2965
▁유대	-2966
▁이슬	-2967
▁지하철	-2968
▁폰	-2969
량의	-2970
▁+	-2971
▁김영	-2972
▁지명	-2973
▁정식	-2974
▁실제로	-2975
구에	-2976
▁us	-2977
ll	-2978
분을	-2979
▁몇몇	-2980
▁영역	-2981
▁뒤에	-2982
국민학교	-2983
적으로는	-2984
리어	-2985
▁제정	-2986
▁신인	-2987
▁주는	-2988
▁마쓰	-2989
즈의	-2990
▁직후	-2991
▁멕시코	-2992
▁꼬	-2993
▁사이에서	-2994
조는	-2995
▁하기	-2996
▁제도	-2997
나미	-2998
▁조선민주주의	-2999
▁전시	-3000
▁면적은	-3001
▁있었지만	-3002
▁글로	-3003
▁울산	-3004
▁곳에	-3005
로운	-3006
▁동료	-3007
▁묘사	-3008
▁그려	-3009
▁you	-3010
관의	-3011
▁히데	-3012
▁기자	-3013
▁넘어	-3014
▁편곡	-3015
▁되었으며	-3016
기간	-3017
▁가까운	-3018
▁롯데	-3019
▁둘러	-3020
ical	-3021
조가	-3022
동에	-3023
▁이집	-3024
경찰	-3025
시오	-3026
▁적극	-3027
▁무렵	-3028
▁저항	-3029
▁물론	-3030
였으며	-3031
▁네트워크	-3032
)(	-3033
해졌다	-3034
▁보수	-3035
▁유일한	-3036
▁건너	-3037
▁한국의	-3038
▁굴	-3039
▁낮은	-3040
▁스코	-3041
▁wor	-3042
했기	-3043
부인	-3044
붉은	-3045
▁cd	-3046
아버지	-3047
▁헨	-3048
▁관계를	-3049
게임	-3050
▁나누	-3051
▁불러	-3052
미어	-3053
로로	-3054
이사	-3055
화에	-3056
▁교체	-3057
전이	-3058
▁tr	-3059
▁젊은	-3060
하에	-3061
▁00000000	-3062
▁전략	-3063
▁둔	-3064
▁수가	-3065
▁원자	-3066
iss	-3067
▁확대	-3068
로서의	-3069
현재	-3070
사에서	-3071
국이	-3072
▁변호	-3073
기고	-3074
▁설정	-3075
▁최소	-3076
▁고양	-3077
세에	-3078
▁기계	-3079
▁의해서	-3080
감독	-3081
ys	-3082
▁하늘	-3083
▁라이브	-3084
분에	-3085
서로	-3086
▁#:	-3087
선은	-3088
무원	-3089
▁전라남도	-3090
▁주목	-3091
▁오르	-3092
▁정부는	-3093
▁지냈다	-3094
▁국회의원	-3095
▁홈런	-3096
▁오리	-3097
▁만들었다	-3098
ah	-3099
▁구축	-3100
같은	-3101
▁게이	-3102
▁주었다	-3103
▁피아	-3104
▁득점	-3105
비가	-3106
▁서부	-3107
ica	-3108
▁출발	-3109
▁new	-3110
▁협력	-3111
▁정부의	-3112
해를	-3113
▁에피	-3114
ung	-3115
▁마리	-3116
체육	-3117
▁이스	-3118
▁전차	-3119
점에서	-3120
)"	-3121
▁중의	-3122
▁계산	-3123
▁의회	-3124
▁or	-3125
▁col	-3126
▁뒷	-3127
▁목록	-3128
타이	-3129
▁요리	-3130
▁고구려	-3131
▁혐	-3132
▁시티	-3133
시를	-3134
고로	-3135
▁소녀	-3136
▁엑	-3137
유키	-3138
▁국왕	-3139
▁보존	-3140
▁이래	-3141
▁시대의	-3142
▁보도	-3143
메달리스트	-3144
▁마리아	-3145
▁보컬	-3146
▁팀의	-3147
▁생물	-3148
▁인가	-3149
▁기존의	-3150
▁개정	-3151
▁봄	-3152
시리즈	-3153
실을	-3154
▁그렇	-3155
▁스피	-3156
▁판단	-3157
▁제외한	-3158
▁00~00	-3159
면의	-3160
론을	-3161
습니다	-3162
▁아름	-3163
▁0000–	-3164
▁정치적	-3165
▁마련	-3166
▁수는	-3167
▁주연	-3168
▁옆	-3169
▁힘을	-3170
티브	-3171
교도	-3172
▁통신	-3173
▁분포	-3174
▁강력한	-3175
▁셀	-3176
▁만들어진	-3177
▁합류	-3178
▁범죄	-3179
까지는	-3180
▁갖추	-3181
▁때에는	-3182
▁끼	-3183
▁하게	-3184
트라	-3185
▁보이	-3186
만에	-3187
▁오스	-3188
전히	-3189
▁끊	-3190
▁작성	-3191
▁나중에	-3192
▁모리	-3193
사령	-3194
파의	-3195
▁폭발	-3196
▁사람은	-3197
▁준우승	-3198
▁전반	-3199
▁제목	-3200
ood	-3201
▁원작	-3202
▁미니	-3203
▁불린다	-3204
▁여행	-3205
▁수정	-3206
력과	-3207
량은	-3208
보다는	-3209
▁수립	-3210
▁00.0%	-3211
▁붕괴	-3212
관으로	-3213
자들의	-3214
▁허용	-3215
▁인디	-3216
밖에	-3217
데이	-3218
나카	-3219
▁족	-3220
▁공격을	-3221
▁아우	-3222
까지의	-3223
▁차트	-3224
▁;0000	-3225
▁기능을	-3226
시가	-3227
▁장애	-3228
력에	-3229
▁mc	-3230
▁남쪽	-3231
▁00-00	-3232
일러	-3233
▁멜	-3234
ach	-3235
▁받아들	-3236
삼거리	-3237
▁경우도	-3238
pa	-3239
ire	-3240
▁반면	-3241
▁전설	-3242
ational	-3243
질을	-3244
가가	-3245
케이	-3246
ost	-3247
▁탑재	-3248
▁잭	-3249
▁기억	-3250
▁로스	-3251
▁쉽게	-3252
▁사용된다	-3253
▁동계	-3254
▁타카	-3255
▁확보	-3256
리기	-3257
▁인민	-3258
▁해체	-3259
고속도로	-3260
▁포르투갈	-3261
▁집중	-3262
br	-3263
▁알아	-3264
me	-3265
sk	-3266
▁lg	-3267
0.	-3268
▁전투에서	-3269
당한	-3270
▁이슬람	-3271
com	-3272
▁만약	-3273
▁만드는	-3274
▁경계	-3275
▁겨울	-3276
▁서식	-3277
▁자동	-3278
싱턴	-3279
▁전사	-3280
크라이나	-3281
▁인근	-3282
▁최우수	-3283
이탈리아	-3284
연대	-3285
▁보면	-3286
▁0:0	-3287
▁극장	-3288
▁조정	-3289
▁관찰	-3290
▁정착	-3291
▁당시의	-3292
키아	-3293
▁선생	-3294
적이고	-3295
▁소프트웨어	-3296
호가	-3297
▁상업	-3298
▁듀	-3299
▁지역을	-3300
▁밖에	-3301
▁뿐만	-3302
자유	-3303
진을	-3304
ath	-3305
르타	-3306
ence	-3307
▁기록했다	-3308
▁뮤지컬	-3309
당이	-3310
▁보여주	-3311
▁집단	-3312
▁자체	-3313
▁사단	-3314
▁썼	-3315
▁부근	-3316
▁윈도우	-3317
▁요코	-3318
▁책임	-3319
▁뉴스	-3320
프가	-3321
▁북쪽	-3322
▁거리	-3323
▁이루어져	-3324
과를	-3325
▁업무	-3326
▁기록을	-3327
▁민간	-3328
하려는	-3329
신이	-3330
▁좀	-3331
나이티	-3332
ps	-3333
▁참전	-3334
▁태풍	-3335
00,	-3336
▁소년	-3337
▁베네	-3338
▁링	-3339
ern	-3340
▁정보를	-3341
▁로드	-3342
▁공급	-3343
▁베스트	-3344
▁척	-3345
▁침공	-3346
끄는	-3347
사건	-3348
▁시의	-3349
▁홍콩	-3350
▁전개	-3351
▁제임스	-3352
들목	-3353
▁일어난	-3354
마크	-3355
당을	-3356
▁탄생	-3357
▁그래서	-3358
라비아	-3359
▁불가능	-3360
되었던	-3361
▁루이	-3362
▁이다	-3363
치로	-3364
▁흰	-3365
▁통하여	-3366
gr	-3367
pt	-3368
인들이	-3369
▁경기를	-3370
면이	-3371
▁스파	-3372
▁시에	-3373
▁에드	-3374
▁재위	-3375
▁듯	-3376
▁강조	-3377
▁귀국	-3378
▁자신을	-3379
전문	-3380
▁with	-3381
▁love	-3382
라고도	-3383
▁나들목	-3384
▁전용	-3385
de	-3386
▁분할	-3387
▁사람의	-3388
▁수원	-3389
로도	-3390
메라	-3391
부문	-3392
나와	-3393
▁노부	-3394
▁마법	-3395
▁오스트레일리아	-3396
▁사용한	-3397
▁아침	-3398
석을	-3399
▁엔터테인먼트	-3400
az	-3401
▁컬	-3402
▁숫	-3403
히로	-3404
▁등은	-3405
▁때에	-3406
▁생활을	-3407
마스	-3408
▁나폴	-3409
종이	-3410
▁음악가	-3411
mar	-3412
산시	-3413
▁왔다	-3414
vd	-3415
천시	-3416
졌으며	-3417
▁쉬	-3418
▁어린이	-3419
구로	-3420
선수	-3421
▁뛰어난	-3422
▁0·	-3423
ite	-3424
잉글랜드의	-3425
▁비난	-3426
▁의미한다	-3427
▁남성	-3428
▁왔	-3429
▁무장	-3430
주가	-3431
로그	-3432
라엘	-3433
업을	-3434
▁아메리카	-3435
sl	-3436
▁출장	-3437
▁관심을	-3438
-00000	-3439
동이	-3440
부와	-3441
▁유나이티	-3442
자키	-3443
▁쇠	-3444
▁구단	-3445
▁터키	-3446
배우	-3447
자에게	-3448
▁암살	-3449
▁회복	-3450
프는	-3451
▁채택	-3452
보드	-3453
▁so	-3454
▁수학	-3455
▁행사	-3456
▁트리	-3457
▁이후에	-3458
▁자본	-3459
hz	-3460
산의	-3461
▁사회주의	-3462
bl	-3463
▁위협	-3464
▁프로젝트	-3465
타로	-3466
▁수입	-3467
▁해방	-3468
노동	-3469
▁강원도	-3470
▁찰	-3471
개를	-3472
공립	-3473
이라고도	-3474
▁않을	-3475
▁충분	-3476
▁흘	-3477
이던	-3478
▁인기를	-3479
▁츠	-3480
받아	-3481
▁박정	-3482
▁통한	-3483
하다고	-3484
▁신경	-3485
▁충청남도	-3486
세대	-3487
▁시내	-3488
▁떨어져	-3489
act	-3490
▁자리를	-3491
▁다섯	-3492
▁원칙	-3493
마의	-3494
시티	-3495
▁노력	-3496
▁버스	-3497
▁개봉	-3498
의로	-3499
셔널	-3500
▁인간의	-3501
▁사람들은	-3502
▁그곳	-3503
지기	-3504
서의	-3505
▁인사	-3506
연상	-3507
소리	-3508
공원	-3509
▁옹	-3510
▁대립	-3511
되었는데	-3512
이와	-3513
▁univers	-3514
동의	-3515
▁헝가	-3516
▁검은	-3517
▁아카데미	-3518
▁측정	-3519
라크	-3520
▁대형	-3521
▁보이는	-3522
즈키	-3523
라우	-3524
▁여전히	-3525
▁선수로	-3526
▁설립된	-3527
▁출신의	-3528
성군	-3529
▁사는	-3530
로드	-3531
▁동쪽	-3532
to	-3533
〉,	-3534
▁세종	-3535
행위	-3536
▁아주	-3537
서에	-3538
dr	-3539
▁증거	-3540
▁일반적인	-3541
▁받는	-3542
▁이것이	-3543
tern	-3544
▁이시	-3545
▁정상	-3546
▁최다	-3547
▁델	-3548
▁에피소	-3549
▁홍보	-3550
▁올랐다	-3551
"(	-3552
▁재정	-3553
▁점차	-3554
▁모스크	-3555
▁조금	-3556
▁승리를	-3557
법에	-3558
▁불과	-3559
▁보급	-3560
약을	-3561
▁br	-3562
류를	-3563
회가	-3564
▁붉은	-3565
▁개선	-3566
▁im	-3567
월까지	-3568
▁경향	-3569
▁위치하고	-3570
▁오픈	-3571
▁문자	-3572
▁주식	-3573
해진	-3574
▁건강	-3575
▁정도의	-3576
년대에	-3577
▁샌	-3578
국은	-3579
▁어떻	-3580
▁감소	-3581
오프	-3582
▁머리	-3583
▁개업	-3584
▁나뉘	-3585
플레이	-3586
▁필리핀	-3587
▁인하여	-3588
▁fl	-3589
▁이끄는	-3590
▁광고	-3591
▁그에	-3592
▁주어	-3593
▁잘못	-3594
▁태평양	-3595
유럽	-3596
었으나	-3597
▁그해	-3598
▁부터	-3599
▁사용하여	-3600
▁전혀	-3601
▁교차로	-3602
▁은행	-3603
러시아	-3604
드와	-3605
▁농업	-3606
브리	-3607
문이	-3608
국을	-3609
자기	-3610
▁댄	-3611
분의	-3612
▁무역	-3613
세포	-3614
▁중국의	-3615
차를	-3616
svg	-3617
스파	-3618
▁저장	-3619
아르	-3620
▁수영	-3621
▁현실	-3622
▁아르헨티	-3623
▁주장했다	-3624
▁화학	-3625
자이	-3626
테르	-3627
▁타고	-3628
▁나이	-3629
세기에	-3630
ese	-3631
▁mus	-3632
▁노예	-3633
▁체계	-3634
다른	-3635
평가	-3636
▁에어	-3637
▁자이	-3638
▁나오는	-3639
▁미야	-3640
▁한다는	-3641
▁유도	-3642
aw	-3643
fe	-3644
사거리	-3645
▁속에	-3646
▁녹음	-3647
▁장군	-3648
ium	-3649
▁높이	-3650
▁장착	-3651
대에서	-3652
ms	-3653
권은	-3654
물로	-3655
▁단계	-3656
▁sch	-3657
▁국무	-3658
▁시장	-3659
영어	-3660
▁무기	-3661
▁사후	-3662
소프트	-3663
▁시기에	-3664
▁*****	-3665
▁오전	-3666
kg	-3667
▁pc	-3668
▁뽑	-3669
았으며	-3670
려는	-3671
▁매년	-3672
▁대사	-3673
▁있었으나	-3674
받은	-3675
▁옷	-3676
리트	-3677
▁my	-3678
▁재직	-3679
구치	-3680
▁속에서	-3681
▁린	-3682
▁잎	-3683
면에서	-3684
바라	-3685
전은	-3686
▁본격	-3687
▁욕	-3688
▁공공	-3689
▁했지만	-3690
▁개신	-3691
▁평양	-3692
▁겐	-3693
▁사람을	-3694
▁주교	-3695
슈타	-3696
하고자	-3697
병원	-3698
▁은하	-3699
▁되면서	-3700
▁사용되는	-3701
ick	-3702
▁리더	-3703
▁천문	-3704
▁되지	-3705
ai	-3706
▁창설	-3707
를린	-3708
▁복잡	-3709
면으로	-3710
▁솔로	-3711
'(	-3712
▁숲	-3713
▁시각	-3714
리학	-3715
▁시작되었다	-3716
▁목적	-3717
▁형식	-3718
▁등에서	-3719
▁내용을	-3720
▁연출	-3721
▁전철	-3722
레인	-3723
명한	-3724
었는데	-3725
부에서	-3726
land	-3727
▁장기	-3728
인들은	-3729
제에	-3730
출연	-3731
▁근대	-3732
▁애플	-3733
민주당	-3734
하려고	-3735
▁어떻게	-3736
▁기후	-3737
보통	-3738
▁요한	-3739
▁고등	-3740
더라도	-3741
▁없고	-3742
▁완공	-3743
▁part	-3744
▁우선	-3745
되었지만	-3746
▁프로듀서	-3747
▁운전	-3748
▁고정	-3749
▁구역	-3750
▁에서	-3751
자동차	-3752
▁비용	-3753
천군	-3754
메달을	-3755
부산	-3756
▁텍	-3757
▁초반	-3758
▁답	-3759
▁메이저	-3760
호의	-3761
▁고전	-3762
▁항복	-3763
크래프트	-3764
▁하면서	-3765
▁통산	-3766
족의	-3767
▁오토	-3768
▁나서	-3769
je	-3770
▁콩	-3771
▁유키	-3772
비스	-3773
ert	-3774
▁했으나	-3775
▁전주	-3776
fm	-3777
▁서쪽	-3778
었지만	-3779
▁지식	-3780
▁있었으며	-3781
for	-3782
▁권한	-3783
be	-3784
▁짓	-3785
/00	-3786
▁보는	-3787
소에서	-3788
▁금융	-3789
▁부활	-3790
▁길이	-3791
카이도	-3792
▁방식으로	-3793
▁생겨	-3794
▁man	-3795
▁각본	-3796
▁아버	-3797
▁생명	-3798
▁대규모	-3799
▁대항	-3800
▁컵	-3801
▁종종	-3802
▁일종	-3803
▁팝	-3804
테네	-3805
▁00000	-3806
▁사실상	-3807
▁오히	-3808
함에	-3809
▁형제	-3810
▁하는데	-3811
자이다	-3812
ict	-3813
인민공화국의	-3814
▁정리	-3815
년과	-3816
▁as	-3817
▁에너지	-3818
차례	-3819
▁형사	-3820
마트	-3821
에트	-3822
▁ac	-3823
▁교토	-3824
olog	-3825
.00.00	-3826
중국	-3827
))	-3828
대신	-3829
▁내에서	-3830
▁스튜디오	-3831
니아의	-3832
▁참석	-3833
유의	-3834
▁ad	-3835
▁라틴	-3836
형이	-3837
▁sy	-3838
▁외에	-3839
▁김정	-3840
선에	-3841
권에	-3842
▁te	-3843
서가	-3844
▁창립	-3845
▁도중	-3846
▁태어난	-3847
▁다니	-3848
▁율	-3849
▁한다고	-3850
이었으나	-3851
▁가격	-3852
지면서	-3853
▁000-000	-3854
계획	-3855
ax	-3856
▁셰	-3857
uk	-3858
지마	-3859
▁—	-3860
▁외에도	-3861
상에서	-3862
▁비교적	-3863
도르	-3864
▁ph	-3865
▁투입	-3866
▁wh	-3867
아프리카	-3868
▁공부	-3869
▁뒤를	-3870
수와	-3871
▁레코	-3872
질의	-3873
타카	-3874
▁프로세	-3875
▁낭	-3876
▁시대에	-3877
▁운용	-3878
올림픽	-3879
레이드	-3880
행정	-3881
▁적은	-3882
승을	-3883
과대학	-3884
▁이번	-3885
|0000	-3886
등을	-3887
▁계약을	-3888
정치	-3889
▁둥	-3890
▁작곡가	-3891
son	-3892
▁대상으로	-3893
▁미국에서	-3894
▁묻	-3895
▁조합	-3896
품을	-3897
어도	-3898
서트	-3899
.”	-3900
▁섭	-3901
조합	-3902
▁성인	-3903
어져	-3904
▁만큼	-3905
ck	-3906
▁균	-3907
회에	-3908
▁world	-3909
▁확정	-3910
ier	-3911
▁인기	-3912
▁한번	-3913
▁노벨	-3914
▁살고	-3915
▁행성	-3916
▁수여	-3917
비는	-3918
▁삭	-3919
▁도움을	-3920
▁하드	-3921
▁세운	-3922
▁오히려	-3923
▁되면	-3924
았던	-3925
일은	-3926
▁ap	-3927
기획	-3928
▁기사	-3929
과정	-3930
▁드라이	-3931
료를	-3932
▁거절	-3933
▁위치해	-3934
▁세르	-3935
▁한정	-3936
▁이스라엘	-3937
▁뿌	-3938
▁첨	-3939
▁도움	-3940
▁청년	-3941
시킬	-3942
▁구체	-3943
▁화물	-3944
--	-3945
심이	-3946
프의	-3947
▁짧은	-3948
우고	-3949
나고	-3950
▁형태의	-3951
▁gr	-3952
코의	-3953
▁고향	-3954
▁챔피언스	-3955
▁비율	-3956
▁분쟁	-3957
▁캘리포니아	-3958
ba	-3959
비의	-3960
▁코미디	-3961
ca	-3962
여서	-3963
00.	-3964
▁모스크바	-3965
종은	-3966
▁물러	-3967
▁등장하는	-3968
▁공포	-3969
▁수출	-3970
공화국	-3971
▁사회적	-3972
▁이용해	-3973
원과	-3974
▁핀란드	-3975
화는	-3976
▁간주	-3977
▁경성	-3978
▁유엔	-3979
▁확실	-3980
▁추측	-3981
▁펠	-3982
으로도	-3983
▁보병	-3984
문의	-3985
▁fa	-3986
▁렌	-3987
▁신성	-3988
▁vol	-3989
▁워싱턴	-3990
▁par	-3991
▁식물	-3992
점에	-3993
▁강의	-3994
에르	-3995
▁흔히	-3996
리게	-3997
버그	-3998
추어	-3999
독일	-4000
▁팀은	-4001
▁발표했다	-4002
스럽	-4003
▁털	-4004
하시	-4005
두고	-4006
▁이전에	-4007
net	-4008
타를	-4009
▁이끌고	-4010
전자	-4011
▁집안	-4012
에게서	-4013
▁이용한	-4014
▁지역은	-4015
경의	-4016
리케	-4017
▁흡수	-4018
형은	-4019
▁오랜	-4020
▁활발	-4021
선에서	-4022
체에	-4023
ult	-4024
old	-4025
▁손자	-4026
▁짐	-4027
▁중반	-4028
▁아랍	-4029
이었고	-4030
에이	-4031
ata	-4032
▁나는	-4033
▁후손	-4034
▁종목	-4035
▁증명	-4036
▁개국	-4037
▁시간이	-4038
겠다고	-4039
점은	-4040
▁연재	-4041
▁프란	-4042
▁닛	-4043
▁나와	-4044
▁응용	-4045
▁해서	-4046
네시아	-4047
▁마침	-4048
대장	-4049
▁저지	-4050
▁있었는데	-4051
▁약속	-4052
수에	-4053
▁(0)	-4054
▁헤이	-4055
▁강제	-4056
단으로	-4057
하다는	-4058
▁동일한	-4059
▁만족	-4060
▁탈락	-4061
▁쪽	-4062
▁공유	-4063
마루	-4064
설을	-4065
▁과정을	-4066
인에	-4067
어들	-4068
▁니시	-4069
▁열대	-4070
▁출입	-4071
▁우크라이나	-4072
라가	-4073
▁띠	-4074
▁산맥	-4075
만큼	-4076
수록	-4077
프레	-4078
▁카드	-4079
▁사용하고	-4080
분교	-4081
▁숭	-4082
▁대회에서	-4083
ta	-4084
pro	-4085
▁플로	-4086
▁했고	-4087
문화재	-4088
-0000)	-4089
▁알게	-4090
▁구성된	-4091
▁이민	-4092
▁선수이다	-4093
드시	-4094
▁탁	-4095
▁채용	-4096
▁합격	-4097
▁만주	-4098
바르	-4099
▁건국	-4100
언을	-4101
▁그것을	-4102
▁서양	-4103
▁조선민주주의인민공화국	-4104
▁랭	-4105
▁독자	-4106
▁셋	-4107
관계	-4108
▁양성	-4109
술을	-4110
일이	-4111
▁역대	-4112
였으나	-4113
▁전후	-4114
▁가로	-4115
▁지정되었다	-4116
▁김성	-4117
▁사용되었다	-4118
du	-4119
▁장치	-4120
▁넓은	-4121
▁예상	-4122
▁때의	-4123
▁진화	-4124
로마	-4125
▁장악	-4126
▁자살	-4127
▁we	-4128
▁멸망	-4129
▁어렵	-4130
▁도망	-4131
▁file	-4132
대사	-4133
▁웨스트	-4134
▁약간	-4135
받고	-4136
▁전라북도	-4137
경에	-4138
아서	-4139
▁융	-4140
비드	-4141
▁검사	-4142
▁인터뷰	-4143
▁발생한	-4144
▁내에	-4145
▁university	-4146
▁사례	-4147
▁지닌	-4148
▁자격	-4149
ime	-4150
▁절대	-4151
켓몬	-4152
▁이익	-4153
▁지금의	-4154
▁소장	-4155
어와	-4156
기압	-4157
▁위해서는	-4158
체로	-4159
▁찍	-4160
▁미디어	-4161
국가	-4162
▁했으며	-4163
▁빠져	-4164
▁차이가	-4165
▁스페셜	-4166
▁000,	-4167
크는	-4168
연맹	-4169
▁팀이	-4170
▁역으로	-4171
▁군주	-4172
▁반복	-4173
▁홋	-4174
해도	-4175
▁전역	-4176
▁맡고	-4177
▁왼쪽	-4178
군으로	-4179
cd	-4180
스러운	-4181
▁판결	-4182
▁잠시	-4183
▁미드	-4184
▁신앙	-4185
자들을	-4186
사인	-4187
본부	-4188
ina	-4189
▁브랜드	-4190
판을	-4191
▁대공	-4192
오스트	-4193
▁킹	-4194
시와	-4195
▁능력을	-4196
▁후에는	-4197
오리	-4198
킨다	-4199
ous	-4200
▁탈출	-4201
▁이것을	-4202
▁중화인민공화국	-4203
▁세계에서	-4204
당했다	-4205
▁쫓	-4206
니의	-4207
▁훨	-4208
주민	-4209
세와	-4210
▁음력	-4211
▁이집트	-4212
기에는	-4213
▁계획을	-4214
▁얻었다	-4215
▁때부터	-4216
일로	-4217
연구소	-4218
▁그에게	-4219
당에	-4220
▁이후에는	-4221
더스	-4222
▁하면	-4223
▁지원을	-4224
▁제출	-4225
리노	-4226
에만	-4227
▁원정	-4228
▁써	-4229
아파트	-4230
▁온라인	-4231
▁취득	-4232
▁훨씬	-4233
▁그러한	-4234
▁이성	-4235
음에도	-4236
▁스크	-4237
기념	-4238
면은	-4239
화로	-4240
▁라인	-4241
▁레드	-4242
▁얻어	-4243
▁구별	-4244
▁수사	-4245
▁방출	-4246
종합	-4247
▁유명하다	-4248
▁빠른	-4249
▁정부가	-4250
▁이란	-4251
▁몽골	-4252
전으로	-4253
int	-4254
▁소비에트	-4255
없는	-4256
법의	-4257
▁사항	-4258
▁래	-4259
ics	-4260
▁요새	-4261
▁앞서	-4262
ohn	-4263
▁박물관	-4264
법은	-4265
조사	-4266
▁시인	-4267
▁위의	-4268
▁엄청	-4269
앤젤	-4270
▁식민지	-4271
▁무엇	-4272
▁0000~0000)	-4273
▁붙여	-4274
아일랜드	-4275
▁comp	-4276
▁경기장	-4277
▁전쟁을	-4278
▁창원	-4279
디션	-4280
조에	-4281
미의	-4282
히는	-4283
▁보였다	-4284
▁주고	-4285
네스	-4286
의의	-4287
▁사장	-4288
▁롤	-4289
▁힐	-4290
틀러	-4291
▁소수	-4292
▁점에서	-4293
▁해당하는	-4294
▁영상	-4295
인도	-4296
지구	-4297
▁방사	-4298
▁주재	-4299
▁이른	-4300
▁받지	-4301
년이	-4302
▁처음에는	-4303
▁베이징	-4304
리즘	-4305
▁지니	-4306
적이다	-4307
리나	-4308
la	-4309
▁공군	-4310
령을	-4311
ann	-4312
▁하였고	-4313
대구	-4314
▁장남	-4315
▁병사	-4316
▁서버	-4317
▁이유는	-4318
▁대성	-4319
▁조카	-4320
▁농구	-4321
▁연맹	-4322
▁세웠다	-4323
류가	-4324
▁호텔	-4325
기원	-4326
▁동작	-4327
용으로	-4328
ans	-4329
▁국가의	-4330
론가	-4331
저우	-4332
▁보조	-4333
▁부하	-4334
▁지어	-4335
▁경주	-4336
▁포기	-4337
대학원	-4338
등의	-4339
▁경우는	-4340
▁플라	-4341
왕후	-4342
▁fm	-4343
ve	-4344
모를	-4345
▁혼란	-4346
▁총리	-4347
간에	-4348
▁덮	-4349
▁생긴	-4350
▁합의	-4351
▁상당히	-4352
국유	-4353
00000	-4354
▁받게	-4355
▁테마	-4356
▁맛	-4357
선으로	-4358
)’	-4359
▁통해서	-4360
ame	-4361
▁스코틀랜드	-4362
.,	-4363
색을	-4364
▁승인	-4365
mer	-4366
▁시작한	-4367
분이	-4368
▁투자	-4369
▁거대한	-4370
▁비록	-4371
▁sm	-4372
도에서	-4373
▁0》	-4374
▁오프	-4375
▁한나라	-4376
▁제어	-4377
▁일본에서	-4378
▁나치	-4379
▁간단	-4380
회에서	-4381
▁인공	-4382
▁튀	-4383
이었으며	-4384
col	-4385
▁심각	-4386
▁부상	-4387
▁삽	-4388
베르크	-4389
형으로	-4390
▁결과를	-4391
▁마케	-4392
▁지키	-4393
▁정복	-4394
af	-4395
▁kt	-4396
-0000-0	-4397
▁독립운동	-4398
▁피아노	-4399
▁반발	-4400
▁(,	-4401
▁수송	-4402
▁머물	-4403
▁오른쪽	-4404
사우	-4405
ere	-4406
아키	-4407
▁반드시	-4408
▁것처럼	-4409
▁개설	-4410
▁골든	-4411
▁베를린	-4412
시스	-4413
총독	-4414
▁뜻을	-4415
▁계급	-4416
ork	-4417
도서관	-4418
▁역을	-4419
안에	-4420
▁도요	-4421
독일의	-4422
▁이르는	-4423
▁위반	-4424
▁공을	-4425
con	-4426
▁방향으로	-4427
▁택	-4428
▁베이스볼	-4429
라이언	-4430
▁진보	-4431
▁전쟁이	-4432
▁도쿠	-4433
▁생존	-4434
▁가능성이	-4435
산군	-4436
▁해양	-4437
명이다	-4438
처스	-4439
▁도서관	-4440
▁시간을	-4441
▁킬	-4442
▁북서	-4443
▁성능	-4444
2,	-4445
▁동원	-4446
만은	-4447
지자	-4448
서울특별시	-4449
▁핵심	-4450
박물관	-4451
ital	-4452
▁사건을	-4453
페라	-4454
▁마이클	-4455
▁벌어	-4456
▁장교	-4457
▁영입	-4458
▁포위	-4459
▁스트리	-4460
▁중학교	-4461
안전	-4462
▁파워	-4463
▁태어나	-4464
▁qu	-4465
▁스토	-4466
les	-4467
▁전공	-4468
▁자이언	-4469
씨의	-4470
국으로	-4471
지며	-4472
료로	-4473
미를	-4474
보병	-4475
▁둘째	-4476
트와	-4477
위원장	-4478
▁상륙	-4479
▁김일	-4480
관광	-4481
▁동성	-4482
▁포함되어	-4483
▁어떠	-4484
▁사토	-4485
▁발표한	-4486
▁역사상	-4487
▁번째로	-4488
상태	-4489
str	-4490
리우	-4491
차가	-4492
▁트랙	-4493
국에	-4494
▁from	-4495
▁교사	-4496
▁소재로	-4497
▁러시아의	-4498
실은	-4499
▁각각의	-4500
▁철학	-4501
▁마드리	-4502
회장	-4503
▁프리미어	-4504
▁챔피언스리그	-4505
▁이중	-4506
▁현재까지	-4507
▁서울대학교	-4508
▁내의	-4509
▁진입	-4510
ale	-4511
▁보아	-4512
▁백작	-4513
▁하자	-4514
▁이제	-4515
▁그것은	-4516
▁교환	-4517
▁no	-4518
▁올해의	-4519
지사	-4520
▁도달	-4521
▁의료	-4522
▁위치한다	-4523
▁없다고	-4524
▁한때	-4525
▁좁	-4526
▁vs	-4527
▁스미	-4528
▁일으켰	-4529
▁이탈리아의	-4530
▁바라	-4531
▁빼앗	-4532
퍼스	-4533
▁방법을	-4534
학부	-4535
▁료	-4536
▁불법	-4537
▁타이거	-4538
▁동아	-4539
▁미치	-4540
리다	-4541
▁공주	-4542
▁됐다	-4543
▁토론	-4544
법원	-4545
카고	-4546
슨은	-4547
가타	-4548
드에서	-4549
신은	-4550
▁이하	-4551
▁학습	-4552
▁000-00	-4553
▁연예	-4554
자들	-4555
프랑스의	-4556
▁0000~0000	-4557
my	-4558
0000)	-4559
▁기반으로	-4560
닥터	-4561
ke	-4562
리히	-4563
▁덧	-4564
▁엠	-4565
▁금속	-4566
시킨다	-4567
오스	-4568
▁논쟁	-4569
▁점을	-4570
▁임명되었다	-4571
▁달라	-4572
▁부대	-4573
되면	-4574
시험	-4575
화와	-4576
재판	-4577
▁건립	-4578
▁계기로	-4579
ree	-4580
하였지만	-4581
미가	-4582
음이	-4583
▁헨리	-4584
▁기술을	-4585
겠다	-4586
인들의	-4587
▁사건이	-4588
왕이	-4589
아메리카	-4590
▁보안	-4591
로바	-4592
▁단일	-4593
▁저술	-4594
▁그런데	-4595
▁다르다	-4596
▁국도	-4597
▁언제	-4598
▁공사	-4599
▁미군	-4600
▁늦	-4601
▁설치되어	-4602
▁아오	-4603
페르	-4604
▁선교	-4605
▁되자	-4606
▁등판	-4607
▁일정	-4608
리우스	-4609
▁이전의	-4610
▁오래된	-4611
▁충청북도	-4612
▁출간	-4613
산이	-4614
▁대장	-4615
프랑스	-4616
▁종류의	-4617
적의	-4618
ther	-4619
▁고용	-4620
▁선고	-4621
▁직업	-4622
▁뜻한다	-4623
▁총독	-4624
▁앞에	-4625
신문	-4626
▁회전	-4627
체스터	-4628
▁한반	-4629
리가의	-4630
▁지방의	-4631
▁다케	-4632
대중	-4633
소와	-4634
▁되며	-4635
▁테러	-4636
cy	-4637
▁보장	-4638
▁그레이	-4639
애니	-4640
▁가을	-4641
▁jr	-4642
조선의	-4643
▁포유	-4644
세로	-4645
스컵	-4646
▁저작	-4647
▁주둔	-4648
▁주에	-4649
구와	-4650
거운	-4651
▁#*	-4652
노스	-4653
▁함수	-4654
▁시작으로	-4655
기에서	-4656
사람	-4657
페이	-4658
▁대비	-4659
▁이야기를	-4660
환경	-4661
▁잡아	-4662
▁특별한	-4663
보고	-4664
으로서의	-4665
▁까	-4666
▁드래	-4667
▁말았다	-4668
▁어떠한	-4669
▁남동	-4670
이상	-4671
▁높아	-4672
▁진압	-4673
▁가서	-4674
병을	-4675
▁그와	-4676
등이	-4677
련의	-4678
▁당초	-4679
조직	-4680
▁전파	-4681
▁car	-4682
▁효율	-4683
▁팀을	-4684
▁법칙	-4685
▁거래	-4686
▁코드	-4687
》(0000)	-4688
▁스탠	-4689
▁하였으나	-4690
▁니콜	-4691
개가	-4692
바로	-4693
이센	-4694
지인	-4695
버드	-4696
보는	-4697
▁민주당	-4698
▁정비	-4699
▁트로	-4700
▁강점기의	-4701
조판	-4702
▁국경	-4703
▁시나	-4704
▁공업	-4705
금의	-4706
누스	-4707
진이	-4708
''.	-4709
▁레오	-4710
▁것이며	-4711
▁이들의	-4712
즈는	-4713
▁조종	-4714
▁말레이	-4715
원군	-4716
▁규칙	-4717
▁김종	-4718
터리	-4719
▁쓰는	-4720
토의	-4721
▁상승	-4722
▁콘스탄	-4723
▁갈라	-4724
▁기록하였다	-4725
▁돌아가	-4726
▁사운드	-4727
▁벨기에	-4728
hk	-4729
▁희망	-4730
▁등장한다	-4731
▁cr	-4732
▁행위	-4733
▁희생	-4734
▁넘는	-4735
▁받을	-4736
▁맞이	-4737
방의	-4738
▁도와	-4739
▁에도	-4740
ition	-4741
▁프로그래	-4742
▁로버트	-4743
수한	-4744
▁체육	-4745
▁제대로	-4746
ase	-4747
▁기대	-4748
▁남은	-4749
이닝	-4750
che	-4751
▁향상	-4752
▁ag	-4753
▁올리	-4754
고등	-4755
입니다	-4756
기록	-4757
▁개막	-4758
▁고문	-4759
▁지급	-4760
훗날	-4761
님의	-4762
▁이룬	-4763
보통학교	-4764
▁층	-4765
영국의	-4766
▁곳에서	-4767
▁보냈다	-4768
렸고	-4769
도쿄	-4770
마르	-4771
▁했던	-4772
사전	-4773
진의	-4774
레옹	-4775
법이	-4776
프를	-4777
▁북동	-4778
▁느끼	-4779
▁des	-4780
▁코치	-4781
▁벼	-4782
무부	-4783
▁이재	-4784
머스	-4785
▁개관	-4786
▁메인	-4787
▁라고	-4788
▁아들이	-4789
▁공통	-4790
동과	-4791
일제	-4792
▁부르는	-4793
▁양자	-4794
▁명이	-4795
▁선의	-4796
동은	-4797
재를	-4798
▁갤	-4799
질이	-4800
▁문서	-4801
▁dvd	-4802
▁로켓	-4803
▁학문	-4804
▁사용되고	-4805
▁연대	-4806
퍼드	-4807
메리	-4808
학원	-4809
▁q	-4810
번의	-4811
orn	-4812
▁관료	-4813
▁성을	-4814
▁스티	-4815
▁끝난	-4816
고기	-4817
▁의무	-4818
▁남서	-4819
▁ver	-4820
▁세력	-4821
▁수집	-4822
▁여기에	-4823
▁출범	-4824
▁쓰고	-4825
▁예측	-4826
증을	-4827
시대의	-4828
orea	-4829
▁타이완	-4830
▁영웅	-4831
▁기록한	-4832
▁단독	-4833
락을	-4834
▁처형	-4835
▁존재하는	-4836
▁배출	-4837
▁운동을	-4838
▁조작	-4839
▁미사일	-4840
▁정지	-4841
치아	-4842
키스탄	-4843
▁아이돌	-4844
▁진주	-4845
▁주관	-4846
▁초등학교	-4847
▁*0	-4848
▁신뢰	-4849
▁신청	-4850
가에	-4851
그라	-4852
지션	-4853
▁목표로	-4854
▁반도	-4855
▁깊은	-4856
▁장식	-4857
석이	-4858
▁선보	-4859
▁않았고	-4860
▁외부	-4861
▁제이	-4862
▁마이크로소프트	-4863
방향	-4864
년에서	-4865
▁촬영한	-4866
경영	-4867
▁녹색	-4868
연히	-4869
▁반영	-4870
보를	-4871
▁사태	-4872
▁통제	-4873
▁구속	-4874
▁파라	-4875
▁아라	-4876
▁않으며	-4877
▁받는다	-4878
미니	-4879
세한	-4880
▁이기	-4881
계에서	-4882
▁발견된	-4883
▁제일	-4884
고의	-4885
▁경우에	-4886
▁동남	-4887
▁프로그램을	-4888
▁쓸	-4889
▁미상	-4890
▁군대를	-4891
▁횡	-4892
극장	-4893
사스	-4894
▁완료	-4895
▁건조	-4896
▁파악	-4897
▁이정	-4898
리안	-4899
▁예비	-4900
▁문제로	-4901
▁와이	-4902
▁마치	-4903
▁실질	-4904
미는	-4905
우라	-4906
출판	-4907
▁피해를	-4908
▁차별	-4909
소설	-4910
주의를	-4911
▁흉	-4912
건을	-4913
▁공화	-4914
었다고	-4915
pu	-4916
통을	-4917
▁후속	-4918
유치원	-4919
▁집행	-4920
▁테이	-4921
조로	-4922
▁번의	-4923
▁학술	-4924
였지만	-4925
▁곽	-4926
교수	-4927
▁살인	-4928
▁대표팀	-4929
부터는	-4930
타르	-4931
모델	-4932
질랜드	-4933
카드	-4934
att	-4935
▁동의	-4936
▁나타내는	-4937
▁둘러싸	-4938
▁일찍	-4939
씨는	-4940
▁선수가	-4941
▁발표하였다	-4942
식에	-4943
》-	-4944
우의	-4945
▁꼭	-4946
amp	-4947
▁누구	-4948
지정	-4949
▁프린	-4950
츠키	-4951
▁수훈	-4952
▁주말	-4953
▁카이	-4954
ash	-4955
ock	-4956
▁톰	-4957
비디오	-4958
대대	-4959
ance	-4960
주년	-4961
▁제외하고	-4962
▁농민	-4963
▁hd	-4964
▁늘어	-4965
▁항성	-4966
so	-4967
리티	-4968
▁맡아	-4969
▁명명	-4970
▁출마	-4971
▁주에서	-4972
네이	-4973
관에	-4974
▁지낸	-4975
▁임진	-4976
복을	-4977
▁창조	-4978
교를	-4979
론의	-4980
▁작품을	-4981
▁해산	-4982
방을	-4983
야구	-4984
화되어	-4985
bert	-4986
▁망명	-4987
▁반대로	-4988
▁이후로	-4989
▁지켜	-4990
겠다는	-4991
물은	-4992
▁픽처스	-4993
▁모여	-4994
▁마크	-4995
영의	-4996
▁한국어	-4997
▁중화민국	-4998
▁틀	-4999
▁발매되었다	-5000
▁그때	-5001
▁재개	-5002
▁급제	-5003
▁헤르	-5004
▁시작하여	-5005
▁공식적으로	-5006
▁창단	-5007
▁당시에는	-5008
▁준다	-5009
▁플래	-5010
해가	-5011
▁mm	-5012
▁도모	-5013
▁올려	-5014
정으로	-5015
▁왕국의	-5016
타운	-5017
▁해에	-5018
▁추정된다	-5019
▁사법	-5020
▁나폴레옹	-5021
▁개조	-5022
▁대학원	-5023
▁대기	-5024
스트라	-5025
gl	-5026
▁릴	-5027
▁뮌	-5028
▁논의	-5029
비트	-5030
야의	-5031
자료	-5032
▁승진	-5033
▁아들로	-5034
▁잡지	-5035
▁샘	-5036
▁신축	-5037
▁묶	-5038
복지	-5039
▁성적	-5040
▁사냥	-5041
▁오오	-5042
▁war	-5043
▁부산광역시	-5044
토니	-5045
곡을	-5046
▁않게	-5047
▁논란이	-5048
▁도시로	-5049
▁자이언츠	-5050
▁위성	-5051
ubl	-5052
▁sing	-5053
▁다수의	-5054
▁백제	-5055
기까지	-5056
▁가게	-5057
▁야스	-5058
▁실현	-5059
▁병합	-5060
▁무게	-5061
▁오스만	-5062
▁콘서트	-5063
▁0000-00-00	-5064
▁대개	-5065
명에	-5066
▁경유	-5067
▁유형	-5068
▁일원	-5069
우에	-5070
▁체제	-5071
▁플레이오프	-5072
하루	-5073
▁정기	-5074
▁그래픽	-5075
주의의	-5076
▁검찰	-5077
▁왕조	-5078
양의	-5079
▁아티	-5080
▁향해	-5081
▁황금	-5082
뮤니	-5083
ise	-5084
ism	-5085
▁등급	-5086
▁한글	-5087
앤젤레스	-5088
▁스카	-5089
▁점점	-5090
▁마침내	-5091
▁정책을	-5092
▁우려	-5093
▁하였으며	-5094
비치	-5095
▁웅	-5096
▁*《	-5097
▁경기에	-5098
해져	-5099
▁됨	-5100
선과	-5101
au	-5102
스포	-5103
▁모아	-5104
▁요소	-5105
▁분위	-5106
생을	-5107
▁통상	-5108
▁소송	-5109
▁어디	-5110
▁능력	-5111
패를	-5112
▁대리	-5113
▁무시	-5114
▁※	-5115
▁침략	-5116
텐츠	-5117
▁로봇	-5118
▁세인트	-5119
▁많아	-5120
▁지도자	-5121
리타	-5122
▁press	-5123
▁fe	-5124
▁플랫	-5125
▁없으며	-5126
경이	-5127
터를	-5128
▁들어서	-5129
▁쓰인다	-5130
색의	-5131
▁분기	-5132
▁불안	-5133
가시	-5134
년도	-5135
▁조선의	-5136
리적	-5137
뿐만	-5138
계는	-5139
즈미	-5140
리에서	-5141
▁동해	-5142
으니	-5143
▁독특	-5144
▁일부를	-5145
산에	-5146
unt	-5147
▁오카	-5148
경기에	-5149
▁포항	-5150
▁아름다운	-5151
▁아미	-5152
▁구조를	-5153
▁샤를	-5154
▁미드필	-5155
▁합성	-5156
▁아버지는	-5157
yl	-5158
▁자는	-5159
▁풍부	-5160
하였다고	-5161
▁빙	-5162
화한	-5163
order	-5164
주군	-5165
당시	-5166
▁관계가	-5167
▁없다는	-5168
▁콤	-5169
▁차지했다	-5170
▁상품	-5171
▁마지막으로	-5172
트에	-5173
own	-5174
▁천안	-5175
▁방법으로	-5176
▁스위스	-5177
개로	-5178
▁터미널	-5179
▁페르시아	-5180
오의	-5181
▁듣고	-5182
▁법정	-5183
했었다	-5184
▁일본에	-5185
실의	-5186
png	-5187
▁하나는	-5188
수산	-5189
▁변환	-5190
▁메모리	-5191
▁대통령이	-5192
▁000.0	-5193
로나	-5194
▁라는	-5195
▁알파	-5196
▁조선총독	-5197
섰다	-5198
▁사용자	-5199
산면	-5200
▁스타크래프트	-5201
oph	-5202
▁메시	-5203
▁중인	-5204
▁합쳐	-5205
▁시작한다	-5206
ton	-5207
▁감염	-5208
▁정확한	-5209
▁군의	-5210
▁사람들	-5211
▁교향	-5212
년경	-5213
우치	-5214
이었지만	-5215
공주	-5216
피스	-5217
are	-5218
▁엄청난	-5219
▁근본	-5220
▁인권	-5221
▁ost	-5222
▁정차	-5223
▁청나라	-5224
표를	-5225
역이	-5226
▁시즌을	-5227
▁중세	-5228
기원전	-5229
랫동안	-5230
▁가지는	-5231
▁단편	-5232
▁띄	-5233
전과	-5234
row	-5235
▁형태를	-5236
▁미드필더	-5237
국에서	-5238
대교	-5239
씨가	-5240
타마	-5241
▁것이라	-5242
▁캔	-5243
▁현상	-5244
▁타임	-5245
▁모양의	-5246
▁빠르게	-5247
문제	-5248
▁강남	-5249
▁덴마크	-5250
박쥐	-5251
able	-5252
▁명확	-5253
ake	-5254
▁히로시마	-5255
산리	-5256
▁들고	-5257
▁함락	-5258
▁길을	-5259
▁이명	-5260
▁캄	-5261
▁닌	-5262
▁발발	-5263
▁문헌	-5264
▁병설	-5265
▁브루	-5266
▁인종	-5267
▁앞에서	-5268
▁란	-5269
▁힙	-5270
▁하나인	-5271
▁신호	-5272
▁이뤄	-5273
범학교	-5274
뱅크	-5275
재로	-5276
▁fr	-5277
▁가스	-5278
▁자녀	-5279
▁펼쳐	-5280
▁그들이	-5281
▁글을	-5282
▁감독의	-5283
▁오랫동안	-5284
▁춤	-5285
▁가문의	-5286
▁천연	-5287
령이	-5288
▁확립	-5289
▁박정희	-5290
리코	-5291
▁트랜	-5292
단과	-5293
▁흘러	-5294
▁의미를	-5295
▁다다	-5296
▁이르러	-5297
街道	-5298
ius	-5299
▁이후의	-5300
석은	-5301
▁성남	-5302
교육청	-5303
▁아스	-5304
▁세르비아	-5305
▁|	-5306
▁꺾	-5307
▁중지	-5308
내에	-5309
▁나온다	-5310
▁di	-5311
▁새겨	-5312
▁이혼	-5313
▁웃	-5314
드에	-5315
▁ser	-5316
개혁	-5317
고가	-5318
▁기다	-5319
▁cm	-5320
▁대부분은	-5321
름을	-5322
▁받았고	-5323
▁아테네	-5324
▁묵	-5325
iel	-5326
▁일치	-5327
주었다	-5328
▁val	-5329
▁승강장	-5330
되었을	-5331
우주연상	-5332
▁주장하였다	-5333
ome	-5334
▁단지	-5335
건설	-5336
▁침입	-5337
▁해설	-5338
▁장비	-5339
시타	-5340
에른	-5341
▁go	-5342
▁한성	-5343
비시	-5344
산은	-5345
▁카르	-5346
계약	-5347
포로	-5348
▁다수	-5349
▁변호사	-5350
▁안동	-5351
▁지내	-5352
티노	-5353
▁포지션	-5354
▁갔다	-5355
▁가와	-5356
드라	-5357
▁장수	-5358
▁받아들여	-5359
▁바뀌었다	-5360
토미	-5361
▁0/0	-5362
▁켈	-5363
▁놓고	-5364
▁바깥	-5365
▁불렀다	-5366
▁출신으로	-5367
계열	-5368
▁편찬	-5369
▁지붕	-5370
카의	-5371
보호	-5372
고려	-5373
▁예수	-5374
▁체코	-5375
생의	-5376
▁소방	-5377
▁글로벌	-5378
▁세계의	-5379
테이	-5380
▁입학식	-5381
▁상황에서	-5382
▁지금까지	-5383
▁gu	-5384
▁팽	-5385
ail	-5386
▁구현	-5387
▁것이라는	-5388
▁가담	-5389
▁추천	-5390
▁지냈	-5391
rist	-5392
▁공화국의	-5393
ward	-5394
▁히틀러	-5395
주고	-5396
▁뜻하는	-5397
▁잇는	-5398
임이	-5399
▁두었다	-5400
▁비상	-5401
▁연구를	-5402
▁행동을	-5403
▁쳐	-5404
투스	-5405
sch	-5406
함과	-5407
▁나타난다	-5408
▁본관은	-5409
▁속한다	-5410
대문	-5411
▁이종	-5412
▁리그의	-5413
▁분열	-5414
cc	-5415
vp	-5416
▁세계대전	-5417
▁직원	-5418
▁처벌	-5419
▁카메라	-5420
▁뜨	-5421
der	-5422
▁유사한	-5423
no	-5424
당과	-5425
▁멀리	-5426
시키기	-5427
ations	-5428
▁훗날	-5429
▁의존	-5430
ower	-5431
캐나다	-5432
▁말하는	-5433
▁훌	-5434
▁인도네시아	-5435
코스	-5436
yle	-5437
하였던	-5438
하여야	-5439
▁앉	-5440
irl	-5441
▁구입	-5442
▁챔피언십	-5443
▁다운	-5444
▁돔	-5445
독립	-5446
책을	-5447
▁라이온	-5448
ool	-5449
▁데이비드	-5450
▁마츠	-5451
▁우에	-5452
▁후기	-5453
▁중에는	-5454
▁음식	-5455
마니아	-5456
▁프로이센	-5457
▁작품은	-5458
드레	-5459
크를	-5460
▁op	-5461
▁오페라	-5462
▁ep	-5463
▁중추	-5464
▁인접	-5465
▁후계	-5466
▁평가를	-5467
▁유일하게	-5468
▁cent	-5469
게이	-5470
▁무사	-5471
학회	-5472
▁싫	-5473
▁dr	-5474
▁부속	-5475
▁못하는	-5476
▁안에서	-5477
라디오	-5478
▁가치	-5479
▁중계	-5480
▁바이에른	-5481
르가	-5482
▁매일	-5483
▁보관	-5484
▁쓰이는	-5485
대원	-5486
루가	-5487
▁디스크	-5488
클리	-5489
▁일으키	-5490
▁조절	-5491
▁포켓몬	-5492
▁섞	-5493
사무소	-5494
▁미쓰	-5495
▁예정이다	-5496
▁쾌	-5497
▁가나	-5498
▁뮌헨	-5499
황후	-5500
▁보건	-5501
▁활약을	-5502
▁돕	-5503
▁시가	-5504
▁탈퇴	-5505
▁afc	-5506
▁죽었다	-5507
▁고속도로	-5508
▁요코하마	-5509
공의	-5510
▁0%	-5511
▁주최	-5512
중의	-5513
레오	-5514
▁무너	-5515
릭스	-5516
▁사망하였다	-5517
▁쥐	-5518
이므로	-5519
유가	-5520
▁원년	-5521
났으며	-5522
번째로	-5523
타의	-5524
▁기울	-5525
▁보잉	-5526
시스템	-5527
▁있음을	-5528
▁석사	-5529
니가	-5530
▁미나	-5531
▁소멸	-5532
▁적절	-5533
각을	-5534
리지널	-5535
났고	-5536
다의	-5537
안의	-5538
▁아르헨티나	-5539
▁갖춘	-5540
▁이벤	-5541
▁상당한	-5542
▁인디언	-5543
▁해상	-5544
▁music	-5545
종을	-5546
▁기록이	-5547
다면	-5548
슬러	-5549
▁골드	-5550
▁말에	-5551
▁프라	-5552
▁올스타	-5553
단지	-5554
▁대사관	-5555
▁철수	-5556
mb	-5557
▁mo	-5558
▁저녁	-5559
▁아나운	-5560
▁중이다	-5561
▁클래식	-5562
▁스트리트	-5563
▁리처	-5564
▁빅토	-5565
▁어려운	-5566
▁갔	-5567
무리	-5568
왜란	-5569
차원	-5570
▁나고	-5571
▁오다	-5572
port	-5573
▁다르게	-5574
▁시위	-5575
▁교육을	-5576
▁설득	-5577
▁싸움	-5578
▁한일	-5579
▁시리아	-5580
되었다가	-5581
▁가요	-5582
▁알려졌다	-5583
율을	-5584
▁가리키는	-5585
그래	-5586
▁해도	-5587
▁서비스를	-5588
▁돈을	-5589
라며	-5590
▁부담	-5591
▁개입	-5592
▁중부	-5593
00-0	-5594
▁보낸	-5595
보이	-5596
▁음악을	-5597
▁꼽	-5598
쿠스	-5599
▁단백	-5600
▁아야	-5601
▁상태로	-5602
양을	-5603
▁위원장	-5604
▁0.0%	-5605
운트	-5606
어버	-5607
타나	-5608
▁그레	-5609
부사	-5610
》()	-5611
▁수훈자	-5612
stem	-5613
▁명칭은	-5614
》...	-5615
▁논문	-5616
가이다	-5617
kbo	-5618
격한	-5619
▁(0000).	-5620
▁퀸	-5621
▁대략	-5622
▁발굴	-5623
▁얻은	-5624
▁가졌다	-5625
▁일어났다	-5626
▁대수	-5627
▁부분을	-5628
▁자전	-5629
키의	-5630
▁크기	-5631
▁맞아	-5632
▁투어	-5633
▁개명	-5634
▁거듭	-5635
▁취소	-5636
▁브라운	-5637
하므로	-5638
니버스	-5639
di	-5640
▁상하이	-5641
▁세력을	-5642
▁일부는	-5643
▁잠수	-5644
▁전신	-5645
▁이름의	-5646
▁윤치	-5647
▁비트	-5648
▁all	-5649
▁사람들의	-5650
석의	-5651
히고	-5652
ana	-5653
▁변경되었다	-5654
▁명을	-5655
▁특이	-5656
▁해야	-5657
▁플랫폼	-5658
간이	-5659
생물	-5660
풋볼	-5661
▁분노	-5662
▁art	-5663
▁여동생	-5664
총리	-5665
스럽게	-5666
▁나아가	-5667
▁철학자	-5668
르기	-5669
▁두려	-5670
스피	-5671
▁갖는	-5672
▁따로	-5673
하지는	-5674
▁못하였다	-5675
역의	-5676
▁다스	-5677
▁무한	-5678
▁삼국	-5679
히코	-5680
왕은	-5681
▁그렇게	-5682
▁작업을	-5683
공학	-5684
▁차이	-5685
스트로	-5686
리언	-5687
igh	-5688
거래	-5689
▁개원	-5690
▁프리드리	-5691
▁이루고	-5692
주인	-5693
진흥	-5694
▁올랐	-5695
뉴욕	-5696
▁썼다	-5697
▁다음날	-5698
▁포함한다	-5699
야시	-5700
▁스케	-5701
▁전통적인	-5702
미술	-5703
혁명	-5704
▁큐	-5705
대부	-5706
▁끝나	-5707
▁연습	-5708
▁프랑크	-5709
▁et	-5710
▁적합	-5711
sm	-5712
ink	-5713
▁공중	-5714
▁주간	-5715
ream	-5716
▁내용은	-5717
▁맡은	-5718
▁핫	-5719
▁궤도	-5720
▁깃	-5721
카미	-5722
▁삼각	-5723
▁집권	-5724
ife	-5725
▁여러가지	-5726
▁지금은	-5727
▁수석	-5728
▁높이는	-5729
포를	-5730
▁파트	-5731
▁어깨	-5732
▁새롭게	-5733
▁사망했다	-5734
wh	-5735
▁이루어졌다	-5736
▁여객철	-5737
▁골을	-5738
▁닥터	-5739
▁지니고	-5740
▁기상	-5741
▁특성	-5742
▁이들을	-5743
되었다고	-5744
국장	-5745
▁있었기	-5746
▁유나이티드	-5747
▁문화재	-5748
향을	-5749
▁공산주의	-5750
▁속도	-5751
▁입고	-5752
▁토모	-5753
▁포트	-5754
▁일부가	-5755
▁전부	-5756
타는	-5757
▁경남	-5758
▁협회	-5759
▁일정한	-5760
▁헝가리	-5761
색으로	-5762
▁만들고	-5763
▁홋카이도	-5764
▁대학교에서	-5765
▁코너	-5766
인에게	-5767
▁포유류	-5768
▁만들어졌다	-5769
▁폭탄	-5770
치게	-5771
▁개발한	-5772
▁마음을	-5773
▁저서	-5774
▁포함하여	-5775
▁메이지	-5776
▁벡	-5777
▁교구	-5778
▁활성	-5779
▁곡을	-5780
▁방면	-5781
▁부상을	-5782
었기	-5783
▁모토	-5784
▁사임	-5785
어스	-5786
티오	-5787
▁시게	-5788
▁패션	-5789
시스코	-5790
자로서	-5791
ology	-5792
▁지시	-5793
▁사용된	-5794
사이트	-5795
▁알바	-5796
▁의식	-5797
▁복합	-5798
ye	-5799
▁되는데	-5800
▁화산	-5801
판이	-5802
작곡	-5803
함이	-5804
way	-5805
▁분명	-5806
에선	-5807
▁동양	-5808
▁목소	-5809
▁무덤	-5810
▁이로써	-5811
소녀	-5812
▁가슴	-5813
▁공헌	-5814
▁않으면	-5815
▁그로	-5816
▁ss	-5817
동물	-5818
터스	-5819
▁일시	-5820
▁전력	-5821
▁전송	-5822
▁혼합	-5823
▁고유	-5824
▁나누어	-5825
마가	-5826
▁인쇄	-5827
arch	-5828
left	-5829
▁기회를	-5830
▁코파	-5831
▁전동차	-5832
▁뉴질랜드	-5833
▁겹	-5834
▁상위	-5835
▁현의	-5836
▁나타내	-5837
▁의혹	-5838
▁특정한	-5839
▁이영	-5840
▁과학자	-5841
진은	-5842
졸업생	-5843
▁할아버지	-5844
▁똑	-5845
▁후쿠오카	-5846
그리	-5847
너스	-5848
여객	-5849
ley	-5850
▁자극	-5851
▁주전	-5852
cr	-5853
▁역임했다	-5854
▁몰아	-5855
▁돼	-5856
▁연관	-5857
▁gl	-5858
▁원소	-5859
▁고종	-5860
▁덧붙	-5861
▁나왔다	-5862
무늬	-5863
▁졸업하고	-5864
▁좌우	-5865
▁아사히	-5866
)-	-5867
타지	-5868
par	-5869
▁섬의	-5870
인천	-5871
한의	-5872
▁포함하고	-5873
파를	-5874
▁행복	-5875
▁화성	-5876
▁시작된	-5877
▁0000-00,	-5878
▁존재하지	-5879
어야	-5880
▁대결	-5881
▁레벨	-5882
▁선전	-5883
▁속한	-5884
▁확률	-5885
▁입장을	-5886
▁다리	-5887
▁달려	-5888
▁심사	-5889
▁수상했다	-5890
페이스	-5891
▁성적을	-5892
가능	-5893
▁일본국유	-5894
장관	-5895
▁왕이	-5896
단계	-5897
호에	-5898
▁김씨	-5899
차는	-5900
플로	-5901
▁장소	-5902
▁자신들의	-5903
▁힙합	-5904
▁교류	-5905
▁호소	-5906
었을	-5907
▁연산	-5908
산화	-5909
연구원	-5910
이탈리아의	-5911
▁대한민국에서는	-5912
▁교명	-5913
론이	-5914
▁기업인	-5915
로써	-5916
되는데	-5917
▁필요가	-5918
비뉴	-5919
▁보스	-5920
▁않지만	-5921
론은	-5922
점의	-5923
▁독특한	-5924
▁발견된다	-5925
제도	-5926
▁다소	-5927
▁파크	-5928
▁당원	-5929
만으로	-5930
▁공연을	-5931
▁갑자기	-5932
▁네이	-5933
▁러브	-5934
▁포도	-5935
▁가진다	-5936
▁대부분이	-5937
’(	-5938
연속	-5939
ode	-5940
▁기병	-5941
ade	-5942
▁마산	-5943
강의	-5944
▁민영화	-5945
들로부터	-5946
▁상태에서	-5947
▁참조	-5948
▁발음	-5949
▁잉	-5950
▁간행	-5951
▁선박	-5952
명과	-5953
▁쓰러	-5954
▁안내	-5955
세대학교	-5956
▁좋아하는	-5957
▁천주교	-5958
▁책임을	-5959
▁발견되었다	-5960
앨범	-5961
▁눈에	-5962
▁요미	-5963
지어	-5964
▁신체	-5965
온의	-5966
▁사마	-5967
가락	-5968
▁감사	-5969
▁들면	-5970
▁위치를	-5971
ars	-5972
▁ic	-5973
▁거짓	-5974
▁고시	-5975
▁나뉜	-5976
▁극장판	-5977
▁반란을	-5978
▁평안	-5979
▁전쟁의	-5980
▁추구	-5981
▁후원	-5982
미디어	-5983
슬링	-5984
let	-5985
영은	-5986
▁말이	-5987
▁상대적으로	-5988
ger	-5989
ron	-5990
주의적	-5991
▁임진왜란	-5992
▁랜	-5993
발전	-5994
que	-5995
▁커뮤니	-5996
0"	-5997
▁대우	-5998
▁감독이	-5999
▁사실이	-6000
▁길이는	-6001
▁하에	-6002
▁사랑을	-6003
▁재건	-6004
▁폐쇄	-6005
보험	-6006
rop	-6007
▁굳	-6008
yn	-6009
▁청주	-6010
▁나라의	-6011
▁행정구역	-6012
bm	-6013
바일	-6014
▁계통	-6015
▁도쿠가와	-6016
▁프로토	-6017
받는	-6018
▁댄스	-6019
라와	-6020
▁ge	-6021
▁조지아	-6022
▁의학	-6023
▁지은	-6024
▁창작	-6025
부대	-6026
▁절반	-6027
▁드래곤	-6028
▁변화를	-6029
▁hist	-6030
▁한자	-6031
격으로	-6032
▁찰스	-6033
▁스키	-6034
▁필요하다	-6035
니치	-6036
▁내용이	-6037
▁루이스	-6038
▁부분이	-6039
고는	-6040
▁거두었다	-6041
▁승려	-6042
▁자리잡	-6043
▁김동	-6044
▁경기는	-6045
느냐	-6046
역에서	-6047
역이다	-6048
호쿠	-6049
▁정권	-6050
▁넥	-6051
홈런	-6052
(),	-6053
▁기둥	-6054
▁조별	-6055
화되었다	-6056
igital	-6057
등급	-6058
▁대원	-6059
▁금메달리스트	-6060
▁화가	-6061
▁per	-6062
▁규모의	-6063
▁나이로	-6064
▁의정부	-6065
▁전형	-6066
▁크라	-6067
fr	-6068
▁얻을	-6069
▁자리에	-6070
루의	-6071
여자고등학교	-6072
00)	-6073
▁도전	-6074
해군	-6075
▁코믹	-6076
▁화장	-6077
▁시카고	-6078
▁에피소드	-6079
공산	-6080
▁가이	-6081
▁리버	-6082
들이다	-6083
▁000)	-6084
▁나타나는	-6085
▁접촉	-6086
▁주어진	-6087
▁핑	-6088
▁시즌에	-6089
구조	-6090
reat	-6091
번호	-6092
▁*:	-6093
▁라이트	-6094
천만	-6095
▁경제적	-6096
▁루트	-6097
프란	-6098
▁없을	-6099
▁점이	-6100
▁보았다	-6101
▁이미지	-6102
▁변형	-6103
다란	-6104
go	-6105
▁전면	-6106
▁효과를	-6107
사상	-6108
▁십자	-6109
레나	-6110
▁개최된	-6111
▁up	-6112
▁돌려	-6113
▁벗어나	-6114
▁000~000	-6115
터는	-6116
터미널	-6117
▁내렸다	-6118
터의	-6119
oci	-6120
▁앞두고	-6121
라에	-6122
양이	-6123
▁0000.0	-6124
▁빚	-6125
가요	-6126
구에서	-6127
되어야	-6128
▁곳으로	-6129
▁첼	-6130
별로	-6131
▁돌아와	-6132
▁타입	-6133
eric	-6134
용의	-6135
▁만다	-6136
▁지위를	-6137
▁사람들을	-6138
월의	-6139
▁학살	-6140
▁소련의	-6141
▁늑	-6142
▁이은	-6143
▁그리하여	-6144
동맹	-6145
레의	-6146
산동	-6147
연을	-6148
▁격파	-6149
▁순간	-6150
aceae	-6151
▁추기	-6152
십자	-6153
ild	-6154
▁트레이	-6155
듯이	-6156
치에	-6157
▁유럽의	-6158
▁랩	-6159
ien	-6160
▁os	-6161
▁오직	-6162
:000	-6163
▁국민의	-6164
▁사업을	-6165
▁su	-6166
▁왕의	-6167
▁주택	-6168
운영	-6169
▁국정	-6170
▁끌어	-6171
▁지역으로	-6172
마를	-6173
메리칸	-6174
▁뚜	-6175
▁주와	-6176
종으로	-6177
▁프리드리히	-6178
▁재배	-6179
▁선정되었다	-6180
디움	-6181
▁유학	-6182
▁가상	-6183
▁멀티	-6184
▁유기	-6185
스티벌	-6186
▁노래를	-6187
▁평론가	-6188
▁air	-6189
▁dna	-6190
▁편이다	-6191
층의	-6192
▁타격	-6193
라면	-6194
▁몸을	-6195
▁부동	-6196
▁하여금	-6197
▁가리킨다	-6198
▁시상	-6199
▁없게	-6200
▁mvp	-6201
▁졸업생	-6202
▁동방	-6203
▁완벽	-6204
▁대체로	-6205
▁방송국	-6206
▁아버지의	-6207
파이	-6208
▁이씨	-6209
항을	-6210
카가	-6211
▁발탁	-6212
▁노출	-6213
▁성의	-6214
▁벌어진	-6215
▁dj	-6216
▁고교	-6217
▁느낌	-6218
ha	-6219
▁발언	-6220
경은	-6221
크스	-6222
▁승객	-6223
마쓰	-6224
▁부친	-6225
▁미국과	-6226
itt	-6227
▁전화	-6228
우가	-6229
편성	-6230
▁혼자	-6231
실이	-6232
초등학교로	-6233
즈가	-6234
▁전까지	-6235
그램	-6236
▁재능	-6237
▁프로그래밍	-6238
▁day	-6239
▁유행	-6240
▁더블	-6241
▁투쟁	-6242
▁역사적	-6243
▁시스템을	-6244
▁원인	-6245
▁발간	-6246
▁임금	-6247
체와	-6248
▁pe	-6249
")	-6250
지면	-6251
▁방해	-6252
▁그것이	-6253
또는	-6254
주에	-6255
ank	-6256
▁김태	-6257
▁이토	-6258
▁마스터	-6259
▁있었다고	-6260
▁ak	-6261
가족	-6262
로와	-6263
▁해리	-6264
▁바닥	-6265
▁오리지널	-6266
▁공원	-6267
▁인구가	-6268
▁대통령의	-6269
▁발생하는	-6270
▁모험	-6271
sa	-6272
터가	-6273
조건	-6274
파는	-6275
▁오키	-6276
▁자랑	-6277
되게	-6278
▁인기가	-6279
프라	-6280
노미야	-6281
▁이른바	-6282
▁활동하고	-6283
▁며	-6284
▁이지	-6285
▁일어나는	-6286
제와	-6287
▁복원	-6288
▁설립인가	-6289
▁수의	-6290
▁제공하는	-6291
▁부탁	-6292
▁게임을	-6293
▁서울시	-6294
▁사우	-6295
▁일종이다	-6296
▁소리	-6297
처를	-6298
▁kn	-6299
▁상속	-6300
민족행위	-6301
▁되돌	-6302
▁세상을	-6303
제작	-6304
라이더	-6305
에서만	-6306
▁단어	-6307
▁종사	-6308
활동을	-6309
안타	-6310
폴리스	-6311
▁즈	-6312
자베	-6313
▁단위	-6314
▁닫	-6315
투아	-6316
▁이수	-6317
▁청구	-6318
▁받았으며	-6319
아나	-6320
▁권리	-6321
▁입력	-6322
▁kg	-6323
▁live	-6324
▁이르렀다	-6325
▁액션	-6326
▁짝	-6327
▁이라크	-6328
▁비롯하여	-6329
차의	-6330
▁블라	-6331
▁해당한다	-6332
▁single	-6333
▁임무	-6334
▁익스	-6335
▁전쟁에	-6336
▁다룬	-6337
▁표면	-6338
ensis	-6339
친다	-6340
▁닛폰	-6341
▁유효	-6342
▁명령을	-6343
▁하기도	-6344
▁보유하고	-6345
광주	-6346
기지	-6347
▁손을	-6348
▁혐의로	-6349
▁앵	-6350
▁위로	-6351
▁학위를	-6352
분교장	-6353
ternational	-6354
슨의	-6355
▁게다가	-6356
▁방송을	-6357
오로	-6358
▁do	-6359
로서는	-6360
례를	-6361
▁광복	-6362
▁미리	-6363
▁박영	-6364
▁comm	-6365
원숭	-6366
▁자원	-6367
▁0·00	-6368
리며	-6369
▁강릉	-6370
▁쓰여	-6371
베이스	-6372
-000-0	-6373
편곡	-6374
▁무대	-6375
▁싱가	-6376
▁크고	-6377
▁선거에서	-6378
버스터	-6379
일과	-6380
▁입장	-6381
▁즉시	-6382
럼비아	-6383
▁스타리그	-6384
▁일으켜	-6385
만한	-6386
▁대화	-6387
▁종로	-6388
inal	-6389
▁하위	-6390
-00000-0	-6391
특수	-6392
인조	-6393
▁쿠데	-6394
▁혼인	-6395
▁심각한	-6396
공을	-6397
▁동북	-6398
▁마르크	-6399
▁명칭을	-6400
▁완전한	-6401
▁있으므로	-6402
망을	-6403
보살	-6404
▁수리	-6405
▁신분	-6406
▁레인	-6407
▁제공한다	-6408
내의	-6409
▁화이트	-6410
▁선임	-6411
▁어워드	-6412
▁최대의	-6413
▁문신	-6414
▁신화	-6415
▁프랭	-6416
기인	-6417
활동	-6418
▁시사	-6419
▁애비뉴	-6420
▁의심	-6421
했다가	-6422
▁발매된	-6423
▁재산	-6424
▁연결하는	-6425
▁프로리그	-6426
즈니	-6427
▁만한	-6428
사기	-6429
▁부진	-6430
▁유한	-6431
▁스페인의	-6432
일스	-6433
▁상실	-6434
▁제작한	-6435
전기	-6436
▁연료	-6437
트에서	-6438
▁번뇌	-6439
▁cell	-6440
▁이웃	-6441
자들에게	-6442
▁병설유치원	-6443
▁브레	-6444
▁주식회사	-6445
▁치러	-6446
▁대상이	-6447
월호	-6448
▁속의	-6449
▁올렸다	-6450
▁병원	-6451
▁좋지	-6452
▁사건으로	-6453
▁덩	-6454
▁짜	-6455
즈를	-6456
트랙	-6457
▁선포	-6458
▁테스트	-6459
▁시드	-6460
▁이외의	-6461
조부	-6462
훈련	-6463
▁이후에도	-6464
▁되기	-6465
▁용인	-6466
클럽	-6467
▁tvn	-6468
▁전투를	-6469
isc	-6470
▁재단	-6471
스테이션	-6472
▁핸	-6473
▁국토	-6474
▁유통	-6475
▁원인이	-6476
▁드라이브	-6477
펙트	-6478
▁방지	-6479
▁상임	-6480
▁one	-6481
▁매니	-6482
▁재학	-6483
▁페이	-6484
▁만든다	-6485
▁태양의	-6486
ution	-6487
.000	-6488
▁뮤직비디오	-6489
▁가면	-6490
▁내세	-6491
▁이치	-6492
다이라	-6493
▁추방	-6494
▁개신교	-6495
▁이전에는	-6496
베르트	-6497
▁여섯	-6498
▁임대	-6499
물에	-6500
즈카	-6501
▁알렉산드	-6502
▁활동했다	-6503
lo	-6504
양군	-6505
▁가끔	-6506
▁말레이시아	-6507
▁스프	-6508
▁삽입	-6509
▁소속으로	-6510
▁탓	-6511
▁초기의	-6512
달러	-6513
▁내놓	-6514
▁철거	-6515
백만	-6516
▁중성	-6517
▁서구	-6518
조차	-6519
파가	-6520
다시	-6521
▁밀려	-6522
▁죽음을	-6523
ute	-6524
▁리처드	-6525
▁이사장	-6526
청년	-6527
▁서서	-6528
크가	-6529
▁텐	-6530
자원	-6531
▁겸임	-6532
▁0000000000000	-6533
기구	-6534
▁파르	-6535
월드	-6536
▁사퇴	-6537
법으로	-6538
바의	-6539
▁남겼다	-6540
▁어머니는	-6541
▁지지를	-6542
수도	-6543
중인	-6544
▁특집	-6545
네일	-6546
래의	-6547
form	-6548
▁이른다	-6549
da	-6550
▁순환	-6551
▁유배	-6552
▁갖추고	-6553
mp	-6554
▁사전	-6555
▁소화	-6556
▁인용	-6557
수원	-6558
▁도덕	-6559
▁탄압	-6560
▁부분은	-6561
식품	-6562
▁관여	-6563
ins	-6564
▁배포	-6565
▁개량	-6566
▁착용	-6567
▁0·0	-6568
▁공장	-6569
▁집에	-6570
▁사용하였다	-6571
▁소요	-6572
▁거행	-6573
▁본질	-6574
감이	-6575
▁나왔	-6576
▁인지	-6577
▁그녀가	-6578
안군	-6579
▁김해	-6580
▁번주	-6581
▁상관	-6582
ts	-6583
스팅	-6584
▁작동	-6585
에서부터	-6586
누리	-6587
무현	-6588
▁대법	-6589
▁수요	-6590
베리아	-6591
▁권력을	-6592
▁독립을	-6593
▁상황을	-6594
맥스	-6595
▁지구의	-6596
이후	-6597
▁싱어	-6598
▁nhk	-6599
▁이상이	-6600
▁힌	-6601
유를	-6602
▁사망한	-6603
▁일본인	-6604
▁감독을	-6605
▁신사	-6606
apan	-6607
▁높다	-6608
·0	-6609
▁맨체스터	-6610
▁고급	-6611
▁연간	-6612
ml	-6613
▁멈	-6614
▁수호	-6615
▁안타	-6616
▁감독으로	-6617
▁밝은	-6618
▁긍	-6619
공신	-6620
식과	-6621
▁세계적으로	-6622
▁차지하고	-6623
▁스토리	-6624
▁크다	-6625
▁권력	-6626
▁크레	-6627
▁받아들이	-6628
결승	-6629
린의	-6630
니스탄	-6631
왕을	-6632
vol	-6633
▁도시의	-6634
▁아들인	-6635
장군	-6636
top	-6637
▁일행	-6638
="0"	-6639
▁프라이	-6640
인물	-6641
anc	-6642
▁사촌	-6643
았으나	-6644
▁설치된	-6645
키퍼	-6646
▁el	-6647
▁노선을	-6648
▁수학자	-6649
모가	-6650
아카	-6651
▁기도	-6652
▁신의	-6653
▁불렸다	-6654
▁이룬다	-6655
▁참여하였다	-6656
▁끝내	-6657
▁주를	-6658
duction	-6659
ave	-6660
▁코난	-6661
▁활동하였다	-6662
▁대한민국에서	-6663
red	-6664
▁열매	-6665
▁로마의	-6666
년부터는	-6667
ск	-6668
▁히트	-6669
렬한	-6670
▁통계	-6671
▁에드워드	-6672
)〉	-6673
▁주지	-6674
▁지리	-6675
▁남아프리카	-6676
둥이	-6677
▁학사	-6678
▁pol	-6679
▁이들이	-6680
▁style	-6681
비히	-6682
시청	-6683
▁개별	-6684
▁재임	-6685
▁금메달을	-6686
류는	-6687
▁검색	-6688
▁화려	-6689
▁복잡한	-6690
▁히어로	-6691
▁주기	-6692
▁질병	-6693
▁민중	-6694
▁gen	-6695
▁나타낸다	-6696
유대	-6697
문은	-6698
박스	-6699
작가	-6700
조정	-6701
페이지	-6702
▁여겨진다	-6703
-000-00000-0	-6704
모의	-6705
산으로	-6706
▁코리아	-6707
▁스마트	-6708
필드	-6709
▁물을	-6710
▁권리를	-6711
▁특징이다	-6712
▁성직	-6713
▁기본적으로	-6714
▁속해	-6715
센트	-6716
▁터널	-6717
uefa	-6718
)」	-6719
와이	-6720
▁생태	-6721
▁밥	-6722
마는	-6723
육군	-6724
▁드럼	-6725
▁이복	-6726
▁직전	-6727
▁크루	-6728
같이	-6729
▁미나미	-6730
▁사다	-6731
▁대표하는	-6732
▁들어갔다	-6733
고지	-6734
족이	-6735
▁일컫	-6736
▁아버지가	-6737
비로	-6738
화학	-6739
▁(00)	-6740
car	-6741
ner	-6742
▁보이지	-6743
▁아나운서	-6744
야수	-6745
▁개척	-6746
라이터	-6747
▁말이다	-6748
서양	-6749
▁앤드	-6750
▁fil	-6751
▁아티스트	-6752
▁대동	-6753
머리	-6754
▁보여준다	-6755
▁측면	-6756
▁카즈	-6757
▁토지	-6758
▁성공을	-6759
구리	-6760
▁디스	-6761
▁작품이다	-6762
닉스	-6763
▁발족	-6764
비행	-6765
▁탐사	-6766
목을	-6767
▁감시	-6768
▁카라	-6769
금융	-6770
▁돌아온	-6771
▁주장을	-6772
▁es	-6773
uro	-6774
▁에스	-6775
▁미국은	-6776
▁단순한	-6777
▁아이디	-6778
▁태조	-6779
▁기록은	-6780
▁대량	-6781
▁보물	-6782
▁클레	-6783
▁best	-6784
▁코르	-6785
심의	-6786
카타	-6787
▁허가	-6788
▁기구	-6789
▁식품	-6790
▁문제에	-6791
▁역사를	-6792
특별자치	-6793
▁경북	-6794
▁관련자	-6795
▁용어	-6796
▁클라	-6797
ement	-6798
▁있음	-6799
오스트레일	-6800
▁업무를	-6801
▁사람들에게	-6802
▁왕자	-6803
장인	-6804
초에	-6805
제국의	-6806
▁가까이	-6807
▁소식을	-6808
▁임의의	-6809
▁후보로	-6810
▁겉	-6811
fer	-6812
ops	-6813
▁보험	-6814
▁전쟁에서	-6815
▁system	-6816
▁실천	-6817
트릭	-6818
조참	-6819
▁데에	-6820
▁발휘	-6821
▁피터	-6822
ty	-6823
▁곡은	-6824
▁말해	-6825
▁비잔	-6826
▁진학	-6827
▁혈액	-6828
린이	-6829
▁세웠	-6830
▁싫어	-6831
▁문제는	-6832
▁한국인	-6833
▁차관	-6834
▁하느	-6835
스포츠	-6836
0.0	-6837
▁결의	-6838
▁표창	-6839
▁환승	-6840
▁(0000),	-6841
는지	-6842
니시	-6843
ose	-6844
▁사형	-6845
▁이름이다	-6846
▁변신	-6847
▁책을	-6848
▁윗	-6849
▁닮	-6850
역사	-6851
▁개체	-6852
▁현지	-6853
▁방식을	-6854
▁역이	-6855
비아의	-6856
▁대통령은	-6857
정도	-6858
▁나고야	-6859
▁멘	-6860
실로	-6861
현대	-6862
▁맞서	-6863
▁이행	-6864
▁앞으로	-6865
-00-0000	-6866
의정	-6867
▁당사	-6868
▁목포	-6869
▁싸우	-6870
민의	-6871
직에	-6872
▁갖게	-6873
▁입은	-6874
▁형식으로	-6875
▁골키퍼	-6876
마에	-6877
▁조선시대	-6878
마리	-6879
영상	-6880
▁남녀	-6881
▁양의	-6882
▁영혼	-6883
▁구로	-6884
▁접속	-6885
▁나타났다	-6886
노리	-6887
령의	-6888
▁뻗	-6889
▁상을	-6890
▁하우스	-6891
▁최근에는	-6892
미아	-6893
▁승계	-6894
▁게스트	-6895
브로	-6896
▁원래는	-6897
▁이루는	-6898
▁세우	-6899
▁타율	-6900
▁항의	-6901
▁스탈	-6902
▁착공	-6903
▁코스	-6904
▁마무리	-6905
과학기술	-6906
영을	-6907
▁김용	-6908
▁방정	-6909
초의	-6910
▁노르웨이	-6911
▁개방	-6912
▁김현	-6913
▁주력	-6914
mo	-6915
중한	-6916
챌린	-6917
▁초청	-6918
반민족행위	-6919
라를	-6920
이면	-6921
▁검토	-6922
지이다	-6923
▁질량	-6924
통일	-6925
▁명단	-6926
▁차남	-6927
▁실내	-6928
발을	-6929
비에	-6930
▁오는	-6931
▁김대중	-6932
tbc	-6933
▁목숨	-6934
검찰	-6935
▁피겨	-6936
▁떠났다	-6937
(0)	-6938
▁아리	-6939
▁고객	-6940
▁sn	-6941
▁가야	-6942
▁언덕	-6943
▁그들을	-6944
▁전남	-6945
헤이	-6946
회관	-6947
iam	-6948
루미	-6949
입구	-6950
▁승부	-6951
▁알고리즘	-6952
▁운영하고	-6953
▁gro	-6954
▁구원	-6955
▁슬로	-6956
▁루마니아	-6957
후보	-6958
gen	-6959
▁나뉜다	-6960
바다	-6961
하를	-6962
▁지향	-6963
inc	-6964
▁가깝	-6965
위에서	-6966
feat	-6967
루를	-6968
평을	-6969
▁꾸준	-6970
▁역사가	-6971
▁인천광역시	-6972
▁digital	-6973
’,	-6974
▁노스	-6975
▁수익	-6976
▁자매	-6977
▁관련이	-6978
▁동성애	-6979
위와	-6980
▁가속	-6981
▁초기에	-6982
름이	-6983
000.	-6984
▁로스앤젤레스	-6985
선생	-6986
▁붙어	-6987
▁작품의	-6988
▁명나라	-6989
▁*''	-6990
안이	-6991
영국	-6992
▁유닛	-6993
▁일단	-6994
▁다이묘	-6995
린은	-6996
▁하인	-6997
▁동일본	-6998
▁제작된	-6999
▁친일반민족행위	-7000
▁뱀	-7001
군에게	-7002
~)	-7003
▁단행	-7004
▁시조	-7005
▁사령관	-7006
▁크로스	-7007
▁그곳에서	-7008
포스	-7009
▁수술	-7010
▁예산	-7011
▁강을	-7012
▁말로	-7013
▁흑인	-7014
▁불가리아	-7015
▁오이	-7016
▁av	-7017
▁적도	-7018
▁커다란	-7019
oid	-7020
▁동안에	-7021
▁틈	-7022
▁0:	-7023
▁한신	-7024
▁역에서	-7025
▁임무를	-7026
.'	-7027
▁낸	-7028
▁별도의	-7029
미르	-7030
▁레지	-7031
▁첫째	-7032
▁sup	-7033
▁사우스	-7034
▁텍사스	-7035
▁stud	-7036
시절	-7037
키가	-7038
▁걸친	-7039
▁그만	-7040
바시	-7041
ple	-7042
용을	-7043
역에	-7044
인명	-7045
▁전작	-7046
▁수도권	-7047
▁위에서	-7048
▁작품으로	-7049
의원	-7050
ames	-7051
되지만	-7052
▁전문가	-7053
(:	-7054
재가	-7055
▁사도	-7056
훈장	-7057
▁관할한다	-7058
▁본격적으로	-7059
▁0,000,000	-7060
환을	-7061
▁엘리자베	-7062
▁고위	-7063
▁후임	-7064
▁플레이어	-7065
▁쏘	-7066
▁이순	-7067
▁오케	-7068
러리	-7069
▁사립	-7070
▁안양	-7071
ason	-7072
▁정원	-7073
▁*00	-7074
▁바르셀	-7075
▁회사의	-7076
▁남쪽으로	-7077
▁스타디움	-7078
▁날개	-7079
ini	-7080
▁재생	-7081
하기를	-7082
si	-7083
▁롱	-7084
타임	-7085
vel	-7086
▁확산	-7087
▁물리학	-7088
국대학교	-7089
▁colle	-7090
하기에	-7091
▁ind	-7092
▁만들기	-7093
▁전북	-7094
렸으며	-7095
▁john	-7096
▁인터페이스	-7097
ull	-7098
▁사가	-7099
%)	-7100
▁오빠	-7101
▁트윈	-7102
▁그녀를	-7103
▁못한다	-7104
▁손에	-7105
▁함경	-7106
ings	-7107
▁라이벌	-7108
▁가난	-7109
▁감정	-7110
운동을	-7111
▁밝혀졌다	-7112
▁대변	-7113
▁주장한다	-7114
▁border	-7115
▁사회의	-7116
▁후에도	-7117
rap	-7118
▁갖는다	-7119
▁pd	-7120
▁양산	-7121
▁전당	-7122
투표	-7123
▁영화이다	-7124
▁매주	-7125
▁크리	-7126
▁소프트웨	-7127
▁외계	-7128
▁넷	-7129
밀리	-7130
▁발명	-7131
▁복무	-7132
▁영원	-7133
보다도	-7134
커스	-7135
▁강요	-7136
▁정체	-7137
su	-7138
▁농촌	-7139
▁부르고	-7140
▁참여한	-7141
▁탄핵	-7142
▁되기도	-7143
▁교회의	-7144
열을	-7145
▁이글	-7146
스케이	-7147
▁열렸다	-7148
▁tran	-7149
▁구매	-7150
▁신한	-7151
계와	-7152
능력	-7153
▁동시	-7154
네덜란드	-7155
▁참여했다	-7156
파로	-7157
▁까지	-7158
였는데	-7159
트롤	-7160
▁수십	-7161
▁연애	-7162
▁원시	-7163
▁후인	-7164
티스	-7165
▁내가	-7166
▁아이템	-7167
▁있어야	-7168
▁충분히	-7169
▁했는데	-7170
▁korea	-7171
▁서술	-7172
▁연구에	-7173
▁유치원	-7174
▁성격을	-7175
▁초기에는	-7176
▁폭력	-7177
▁추가로	-7178
▁시리즈의	-7179
▁정무	-7180
▁주장하는	-7181
▁나타난	-7182
▁class	-7183
범위	-7184
면과	-7185
타니	-7186
도니아	-7187
ella	-7188
▁모바일	-7189
▁드래프트	-7190
▁왕조의	-7191
bur	-7192
▁사건의	-7193
▁사단법인	-7194
이게	-7195
▁그러므로	-7196
▁연결되어	-7197
▁영향으로	-7198
▁수상하였다	-7199
▁초에	-7200
호와	-7201
▁납치	-7202
▁로렌	-7203
▁크로아	-7204
세스	-7205
▁계속해서	-7206
▁무인	-7207
▁근처에	-7208
▁특별히	-7209
▁센트	-7210
로지	-7211
▁구성원	-7212
▁스티븐	-7213
데르	-7214
베리	-7215
▁아동	-7216
▁가치가	-7217
▁든	-7218
아는	-7219
판은	-7220
▁대대	-7221
▁물려	-7222
환으로	-7223
서와	-7224
토시	-7225
▁단순히	-7226
▁제도를	-7227
▁00-0	-7228
▁인텔	-7229
계로	-7230
힌다	-7231
ara	-7232
▁강등	-7233
▁챌린	-7234
▁가마	-7235
▁김재	-7236
▁사유	-7237
ument	-7238
▁시로	-7239
▁전의	-7240
po	-7241
통합	-7242
▁습격	-7243
▁창간	-7244
▁합동	-7245
▁군대	-7246
▁나이트	-7247
친구	-7248
▁따서	-7249
▁벼슬	-7250
▁팔레	-7251
▁의미하는	-7252
공식	-7253
uss	-7254
▁가고	-7255
▁개인의	-7256
로바키아	-7257
▁설립되었다	-7258
ga	-7259
▁인상	-7260
▁신학	-7261
▁진격	-7262
▁파티	-7263
▁당시에	-7264
균관	-7265
▁마틴	-7266
칸센	-7267
▁영구	-7268
▁그랜드	-7269
▁정수	-7270
▁상태를	-7271
후에	-7272
ott	-7273
▁sl	-7274
▁기소	-7275
스톤	-7276
온은	-7277
▁엑스	-7278
▁위원회	-7279
치기	-7280
air	-7281
▁탑승	-7282
▁허락	-7283
라이트	-7284
▁열차가	-7285
▁적극적으로	-7286
▁엄마	-7287
▁폭스	-7288
▁메탈	-7289
▁사격	-7290
▁여왕	-7291
▁우라	-7292
편의	-7293
▁마주	-7294
▁일은	-7295
▁사용했다	-7296
mon	-7297
▁구멍	-7298
개국	-7299
▁기동	-7300
안은	-7301
일리	-7302
판에	-7303
hel	-7304
클레	-7305
▁백성	-7306
▁카나	-7307
▁곳이다	-7308
▁보스턴	-7309
바나	-7310
▁대다	-7311
▁신도	-7312
▁심리	-7313
▁정교	-7314
▁필름	-7315
ject	-7316
▁한나라당	-7317
끼리	-7318
▁감옥	-7319
▁복음	-7320
협의회	-7321
▁영토를	-7322
▁일요일	-7323
▁분야에서	-7324
▁유고	-7325
▁(0000,	-7326
▁레알	-7327
▁참모	-7328
▁cor	-7329
▁오프닝	-7330
mat	-7331
▁클로	-7332
▁정식으로	-7333
▁이세	-7334
▁철저	-7335
란색	-7336
말로	-7337
▁배급	-7338
▁유력	-7339
▁개념을	-7340
애나	-7341
▁편의	-7342
우스의	-7343
▁방법은	-7344
국민학교로	-7345
▁성질	-7346
▁엔딩	-7347
우스는	-7348
▁원주민	-7349
티움	-7350
▁발전을	-7351
▁세계를	-7352
층에	-7353
▁만난	-7354
▁정부에	-7355
인터	-7356
▁입법	-7357
▁살아남	-7358
론에	-7359
미나	-7360
▁타케	-7361
▁훈장	-7362
▁나뉘어	-7363
▁영화는	-7364
▁이노	-7365
aster	-7366
당하고	-7367
-00-000000-0	-7368
▁옵	-7369
집을	-7370
ret	-7371
▁꺼	-7372
▁덜	-7373
▁패러	-7374
행성	-7375
ble	-7376
디스	-7377
▁싱어송	-7378
기능	-7379
목으로	-7380
에게도	-7381
▁fran	-7382
▁기록되어	-7383
니와	-7384
오와	-7385
▁매각	-7386
▁can	-7387
▁{	-7388
▁않기	-7389
카스	-7390
▁시모	-7391
프란시스코	-7392
▁차단	-7393
▁브레이	-7394
▁일본어	-7395
▁새벽	-7396
▁주니어	-7397
▁줄어들	-7398
▁긍정	-7399
▁전원	-7400
ox	-7401
▁ent	-7402
▁소설가	-7403
▁암컷	-7404
인이다	-7405
▁일종의	-7406
공간	-7407
▁별로	-7408
▁잡고	-7409
▁펜싱	-7410
로우	-7411
슬라비아	-7412
코프	-7413
▁집필	-7414
관계를	-7415
▁보여주는	-7416
▁일본국유철도	-7417
하우스	-7418
▁사건에	-7419
▁이끌어	-7420
▁박근	-7421
▁비중	-7422
▁실제로는	-7423
▁관심	-7424
▁걷	-7425
▁망원	-7426
▁상태가	-7427
▁이용할	-7428
▁에르	-7429
▁후퇴	-7430
되거나	-7431
▁간다	-7432
구청	-7433
올린	-7434
▁테니스	-7435
▁행위를	-7436
브레	-7437
사한	-7438
▁본다	-7439
▁양쪽	-7440
▁외무	-7441
▁체험	-7442
▁출현	-7443
▁주제가	-7444
▁셔	-7445
▁남아있	-7446
(0000~0000)	-7447
자연	-7448
채널	-7449
▁훌륭	-7450
ster	-7451
▁이상을	-7452
나르	-7453
▁경기가	-7454
▁주변의	-7455
▁일으켰다	-7456
▁호주	-7457
▁일본은	-7458
▁대구광역시	-7459
▁당나라	-7460
곡리	-7461
▁관객	-7462
▁오세	-7463
▁튜	-7464
▁서명	-7465
▁신고	-7466
▁대표로	-7467
▁공기	-7468
▁rec	-7469
침을	-7470
목적	-7471
▁게임의	-7472
▁포함하는	-7473
권과	-7474
▁안드로	-7475
▁미국으로	-7476
▁모습이	-7477
▁반대하는	-7478
▁사건은	-7479
▁!!00	-7480
번뇌	-7481
▁삭제	-7482
▁대학의	-7483
투니버스	-7484
▁남양	-7485
▁돌파	-7486
▁*#	-7487
▁그라	-7488
▁일상	-7489
▁자금	-7490
▁지불	-7491
든지	-7492
씨를	-7493
▁보기	-7494
▁경향이	-7495
▁이어서	-7496
▁데이터를	-7497
▁첩	-7498
▁석유	-7499
▁노동자	-7500
▁그리스의	-7501
나게	-7502
▁휴대	-7503
▁동반	-7504
▁0.000	-7505
▁어두	-7506
▁집을	-7507
▁명예의	-7508
ark	-7509
ual	-7510
▁새끼	-7511
재위	-7512
▁문을	-7513
▁빌딩	-7514
▁압축	-7515
▁오디션	-7516
▁위치에	-7517
yo	-7518
플러	-7519
▁##	-7520
▁공정	-7521
▁구미	-7522
▁싱어송라이터	-7523
▁쌀	-7524
▁힘들	-7525
코토	-7526
▁중시	-7527
▁출시되었다	-7528
슬라	-7529
음력	-7530
▁가라	-7531
▁독재	-7532
ater	-7533
담을	-7534
▁강하게	-7535
여성	-7536
▁성과	-7537
포트	-7538
▁통행	-7539
▁현존	-7540
▁시청률	-7541
▁스테이지	-7542
▁이외에도	-7543
버스터미널	-7544
체국	-7545
▁어릴	-7546
▁자가	-7547
▁연구소	-7548
다리	-7549
▁마그	-7550
▁원하는	-7551
▁하나가	-7552
▁셋째	-7553
▁징역	-7554
▁폴리	-7555
▁많았다	-7556
▁브리	-7557
▁이준	-7558
▁밀도는	-7559
▁운영하는	-7560
▁사쿠라	-7561
▁넣어	-7562
▁어드	-7563
▁하던	-7564
뉴스	-7565
아웃	-7566
열차	-7567
▁가쓰	-7568
org	-7569
▁드물	-7570
▁아무런	-7571
▁특징을	-7572
도사	-7573
▁추락	-7574
작으로	-7575
pc	-7576
▁부장	-7577
▁자신은	-7578
노의	-7579
제공	-7580
타가	-7581
▁모임	-7582
▁톱	-7583
▁한양	-7584
▁대부분을	-7585
해에	-7586
▁시마	-7587
▁토벌	-7588
년까지는	-7589
gin	-7590
▁사찰	-7591
enn	-7592
▁논리	-7593
▁비례	-7594
러시아의	-7595
오고	-7596
토스	-7597
판의	-7598
▁자라	-7599
내셔널	-7600
▁여성의	-7601
전사	-7602
▁우익	-7603
실에서	-7604
로디	-7605
배를	-7606
▁이원	-7607
▁수록곡	-7608
▁아래에	-7609
현의	-7610
▁ps	-7611
▁콜롬	-7612
▁해제	-7613
lect	-7614
▁위대한	-7615
▁지속적으로	-7616
▁이념	-7617
▁정확히	-7618
아리	-7619
▁경부	-7620
▁카운	-7621
▁북쪽으로	-7622
주식	-7623
▁sf	-7624
▁막기	-7625
▁비판을	-7626
▁올림픽에서	-7627
▁멸종	-7628
▁점성	-7629
파와	-7630
시안	-7631
▁원자력	-7632
실한	-7633
▁다큐	-7634
▁축제	-7635
소방	-7636
▁상하	-7637
▁홈런을	-7638
서울대학교	-7639
▁메모	-7640
파이어	-7641
▁되었는데	-7642
▁민영화에	-7643
▁데뷔하였다	-7644
▁퀘	-7645
돌프	-7646
ene	-7647
▁신자	-7648
▁주제	-7649
ific	-7650
▁바람에	-7651
new	-7652
▁신장	-7653
▁좁은	-7654
▁마음작용	-7655
▁소집	-7656
〉(	-7657
▁예전	-7658
▁직무	-7659
▁해병	-7660
긴다	-7661
▁맺고	-7662
▁유치	-7663
▁티베	-7664
하면서도	-7665
만원	-7666
소속	-7667
테쓰	-7668
▁id	-7669
▁life	-7670
▁선출되었다	-7671
▁아이스	-7672
▁기재	-7673
▁으로	-7674
▁cont	-7675
gu	-7676
▁시를	-7677
▁옛날	-7678
▁부르기도	-7679
음의	-7680
장한	-7681
ane	-7682
▁와카	-7683
▁후지와	-7684
전에서는	-7685
마치	-7686
중이다	-7687
▁이승만	-7688
프가니스탄	-7689
▁군사를	-7690
▁보이고	-7691
▁곱	-7692
작사	-7693
▁무라	-7694
▁빨간	-7695
▁카메	-7696
▁의견을	-7697
▁페스티벌	-7698
▁축소	-7699
▁했	-7700
▁미카	-7701
▁공산당	-7702
루는	-7703
▁적을	-7704
▁주파	-7705
▁ass	-7706
사관학교	-7707
va	-7708
도어	-7709
로에	-7710
▁왕비	-7711
신으로	-7712
ura	-7713
▁호는	-7714
▁세력이	-7715
▁상호작용	-7716
캐나다의	-7717
공동	-7718
▁수반	-7719
▁지칭	-7720
▁빌보드	-7721
▁李	-7722
밀한	-7723
▁가설	-7724
▁생기	-7725
gro	-7726
▁모터	-7727
▁지진	-7728
칭은	-7729
폐합	-7730
장애	-7731
▁관해	-7732
들에서	-7733
▁미국에	-7734
▁에너지를	-7735
▁요미우리	-7736
▁상황에	-7737
▁연주자	-7738
▁기록하며	-7739
▁칩	-7740
니즘	-7741
대왕	-7742
▁블록	-7743
▁장면	-7744
러브	-7745
▁그랑	-7746
▁극복	-7747
▁선조	-7748
▁성향	-7749
▁압도	-7750
▁황후	-7751
▁해적	-7752
▁(0000-0000)	-7753
▁수컷	-7754
▁예외	-7755
▁한강	-7756
▁와서	-7757
▁.000	-7758
됨에	-7759
▁피고	-7760
▁담고	-7761
▁미스	-7762
▁불렀	-7763
정과	-7764
▁ab	-7765
▁있으면	-7766
▁내는	-7767
▁아가	-7768
夫人	-7769
박사	-7770
▁놀라	-7771
▁눈을	-7772
▁대지	-7773
▁지중	-7774
▁스피드	-7775
▁med	-7776
of	-7777
기사	-7778
▁스카이	-7779
nd	-7780
▁나의	-7781
▁여의	-7782
▁ma	-7783
▁남겨	-7784
▁상무	-7785
하라는	-7786
▁빵	-7787
▁수소	-7788
▁반응을	-7789
▁현상을	-7790
▁미니시리즈	-7791
보로	-7792
인간	-7793
령으로	-7794
▁법무	-7795
▁인증	-7796
▁초등	-7797
▁푸른	-7798
▁섬에	-7799
▁유적	-7800
▁북아메리카	-7801
▁school	-7802
다니	-7803
▁음성	-7804
검찰청	-7805
▁사이트	-7806
실에	-7807
▁분자	-7808
▁sec	-7809
▁판타지	-7810
▁배우이다	-7811
▁김상	-7812
▁대단	-7813
소수	-7814
▁보냈	-7815
▁정통	-7816
▁필립	-7817
▁필수	-7818
▁mon	-7819
▁우리는	-7820
▁이명박	-7821
▁자체가	-7822
치오	-7823
ena	-7824
▁네이션	-7825
▁신칸센	-7826
▁will	-7827
형에	-7828
화점	-7829
▁str	-7830
▁닉	-7831
▁참고	-7832
▁포스트	-7833
검사	-7834
차에	-7835
협력	-7836
▁김수	-7837
▁뚜렷	-7838
▁장갑	-7839
▁황태	-7840
까지도	-7841
▁그려져	-7842
▁빅토리아	-7843
니까	-7844
▁구성하는	-7845
▁동쪽으로	-7846
게는	-7847
중심	-7848
▁교과	-7849
▁규슈	-7850
▁오버	-7851
▁유성	-7852
▁재료	-7853
현재의	-7854
▁역임하였다	-7855
▁서쪽으로	-7856
▁당해	-7857
▁싱가포르	-7858
▁내셔널	-7859
▁레코드	-7860
역은	-7861
예를	-7862
▁혁신	-7863
▁알렉산더	-7864
▁잊	-7865
의가	-7866
▁time	-7867
▁갱	-7868
▁신흥	-7869
▁장르	-7870
▁뼈	-7871
min	-7872
▁죽자	-7873
▁덕분에	-7874
았지만	-7875
레는	-7876
본을	-7877
ama	-7878
▁ke	-7879
▁동경	-7880
▁사막	-7881
▁이온	-7882
▁좋다	-7883
ato	-7884
▁급행	-7885
▁호수	-7886
▁도중에	-7887
▁소속의	-7888
▁일으킨	-7889
▁conc	-7890
▁모습으로	-7891
▁믹	-7892
▁천체	-7893
▁토너	-7894
▁이날	-7895
▁노무현	-7896
▁대해서도	-7897
워즈	-7898
▁무릎	-7899
▁용산	-7900
▁땅을	-7901
▁예로	-7902
스페인의	-7903
▁정도이다	-7904
▁마쓰다이라	-7905
▁:0	-7906
▁일곱	-7907
세기의	-7908
)''	-7909
▁되찾	-7910
▁생애	-7911
▁연안	-7912
인들을	-7913
▁her	-7914
▁못하게	-7915
▁접한다	-7916
ya	-7917
제이	-7918
▁김진	-7919
▁이탈	-7920
▁연기대상	-7921
▁전직	-7922
▁출력	-7923
ий	-7924
▁구사	-7925
▁선호	-7926
▁금강	-7927
▁초상	-7928
▁girl	-7929
▁전형적인	-7930
▁섹	-7931
타케	-7932
▁사카	-7933
ited	-7934
▁상태에	-7935
조판서	-7936
제르	-7937
▁cf	-7938
▁관계에	-7939
▁일련의	-7940
▁이어지는	-7941
로미터	-7942
▁때마다	-7943
츠의	-7944
▁이끌었다	-7945
기상	-7946
▁조건을	-7947
▁리드	-7948
▁삶을	-7949
▁요금	-7950
▁죽고	-7951
▁har	-7952
▁기능이	-7953
-0000-0000-0	-7954
cs	-7955
고에	-7956
보기	-7957
▁스승	-7958
▁전술	-7959
▁탐험	-7960
▁구간이	-7961
▁중에서도	-7962
▁영광	-7963
▁사람으로	-7964
▁사용하지	-7965
▁퀴	-7966
▁모드	-7967
▁언제나	-7968
.0000	-7969
▁무리	-7970
▁특허	-7971
▁영향력을	-7972
세트	-7973
▁명시	-7974
▁선두	-7975
▁호남	-7976
ated	-7977
▁끈	-7978
▁맞추	-7979
전한	-7980
란드의	-7981
▁에스파	-7982
▁시나리오	-7983
iew	-7984
소송	-7985
회말	-7986
app	-7987
▁김지	-7988
▁동서	-7989
▁맞춰	-7990
▁알레	-7991
▁주된	-7992
▁영화제	-7993
▁인물로	-7994
▁조선총독부	-7995
▁올라가	-7996
▁수준의	-7997
▁수업	-7998
플라	-7999
해양	-8000
▁이자	-8001
▁광범위	-8002
▁영화의	-8003
▁크리스티	-8004
ces	-8005
▁간부	-8006
▁내장	-8007
▁웨이	-8008
▁관하여	-8009
▁준결승	-8010
▁history	-8011
되던	-8012
전공	-8013
▁소형	-8014
▁좌익	-8015
▁tour	-8016
구미	-8017
목에	-8018
슈퍼	-8019
폴리	-8020
자이너	-8021
토를	-8022
▁er	-8023
▁펑	-8024
▁사제	-8025
년제	-8026
▁아웃	-8027
▁화합	-8028
한다면	-8029
▁김민	-8030
중국의	-8031
▁000.00	-8032
▁기부	-8033
▁아케	-8034
았는데	-8035
▁tbs	-8036
치지	-8037
▁커버	-8038
▁생각을	-8039
▁수밖에	-8040
▁모양으로	-8041
▁진행되었다	-8042
▁두산	-8043
▁마감	-8044
▁삼아	-8045
▁스틸	-8046
▁얻게	-8047
▁이관	-8048
▁한화	-8049
▁라이프	-8050
▁주목을	-8051
▁항공기	-8052
▁데려	-8053
데이트	-8054
불교	-8055
자책	-8056
총장	-8057
하에서	-8058
나를	-8059
▁공무원	-8060
ze	-8061
군사	-8062
▁김기	-8063
▁양도	-8064
▁아니고	-8065
치와	-8066
▁개성	-8067
▁조용	-8068
▁쥬	-8069
▁간에	-8070
▁알리	-8071
▁적응	-8072
▁앨범을	-8073
▁에릭	-8074
야스	-8075
▁기갑	-8076
▁이하의	-8077
시노	-8078
▁중동	-8079
lin	-8080
▁소리를	-8081
▁않았지만	-8082
▁곰	-8083
미사	-8084
인인	-8085
▁미즈	-8086
▁대회에	-8087
▁운동에	-8088
▁케이블	-8089
마저	-8090
▁이론을	-8091
▁황제의	-8092
받침	-8093
▁놓여	-8094
생활을	-8095
▁수를	-8096
▁스즈키	-8097
▁inter	-8098
삼진	-8099
▁세부	-8100
▁등장한	-8101
실점	-8102
▁여신	-8103
▁기본적인	-8104
타스	-8105
▁보르	-8106
니스트	-8107
▁있다가	-8108
▁방위	-8109
▁사로	-8110
▁서기	-8111
ize	-8112
▁의거	-8113
▁주립	-8114
▁관계는	-8115
국어	-8116
나마	-8117
무스	-8118
▁두려워	-8119
ebs	-8120
▁문장	-8121
▁암호	-8122
▁일대	-8123
▁코어	-8124
▁발표된	-8125
▁없지만	-8126
▁publ	-8127
시픽	-8128
▁상주	-8129
이라며	-8130
▁공룡	-8131
▁버지	-8132
▁락	-8133
▁메달	-8134
▁운송	-8135
▁후의	-8136
▁감독은	-8137
건의	-8138
▁해발	-8139
학교로	-8140
란다	-8141
▁거대	-8142
졌으나	-8143
▁이용하는	-8144
관과	-8145
주쿠	-8146
해지고	-8147
▁증언	-8148
바야시	-8149
뮤직	-8150
▁제네	-8151
▁것이고	-8152
▁전체를	-8153
분야	-8154
지휘	-8155
▁카페	-8156
▁cpu	-8157
방이	-8158
▁말하고	-8159
아들	-8160
전투	-8161
▁말은	-8162
▁붙잡	-8163
▁일일	-8164
▁파울	-8165
▁않았던	-8166
▁결심	-8167
▁그들	-8168
▁구글	-8169
▁월화	-8170
▁bar	-8171
▁시작했고	-8172
덕션	-8173
탄을	-8174
미즈	-8175
▁메가	-8176
▁현역	-8177
▁아파트	-8178
▁읍	-8179
루수	-8180
중화	-8181
▁구장	-8182
였다고	-8183
▁분데스	-8184
▁0000–00,	-8185
▁비정	-8186
적이며	-8187
▁계기가	-8188
ka	-8189
문과	-8190
삼국	-8191
▁고고	-8192
▁급속	-8193
▁수감	-8194
시스트	-8195
▁세리에	-8196
비와	-8197
▁비틀	-8198
훼손	-8199
▁로맨	-8200
▁테크	-8201
▁본명은	-8202
수리	-8203
▁배구	-8204
▁실업	-8205
▁not	-8206
크와	-8207
르바	-8208
식물	-8209
자동	-8210
▁없었던	-8211
▁삼았다	-8212
학은	-8213
ric	-8214
▁발렌	-8215
▁sol	-8216
속에	-8217
여단	-8218
▁카자	-8219
▁특급	-8220
▁열리는	-8221
청의	-8222
▁받으며	-8223
▁모래	-8224
▁빨리	-8225
▁쿄	-8226
마사	-8227
조지	-8228
▁달하는	-8229
유한	-8230
출장	-8231
▁em	-8232
▁갈등	-8233
▁무산	-8234
▁클리	-8235
▁필요로	-8236
롤라	-8237
▁학원	-8238
▁wwe	-8239
▁우리가	-8240
속의	-8241
▁막부	-8242
▁찬성	-8243
▁포맷	-8244
▁건축물	-8245
▁star	-8246
방에	-8247
즈와	-8248
천의	-8249
▁근육	-8250
▁배틀	-8251
시민	-8252
▁색깔	-8253
▁수신	-8254
▁호환	-8255
▁대한제국	-8256
히토	-8257
▁*●	-8258
▁조기	-8259
▁레이블	-8260
▁개그	-8261
▁힘이	-8262
케이팅	-8263
▁나이에	-8264
▁수백	-8265
▁mag	-8266
▁서일본	-8267
▁자전거	-8268
▁젠	-8269
반의	-8270
사추	-8271
▁명으로	-8272
▁박근혜	-8273
▁콘텐츠	-8274
름은	-8275
연의	-8276
▁부분에	-8277
모는	-8278
▁넘겨	-8279
▁심한	-8280
ux	-8281
▁쿼	-8282
루살	-8283
율이	-8284
▁학자	-8285
▁지원하는	-8286
·00	-8287
▁고리	-8288
▁보편	-8289
▁역의	-8290
주의는	-8291
▁에이스	-8292
▁주요한	-8293
▁처음에	-8294
▁포함된	-8295
▁부드	-8296
▁비서	-8297
▁vers	-8298
▁설치되었다	-8299
그리스	-8300
by	-8301
강에	-8302
터널	-8303
over	-8304
▁사고로	-8305
bi	-8306
그러	-8307
▁관중	-8308
▁미키	-8309
▁단백질	-8310
▁christ	-8311
▁아울	-8312
▁res	-8313
▁아메리칸	-8314
▁긴급	-8315
▁대선	-8316
코는	-8317
▁벡터	-8318
▁인류	-8319
▁돌아왔다	-8320
메르	-8321
▁건담	-8322
▁무관	-8323
▁권한을	-8324
재단	-8325
▁아트	-8326
▁nor	-8327
대책	-8328
이라면	-8329
▁bbc	-8330
이야	-8331
정리	-8332
집합	-8333
▁콜로	-8334
▁성공했다	-8335
법과	-8336
ino	-8337
▁한반도	-8338
▁사과	-8339
▁시달	-8340
루살렘	-8341
▁마라	-8342
▁타워	-8343
▁내용의	-8344
▁뜻으로	-8345
▁말라	-8346
▁승차	-8347
▁라운드	-8348
▁배열	-8349
▁영주	-8350
지기도	-8351
ors	-8352
▁동화	-8353
▁연락	-8354
작은	-8355
점과	-8356
▁iii	-8357
▁들어간	-8358
▁파트너	-8359
참모	-8360
▁수직	-8361
▁테오	-8362
스부르크	-8363
등포	-8364
문관	-8365
이시	-8366
작전	-8367
▁ce	-8368
▁쓴다	-8369
▁순수	-8370
▁인조	-8371
▁해협	-8372
▁0000–00	-8373
▁위탁	-8374
▁명성을	-8375
▁의장	-8376
▁잃고	-8377
▁졸	-8378
▁김포	-8379
▁집에서	-8380
▁되었다고	-8381
오가	-8382
인명사전	-8383
주의와	-8384
▁김경	-8385
▁산하	-8386
▁정권을	-8387
▁클래식의	-8388
제품	-8389
피를	-8390
ari	-8391
▁곳을	-8392
▁(0000–	-8393
▁할머니	-8394
세츠	-8395
▁ste	-8396
▁york	-8397
▁여객철도	-8398
연한	-8399
▁가해	-8400
▁도심	-8401
▁리듬	-8402
▁시간에	-8403
▁수록되어	-8404
함은	-8405
▁등도	-8406
▁순서	-8407
공단	-8408
▁뒤로	-8409
갔고	-8410
▁기용	-8411
▁종이	-8412
▁데리고	-8413
▁밖으로	-8414
루타	-8415
보면	-8416
.''	-8417
▁먹는	-8418
경찰서	-8419
▁존재를	-8420
▁내지	-8421
▁보좌	-8422
▁운항	-8423
졌지만	-8424
▁딱	-8425
▁분해	-8426
▁mod	-8427
▁나라를	-8428
▁지나지	-8429
렸을	-8430
체인	-8431
▁연계	-8432
▁심지어	-8433
민당	-8434
슨이	-8435
우를	-8436
▁법적	-8437
▁없음	-8438
▁풋볼	-8439
▁자유를	-8440
▁졸업한	-8441
▁부상으로	-8442
▁pp	-8443
▁감각	-8444
▁고안	-8445
▁웰	-8446
▁무선	-8447
들과의	-8448
▁가치를	-8449
▁브라우	-8450
▁철도의	-8451
슬림	-8452
▁간호	-8453
▁능력이	-8454
▁동기	-8455
▁방언	-8456
▁수목	-8457
우드	-8458
▁신용	-8459
특별출연	-8460
▁드림	-8461
▁복수	-8462
▁상의	-8463
▁말할	-8464
▁순천	-8465
▁통폐합	-8466
▁잉글랜드의	-8467
기계	-8468
▁간섭	-8469
▁약탈	-8470
▁없기	-8471
▁유전자	-8472
▁이스트	-8473
▁빗	-8474
영이	-8475
▁가시	-8476
▁겨우	-8477
▁밸	-8478
담당	-8479
▁추적	-8480
with	-8481
▁목숨을	-8482
▁세계에	-8483
발의	-8484
▁지역이	-8485
▁램	-8486
군단	-8487
네의	-8488
족은	-8489
프와	-8490
▁계곡	-8491
▁촉진	-8492
▁공격수	-8493
▁인터뷰에서	-8494
▁유입	-8495
▁현장	-8496
ocese	-8497
유로	-8498
▁부설	-8499
▁전두	-8500
▁머리를	-8501
▁불리며	-8502
▁적어도	-8503
▁탱	-8504
▁반면에	-8505
도리	-8506
말을	-8507
모로	-8508
out	-8509
▁모듈	-8510
베트남	-8511
outh	-8512
▁안토니	-8513
▁약간의	-8514
▁람	-8515
▁극단	-8516
▁소환	-8517
▁유용	-8518
▁변화가	-8519
▁병력을	-8520
▁의미로	-8521
나기	-8522
작품	-8523
테스	-8524
▁뿐이다	-8525
네마	-8526
ald	-8527
▁디아	-8528
▁장례	-8529
▁토마스	-8530
inter	-8531
▁대학교의	-8532
▁비잔티움	-8533
미와	-8534
▁소규모	-8535
▁아르메	-8536
▁song	-8537
령에	-8538
▁본부	-8539
▁적색	-8540
위원회가	-8541
▁마케도니아	-8542
졌던	-8543
▁되었으나	-8544
▁호흡	-8545
때문에	-8546
ouse	-8547
▁작전을	-8548
▁중추원	-8549
악의	-8550
클린	-8551
저스	-8552
▁순위	-8553
▁유대인	-8554
루과	-8555
▁사진을	-8556
▁우수한	-8557
▁운동가	-8558
▁또다른	-8559
▁밀라노	-8560
▁비롯해	-8561
되었다는	-8562
과장	-8563
▁농림	-8564
▁your	-8565
▁뚫	-8566
수사	-8567
클라	-8568
하늘	-8569
▁mac	-8570
고리	-8571
▁세우고	-8572
▁전해진다	-8573
어리	-8574
져서	-8575
▁거친	-8576
▁메리	-8577
▁지바	-8578
▁곧바로	-8579
쟁이	-8580
▁야쿠	-8581
리케이션	-8582
하가	-8583
any	-8584
▁들여	-8585
▁새누리	-8586
라델	-8587
습을	-8588
우조	-8589
족을	-8590
학에	-8591
▁도서	-8592
▁마시	-8593
▁스파르타	-8594
▁발표되었다	-8595
병으로	-8596
경기에서	-8597
▁딴	-8598
▁수수	-8599
▁월간	-8600
▁총선	-8601
합니다	-8602
▁도시를	-8603
ony	-8604
▁디젤	-8605
▁사무실은	-8606
나리	-8607
▁소위	-8608
▁전승	-8609
▁곁	-8610
▁가즈	-8611
▁연고	-8612
학에서	-8613
▁international	-8614
▁담은	-8615
▁독점	-8616
▁무신	-8617
▁의도	-8618
▁거느	-8619
▁석방	-8620
▁교향곡	-8621
▁크기가	-8622
▁리그에서	-8623
으려	-8624
▁쇠퇴	-8625
▁중립	-8626
▁물이	-8627
▁럭	-8628
처리	-8629
팀이	-8630
▁결과로	-8631
▁의미가	-8632
ike	-8633
ste	-8634
▁최저	-8635
식에서	-8636
▁센트럴	-8637
님이	-8638
면서도	-8639
▁min	-8640
스위	-8641
주와	-8642
▁가득	-8643
▁무효	-8644
▁캡	-8645
탐정	-8646
▁평생	-8647
ates	-8648
▁아프가니스탄	-8649
카리	-8650
▁맞는	-8651
▁페이지	-8652
▁태종	-8653
▁웹사이트	-8654
gy	-8655
▁소스	-8656
▁경전	-8657
▁서독	-8658
생명	-8659
▁인구의	-8660
▁프리미어리그	-8661
uck	-8662
▁도구	-8663
▁랭킹	-8664
정신	-8665
▁역은	-8666
▁항해	-8667
▁del	-8668
▁과도	-8669
ience	-8670
▁서브	-8671
▁폭격	-8672
ja	-8673
▁영국과	-8674
▁이르기까지	-8675
0(	-8676
▁로빈	-8677
▁르네	-8678
▁이병	-8679
해진다	-8680
▁과거에	-8681
▁접하고	-8682
▁스케이팅	-8683
▁급격	-8684
▁이화	-8685
스페인	-8686
▁끝으로	-8687
▁디자이너	-8688
▁영국에서	-8689
▁낱	-8690
oul	-8691
▁사이클	-8692
▁상황이	-8693
상업	-8694
절을	-8695
▁다루는	-8696
▁블라디	-8697
렌지	-8698
색이	-8699
▁발레	-8700
▁위상	-8701
▁플레	-8702
▁많고	-8703
▁싶어	-8704
rain	-8705
▁플로리다	-8706
▁개장	-8707
▁모로	-8708
▁시라	-8709
▁유인	-8710
▁일로	-8711
▁iso	-8712
▁앨범은	-8713
▁0~00	-8714
▁독립운동가	-8715
▁차지하였다	-8716
▁칼리	-8717
▁때문이었다	-8718
공립보통학교	-8719
▁굉	-8720
▁곳은	-8721
▁남한	-8722
▁award	-8723
▁툴	-8724
▁약한	-8725
▁없었고	-8726
▁때도	-8727
▁맺었다	-8728
ds	-8729
정원	-8730
▁하사	-8731
▁거리를	-8732
▁국가가	-8733
국과	-8734
쳤고	-8735
▁항구	-8736
기서	-8737
▁평택	-8738
프라이	-8739
▁관심이	-8740
▁독자적인	-8741
▁지역에서는	-8742
창군	-8743
▁가사	-8744
▁성당	-8745
시대에	-8746
▁가지게	-8747
▁퓨	-8748
인사	-8749
▁공략	-8750
영화제	-8751
▁0,0	-8752
▁방법이	-8753
bus	-8754
▁걸려	-8755
▁고통	-8756
분으로	-8757
▁보이며	-8758
▁이야기가	-8759
곡동	-8760
런스	-8761
모니	-8762
▁막아	-8763
▁업데이트	-8764
ven	-8765
▁선진	-8766
▁이윤	-8767
▁목소리	-8768
보건	-8769
▁아베	-8770
▁침해	-8771
▁쿨	-8772
▁구름	-8773
▁반사	-8774
메이저	-8775
flag	-8776
▁들어와	-8777
▁소관의	-8778
조약	-8779
▁추가되었다	-8780
▁론	-8781
▁없애	-8782
▁잠재	-8783
▁중구	-8784
케이션	-8785
태평양	-8786
▁가능하며	-8787
▁번호	-8788
▁자율	-8789
▁지연	-8790
ient	-8791
irst	-8792
▁사양	-8793
▁책봉	-8794
세리에	-8795
▁마치고	-8796
꼬리	-8797
▁사용이	-8798
▁일어난다	-8799
ek	-8800
oy	-8801
고쿠	-8802
ons	-8803
▁pa	-8804
▁억제	-8805
▁크로아티아	-8806
금은	-8807
▁침몰	-8808
▁파생	-8809
▁관계로	-8810
▁콘스탄티노	-8811
학교를	-8812
▁다음으로	-8813
▁편입되었다	-8814
▁됐	-8815
▁삿	-8816
리크	-8817
평균	-8818
노르	-8819
라트	-8820
mix	-8821
▁바티	-8822
사추세츠	-8823
등한	-8824
성도	-8825
erican	-8826
▁게르	-8827
▁올림	-8828
석으로	-8829
이었는데	-8830
▁뷰	-8831
chn	-8832
▁반환	-8833
▁production	-8834
▁심장	-8835
▁홀로	-8836
▁일본군	-8837
▁버지니아	-8838
▁0×	-8839
노부	-8840
▁거둔	-8841
▁고지	-8842
ford	-8843
▁당했다	-8844
▁간접	-8845
▁벗어	-8846
▁성과를	-8847
되었기	-8848
▁뜻이다	-8849
▁rad	-8850
▁천황의	-8851
▁아틀	-8852
▁명칭이	-8853
국인	-8854
억원	-8855
▁이현	-8856
▁추대	-8857
리스토	-8858
▁차지한다	-8859
▁포함된다	-8860
▁dream	-8861
후쿠	-8862
▁이진	-8863
▁있다면	-8864
▁펄	-8865
글로	-8866
일간	-8867
▁국유	-8868
런트	-8869
▁팩	-8870
▁도움이	-8871
▁sw	-8872
▁이벤트	-8873
랑이	-8874
▁열어	-8875
▁공동으로	-8876
아라	-8877
▁전임	-8878
▁쿠바	-8879
하르트	-8880
eter	-8881
▁아직도	-8882
스케이팅	-8883
출을	-8884
▁갈색	-8885
▁구간은	-8886
ision	-8887
▁샌프란시스코	-8888
▁cj	-8889
▁발라	-8890
▁대학에서	-8891
▁문화체육	-8892
고자	-8893
▁곤충	-8894
▁못해	-8895
▁설이	-8896
▁타운	-8897
골든	-8898
▁근로	-8899
▁영화를	-8900
▁개신교도	-8901
▁적의	-8902
▁꾸준히	-8903
시내	-8904
현악	-8905
▁빛의	-8906
메이크	-8907
이스케	-8908
▁출연했다	-8909
살이	-8910
▁서북	-8911
▁자세	-8912
》(''	-8913
▁night	-8914
물과	-8915
▁가미	-8916
▁매장	-8917
▁문화의	-8918
▁스크린	-8919
▁유고슬라비아	-8920
gi	-8921
임은	-8922
▁방향을	-8923
▁이익을	-8924
▁토요일	-8925
급의	-8926
▁리눅	-8927
▁결승전	-8928
▁산악	-8929
▁이광	-8930
▁플루	-8931
▁하야	-8932
편이	-8933
▁구리	-8934
▁영양	-8935
stit	-8936
▁들었다	-8937
▁애플리케이션	-8938
▁station	-8939
▁모집	-8940
▁타원	-8941
▁현대의	-8942
▁히가시	-8943
▁파키스탄	-8944
▁:#	-8945
▁빌헬	-8946
▁사직	-8947
▁점은	-8948
▁초래	-8949
스코틀랜드	-8950
실장	-8951
코가	-8952
▁무료	-8953
▁김영삼	-8954
▁형성된	-8955
▁예루살렘	-8956
▁이루어진다	-8957
강을	-8958
순환	-8959
▁동굴	-8960
▁비로	-8961
▁사실은	-8962
▁민법	-8963
▁정부를	-8964
▁흐르는	-8965
aa	-8966
버설	-8967
보의	-8968
생산	-8969
카르	-8970
▁마에	-8971
한국의	-8972
▁고양이	-8973
▁별도로	-8974
▁도시이다	-8975
▁출연하였다	-8976
온다	-8977
▁재즈	-8978
등에	-8979
청을	-8980
▁화폐	-8981
▁자료를	-8982
성한	-8983
▁빛을	-8984
▁충주	-8985
▁후궁	-8986
원숭이	-8987
ange	-8988
▁발생한다	-8989
▁유발	-8990
▁충격	-8991
▁미스터	-8992
▁풍부한	-8993
▁back	-8994
▁굽	-8995
공파	-8996
란의	-8997
▁모니	-8998
avid	-8999
-000-0000-0	-9000
▁하다가	-9001
▁남아메리카	-9002
▁목사	-9003
▁대신에	-9004
▁시절에	-9005
▁않았으며	-9006
교사	-9007
▁신부	-9008
▁총재	-9009
졌는데	-9010
▁돌아오	-9011
▁사이를	-9012
가루	-9013
석에	-9014
▁출가	-9015
▁효과가	-9016
▁계층	-9017
▁페이스	-9018
▁세계적인	-9019
▁구상	-9020
▁살펴	-9021
▁찾는	-9022
▁동맹을	-9023
▁발전에	-9024
가스	-9025
황제	-9026
▁이경	-9027
▁전망	-9028
▁ever	-9029
토가	-9030
▁불명	-9031
▁정벌	-9032
▁물리학자	-9033
편을	-9034
▁두드	-9035
코드	-9036
해주	-9037
▁이인	-9038
▁입었다	-9039
▁결승전에서	-9040
▁험	-9041
회로	-9042
▁달의	-9043
▁무용	-9044
▁벨라	-9045
▁사위	-9046
▁여수	-9047
▁주거	-9048
▁요구하는	-9049
▁실종	-9050
▁앨런	-9051
▁자바	-9052
주간	-9053
형태	-9054
▁지점	-9055
▁퍼져	-9056
▁벌였다	-9057
차량	-9058
▁귀환	-9059
▁모르	-9060
▁시대에는	-9061
천리	-9062
''(	-9063
▁예언	-9064
▁유우	-9065
▁버리고	-9066
▁인생	-9067
화에서	-9068
▁꾀	-9069
화하는	-9070
▁무슬림	-9071
츠는	-9072
led	-9073
▁유격	-9074
▁수비수	-9075
▁왕위	-9076
▁설립한	-9077
▁스파이	-9078
역과	-9079
▁ms	-9080
무기	-9081
실록	-9082
▁기지	-9083
과로	-9084
▁애국	-9085
▁이케	-9086
▁도호쿠	-9087
▁아마추어	-9088
▁포함되었다	-9089
평군	-9090
권으로	-9091
▁der	-9092
인치	-9093
▁경고	-9094
▁오염	-9095
▁이나	-9096
▁일도	-9097
▁사람에게	-9098
번을	-9099
▁깊이	-9100
▁소닉	-9101
▁화면	-9102
▁오늘날의	-9103
▁임신	-9104
브리지	-9105
하였을	-9106
▁세워진	-9107
카는	-9108
▁부천	-9109
▁손해	-9110
▁참가하였다	-9111
▁베어	-9112
관광부	-9113
령은	-9114
인들	-9115
▁공학	-9116
▁광역	-9117
▁홈페이지	-9118
(0000),	-9119
▁윙	-9120
▁기생	-9121
림을	-9122
범죄	-9123
▁조선민주주의인민공화국의	-9124
▁모음	-9125
▁미네	-9126
▁북미	-9127
▁부통령	-9128
por	-9129
▁그럼	-9130
▁채무	-9131
된다는	-9132
▁원자로	-9133
▁딜	-9134
그로	-9135
일반	-9136
▁대칭	-9137
▁야기	-9138
티의	-9139
ris	-9140
▁게시	-9141
▁대답	-9142
▁out	-9143
▁훔	-9144
모어	-9145
색은	-9146
▁심판	-9147
▁오노	-9148
▁자문	-9149
▁타이틀을	-9150
ler	-9151
▁지방자치	-9152
▁차지하는	-9153
▁제자	-9154
▁인간이	-9155
▁아니었다	-9156
tc	-9157
▁고베	-9158
▁이마	-9159
▁걱	-9160
▁아빠	-9161
▁활동에	-9162
과도	-9163
블로	-9164
▁게재	-9165
▁실용	-9166
▁중력	-9167
idge	-9168
▁베네치아	-9169
관에서	-9170
수엘	-9171
위대	-9172
add	-9173
▁기요	-9174
▁법인	-9175
▁아울러	-9176
▁spec	-9177
▁입증	-9178
▁bus	-9179
▁열었다	-9180
▁종교적	-9181
아카데미	-9182
벌레	-9183
▁했다고	-9184
▁*0000.	-9185
▁흩	-9186
번지	-9187
친일	-9188
▁영등포	-9189
몬드	-9190
▁지대	-9191
▁발생하였다	-9192
▁이리	-9193
▁입사	-9194
▁인도의	-9195
▁적절한	-9196
▁자유롭게	-9197
▁토너먼트	-9198
▁고려대학교	-9199
러는	-9200
▁기하	-9201
▁위키	-9202
▁된다는	-9203
아르헨티	-9204
▁유형문화재	-9205
액을	-9206
▁국장	-9207
▁부처	-9208
▁역전	-9209
▁수록자	-9210
▁연방의	-9211
운수	-9212
▁공전	-9213
▁서서히	-9214
▁위기에	-9215
▁프로그램의	-9216
형과	-9217
▁장난	-9218
▁주장이	-9219
▁과학기술	-9220
cent	-9221
▁주변에	-9222
▁프랑스는	-9223
▁mat	-9224
여자대학교	-9225
▁네이션스컵	-9226
▁뿔	-9227
▁융합	-9228
이라도	-9229
▁컨트롤	-9230
가인	-9231
카라	-9232
▁tw	-9233
▁학부	-9234
▁조부	-9235
ский	-9236
▁불만을	-9237
lap	-9238
함으로	-9239
----	-9240
work	-9241
▁jtbc	-9242
▁일본에서는	-9243
내기	-9244
▁책은	-9245
▁살았다	-9246
▁쏟	-9247
▁전진	-9248
▁정이	-9249
▁측은	-9250
▁국경을	-9251
편에	-9252
어졌다	-9253
▁일본이	-9254
정동	-9255
희의	-9256
▁공용	-9257
▁모노	-9258
▁주문	-9259
▁착륙	-9260
▁오디오	-9261
론과	-9262
즈니스	-9263
타나베	-9264
▁활동이	-9265
▁사용자가	-9266
에너	-9267
▁경비	-9268
▁안의	-9269
▁말하며	-9270
▁학교를	-9271
▁이어졌다	-9272
▁당한	-9273
▁밝히	-9274
▁스톤	-9275
▁서쪽으로는	-9276
졌을	-9277
▁스타일	-9278
▁옮겼다	-9279
▁고성	-9280
▁off	-9281
▁사이가	-9282
니에	-9283
▁행렬	-9284
▁깔	-9285
▁개찰	-9286
▁득표	-9287
▁복사	-9288
▁아들을	-9289
결을	-9290
세요	-9291
▁의지	-9292
사령부	-9293
주의에	-9294
▁자리에서	-9295
▁다이아	-9296
▁지방에	-9297
▁항공모	-9298
▁공식적인	-9299
토는	-9300
무역	-9301
청이	-9302
치며	-9303
▁지내고	-9304
▁루트비히	-9305
▁말한	-9306
▁법학	-9307
▁천문학자	-9308
규칙	-9309
아와	-9310
하러	-9311
▁밀접	-9312
▁전성	-9313
▁공간을	-9314
▁타이틀곡	-9315
▁엘리자베스	-9316
도우	-9317
산과	-9318
후지	-9319
▁김병	-9320
▁배제	-9321
▁트라	-9322
중에서	-9323
▁전체의	-9324
▁크기의	-9325
▁베타	-9326
▁언더	-9327
▁노선이	-9328
서비스	-9329
▁문화를	-9330
기준	-9331
▁쇼트	-9332
▁진영	-9333
▁지원한다	-9334
▁가톨릭교회	-9335
고도	-9336
▁alb	-9337
▁건물은	-9338
▁선생님	-9339
▁한국방송	-9340
기독교	-9341
▁특성을	-9342
기자	-9343
▁관람	-9344
▁왕족	-9345
▁지목	-9346
▁캐스팅	-9347
▁생각하고	-9348
▁동쪽으로는	-9349
▁닿	-9350
시피	-9351
▁대승	-9352
▁보살	-9353
▁중복	-9354
나라를	-9355
▁아우구	-9356
▁쪽으로	-9357
사우루스	-9358
세종	-9359
▁계획은	-9360
▁그동안	-9361
▁파이어	-9362
▁칙	-9363
her	-9364
▁기호	-9365
▁다녔	-9366
▁평소	-9367
▁디비시	-9368
▁성균관	-9369
▁참가한	-9370
▁노리	-9371
▁막을	-9372
▁몰락	-9373
▁통칭	-9374
▁크리스토	-9375
pm	-9376
▁흰색	-9377
▁교수로	-9378
자나	-9379
▁관련하여	-9380
▁부흥	-9381
▁착수	-9382
▁창당	-9383
▁최상	-9384
▁희극	-9385
▁엔진을	-9386
▁지었다	-9387
▁유지하고	-9388
물질	-9389
▁맞게	-9390
▁올린	-9391
▁목적을	-9392
▁미국이	-9393
▁허리케	-9394
▁동아시아	-9395
관찰	-9396
▁ye	-9397
▁자손	-9398
하겠다고	-9399
▁마드리드	-9400
▁장편	-9401
푸르트	-9402
▁결혼을	-9403
고한	-9404
▁대로	-9405
▁성벽	-9406
▁기반을	-9407
▁철도역	-9408
투아니아	-9409
▁이적하였다	-9410
벤처	-9411
▁마카	-9412
▁소득	-9413
.00)	-9414
▁개발을	-9415
변을	-9416
▁입대	-9417
내에서	-9418
▁전체적으로	-9419
▁폼	-9420
▁건의	-9421
▁끝났다	-9422
▁구동	-9423
▁비스	-9424
▁산화	-9425
▁유럽에서	-9426
▁흙	-9427
마일	-9428
미스	-9429
▁?)	-9430
▁교차	-9431
▁죽을	-9432
어머니	-9433
▁바꾸었다	-9434
▁하더라도	-9435
▁교섭	-9436
▁달아	-9437
▁진흥	-9438
나라는	-9439
▁bro	-9440
▁메트로	-9441
▁바이올린	-9442
▁닌텐	-9443
디자인	-9444
바이트	-9445
▁×	-9446
▁얘	-9447
강원	-9448
소스	-9449
투자	-9450
▁기체	-9451
▁적대	-9452
공연	-9453
▁이외에	-9454
▁그리스도	-9455
▁발생했다	-9456
▁결과적으로	-9457
아를	-9458
▁du	-9459
▁나선	-9460
▁본격적인	-9461
▁version	-9462
▁크기는	-9463
▁불리기도	-9464
가수	-9465
률이	-9466
▁남쪽으로는	-9467
길이	-9468
평화	-9469
▁제공하고	-9470
?)	-9471
▁분산	-9472
-00)	-9473
▁간단한	-9474
사장	-9475
▁못할	-9476
노래	-9477
류에	-9478
pop	-9479
▁찾기	-9480
너는	-9481
디지	-9482
받지	-9483
조와	-9484
▁군수	-9485
▁msl	-9486
▁과학적	-9487
에의	-9488
▁마스	-9489
▁조직의	-9490
▁valign	-9491
xt	-9492
마자	-9493
▁가도	-9494
▁조명	-9495
▁않도록	-9496
▁참가했다	-9497
널드	-9498
렸던	-9499
리온	-9500
▁폐기	-9501
▁낳았다	-9502
▁레이저	-9503
▁우리의	-9504
있고	-9505
천면	-9506
)/	-9507
몰년	-9508
▁클래스	-9509
그레	-9510
▁신입	-9511
▁압박	-9512
▁얼마나	-9513
oo	-9514
」(	-9515
카를	-9516
▁구마	-9517
▁미치는	-9518
책임	-9519
▁본토	-9520
▁중장	-9521
하라고	-9522
▁먹는다	-9523
▁떼	-9524
기타	-9525
소한	-9526
▁옆에	-9527
▁제후	-9528
▁커피	-9529
러스트	-9530
▁다큐멘	-9531
▁사용해	-9532
▁조약을	-9533
▁일본으로	-9534
oll	-9535
▁칠레	-9536
중에는	-9537
ator	-9538
▁도시는	-9539
▁몬스터	-9540
유니	-9541
▁잭슨	-9542
▁진짜	-9543
▁친척	-9544
▁우연히	-9545
0000.	-9546
▁바이러스	-9547
▁프로덕션	-9548
석과	-9549
▁양식	-9550
웨이트	-9551
▁대외	-9552
▁상영	-9553
▁테레	-9554
년생	-9555
란트	-9556
바흐	-9557
터와	-9558
▁복지	-9559
▁서재	-9560
▁동지	-9561
▁미시	-9562
▁전향	-9563
▁차이를	-9564
측의	-9565
▁패턴	-9566
웨이의	-9567
▁†	-9568
파에	-9569
▁가질	-9570
▁안산	-9571
▁담당하는	-9572
▁근접	-9573
▁버튼	-9574
▁온도	-9575
스테르	-9576
▁또다시	-9577
▁월화드라마	-9578
라기	-9579
▁강경	-9580
▁분야의	-9581
▁잘못된	-9582
▁가능성을	-9583
▁목격	-9584
▁수단	-9585
문으로	-9586
atus	-9587
▁가능하게	-9588
▁시와	-9589
▁인물이다	-9590
▁랑	-9591
였기	-9592
▁에미	-9593
류와	-9594
▁동래	-9595
▁서방	-9596
▁원수	-9597
▁이곳에	-9598
▁하버드	-9599
▁사자	-9600
▁자식	-9601
선수권	-9602
▁제도의	-9603
tt	-9604
파크	-9605
▁서남	-9606
▁찾을	-9607
▁춘천	-9608
▁내부의	-9609
▁스프링	-9610
▁생각했다	-9611
▁중국에서	-9612
▁캐나다의	-9613
▁여우주연상	-9614
▁내리	-9615
▁분기점	-9616
▁rock	-9617
▁아르메니아	-9618
▁record	-9619
트콤	-9620
히메	-9621
▁오리콘	-9622
교로	-9623
타리	-9624
▁보충	-9625
▁성은	-9626
▁라틴어	-9627
▁훈련을	-9628
▁연세대학교	-9629
▁폐지되었다	-9630
▁무력	-9631
▁수료	-9632
▁안티	-9633
▁예방	-9634
▁최신	-9635
▁막대한	-9636
▁이라는	-9637
▁최근에	-9638
▁부른	-9639
▁체제를	-9640
았을	-9641
▁전선	-9642
▁작품이	-9643
▁지금도	-9644
복합	-9645
▁발효	-9646
▁유신	-9647
▁의뢰	-9648
학과를	-9649
dp	-9650
바람	-9651
arl	-9652
▁po	-9653
▁섬을	-9654
▁할당	-9655
john	-9656
▁규모가	-9657
▁뒤에는	-9658
돌이	-9659
▁김창	-9660
▁꼬리	-9661
▁결과가	-9662
▁대표이사	-9663
측면	-9664
▁속도로	-9665
디에	-9666
▁강수	-9667
▁디렉	-9668
▁물건	-9669
▁바둑	-9670
▁약칭	-9671
▁근거로	-9672
▁북쪽으로는	-9673
변경	-9674
▁받기도	-9675
▁뤼	-9676
대군	-9677
키스	-9678
▁선형	-9679
▁세상	-9680
▁편지를	-9681
mus	-9682
▁견해	-9683
▁피난	-9684
▁전투가	-9685
▁가공	-9686
▁오가	-9687
사령관	-9688
결정	-9689
통상	-9690
▁바그	-9691
▁트위	-9692
▁어두운	-9693
브라질의	-9694
번대	-9695
▁관광객	-9696
▁디즈니	-9697
▁아이를	-9698
▁지정되어	-9699
▁고립	-9700
▁원형	-9701
당으로	-9702
▁계획이	-9703
철의	-9704
팀은	-9705
▁곳곳	-9706
▁꿈을	-9707
▁점유	-9708
▁출연한	-9709
▁갓	-9710
▁펴	-9711
교가	-9712
반을	-9713
urn	-9714
▁아파	-9715
▁왕립	-9716
▁모양을	-9717
차별	-9718
▁대만	-9719
▁왕복	-9720
▁컬러	-9721
▁않는다는	-9722
보가	-9723
이하	-9724
▁위안	-9725
▁아니면	-9726
▁용어는	-9727
▁히로시	-9728
프리미어	-9729
▁값을	-9730
▁잃은	-9731
국제공항	-9732
ondon	-9733
작을	-9734
▁교실	-9735
▁옹호	-9736
▁지혜	-9737
▁cam	-9738
우조연상	-9739
명인	-9740
아스	-9741
▁bu	-9742
▁냈다	-9743
▁종전	-9744
▁구간을	-9745
▁원래의	-9746
▁특수한	-9747
▁엉	-9748
렉스	-9749
▁개화	-9750
▁별의	-9751
▁원주	-9752
▁사랑의	-9753
▁도움으로	-9754
▁광주광역시	-9755
재의	-9756
시켰고	-9757
ustr	-9758
▁mem	-9759
본은	-9760
▁메디	-9761
▁미션	-9762
ions	-9763
리브	-9764
파일	-9765
▁거기에	-9766
▁시대를	-9767
▁화제가	-9768
ograp	-9769
때로	-9770
란을	-9771
▁선을	-9772
▁에우	-9773
▁해운	-9774
▁해임	-9775
▁gre	-9776
▁아시안컵	-9777
▁하천	-9778
▁book	-9779
▁한국에서	-9780
바타	-9781
주곡	-9782
▁밖의	-9783
▁숙종	-9784
▁정찰	-9785
펙트럼	-9786
iver	-9787
▁충분한	-9788
▁쟁	-9789
ida	-9790
▁오타	-9791
▁글로브	-9792
▁기술이	-9793
▁아니며	-9794
▁상태이다	-9795
병이	-9796
▁선배	-9797
▁원내	-9798
▁출전하여	-9799
간을	-9800
▁내륙	-9801
▁언니	-9802
▁클라우	-9803
▁직접적인	-9804
▁마키	-9805
견을	-9806
요코	-9807
현이	-9808
▁남긴	-9809
▁노비	-9810
▁브래	-9811
▁발매한	-9812
▁자격을	-9813
라델피아	-9814
▁고백	-9815
▁탓에	-9816
▁eng	-9817
▁하나를	-9818
▁(0000.00.00	-9819
▁계열의	-9820
왔고	-9821
▁사기	-9822
▁시에서	-9823
▁되었지만	-9824
팩트	-9825
▁창업	-9826
▁청와	-9827
▁크림	-9828
▁퇴각	-9829
▁경계를	-9830
▁다음의	-9831
▁마케팅	-9832
▁휩	-9833
고시	-9834
고종	-9835
마츠	-9836
eng	-9837
▁멤버로	-9838
▁사로잡	-9839
▁밀양	-9840
▁ebs	-9841
▁속도를	-9842
▁찾아가	-9843
▁있어서는	-9844
용이	-9845
▁sa	-9846
▁무늬	-9847
▁일에	-9848
▁못했고	-9849
▁얇	-9850
▁저택	-9851
▁특유의	-9852
슈타인	-9853
▁토머스	-9854
▁보상	-9855
▁선제	-9856
프로그램	-9857
금이	-9858
▁대폭	-9859
▁top	-9860
▁빌헬름	-9861
▁눈이	-9862
▁재무	-9863
▁전두환	-9864
▁기록하고	-9865
▁오케스트라	-9866
▁햄	-9867
민이	-9868
▁들은	-9869
▁바뀐	-9870
▁소생	-9871
▁제휴	-9872
▁하얀	-9873
▁어렵다	-9874
▁훌륭한	-9875
alk	-9876
ham	-9877
▁육성	-9878
▁지표	-9879
으로의	-9880
오르	-9881
▁~)	-9882
▁연설	-9883
된다고	-9884
▁시작해	-9885
▁몸무	-9886
▁입문	-9887
▁보내는	-9888
▁high	-9889
증이	-9890
rol	-9891
▁대조	-9892
▁******	-9893
미에	-9894
파리	-9895
ular	-9896
▁시범학교	-9897
▁성공적으로	-9898
▁남극	-9899
▁채로	-9900
▁수록된	-9901
▁사단법인이다	-9902
디는	-9903
즈에	-9904
회와	-9905
▁머무	-9906
년으로	-9907
▁kbo	-9908
,0000	-9909
▁졸업하였다	-9910
분데스	-9911
▁성질을	-9912
yr	-9913
▁백인	-9914
oss	-9915
▁김규	-9916
▁나나	-9917
▁0-000-00000-0	-9918
분은	-9919
일체	-9920
자본	-9921
▁맡게	-9922
▁메르	-9923
▁전투는	-9924
▁캠퍼스	-9925
(0,000	-9926
▁金	-9927
▁규정하고	-9928
▁바르셀로나	-9929
청은	-9930
▁갤럭	-9931
▁마루	-9932
▁모델로	-9933
수수	-9934
▁범위	-9935
▁주소	-9936
노스케	-9937
스웨덴	-9938
▁일환으로	-9939
mhz	-9940
▁아래의	-9941
▁national	-9942
▁레닌	-9943
▁서해	-9944
년만에	-9945
당에서	-9946
▁곡으로	-9947
교실	-9948
off	-9949
▁곳이	-9950
▁삼고	-9951
직에서	-9952
진에	-9953
▁산타	-9954
▁아서	-9955
▁외의	-9956
▁창시	-9957
▁따르는	-9958
▁민주화	-9959
▁정도가	-9960
▁최종적으로	-9961
르노	-9962
미쓰	-9963
▁고도	-9964
▁교도	-9965
▁다가	-9966
▁박지	-9967
▁구체적인	-9968
오를	-9969
▁점프	-9970
경기를	-9971
▁어울	-9972
금으로	-9973
레이터	-9974
▁게임이다	-9975
li	-9976
▁군을	-9977
▁경험을	-9978
▁행성의	-9979
천동	-9980
▁북극	-9981
▁브로	-9982
▁인문	-9983
▁획득하였다	-9984
▁데이터베이스	-9985
▁멋	-9986
실과	-9987
▁영남	-9988
▁총장	-9989
▁측근	-9990
▁과거의	-9991
▁덧붙여	-9992
위원회는	-9993
▁대의	-9994
▁병력	-9995
▁탄소	-9996
▁트럭	-9997
▁만나게	-9998
▁방식의	-9999
▁that	-10000
▁비슷하다	-10001
▁공무	-10002
▁기아	-10003
삼성	-10004
▁실험을	-10005
▁하거나	-10006
▁해군의	-10007
▁움직이는	-10008
▁꽤	-10009
▁띤	-10010
심한	-10011
▁금성	-10012
▁땅에	-10013
▁사쿠	-10014
자였던	-10015
▁전투에	-10016
구장	-10017
려서	-10018
▁매니저	-10019
▁이곳에서	-10020
▁한국에서는	-10021
악기	-10022
톨레	-10023
ole	-10024
▁ip	-10025
▁뒤인	-10026
▁진동	-10027
▁유니폼	-10028
▁생각된다	-10029
▁hy	-10030
▁명문	-10031
▁역도	-10032
실베이	-10033
▁목적은	-10034
▁중심지	-10035
▁소총	-10036
ures	-10037
▁강점기	-10038
▁동아일보	-10039
▁객관	-10040
▁관장	-10041
▁사사	-10042
▁일렉	-10043
▁합창	-10044
och	-10045
▁나쁜	-10046
격이	-10047
▁영동	-10048
루션	-10049
류로	-10050
▁동구	-10051
▁운반	-10052
▁룩	-10053
▁탕	-10054
브를	-10055
▁동독	-10056
▁지배를	-10057
▁스웨덴의	-10058
테나	-10059
▁비오	-10060
▁합리	-10061
icro	-10062
▁화려한	-10063
▁토착	-10064
▁대주교	-10065
보안	-10066
▁숨겨	-10067
▁정류	-10068
▁결과는	-10069
▁마르크스	-10070
mc	-10071
▁샬	-10072
기갑	-10073
▁따뜻	-10074
▁진술	-10075
▁최연	-10076
▁하마	-10077
▁근처의	-10078
ов	-10079
세르	-10080
야는	-10081
예프	-10082
▁면허	-10083
▁수천	-10084
▁신동	-10085
▁예능	-10086
wa	-10087
▁몸에	-10088
▁스쿨	-10089
▁스펙트럼	-10090
▁졸업했다	-10091
제한	-10092
▁야생	-10093
▁act	-10094
▁군대는	-10095
▁토대로	-10096
▁하와이	-10097
osa	-10098
▁조항	-10099
▁중소	-10100
▁늘어나	-10101
▁최후의	-10102
▁에스파냐	-10103
곡이	-10104
▁보인	-10105
▁에디	-10106
▁제갈	-10107
▁int	-10108
▁들어오	-10109
▁차례로	-10110
▁현상이	-10111
▁막내	-10112
▁손상	-10113
▁채권	-10114
▁남동생	-10115
▁속도가	-10116
전문학교	-10117
sd	-10118
제프	-10119
▁시집	-10120
eral	-10121
▁은메달리스트	-10122
ny	-10123
유미	-10124
하니	-10125
▁바꿔	-10126
▁비가	-10127
▁얻기	-10128
▁국가를	-10129
▁프랑스어	-10130
프리미어리그의	-10131
▁래퍼	-10132
▁모순	-10133
▁cal	-10134
음에	-10135
▁강이	-10136
▁창의	-10137
▁pre	-10138
롤라이나	-10139
kt	-10140
▁톤	-10141
▁계절	-10142
▁부품	-10143
▁비극	-10144
▁시즈	-10145
▁경제학	-10146
▁일찍이	-10147
들인	-10148
▁시립	-10149
▁이즈	-10150
▁면에서	-10151
▁언어를	-10152
▁열차는	-10153
있던	-10154
▁형태가	-10155
▁연속으로	-10156
▁자신에게	-10157
asa	-10158
▁다녀	-10159
▁엔지	-10160
▁원로	-10161
▁풀려	-10162
▁후일	-10163
▁선거에	-10164
▁운동의	-10165
▁알바니아	-10166
▁콜롬비아	-10167
그는	-10168
기기	-10169
▁관통	-10170
▁연인	-10171
▁시호는	-10172
▁정치가	-10173
▁죽이고	-10174
▁브라질의	-10175
동기	-10176
▁제약	-10177
▁왕위를	-10178
▁heart	-10179
하이오	-10180
▁오키나와	-10181
▁커뮤니티	-10182
▁대전광역시	-10183
▁마리오	-10184
▁black	-10185
000-000	-10186
▁헐	-10187
▁트레이드	-10188
수아	-10189
▁부과	-10190
▁신규	-10191
▁지폐	-10192
▁만화가	-10193
▁전에는	-10194
▁추기경	-10195
▁good	-10196
▁그럼에도	-10197
▁굿	-10198
▁아폴	-10199
▁증축	-10200
▁부르며	-10201
▁생각하는	-10202
야가	-10203
직한	-10204
▁골프	-10205
출판사	-10206
▁주제로	-10207
온이	-10208
일드	-10209
ser	-10210
▁떠난	-10211
한국어	-10212
》(0000),	-10213
등록	-10214
범한	-10215
신과	-10216
▁복구	-10217
▁폭풍	-10218
▁언어로	-10219
▁중심의	-10220
률을	-10221
▁쇼군	-10222
▁비공식	-10223
▁활성화	-10224
▁회색	-10225
▁페르디	-10226
▁플라스	-10227
▁국기	-10228
▁선물	-10229
▁장녀	-10230
프레스	-10231
▁'00	-10232
▁획득했다	-10233
hi	-10234
▁포병	-10235
▁등이다	-10236
▁사용을	-10237
▁포함해	-10238
▁리메이크	-10239
▁맵	-10240
▁짙	-10241
▁송시	-10242
▁저널	-10243
▁풀어	-10244
▁확인할	-10245
어트	-10246
ect	-10247
▁노트	-10248
▁프로그램이다	-10249
투를	-10250
이었다고	-10251
▁울산광역시	-10252
▁정치인이다	-10253
▁大	-10254
▁달린	-10255
▁배정	-10256
▁협상	-10257
마크의	-10258
isbn	-10259
▁그림을	-10260
만명	-10261
용은	-10262
주일	-10263
지리	-10264
▁요소를	-10265
▁슐	-10266
수면	-10267
▁af	-10268
▁광산	-10269
▁유물	-10270
▁평등	-10271
▁공개되었다	-10272
▁프로그램이	-10273
▁뿌리	-10274
▁숫자	-10275
▁이르고	-10276
위원회의	-10277
지대	-10278
▁고무	-10279
▁부착	-10280
▁요크	-10281
▁sim	-10282
▁게이트	-10283
▁방송인	-10284
▁운행하는	-10285
열의	-10286
오른	-10287
▁삶의	-10288
▁때때로	-10289
▁한성부	-10290
▁담당하고	-10291
▁현존하는	-10292
고래	-10293
켰다	-10294
▁리얼	-10295
▁용이	-10296
▁케네	-10297
▁헤비	-10298
line	-10299
▁운동이	-10300
lapse	-10301
▁상상	-10302
▁시흥	-10303
vent	-10304
▁모친	-10305
▁신하	-10306
▁아는	-10307
▁캠프	-10308
▁생기는	-10309
▁진정한	-10310
▁활동한	-10311
▁포지션은	-10312
▁배를	-10313
▁된다고	-10314
▁브라이언	-10315
▁조건으로	-10316
')	-10317
우와	-10318
▁하노	-10319
▁군대가	-10320
▁끝나고	-10321
▁왕으로	-10322
▁잠수함	-10323
▁중이던	-10324
gm	-10325
學校	-10326
사리	-10327
어에	-10328
▁미츠	-10329
받는다	-10330
orm	-10331
▁갑작	-10332
▁리스	-10333
▁이오	-10334
해방	-10335
can	-10336
▁어른	-10337
▁연구가	-10338
▁등장인물	-10339
▁면적	-10340
▁성경	-10341
외선	-10342
itz	-10343
▁발견한	-10344
!"	-10345
ko	-10346
실험	-10347
▁마찰	-10348
▁십자가	-10349
▁네덜란드의	-10350
란이	-10351
포의	-10352
▁마친	-10353
▁지질	-10354
어진다	-10355
라미	-10356
스런	-10357
화물	-10358
▁세로	-10359
▁소실	-10360
▁충남	-10361
성에서	-10362
▁결정을	-10363
▁민주주의	-10364
▁productions	-10365
▁시드니	-10366
;"	-10367
▁누군	-10368
▁화재	-10369
▁건너가	-10370
▁관현악	-10371
경남	-10372
율은	-10373
▁맥스	-10374
▁심의	-10375
▁클린	-10376
▁술탄	-10377
▁시스템은	-10378
▁화살	-10379
불교의	-10380
▁시스템의	-10381
노는	-10382
버러	-10383
▁멈추	-10384
▁항일	-10385
ille	-10386
ival	-10387
▁무거운	-10388
리자	-10389
스러	-10390
▁쉬운	-10391
편으로	-10392
▁스미스	-10393
빌딩	-10394
티즌	-10395
ety	-10396
▁존중	-10397
철도의	-10398
하였기	-10399
▁중앙에	-10400
쿠로	-10401
▁끝이	-10402
▁토론토	-10403
인들에게	-10404
▁보여주고	-10405
▁하였는데	-10406
건은	-10407
어요	-10408
연방	-10409
▁옷을	-10410
라이어	-10411
정부의	-10412
▁금메달	-10413
▁파운드	-10414
▁사용하며	-10415
▁고민	-10416
▁신한은행	-10417
▁참가하여	-10418
▁제외하고는	-10419
네가	-10420
지나	-10421
▁듯한	-10422
▁취약	-10423
▁롬	-10424
각형	-10425
▁fo	-10426
▁전압	-10427
▁줄어	-10428
군에서	-10429
ocal	-10430
▁하드웨어	-10431
▁000000	-10432
▁킨	-10433
▁악화	-10434
▁에버	-10435
치면서	-10436
angel	-10437
!》	-10438
▁가벼	-10439
지역의	-10440
▁ber	-10441
▁없으나	-10442
프스	-10443
▁총괄	-10444
▁사고가	-10445
디의	-10446
▁태그	-10447
▁통화	-10448
이치로	-10449
▁되었을	-10450
▁조직을	-10451
▁끊임	-10452
-00,	-10453
▁ibm	-10454
▁게임은	-10455
▁프레임	-10456
순위	-10457
장치	-10458
▁걸어	-10459
▁한동안	-10460
▁프로그램은	-10461
권도	-10462
▁낮아	-10463
▁먹고	-10464
▁편리	-10465
시에는	-10466
▁신라의	-10467
▁찌	-10468
▁명성	-10469
▁반지	-10470
▁써서	-10471
연속극	-10472
)0	-10473
투쟁	-10474
▁김명	-10475
▁김승	-10476
:00)	-10477
▁리버풀	-10478
▁문화적	-10479
▁와이번	-10480
▁죠	-10481
집행	-10482
▁김준	-10483
▁날아	-10484
▁부패	-10485
▁증권	-10486
숙한	-10487
▁군은	-10488
▁cap	-10489
▁레이더	-10490
▁명칭으로	-10491
▁시내버스	-10492
받을	-10493
연이	-10494
ext	-10495
▁{|	-10496
▁흐름	-10497
나라에	-10498
▁선교사	-10499
▁정교회	-10500
▁image	-10501
신라	-10502
▁업체	-10503
▁조상	-10504
▁주한	-10505
▁ant	-10506
▁의견이	-10507
▁이어져	-10508
▁사이에는	-10509
너의	-10510
전도	-10511
▁소니	-10512
▁영문	-10513
▁링컨	-10514
ield	-10515
하였다가	-10516
▁국가에서	-10517
bu	-10518
▁몰래	-10519
▁노력을	-10520
▁사상을	-10521
▁생각해	-10522
▁들어가는	-10523
▁사용하기	-10524
희는	-10525
▁일관	-10526
아과	-10527
토모	-10528
ora	-10529
▁mp	-10530
▁불꽃	-10531
▁정한	-10532
▁주석	-10533
▁팽창	-10534
▁그룹의	-10535
▁전쟁으로	-10536
주기	-10537
har	-10538
▁당의	-10539
love	-10540
▁방식은	-10541
▁전부터	-10542
▁주장하고	-10543
작의	-10544
▁사원	-10545
▁후반에	-10546
▁제목으로	-10547
▁회의에서	-10548
여자중학교	-10549
허가	-10550
▁뜻의	-10551
▁포수	-10552
▁방송된	-10553
▁세이부	-10554
진과	-10555
▁기숙	-10556
▁얻는	-10557
▁초창	-10558
▁하시	-10559
▁역사는	-10560
▁나가사키	-10561
met	-10562
▁무승	-10563
▁존경	-10564
▁캠퍼	-10565
▁호칭	-10566
▁두드러	-10567
▁오렌지	-10568
▁제국이	-10569
▁japan	-10570
fa	-10571
경상	-10572
다지	-10573
시게	-10574
잡이	-10575
▁유출	-10576
▁하트	-10577
▁00°	-10578
▁둘러싼	-10579
▁정확하게	-10580
마와	-10581
열한	-10582
증권	-10583
▁아즈	-10584
▁좌파	-10585
▁프로토콜	-10586
▁한미	-10587
cess	-10588
년대부터	-10589
ee	-10590
바닥	-10591
res	-10592
▁나츠	-10593
▁전인	-10594
▁대회를	-10595
▁포크	-10596
▁쌍둥이	-10597
▁젖	-10598
▁촉구	-10599
공학과	-10600
▁공동체	-10601
▁영역을	-10602
주년을	-10603
▁사이드	-10604
▁남우주연상	-10605
▁잦	-10606
득점	-10607
▁매카	-10608
▁시외	-10609
▁연루	-10610
▁모르는	-10611
▁컸	-10612
▁꺾고	-10613
▁내보	-10614
▁여행을	-10615
울산	-10616
▁살던	-10617
▁선이	-10618
▁연금	-10619
이어서	-10620
▁때로는	-10621
▁집으로	-10622
번에	-10623
분석	-10624
업에	-10625
플링	-10626
▁위기	-10627
▁주축	-10628
▁향한	-10629
▁그러자	-10630
▁끝까지	-10631
▁정부로부터	-10632
▁군단	-10633
▁캠페	-10634
▁붓	-10635
체제	-10636
▁법을	-10637
▁성모	-10638
▁신비	-10639
▁자발	-10640
▁쫓겨	-10641
유대계	-10642
▁결성된	-10643
▁트라이	-10644
▁남아있다	-10645
▁데뷔했다	-10646
▁드라이버	-10647
실베이니아	-10648
지부	-10649
▁코트	-10650
▁개발된	-10651
제주	-10652
pol	-10653
▁대하	-10654
▁미하	-10655
▁분당	-10656
▁공개된	-10657
▁지나치게	-10658
▁디스플레이	-10659
▁바위	-10660
▁헌액	-10661
▁헤드	-10662
안으로	-10663
▁않았기	-10664
ember	-10665
▁학생들이	-10666
▁수치	-10667
▁이슈	-10668
▁경우를	-10669
한을	-10670
▁mr	-10671
▁남원	-10672
▁몰려	-10673
▁밤에	-10674
교회의	-10675
▁인근에	-10676
▁mhz	-10677
▁성격이	-10678
▁자신도	-10679
mi	-10680
업체	-10681
don	-10682
▁부수	-10683
▁피에	-10684
▁흔들	-10685
▁reg	-10686
▁대회는	-10687
구성	-10688
열이	-10689
▁오라	-10690
▁이반	-10691
▁총선에서	-10692
누엘	-10693
보에	-10694
홍콩	-10695
▁이처럼	-10696
암동	-10697
▁얼음	-10698
▁che	-10699
▁파이널	-10700
hr	-10701
포병	-10702
▁도메	-10703
▁장로	-10704
▁증기	-10705
▁허브	-10706
오사카	-10707
▁기업의	-10708
▁소속이	-10709
▁지역과	-10710
▁횟	-10711
▁반박	-10712
▁식량	-10713
▁우주의	-10714
▁지중해	-10715
▁급진	-10716
▁단종	-10717
▁의사를	-10718
원사	-10719
▁구출	-10720
▁포괄	-10721
▁kia	-10722
▁그렇지	-10723
론적	-10724
▁구제	-10725
▁맞지	-10726
▁mix	-10727
▁다루고	-10728
▁독일은	-10729
▁마음이	-10730
公派	-10731
day	-10732
▁ca	-10733
▁각기	-10734
▁굉장	-10735
▁어둠	-10736
▁트레	-10737
쿠니	-10738
cal	-10739
▁gn	-10740
▁서초	-10741
▁여운	-10742
▁조반	-10743
겼고	-10744
선언	-10745
▁거울	-10746
▁분광	-10747
▁결정했다	-10748
▁시절부터	-10749
▁응원	-10750
▁프랜	-10751
▁호르	-10752
▁칼리지	-10753
▁영화배우	-10754
▁히데요시	-10755
)』	-10756
▁bc	-10757
▁공립	-10758
▁모형	-10759
▁전례	-10760
▁바꾸어	-10761
▁지지하는	-10762
?"	-10763
公主	-10764
▁시키	-10765
▁실수	-10766
게이머	-10767
벨기에	-10768
▁우루과	-10769
민주연합	-10770
▁나카무라	-10771
gb	-10772
공이	-10773
사고	-10774
사시	-10775
▁끌려	-10776
▁대령	-10777
▁쓰인	-10778
▁주가	-10779
사이드	-10780
▁승무원	-10781
하였다는	-10782
미네	-10783
▁관습	-10784
▁포로	-10785
▁이미지를	-10786
노프	-10787
▁모모	-10788
▁훼손	-10789
▁흥행	-10790
베니아	-10791
기관으로	-10792
비서	-10793
티는	-10794
▁리가	-10795
▁만남	-10796
▁사범	-10797
▁지각	-10798
▁어려움을	-10799
▁검증	-10800
▁위임	-10801
▁점이다	-10802
▁티베트	-10803
포르투갈	-10804
do	-10805
전대	-10806
마르크	-10807
▁휠	-10808
났을	-10809
▁간이	-10810
▁손녀	-10811
▁용의	-10812
▁나이가	-10813
▁비난을	-10814
▁일원으로	-10815
▁낼	-10816
▁과장	-10817
▁원더	-10818
▁구성된다	-10819
▁au	-10820
▁사르	-10821
▁스핀	-10822
▁체중	-10823
호선과	-10824
▁sum	-10825
▁조선인	-10826
▁중심이	-10827
▁형식의	-10828
리얼	-10829
화하여	-10830
anth	-10831
▁차트에서	-10832
▁center	-10833
교는	-10834
여행	-10835
족과	-10836
▁시계	-10837
▁작고	-10838
▁합법	-10839
곡으로	-10840
▁테일러	-10841
▁일으키는	-10842
▁전통적으로	-10843
저지	-10844
▁강사	-10845
▁자신과	-10846
▁특징은	-10847
▁국무총리	-10848
▁스트라이	-10849
턴의	-10850
▁명백	-10851
▁취항	-10852
▁부대를	-10853
▁속으로	-10854
▁언론인	-10855
▁재산을	-10856
▁분리되어	-10857
▁group	-10858
▁동메달리스트	-10859
외의	-10860
▁《0	-10861
▁직결	-10862
▁타자	-10863
▁프랑크푸르트	-10864
將軍	-10865
래스	-10866
여래	-10867
▁바가	-10868
▁산다	-10869
▁체조	-10870
▁두번째	-10871
▁우라늄	-10872
▁활발한	-10873
오스트레일리아의	-10874
▁강과	-10875
▁한쪽	-10876
▁이상으로	-10877
동성	-10878
석기	-10879
전국	-10880
▁고가	-10881
▁털이	-10882
클랜드	-10883
▁모두가	-10884
▁블랙홀	-10885
▁시절의	-10886
▁영국은	-10887
▁감정을	-10888
▁전투기	-10889
era	-10890
▁이태	-10891
▁강제로	-10892
▁카이사	-10893
여우	-10894
▁두개	-10895
▁빌리	-10896
▁제독	-10897
테스트	-10898
▁soul	-10899
▁이듬해인	-10900
▁●	-10901
속도	-10902
▁남해	-10903
▁조사를	-10904
▁줄여서	-10905
▁arch	-10906
▁대책	-10907
▁두루	-10908
▁들이	-10909
▁수동	-10910
▁노선은	-10911
▁성공한	-10912
▁park	-10913
▁season	-10914
님을	-10915
▁쌓아	-10916
▁약화	-10917
▁이론은	-10918
▁조금씩	-10919
사지	-10920
슬로	-10921
전시	-10922
섬네일	-10923
▁net	-10924
▁껍	-10925
나타	-10926
▁날짜	-10927
▁느낀	-10928
▁오지	-10929
▁are	-10930
▁동물의	-10931
▁아버지와	-10932
▁오스트리아의	-10933
르지	-10934
에미	-10935
자스	-10936
▁쾌속	-10937
▁다리를	-10938
▁승리로	-10939
/0000	-10940
▁브라우저	-10941
▁옐	-10942
토르	-10943
▁추증	-10944
▁힌두	-10945
▁아니지만	-10946
▁밟	-10947
리라	-10948
약품	-10949
alt	-10950
▁입자	-10951
▁죽이	-10952
▁차가	-10953
▁폐위	-10954
▁부동산	-10955
▁쓰이고	-10956
▁치렀다	-10957
▁사람이다	-10958
제일	-10959
판으로	-10960
strument	-10961
▁매달	-10962
rich	-10963
▁거리가	-10964
▁길이가	-10965
▁펀	-10966
버린	-10967
산성	-10968
▁둘은	-10969
▁카와	-10970
동에서	-10971
이었기	-10972
▁템	-10973
ody	-10974
▁로즈	-10975
▁친선	-10976
▁페루	-10977
▁기록에	-10978
▁종로구	-10979
▁투르크	-10980
▁활동은	-10981
▁둘러싸고	-10982
학사	-10983
▁부를	-10984
▁쫓아	-10985
part	-10986
▁돌아갔다	-10987
▁갇	-10988
공화	-10989
패로	-10990
ula	-10991
▁보니	-10992
▁inc	-10993
▁정책에	-10994
▁공인	-10995
▁죄를	-10996
ales	-10997
ideo	-10998
▁군사적	-10999
▁포인트	-11000
(0000-0000)	-11001
오루	-11002
우며	-11003
▁맞추어	-11004
▁웨일스	-11005
▁충격을	-11006
▁000%	-11007
▁가톨릭교도	-11008
조각	-11009
▁싶은	-11010
환의	-11011
▁내고	-11012
▁내무	-11013
▁시범	-11014
▁의병	-11015
세에게	-11016
▁관점에서	-11017
▁참여하여	-11018
펜하	-11019
▁않음	-11020
▁평행	-11021
▁나갔다	-11022
▁edition	-11023
유는	-11024
정당	-11025
티나	-11026
▁구의	-11027
▁사천	-11028
▁재발	-11029
자문	-11030
코와	-11031
▁리틀	-11032
▁응답	-11033
▁하라	-11034
본이	-11035
▁유저	-11036
▁타쿠	-11037
선거구	-11038
캠퍼스	-11039
sw	-11040
농업	-11041
▁격퇴	-11042
▁추모	-11043
ett	-11044
▁특이한	-11045
금지	-11046
왕과	-11047
▁둥근	-11048
▁알라	-11049
▁협의	-11050
/000	-11051
▁문화체육관광부	-11052
믹스	-11053
터키	-11054
▁내내	-11055
▁누계	-11056
▁몸이	-11057
▁박성	-11058
▁병행	-11059
▁총무	-11060
(00)	-11061
berg	-11062
」,	-11063
로니	-11064
릴러	-11065
태후	-11066
▁김원	-11067
▁시뮬	-11068
▁왕은	-11069
리노이	-11070
종이다	-11071
▁명단에	-11072
▁바오로	-11073
▁사이버	-11074
za	-11075
▁규제	-11076
▁바닷	-11077
▁봉사	-11078
▁부부	-11079
▁야간	-11080
▁국방부	-11081
▁센다이	-11082
ative	-11083
▁시작된다	-11084
직할	-11085
▁감지	-11086
▁초록	-11087
▁모델은	-11088
년대에는	-11089
우지	-11090
mas	-11091
▁고수	-11092
▁받기	-11093
▁피부	-11094
경기도	-11095
▁mov	-11096
▁전자기	-11097
▁시작했으며	-11098
포드	-11099
▁추격	-11100
▁**〈	-11101
▁황제가	-11102
▁텔	-11103
라톱	-11104
아비	-11105
▁미노	-11106
▁불을	-11107
▁중순	-11108
▁생방송	-11109
▁작품에	-11110
▁다크	-11111
▁반해	-11112
▁쇼와	-11113
▁블로그	-11114
로이	-11115
미로	-11116
아트	-11117
차장	-11118
▁부딪	-11119
▁음향	-11120
▁건물을	-11121
▁것으로서	-11122
▁플레이스테이션	-11123
로동	-11124
ada	-11125
해지는	-11126
천을	-11127
▁장의	-11128
▁종결	-11129
▁대서양	-11130
gh	-11131
▁누나	-11132
▁이소	-11133
▁제국은	-11134
▁빠진	-11135
▁회고	-11136
방향으로	-11137
▁연구하는	-11138
▁임시정부	-11139
▁수평	-11140
gram	-11141
▁개념은	-11142
▁리눅스	-11143
▁올림픽에	-11144
▁캘	-11145
大夫	-11146
글라	-11147
릴라	-11148
▁충족	-11149
자리를	-11150
reak	-11151
▁굉장히	-11152
▁city	-11153
▁카트	-11154
▁했다는	-11155
▁와타나베	-11156
▁super	-11157
▁물에	-11158
▁이틀	-11159
당하였다	-11160
▁중에서는	-11161
터에	-11162
▁강동	-11163
▁깨닫	-11164
▁조치를	-11165
erson	-11166
▁그리스어	-11167
▁비즈니스	-11168
▁지역이다	-11169
ji	-11170
▁믿고	-11171
▁시켜	-11172
▁상징하는	-11173
▁여객철도가	-11174
▁bi	-11175
▁소지	-11176
메이지	-11177
▁형식을	-11178
▁민속	-11179
▁박탈	-11180
있으며	-11181
▁분야에	-11182
▁시기의	-11183
▁일어날	-11184
▁세워졌다	-11185
▁크리스마스	-11186
융합	-11187
▁나루	-11188
▁아츠	-11189
▁이바	-11190
▁퍼시픽	-11191
▁공동제공	-11192
▁않았으나	-11193
디아라비아	-11194
가고	-11195
길을	-11196
▁모으	-11197
▁청춘	-11198
▁개혁을	-11199
▁대학에	-11200
▁레슬링	-11201
▁실시된	-11202
▁게오	-11203
▁김윤	-11204
▁난이	-11205
▁대처	-11206
▁바실	-11207
▁독일어	-11208
▁부회장	-11209
▁대신하여	-11210
▁알려지지	-11211
▁역사적으로	-11212
▁마녀	-11213
▁원리	-11214
▁정부와	-11215
▁프랑스와	-11216
▁여론	-11217
날로그	-11218
▁가난한	-11219
▁대학생	-11220
▁무기를	-11221
王后	-11222
야를	-11223
aby	-11224
▁깨달	-11225
▁유아	-11226
▁협박	-11227
▁akb	-11228
▁갤럭시	-11229
▁무대에	-11230
네는	-11231
법률	-11232
▁li	-11233
▁마린	-11234
▁외곽	-11235
▁처녀	-11236
보병사단	-11237
▁000.	-11238
▁실질적인	-11239
▁자동으로	-11240
▁여객철도의	-11241
러가	-11242
ita	-11243
▁왜냐	-11244
▁사이토	-11245
▁잃어버	-11246
▁서울에서	-11247
▁학교법인	-11248
가미	-11249
ball	-11250
▁외교관	-11251
▁°	-11252
ano	-11253
▁오쿠	-11254
▁차기	-11255
▁콩고	-11256
▁ter	-11257
▁전쟁은	-11258
▁판결을	-11259
▁실패했다	-11260
러의	-11261
▁단축	-11262
▁판사	-11263
▁본선에	-11264
▁연구는	-11265
결과	-11266
시나	-11267
▁복선	-11268
▁장려	-11269
▁mil	-11270
▁위험한	-11271
▁태도를	-11272
▁뉘	-11273
▁탤	-11274
비나	-11275
선조	-11276
▁ob	-11277
▁친정	-11278
size	-11279
▁아래로	-11280
▁심사위원	-11281
▁봐	-11282
관련	-11283
전주	-11284
its	-11285
▁부적	-11286
▁영조	-11287
▁제수	-11288
▁존스	-11289
▁지형	-11290
▁경험이	-11291
volution	-11292
vi	-11293
▁목표를	-11294
▁새누리당	-11295
▁하인리히	-11296
주리	-11297
터로	-11298
▁여덟	-11299
▁이규	-11300
▁이긴	-11301
▁토크	-11302
단에서	-11303
래스카	-11304
▁받았으나	-11305
술의	-11306
▁민영	-11307
▁성공적인	-11308
광장	-11309
호텔	-11310
▁김광	-11311
▁법원	-11312
어지는	-11313
▁건물이	-11314
▁브라더스	-11315
▁techn	-11316
올로	-11317
판매	-11318
▁보지	-11319
▁역에	-11320
▁이내	-11321
▁충북	-11322
▁지어진	-11323
▁조선일보	-11324
스틴	-11325
▁사회에	-11326
▁앨범의	-11327
▁phil	-11328
▁노부나가	-11329
디가	-11330
설이	-11331
전차	-11332
▁작센	-11333
산에서	-11334
주에서	-11335
▁남부의	-11336
▁대학을	-11337
▁태양을	-11338
건이	-11339
런던	-11340
블리	-11341
▁불이	-11342
▁취재	-11343
▁출신이다	-11344
▁김유	-11345
▁현저	-11346
▁질량은	-11347
▁베네수엘	-11348
▁스마트폰	-11349
▁lo	-11350
▁생각한다	-11351
▁당선되었다	-11352
jo	-11353
밴드	-11354
peg	-11355
▁우정	-11356
▁장학	-11357
학년도	-11358
▁르네상	-11359
▁king	-11360
▁발매했다	-11361
▁보스니아	-11362
대리	-11363
화하고	-11364
요한	-11365
▁제압	-11366
(0.0	-11367
▁거슬러	-11368
▁시간은	-11369
▁철도가	-11370
▁위치하며	-11371
▁다중	-11372
urus	-11373
▁맏	-11374
르드	-11375
질로	-11376
▁김옥	-11377
▁냉각	-11378
▁안성	-11379
▁제트	-11380
▁open	-11381
▁소유하고	-11382
▁일어나자	-11383
내어	-11384
신인	-11385
형제	-11386
▁무죄	-11387
▁유해	-11388
▁일본을	-11389
▁테이블	-11390
▁한국에	-11391
지점	-11392
▁시그	-11393
cn	-11394
▁쉐	-11395
백을	-11396
애틀	-11397
오늘	-11398
▁공익	-11399
▁박상	-11400
▁스콧	-11401
메다	-11402
아마	-11403
ael	-11404
▁그냥	-11405
▁것에서	-11406
▁만났다	-11407
그림	-11408
전선	-11409
짜리	-11410
피는	-11411
▁사적	-11412
▁조달	-11413
press	-11414
ertain	-11415
부르	-11416
▁일부로	-11417
▁수행하는	-11418
티에	-11419
▁무려	-11420
▁부호	-11421
▁석탄	-11422
▁텍스트	-11423
바스	-11424
▁수색	-11425
▁향년	-11426
▁맡았고	-11427
▁경우에도	-11428
▁변경하였다	-11429
▁프로게이머	-11430
역대	-11431
츠와	-11432
▁갈릴	-11433
▁대관	-11434
▁두어	-11435
▁토니	-11436
아시안	-11437
자리에	-11438
angu	-11439
리조	-11440
bar	-11441
▁극히	-11442
▁신속	-11443
▁얻고	-11444
▁지명을	-11445
적이었다	-11446
attle	-11447
디언	-11448
▁미루	-11449
▁전념	-11450
▁회사가	-11451
▁발견했다	-11452
▁사망하고	-11453
▁인정받아	-11454
▁일러스트	-11455
서기	-11456
푸스	-11457
▁--	-11458
▁상처	-11459
▁실린	-11460
▁힘입	-11461
학위를	-11462
▁되지만	-11463
조선민주주의	-11464
키타	-11465
ala	-11466
▁:〈	-11467
▁광장	-11468
진으로	-11469
하려면	-11470
▁feat	-11471
▁도시철도	-11472
▁태어났으며	-11473
공장	-11474
▁모닝	-11475
▁부의	-11476
▁시칠	-11477
▁억압	-11478
▁협약	-11479
▁데뷔전을	-11480
려면	-11481
집단	-11482
▁길고	-11483
▁모방	-11484
▁반공	-11485
▁짓고	-11486
▁토요	-11487
▁핸드	-11488
▁요괴	-11489
▁중간에	-11490
▁학교에	-11491
의에	-11492
▁강도	-11493
▁회계	-11494
ross	-11495
▁중국어	-11496
설립	-11497
종교	-11498
폭풍	-11499
가에서	-11500
▁넣었다	-11501
▁스티브	-11502
▁한국전쟁	-11503
▁덤	-11504
남자	-11505
스기	-11506
층은	-11507
▁별명을	-11508
▁서울의	-11509
▁인정하지	-11510
내가	-11511
수동	-11512
포항	-11513
0,0	-11514
▁뒤집	-11515
fo	-11516
jr	-11517
서원	-11518
절한	-11519
▁조조	-11520
▁지고	-11521
▁패키	-11522
▁거리에	-11523
▁나섰다	-11524
▁아이슬	-11525
▁항공의	-11526
▁독일에서	-11527
ground	-11528
pd	-11529
▁솟	-11530
위해	-11531
ram	-11532
▁조리	-11533
▁피에르	-11534
▁활약하였다	-11535
분과	-11536
cus	-11537
▁입구	-11538
▁전도	-11539
▁전속	-11540
▁리더십	-11541
▁별다른	-11542
망이	-11543
▁느껴	-11544
▁대행	-11545
▁시노	-11546
▁창건	-11547
▁컨페	-11548
▁마음에	-11549
▁project	-11550
단위	-11551
▁마오	-11552
▁선구	-11553
▁유언	-11554
▁잎은	-11555
▁회담	-11556
시에서	-11557
▁교수가	-11558
▁국가에	-11559
▁지식을	-11560
▁기록하여	-11561
▁소속되어	-11562
▁*0000.00.00	-11563
청장	-11564
▁나아	-11565
▁며칠	-11566
▁실려	-11567
▁어긋	-11568
▁역설	-11569
▁우편	-11570
▁장애인	-11571
▁진행자	-11572
▁셈	-11573
▁je	-11574
▁듀얼	-11575
▁선도	-11576
▁수습	-11577
▁촌이	-11578
▁대회의	-11579
▁방영된	-11580
▁선수들이	-11581
▁아버지를	-11582
▁경기에서는	-11583
▁고쳐	-11584
▁아래와	-11585
더레이션	-11586
ho	-11587
▁미얀	-11588
▁액체	-11589
컴퓨터	-11590
▁급격히	-11591
▁회사는	-11592
▁파리에서	-11593
방울	-11594
val	-11595
▁리치	-11596
시부터	-11597
▁라이선	-11598
학습	-11599
▁쇼핑	-11600
▁애덤	-11601
▁원장	-11602
▁시즌이	-11603
▁부정적인	-11604
▁00:00,	-11605
-0000-000-0	-11606
멘트	-11607
양은	-11608
초를	-11609
ola	-11610
▁한명	-11611
▁다음해	-11612
▁들어온	-11613
▁지상파	-11614
▁함으로써	-11615
사항	-11616
업이	-11617
▁고발	-11618
▁지옥	-11619
하겠다는	-11620
코쿠	-11621
▁김구	-11622
▁스폰	-11623
▁커널	-11624
▁met	-11625
▁대상을	-11626
▁마을을	-11627
▁최대한	-11628
▁있었다는	-11629
▁다큐멘터리	-11630
느리	-11631
▁라스	-11632
▁상반	-11633
▁성주	-11634
▁추상	-11635
▁end	-11636
▁다니는	-11637
▁운행을	-11638
▁이상한	-11639
▁장치를	-11640
▁참고로	-11641
▁show	-11642
▁아인	-11643
▁장성	-11644
거리는	-11645
서에서	-11646
이면서	-11647
▁마코토	-11648
▁제주특별자치	-11649
주얼	-11650
med	-11651
▁좌석	-11652
▁중대	-11653
▁헤라	-11654
자이자	-11655
▁실시간	-11656
보리	-11657
inn	-11658
ney	-11659
▁관직	-11660
▁내린	-11661
▁재활	-11662
▁환상	-11663
리학자	-11664
▁왕위에	-11665
▁결정적인	-11666
▁한국시리즈	-11667
zy	-11668
현은	-11669
▁불어	-11670
▁요원	-11671
▁way	-11672
▁물고기	-11673
▁에스토	-11674
▁다운로드	-11675
▁이루었다	-11676
▁턱	-11677
곡의	-11678
목의	-11679
예정	-11680
천사	-11681
▁존속	-11682
강에서	-11683
▁다음에	-11684
▁생겼다	-11685
▁어려움	-11686
▁정보통신	-11687
개는	-11688
테크	-11689
▁그중	-11690
▁장미	-11691
▁해주	-11692
▁회사를	-11693
▁댐	-11694
▁윤보	-11695
▁멜로디	-11696
▁왜냐하면	-11697
▁지구에서	-11698
▁first	-11699
▁분데스리가	-11700
▁햇	-11701
▁높고	-11702
왔으며	-11703
주식회사	-11704
결혼	-11705
따라	-11706
▁사료	-11707
년동안	-11708
▁버전은	-11709
▁소수의	-11710
▁일시적으로	-11711
▁엽	-11712
무로	-11713
씨와	-11714
인권	-11715
▁길게	-11716
▁본관	-11717
과정을	-11718
▁don	-11719
▁승리한	-11720
▁아름다	-11721
▁유소년	-11722
▁00%,	-11723
▁0000),	-11724
▁口	-11725
준의	-11726
출력	-11727
ugh	-11728
▁대교	-11729
▁아기	-11730
▁안쪽	-11731
▁장거리	-11732
▁london	-11733
▁da	-11734
▁도주	-11735
▁우즈	-11736
▁토마	-11737
▁패널	-11738
▁나오지	-11739
▁의미의	-11740
레드	-11741
▁난징	-11742
▁밝혔	-11743
▁온천	-11744
스타인	-11745
▁바이오	-11746
▁바티칸	-11747
▁실패로	-11748
▁재단법인	-11749
전설	-11750
▁'0	-11751
▁초점을	-11752
차전에서	-11753
▁기록하는	-11754
▁학교에서	-11755
신경	-11756
특히	-11757
▁청룡	-11758
▁거리는	-11759
▁부족한	-11760
▁북쪽에	-11761
▁설립하였다	-11762
아야	-11763
인한	-11764
rad	-11765
▁팀에	-11766
fran	-11767
▁교수는	-11768
une	-11769
▁iv	-11770
▁결코	-11771
▁삿포로	-11772
▁음식을	-11773
고등학교를	-11774
▁상장	-11775
▁시점	-11776
▁힘든	-11777
▁뜨거운	-11778
▁말하였다	-11779
▁폴란드의	-11780
워서	-11781
▁병역	-11782
▁역과	-11783
▁시점에서	-11784
▁>	-11785
거진	-11786
민은	-11787
▁권위	-11788
▁누르	-11789
▁배신	-11790
▁별칭	-11791
▁염색	-11792
▁거주하는	-11793
×00	-11794
▁강연	-11795
▁검정	-11796
▁사정	-11797
▁포인	-11798
▁호세	-11799
네스코	-11800
량으로	-11801
▁마을의	-11802
공개	-11803
▁sd	-11804
▁딸을	-11805
▁무상	-11806
▁일컬	-11807
▁식으로	-11808
▁야마토	-11809
▁젤	-11810
사용	-11811
▁물고	-11812
▁산림	-11813
▁세대	-11814
inae	-11815
▁발생할	-11816
▁이르렀	-11817
▁샹	-11818
왕조	-11819
▁괴롭	-11820
▁니혼	-11821
▁로고	-11822
▁일명	-11823
▁건물의	-11824
▁스릴러	-11825
▁안드레	-11826
▁체코슬	-11827
▁홍보대사	-11828
▁instit	-11829
▁science	-11830
▁톨	-11831
만여	-11832
세다	-11833
세자	-11834
▁가짜	-11835
▁시공	-11836
▁비평가	-11837
▁이후부터	-11838
▁바꾼	-11839
▁조치	-11840
백화점	-11841
▁sun	-11842
▁결과에	-11843
▁char	-11844
바른	-11845
사태	-11846
lor	-11847
▁경신	-11848
▁이가	-11849
ring	-11850
view	-11851
▁김일성	-11852
▁드러나	-11853
▁뛰어나	-11854
▁신인상	-11855
▁지휘관	-11856
▁0-00	-11857
▁컨페더레이션	-11858
▁김형	-11859
▁했을	-11860
달라고	-11861
▁god	-11862
▁선수를	-11863
▁필라델피아	-11864
▁굵	-11865
버리	-11866
▁걱정	-11867
▁직선	-11868
년간의	-11869
부장관	-11870
▁그레고	-11871
▁주도는	-11872
▁지방도	-11873
▁기타리스트	-11874
놓고	-11875
모와	-11876
반응	-11877
공무원	-11878
▁여기에서	-11879
ci	-11880
▁곡이	-11881
▁상용	-11882
▁순교	-11883
▁신생	-11884
▁비슷하게	-11885
▁문명	-11886
▁사헌	-11887
▁아비	-11888
▁왕실	-11889
▁초과	-11890
▁공사를	-11891
▁순수한	-11892
▁영향력	-11893
▁성공하였다	-11894
▁보완	-11895
▁마이크	-11896
▁도요토미	-11897
이즈	-11898
황을	-11899
▁사육	-11900
▁피트	-11901
▁불리고	-11902
▁상원의	-11903
▁시즌에는	-11904
▁보여주었다	-11905
아래	-11906
▁기습	-11907
▁오바	-11908
▁치명	-11909
▁물리적	-11910
▁전한다	-11911
▁형태는	-11912
▁후쿠시마	-11913
함의	-11914
헝가리	-11915
▁fre	-11916
▁북한의	-11917
▁요소가	-11918
▁움직임	-11919
▁soci	-11920
▁야마구치	-11921
ju	-11922
자도	-11923
▁어뢰	-11924
▁흥선	-11925
구나	-11926
▁강서	-11927
▁삼촌	-11928
▁경력을	-11929
▁차지한	-11930
리시	-11931
창조	-11932
하키	-11933
▁국어	-11934
▁피렌	-11935
▁비로소	-11936
▁전체가	-11937
▁자본주의	-11938
감한	-11939
▁맥도	-11940
▁붙은	-11941
▁애틀	-11942
경으로	-11943
▁부대는	-11944
▁의원은	-11945
▁방영되었다	-11946
놓은	-11947
박한	-11948
▁천재	-11949
▁표지	-11950
▁황해도	-11951
▁지냈으며	-11952
▁봤	-11953
백과	-11954
업무	-11955
히데	-11956
▁관념	-11957
▁대치	-11958
▁진단	-11959
베스트	-11960
ious	-11961
▁다목적	-11962
▁사회를	-11963
▁자체를	-11964
▁우리나라	-11965
▁임명되어	-11966
포가	-11967
▁업그	-11968
▁손가락	-11969
▁의회는	-11970
공격	-11971
브의	-11972
톤의	-11973
ump	-11974
▁모시	-11975
라에몽	-11976
▁mtv	-11977
▁위기를	-11978
▁사이타마	-11979
지방검찰청	-11980
렉션	-11981
상소	-11982
▁라우	-11983
▁작사가	-11984
▁맡았으며	-11985
▁동남아시아	-11986
▁앓	-11987
목이	-11988
▁정면	-11989
▁진군	-11990
대통령	-11991
자들과	-11992
로부터의	-11993
▁냄	-11994
욕을	-11995
코르	-11996
▁ec	-11997
▁곡의	-11998
▁최진	-11999
연합회	-12000
▁파일을	-12001
▁컨페더레이션스컵	-12002
서도	-12003
▁ft	-12004
▁경희	-12005
▁본사	-12006
▁적고	-12007
▁팀인	-12008
▁편지	-12009
▁하차	-12010
플러스	-12011
호선의	-12012
▁통합하여	-12013
애니메이션	-12014
▁딘	-12015
▁북위	-12016
▁탈환	-12017
ks	-12018
되다	-12019
bin	-12020
▁군에	-12021
▁서정	-12022
▁캄보	-12023
▁그다지	-12024
▁맑	-12025
국립	-12026
대수	-12027
효과	-12028
▁해변	-12029
렸으나	-12030
베르토	-12031
000,	-12032
▁되돌아	-12033
기관이다	-12034
▁좌절	-12035
back	-12036
▁밑에서	-12037
▁일본과	-12038
▁일했다	-12039
▁않는다고	-12040
▁앱	-12041
▁얀	-12042
▁불상	-12043
▁임기	-12044
▁하키	-12045
▁ann	-12046
▁개발에	-12047
▁엔지니어	-12048
미치	-12049
▁공모	-12050
▁log	-12051
▁기술의	-12052
▁소설을	-12053
▁영어로	-12054
▁long	-12055
▁시절에는	-12056
만화	-12057
미코	-12058
측은	-12059
▁생일	-12060
▁이남	-12061
▁ceo	-12062
▁베네딕	-12063
▁발견되는	-12064
우트	-12065
타입	-12066
▁악기	-12067
▁통근	-12068
ural	-12069
▁국가로	-12070
▁지방에서	-12071
남면	-12072
야만	-12073
▁놀이	-12074
▁한계	-12075
▁und	-12076
▁그려진	-12077
▁버렸다	-12078
▁여부를	-12079
대회에서	-12080
▁대통령을	-12081
고등학교로	-12082
▁album	-12083
nn	-12084
연예	-12085
음은	-12086
준비	-12087
▁쓰지	-12088
▁일기	-12089
▁주행	-12090
▁진정	-12091
▁컨셉	-12092
남부	-12093
수용	-12094
운다	-12095
▁ty	-12096
▁매출	-12097
▁무궁	-12098
▁옵션	-12099
▁축출	-12100
▁터보	-12101
▁남쪽에	-12102
▁네이버	-12103
▁사람과	-12104
▁의식을	-12105
보스	-12106
추진	-12107
▁무지	-12108
▁분배	-12109
▁구조는	-12110
▁이었다	-12111
▁학교의	-12112
▁이후로는	-12113
공은	-12114
그의	-12115
모스	-12116
상규	-12117
▁실력	-12118
▁쓰기	-12119
▁정해	-12120
▁얼굴을	-12121
▁요구했다	-12122
▁0000-0	-12123
년은	-12124
시즘	-12125
애를	-12126
할때	-12127
▁난다	-12128
▁총대	-12129
▁투옥	-12130
▁서울대	-12131
▁창원시	-12132
▁떨어지는	-12133
▁계속되었다	-12134
다르	-12135
오나	-12136
포는	-12137
▁성종	-12138
▁신념	-12139
▁신정	-12140
▁카프	-12141
▁공격에	-12142
▁생몰년	-12143
결합	-12144
목은	-12145
북면	-12146
회원	-12147
ury	-12148
▁nc	-12149
▁연령	-12150
arth	-12151
▁아날로그	-12152
▁제작되었다	-12153
감사	-12154
▁단단	-12155
▁라트	-12156
▁이선	-12157
▁줄기	-12158
▁최하	-12159
한국당	-12160
▁rel	-12161
▁되었다가	-12162
▁아들이다	-12163
▁리투아니아	-12164
국사	-12165
께끼	-12166
부작	-12167
척의	-12168
▁던져	-12169
▁제니	-12170
코리아	-12171
▁카를로	-12172
orean	-12173
▁가마쿠라	-12174
▁들어간다	-12175
방위	-12176
▁라파	-12177
▁정동	-12178
▁헤어	-12179
사이다	-12180
크리스	-12181
▁외야수	-12182
▁총선거	-12183
▁적극적인	-12184
▁플레이어가	-12185
uz	-12186
▁왓	-12187
퍼니	-12188
▁빌려	-12189
▁유이	-12190
▁일방	-12191
▁치료를	-12192
▁시작되어	-12193
악한	-12194
▁부평	-12195
▁환원	-12196
생으로	-12197
▁지휘하는	-12198
캐롤라이나	-12199
▁닭	-12200
▁최후	-12201
▁긴테쓰	-12202
▁영화로	-12203
▁힘입어	-12204
란히	-12205
산물	-12206
일자	-12207
통의	-12208
▁왼손	-12209
▁전제	-12210
▁히라	-12211
▁이곳은	-12212
▁선언했다	-12213
".	-12214
트니	-12215
▁그날	-12216
▁내전	-12217
▁북구	-12218
▁칭호를	-12219
브스	-12220
▁로저	-12221
▁축하	-12222
이거나	-12223
▁정신적	-12224
▁늑대	-12225
ines	-12226
▁may	-12227
▁불교의	-12228
▁승부차	-12229
▁쓰였다	-12230
▁에티오	-12231
▁첫번째	-12232
▁제외하면	-12233
000000	-12234
sy	-12235
▁밀어	-12236
▁열고	-12237
▁계획에	-12238
▁독립된	-12239
강점	-12240
병의	-12241
질은	-12242
층을	-12243
히트	-12244
▁진급	-12245
버렸다	-12246
▁pal	-12247
▁영화에	-12248
▁페르디난	-12249
-00000-000-0	-12250
도바	-12251
리야	-12252
팀의	-12253
cle	-12254
▁것인	-12255
▁동년	-12256
▁매개	-12257
▁페어	-12258
▁달러를	-12259
▁pres	-12260
strumental	-12261
》:	-12262
마키	-12263
▁바퀴	-12264
orge	-12265
▁실력을	-12266
朝鮮	-12267
액의	-12268
올라	-12269
피의	-12270
mal	-12271
▁김홍	-12272
▁시초	-12273
권에서	-12274
임에도	-12275
▁프리미어리그의	-12276
▁트루	-12277
▁사용될	-12278
▁어머니가	-12279
현동	-12280
▁시합	-12281
▁하원	-12282
▁과정은	-12283
▁새겨져	-12284
▁수도원	-12285
▁인물이	-12286
▁$	-12287
대륙	-12288
채를	-12289
▁야당	-12290
가지의	-12291
000)	-12292
▁득점을	-12293
▁준비를	-12294
▁카자흐	-12295
▁sound	-12296
▁종족	-12297
rown	-12298
▁특징이	-12299
준은	-12300
층이	-12301
현을	-12302
▁공민	-12303
▁버려	-12304
▁세월	-12305
▁공사가	-12306
▁기자회	-12307
▁노벨상	-12308
▁얻는다	-12309
▁키보드	-12310
▁있으면서	-12311
엔터	-12312
ady	-12313
mac	-12314
▁이장	-12315
레인저	-12316
▁불리게	-12317
▁체계를	-12318
▁하루카	-12319
▁구체적으로	-12320
구간	-12321
▁이의	-12322
인기가	-12323
▁게이지	-12324
▁만나는	-12325
▁베드로	-12326
▁신호를	-12327
▁측면에서	-12328
부산광역시	-12329
▁실패하였다	-12330
도스	-12331
파인	-12332
풍을	-12333
▁sv	-12334
▁계몽	-12335
▁낱말	-12336
▁놓은	-12337
등으로	-12338
밀하게	-12339
▁von	-12340
▁도착한	-12341
▁존재가	-12342
▁봉해졌다	-12343
률은	-12344
문자	-12345
파르	-12346
ero	-12347
▁교원	-12348
▁레논	-12349
▁요르	-12350
▁존슨	-12351
uman	-12352
▁성공회	-12353
▁인정하고	-12354
▁돋	-12355
▁가맹	-12356
▁넣고	-12357
▁재혼	-12358
▁주오	-12359
▁red	-12360
▁생각할	-12361
▁섬에서	-12362
▁영감을	-12363
▁이유를	-12364
▁있었을	-12365
▁그렇다면	-12366
▁가면라이더	-12367
▁남구	-12368
▁돌격	-12369
타리오	-12370
▁휴스턴	-12371
▁민족주의	-12372
요리	-12373
▁gt	-12374
▁수녀	-12375
▁이타	-12376
▁누르고	-12377
셈부르크	-12378
▁상태였다	-12379
턴은	-12380
▁거제	-12381
▁난민	-12382
▁도는	-12383
▁몬테	-12384
▁우울	-12385
▁원산	-12386
▁카타	-12387
▁over	-12388
▁기점으로	-12389
▁사랑하는	-12390
▁움직임을	-12391
▁원작으로	-12392
▁동치	-12393
사업을	-12394
▁대통령에	-12395
▁타이거즈	-12396
▁매사추세츠	-12397
▁시작하였고	-12398
역학	-12399
▁고조	-12400
▁나올	-12401
▁담겨	-12402
....	-12403
▁sur	-12404
▁저기압	-12405
▁어머니의	-12406
▁유네스코	-12407
▁체포되어	-12408
직원	-12409
▁경사	-12410
▁분화	-12411
▁호출	-12412
되지는	-12413
북도의	-12414
▁다나카	-12415
▁시기는	-12416
▁거느리고	-12417
▁끓	-12418
진보	-12419
▁별은	-12420
▁보라	-12421
▁사와	-12422
ship	-12423
▁월드컵에서	-12424
마로	-12425
▁연수	-12426
▁합작	-12427
공산당	-12428
그라드	-12429
샤바	-12430
중대	-12431
▁mi	-12432
▁대두	-12433
▁구조가	-12434
▁규정에	-12435
0,000	-12436
아일랜드계	-12437
▁셸	-12438
▁거론	-12439
▁초월	-12440
▁가리키	-12441
▁주장한	-12442
eration	-12443
▁college	-12444
sn	-12445
전략	-12446
한테	-12447
▁품고	-12448
▁하동	-12449
시키며	-12450
▁교육의	-12451
▁물질을	-12452
▁급식	-12453
▁연쇄	-12454
남도의	-12455
드리아	-12456
▁적합한	-12457
봉사	-12458
▁중독	-12459
▁초신	-12460
▁호위	-12461
▁지정된	-12462
임브리지	-12463
▁프로세서	-12464
▁dc	-12465
▁날카	-12466
▁넣은	-12467
▁담긴	-12468
행위를	-12469
▁다니엘	-12470
▁잃었다	-12471
▁야마모토	-12472
▁company	-12473
친왕	-12474
▁소울	-12475
▁수성	-12476
▁진실	-12477
▁천사	-12478
▁국내외	-12479
▁기록된	-12480
▁아니라고	-12481
▁지적했다	-12482
▁ka	-12483
▁본인	-12484
▁숭배	-12485
시까지	-12486
▁군대의	-12487
▁대니	-12488
▁말기	-12489
▁안나	-12490
▁오리온	-12491
▁남아있는	-12492
▁있습니다	-12493
▁옳	-12494
변호	-12495
▁측의	-12496
디스크	-12497
음으로	-12498
텔레콤	-12499
▁bel	-12500
ichael	-12501
▁right	-12502
rit	-12503
▁신이	-12504
▁american	-12505
▁고토	-12506
우체국	-12507
▁이름인	-12508
▁프랭크	-12509
sup	-12510
▁이방	-12511
해왔다	-12512
▁헌법재판	-12513
으로부터의	-12514
▁보일	-12515
▁아크	-12516
▁장안	-12517
▁단위로	-12518
▁세상에	-12519
네덜란드의	-12520
가게	-12521
됐고	-12522
양성	-12523
▁데스	-12524
▁종의	-12525
장이다	-12526
▁와중에	-12527
▁재능을	-12528
▁power	-12529
고교	-12530
노트	-12531
보르	-12532
▁경력	-12533
▁세자	-12534
▁세조	-12535
▁이식	-12536
▁지능	-12537
▁나가는	-12538
▁이산화	-12539
▁지점에	-12540
나시	-12541
천여	-12542
▁유진	-12543
▁정조	-12544
스트의	-12545
▁서재필	-12546
▁아키라	-12547
번은	-12548
제학	-12549
▁0(	-12550
▁궁극	-12551
▁해를	-12552
▁거기서	-12553
▁관련한	-12554
▁밀접한	-12555
▁위협을	-12556
▁0000-0000)	-12557
라브	-12558
속을	-12559
▁엄격	-12560
▁초빙	-12561
▁포드	-12562
▁문제의	-12563
▁이루어지고	-12564
▁<	-12565
''),	-12566
▁들어갔	-12567
▁역까지	-12568
▁낙선	-12569
▁영상을	-12570
▁serv	-12571
▁중화인민공화국의	-12572
진행	-12573
▁불편	-12574
▁생략	-12575
▁학과	-12576
소련의	-12577
▁말하면	-12578
▁빔	-12579
보장	-12580
하로	-12581
▁구릉	-12582
▁국군	-12583
▁마약	-12584
▁마인	-12585
▁밑에	-12586
▁오고	-12587
까지만	-12588
방에서	-12589
▁nat	-12590
▁교황의	-12591
▁지방을	-12592
▁천문학	-12593
▁미국에서는	-12594
통제	-12595
▁김제	-12596
▁안장	-12597
▁중도	-12598
▁키스	-12599
리우드	-12600
▁노동조합	-12601
ertainment	-12602
vs	-12603
日本	-12604
바위	-12605
▁공과	-12606
▁히사	-12607
▁어렸을	-12608
▁펼쳤다	-12609
▁후보에	-12610
것을	-12611
주자	-12612
후기	-12613
▁대위	-12614
▁표명	-12615
▁화석	-12616
char	-12617
▁자체는	-12618
▁닐	-12619
▁왈	-12620
건축	-12621
익을	-12622
▁박헌	-12623
▁볼리	-12624
▁음원	-12625
▁지녔	-12626
▁첨가	-12627
방으로	-12628
▁음악의	-12629
▁트랜스	-12630
▁story	-12631
일기	-12632
▁섭취	-12633
▁정해진	-12634
▁트리플	-12635
테르부르크	-12636
)=	-12637
대성	-12638
양함	-12639
리면서	-12640
암으로	-12641
▁개봉한	-12642
▁연결된	-12643
▁요청을	-12644
▁나라에서	-12645
▁방법이다	-12646
▁직접적으로	-12647
▁섬유	-12648
▁수련	-12649
년대의	-12650
자책점	-12651
▁기간에	-12652
▁신입생	-12653
▁(0000-0000	-12654
비키	-12655
암리	-12656
지붕	-12657
▁조연	-12658
어이다	-12659
▁최근의	-12660
나오	-12661
모든	-12662
ird	-12663
▁나눌	-12664
▁랜드	-12665
▁변수	-12666
ctor	-12667
▁::*	-12668
▁구조로	-12669
▁스탈린	-12670
▁의회의	-12671
들에게는	-12672
인기가요	-12673
▁그렇지만	-12674
동면	-12675
주지	-12676
▁피신	-12677
▁여성이	-12678
▁프톨레	-12679
▁거주하고	-12680
▁수목드라마	-12681
고등보통학교	-12682
매매	-12683
▁꽃은	-12684
▁잠실	-12685
▁장인	-12686
▁즉각	-12687
▁부분의	-12688
▁에디션	-12689
ра	-12690
캐슬	-12691
▁안녕	-12692
▁해태	-12693
▁dis	-12694
▁선수는	-12695
▁아무도	-12696
▁프레스	-12697
▁시스템이	-12698
▁부서	-12699
▁출토	-12700
▁평일	-12701
ourn	-12702
산초등학교	-12703
우크라이나	-12704
▁우승하였다	-12705
▁카스	-12706
▁호조	-12707
레이크	-12708
aint	-12709
▁소리가	-12710
▁수술을	-12711
▁앨리스	-12712
▁육군의	-12713
▁인터내셔널	-12714
▁役	-12715
▁성서	-12716
▁후보가	-12717
광고	-12718
플래	-12719
▁미라	-12720
▁백색	-12721
▁최적	-12722
▁개통과	-12723
▁닌텐도	-12724
▁사카이	-12725
pi	-12726
на	-12727
타와	-12728
dvd	-12729
▁권고	-12730
▁김선	-12731
▁상인	-12732
▁식별	-12733
▁히어로즈	-12734
▁프랑스에서	-12735
보수	-12736
산역	-12737
%),	-12738
▁딸인	-12739
▁연봉	-12740
▁정경	-12741
▁주류	-12742
루시아	-12743
번으로	-12744
▁그대	-12745
▁벌인	-12746
▁마쳤다	-12747
▁평범한	-12748
▁협주곡	-12749
▁옴	-12750
다카	-12751
변이	-12752
서야	-12753
▁어휘	-12754
▁천도	-12755
▁장면을	-12756
▁출시된	-12757
폭력	-12758
▁오를	-12759
▁주위	-12760
▁터치	-12761
▁독일인	-12762
▁것이므로	-12763
▁존재하고	-12764
각의	-12765
아사	-12766
▁로얄	-12767
▁애슬	-12768
▁고려의	-12769
▁요시다	-12770
지방법원	-12771
▁넬	-12772
동아	-12773
모노	-12774
위성	-12775
위안	-12776
작이	-12777
▁금호	-12778
▁노조	-12779
트리올	-12780
▁과정에	-12781
▁내부에	-12782
▁배웠다	-12783
▁후기의	-12784
▁비판했다	-12785
감에	-12786
최고	-12787
▁포스터	-12788
▁설립했다	-12789
발이	-12790
▁민족의	-12791
▁직전에	-12792
▁피해자	-12793
가쿠	-12794
경주	-12795
림의	-12796
oto	-12797
▁별이	-12798
▁붙인	-12799
▁호의	-12800
▁노래는	-12801
▁다케다	-12802
▁많으며	-12803
▁miss	-12804
헌법	-12805
▁리오	-12806
▁범주	-12807
▁빛이	-12808
▁자회사	-12809
▁제주도	-12810
▁근처에서	-12811
▁자유로운	-12812
▁`	-12813
르며	-12814
▁jo	-12815
▁고분	-12816
▁박씨	-12817
▁브뤼	-12818
▁임상	-12819
▁장덕	-12820
▁사라졌다	-12821
▁0000.00.00.	-12822
미엄	-12823
브르	-12824
cer	-12825
▁신임	-12826
▁칭찬	-12827
▁모델을	-12828
레아	-12829
생이	-12830
▁성취	-12831
▁자의	-12832
루미늄	-12833
▁리비아	-12834
▁먹이를	-12835
▁최악의	-12836
▁케네디	-12837
▁대한항공	-12838
▁얹	-12839
택을	-12840
▁방패	-12841
▁정인	-12842
▁mor	-12843
▁일컫는	-12844
▁제품을	-12845
▁카드를	-12846
▁line	-12847
▁문화방송	-12848
덕왕	-12849
iii	-12850
▁그릇	-12851
▁나눠	-12852
▁함대	-12853
기관의	-12854
외국어	-12855
▁엄격한	-12856
▁일제강점	-12857
▁진행된다	-12858
formation	-12859
▁오스트레일리아의	-12860
▁슌	-12861
먼드	-12862
바리	-12863
▁송신	-12864
▁한층	-12865
▁с	-12866
무가	-12867
워너	-12868
▁돌연	-12869
▁유식	-12870
▁중종	-12871
▁리그에	-12872
▁사고를	-12873
▁운동은	-12874
▁결혼했다	-12875
▁지속적인	-12876
▁겁	-12877
▁꼴	-12878
▁톈	-12879
말라	-12880
수상	-12881
▁구해	-12882
▁민사	-12883
으려고	-12884
▁비용을	-12885
▁않으나	-12886
▁자세한	-12887
항의	-12888
▁도루	-12889
▁잡혀	-12890
▁그러던	-12891
▁도카이	-12892
vo	-12893
링턴	-12894
미노	-12895
언어	-12896
혁신	-12897
▁본거	-12898
▁술을	-12899
▁신선	-12900
▁쏟아	-12901
기록을	-12902
우리는	-12903
지금의	-12904
ters	-12905
▁데뷔를	-12906
▁등장했다	-12907
▁후지와라노	-12908
혹은	-12909
▁기름	-12910
▁입체	-12911
콘서트	-12912
▁플래시	-12913
▁중심기압	-12914
▁추측된다	-12915
▁0-0000-0000-0	-12916
평리	-12917
(0,	-12918
ows	-12919
▁설도	-12920
▁정유	-12921
▁진해	-12922
▁통틀	-12923
▁향후	-12924
▁협정	-12925
unic	-12926
▁불가능하다	-12927
▁안드로이드	-12928
▁팜	-12929
불가	-12930
수지	-12931
▁재미	-12932
▁후안	-12933
▁ger	-12934
▁공간의	-12935
▁구조의	-12936
▁기반의	-12937
▁기초로	-12938
▁시설을	-12939
▁활약한	-12940
▁데뷔하였고	-12941
▁entertainment	-12942
▁엿	-12943
▁거북	-12944
▁목을	-12945
▁정재	-12946
▁추출	-12947
▁히메	-12948
▁썬	-12949
곡면	-12950
음과	-12951
ume	-12952
▁뻗어	-12953
▁일체	-12954
▁재현	-12955
기이다	-12956
▁그랑프리	-12957
것도	-12958
기동	-12959
리버	-12960
▁맞은	-12961
▁해밀	-12962
▁간사이	-12963
▁라이언	-12964
▁허리케인	-12965
▁개최되었다	-12966
0》	-12967
경북	-12968
바는	-12969
사토	-12970
진영	-12971
▁산성	-12972
▁선종	-12973
▁나이지	-12974
상으로는	-12975
▁고구려의	-12976
▁every	-12977
▁대한민국에	-12978
▁펌	-12979
나가는	-12980
운동에	-12981
▁독일과	-12982
▁손으로	-12983
–0000	-12984
우정	-12985
ior	-12986
▁더빙	-12987
▁주니치	-12988
▁00.00%	-12989
fs	-12990
hl	-12991
cap	-12992
▁가네	-12993
▁공로	-12994
▁입성	-12995
amil	-12996
▁활동하는	-12997
연세대학교	-12998
2)	-12999
::	-13000
▁쟈	-13001
기게	-13002
▁수렴	-13003
▁퇴임	-13004
교육을	-13005
▁금요일	-13006
▁기술은	-13007
▁소속된	-13008
▁작곡한	-13009
▁제안을	-13010
▁초반에	-13011
▁프로레	-13012
▁확실히	-13013
ray	-13014
▁발을	-13015
▁실버	-13016
스퍼드	-13017
▁우승에	-13018
▁급제하여	-13019
▁존재하며	-13020
▁처음부터	-13021
▁예배	-13022
▁해피	-13023
들과는	-13024
키아의	-13025
▁방송되었다	-13026
bit	-13027
wor	-13028
▁ur	-13029
▁기어	-13030
▁송도	-13031
▁신지	-13032
▁호쿠	-13033
▁히타	-13034
포켓몬	-13035
회말에	-13036
▁도시가	-13037
분데스리가의	-13038
)”	-13039
ico	-13040
▁케빈	-13041
▁버전의	-13042
▁연합군	-13043
▁글로브상	-13044
▁선보였다	-13045
레티	-13046
세키	-13047
▁규격	-13048
▁까닭	-13049
▁발급	-13050
▁시는	-13051
▁조병	-13052
-00.	-13053
▁기관총	-13054
▁있기도	-13055
▁콘스탄티노폴리스	-13056
냈고	-13057
당해	-13058
▁문예	-13059
▁상공	-13060
▁스톡	-13061
▁이완	-13062
▁변화에	-13063
▁광범위한	-13064
▁출전하였다	-13065
군다	-13066
▁노태	-13067
▁매매	-13068
▁아예	-13069
▁앙리	-13070
▁파스	-13071
▁한인	-13072
▁본인의	-13073
▁여름에	-13074
▁클라이	-13075
회담	-13076
▁대거	-13077
▁저격	-13078
▁더욱이	-13079
▁음반을	-13080
▁뭉	-13081
측에	-13082
▁("	-13083
▁vi	-13084
▁곤란	-13085
▁낭만	-13086
▁성운	-13087
년대를	-13088
▁사람도	-13089
▁지구와	-13090
▁파이터	-13091
과학대학	-13092
▁여기에는	-13093
디나	-13094
히사	-13095
▁미토	-13096
▁발원	-13097
▁플랑	-13098
에너지	-13099
▁논문을	-13100
▁오피스	-13101
▁전체에	-13102
▁차량은	-13103
▁가고시마	-13104
경과	-13105
일으	-13106
omy	-13107
▁아랫	-13108
▁온갖	-13109
▁겪었다	-13110
▁수상한	-13111
▁영국인	-13112
▁정신을	-13113
트로이트	-13114
▁플레이어는	-13115
▁associ	-13116
탄의	-13117
san	-13118
▁김희	-13119
▁맞고	-13120
▁사살	-13121
심상소	-13122
atic	-13123
▁북부의	-13124
▁진행된	-13125
▁아래에서	-13126
▁프톨레마이	-13127
값을	-13128
판과	-13129
▁박종	-13130
▁증손	-13131
당한다	-13132
▁대법원	-13133
▁문자를	-13134
▁이유가	-13135
중계	-13136
▁가죽	-13137
▁발칸	-13138
▁우호	-13139
▁잡은	-13140
live	-13141
▁도미니	-13142
▁분명히	-13143
▁일이다	-13144
▁작위를	-13145
▁지키는	-13146
반에	-13147
▁네오	-13148
▁불확	-13149
▁암흑	-13150
▁윌슨	-13151
▁폭넓	-13152
▁간단히	-13153
가면	-13154
경비	-13155
레틱	-13156
▁세균	-13157
▁캐시	-13158
▁트럼	-13159
▁광저우	-13160
▁밴드의	-13161
▁비행기	-13162
▁일하는	-13163
▁페르난	-13164
▁닦	-13165
▁면역	-13166
▁섬은	-13167
▁포터	-13168
▁상원	-13169
▁유래한	-13170
▁진출을	-13171
▁청주시	-13172
▁타격을	-13173
▁추정되는	-13174
hd	-13175
두는	-13176
킨스	-13177
▁권총	-13178
▁담배	-13179
▁메타	-13180
▁숙부	-13181
▁트래	-13182
▁평면	-13183
▁해소	-13184
자였다	-13185
▁속도는	-13186
▁시네마	-13187
▁우승한	-13188
▁동메달을	-13189
통이	-13190
▁김인	-13191
▁동행	-13192
▁스캔	-13193
▁아쿠	-13194
▁승인을	-13195
▁스스로를	-13196
▁않았다고	-13197
▁참여하는	-13198
하임	-13199
uel	-13200
▁cy	-13201
▁강희	-13202
▁약혼	-13203
▁희귀	-13204
▁관리를	-13205
▁동대문	-13206
▁보호를	-13207
▁장군의	-13208
▁저술가	-13209
▁환경에	-13210
▁방식이다	-13211
▁island	-13212
▁0000–0000	-13213
▁눌	-13214
나스	-13215
대손	-13216
우기	-13217
차와	-13218
rew	-13219
▁그랜	-13220
▁비유	-13221
▁외손	-13222
▁예술가	-13223
▁획득한	-13224
▁가량	-13225
▁무슨	-13226
▁아벨	-13227
▁윤리	-13228
운동장	-13229
테이너	-13230
ever	-13231
▁독일이	-13232
▁업적을	-13233
▁쳐들어	-13234
▁환경을	-13235
라리	-13236
무장	-13237
해상	-13238
▁청원	-13239
cher	-13240
▁개발이	-13241
▁마이너	-13242
|0	-13243
▁≪	-13244
르와	-13245
청에	-13246
▁감행	-13247
▁눈물	-13248
▁mer	-13249
▁물건을	-13250
▁트윈스	-13251
▁피하기	-13252
▁의과대학	-13253
누마	-13254
서면	-13255
▁소매	-13256
▁콘서	-13257
나갔다	-13258
지는데	-13259
▁hol	-13260
▁sam	-13261
▁놓았다	-13262
▁알렸다	-13263
▁중국에	-13264
▁플라이	-13265
▁은메달을	-13266
▁코드를	-13267
(00.0	-13268
▁오하이오	-13269
표준	-13270
▁연상	-13271
▁발언을	-13272
▁있는지	-13273
▁출전했다	-13274
▁프랑스인	-13275
▁쾰	-13276
레타	-13277
추는	-13278
▁복제	-13279
ophy	-13280
▁것인데	-13281
▁게임이	-13282
▁이에야	-13283
▁david	-13284
곡은	-13285
rib	-13286
▁배상	-13287
▁tra	-13288
▁국가는	-13289
▁니콜라	-13290
▁백제의	-13291
▁연기를	-13292
▁road	-13293
▁대하드라마	-13294
집이	-13295
▁부지	-13296
▁비타	-13297
▁앉아	-13298
▁코코	-13299
▁현종	-13300
증으로	-13301
테이션	-13302
▁달러의	-13303
▁여학생	-13304
▁장군이	-13305
▁출전한	-13306
운트다운	-13307
acing	-13308
적에	-13309
체고	-13310
▁실전	-13311
▁정선	-13312
인터넷	-13313
▁lib	-13314
▁질량이	-13315
▁밀집	-13316
▁박재	-13317
▁유동	-13318
▁cat	-13319
-00-0	-13320
▁어드벤처	-13321
▁great	-13322
ru	-13323
번이	-13324
수인	-13325
ift	-13326
▁김혜	-13327
▁유산	-13328
식이다	-13329
운동가	-13330
▁가벼운	-13331
▁레이다	-13332
▁아버지인	-13333
▁이야기는	-13334
▁콘스탄티	-13335
▁아이스하키	-13336
▁크리스토퍼	-13337
功臣	-13338
림이	-13339
풍속	-13340
▁먹을	-13341
▁한스	-13342
agon	-13343
▁《00	-13344
▁가지며	-13345
▁공부를	-13346
▁제도가	-13347
▁팀으로	-13348
형사	-13349
▁격하	-13350
▁때가	-13351
▁몸길	-13352
▁영지	-13353
▁정성	-13354
▁기능은	-13355
▁남기고	-13356
▁북쪽의	-13357
▁요구를	-13358
▁정하는	-13359
▁불러일으	-13360
▁커뮤니케이션	-13361
("	-13362
내지	-13363
집에	-13364
희가	-13365
▁심야	-13366
▁위장	-13367
웨스트	-13368
star	-13369
▁친일파	-13370
학자들은	-13371
▁축구단의	-13372
▁민병	-13373
▁소모	-13374
하자면	-13375
publ	-13376
▁어려워	-13377
▁club	-13378
▁목소리를	-13379
▁엘리베이	-13380
ization	-13381
▁개축	-13382
▁오비	-13383
▁응시	-13384
▁직통	-13385
바이잔	-13386
속으로	-13387
▁무궁화	-13388
▁종류가	-13389
▁주위를	-13390
▁지구를	-13391
▁수수께끼	-13392
rh	-13393
▁前	-13394
ope	-13395
▁동명	-13396
▁신탁	-13397
▁추존	-13398
▁루이지	-13399
▁밝히고	-13400
▁시설이	-13401
▁자금을	-13402
먼은	-13403
바퀴	-13404
소타	-13405
▁누이	-13406
▁단기	-13407
회초에	-13408
▁mark	-13409
lg	-13410
골로	-13411
▁ng	-13412
▁군산	-13413
▁리에	-13414
케라톱	-13415
▁방사성	-13416
▁주장은	-13417
ional	-13418
▁mnet	-13419
▁등지에서	-13420
▁매입	-13421
▁상응	-13422
오른쪽	-13423
▁pat	-13424
▁기회가	-13425
▁노란색	-13426
▁용어로	-13427
▁프란츠	-13428
▁this	-13429
▁라이온즈	-13430
▁벌어졌다	-13431
▁참여하고	-13432
테면	-13433
▁모은	-13434
▁미분	-13435
▁가까워	-13436
▁것보다	-13437
▁경주시	-13438
▁완벽한	-13439
술사	-13440
fin	-13441
ima	-13442
▁결방	-13443
▁군이	-13444
▁레전	-13445
▁매직	-13446
▁식당	-13447
▁유교	-13448
▁임관	-13449
▁입각	-13450
▁치안	-13451
▁탐지	-13452
고개	-13453
▁넥센	-13454
▁로이	-13455
▁알제	-13456
▁왕을	-13457
▁통영	-13458
▁형상	-13459
▁그쳤다	-13460
▁방식이	-13461
교류	-13462
르를	-13463
커의	-13464
▁양반	-13465
겼으며	-13466
▁문과에	-13467
▁대한민국은	-13468
▁사우디아라비아	-13469
심사	-13470
조한	-13471
홀름	-13472
▁손님	-13473
▁우치	-13474
▁퍼포	-13475
▁펠리	-13476
omas	-13477
▁원인은	-13478
▁전라도	-13479
▁차량의	-13480
▁야쿠르트	-13481
▁우수학교	-13482
▁자리잡고	-13483
▁자연스럽게	-13484
▁%	-13485
▁솜	-13486
행이	-13487
vis	-13488
▁마하	-13489
▁명에	-13490
▁알코	-13491
▁채워	-13492
▁카츠	-13493
독일계	-13494
선생님	-13495
어에서	-13496
▁레이싱	-13497
▁블라디미르	-13498
크리	-13499
키와	-13500
reg	-13501
▁걸린	-13502
▁발트	-13503
▁자를	-13504
시키지	-13505
▁섬으로	-13506
▁찾아볼	-13507
제르바이잔	-13508
ournal	-13509
▁대한민국과	-13510
▁갱신	-13511
▁내외	-13512
▁대피	-13513
▁여인	-13514
▁이이	-13515
▁적혀	-13516
됐으며	-13517
▁표현을	-13518
▁(0000–0000)	-13519
zo	-13520
칼라	-13521
▁대마	-13522
▁베니	-13523
▁이북	-13524
문학과	-13525
▁tim	-13526
▁비판이	-13527
▁언어의	-13528
fb	-13529
box	-13530
▁순회	-13531
▁자칭	-13532
▁중일	-13533
아이돌	-13534
ison	-13535
▁기록해	-13536
▁시즌의	-13537
▁프리메라	-13538
▁대통령으로	-13539
놀이	-13540
렸는데	-13541
▁구간의	-13542
▁느낌을	-13543
▁아마도	-13544
▁조선에	-13545
▁진출에	-13546
▁가수이다	-13547
국도	-13548
달아	-13549
aph	-13550
▁등용	-13551
▁유카	-13552
학교에	-13553
▁차이는	-13554
▁호평을	-13555
korea	-13556
▁대회이다	-13557
▁정도였다	-13558
가치	-13559
미래	-13560
▁eu	-13561
▁고쿠	-13562
▁로열	-13563
▁수필	-13564
▁인격	-13565
스키는	-13566
▁이래로	-13567
align	-13568
▁wind	-13569
▁이때부터	-13570
▁유나이티드의	-13571
▁룰	-13572
도군	-13573
트맨	-13574
▁청소	-13575
▁최성	-13576
▁해의	-13577
루스의	-13578
▁성능을	-13579
▁프란체	-13580
▁pict	-13581
바논	-13582
석탑	-13583
풍의	-13584
▁모나	-13585
▁시종	-13586
▁고유의	-13587
▁곡이다	-13588
▁세력의	-13589
회의에서	-13590
▁관리하는	-13591
▁아리스토	-13592
▁함부르크	-13593
td	-13594
개인	-13595
배치	-13596
액은	-13597
언론	-13598
▁선로	-13599
▁키타	-13600
마스터	-13601
▁남쪽의	-13602
▁물질의	-13603
▁제국을	-13604
더니	-13605
법상	-13606
연은	-13607
▁각자	-13608
▁고령	-13609
▁바빌	-13610
▁기사를	-13611
▁대도시	-13612
▁새로이	-13613
▁내용으로	-13614
▁중요하다	-13615
》)	-13616
혹한	-13617
▁기증	-13618
▁누가	-13619
▁서원	-13620
▁리스트	-13621
▁무조건	-13622
adding	-13623
루아	-13624
토벤	-13625
▁받침	-13626
▁배려	-13627
▁선원	-13628
▁하남	-13629
▁개념이	-13630
▁이용한다	-13631
▁실질적으로	-13632
루와	-13633
부상	-13634
▁bs	-13635
▁디오	-13636
▁부가	-13637
▁아홉	-13638
▁양이	-13639
수이다	-13640
평론가	-13641
▁전력을	-13642
구르	-13643
ipt	-13644
▁당일	-13645
▁안보	-13646
▁즐겨	-13647
▁것임을	-13648
▁쇄	-13649
콜라	-13650
gal	-13651
▁드문	-13652
▁때려	-13653
▁산소	-13654
▁입을	-13655
▁uss	-13656
▁들어갈	-13657
▁유학을	-13658
▁🔗	-13659
니를	-13660
▁수면	-13661
▁정의할	-13662
재는	-13663
천년	-13664
ude	-13665
▁동영상	-13666
▁어려서	-13667
ni	-13668
성인	-13669
▁디자	-13670
▁뜻이	-13671
▁침투	-13672
차고지	-13673
▁die	-13674
▁vir	-13675
▁시위를	-13676
환이	-13677
▁경호	-13678
▁교역	-13679
▁보게	-13680
▁상태의	-13681
▁발매하였다	-13682
▁에스토니아	-13683
날레	-13684
슬리	-13685
▁나눈	-13686
▁추억	-13687
주머니	-13688
▁fri	-13689
▁경계로	-13690
▁바이러	-13691
▁에이지	-13692
▁나중에는	-13693
계급	-13694
기아	-13695
중을	-13696
▁가동	-13697
▁물어	-13698
▁유죄	-13699
▁전염	-13700
▁탐정	-13701
체에서	-13702
▁제네바	-13703
▁play	-13704
▁이집트의	-13705
▁하나이며	-13706
▁포르투갈의	-13707
방은	-13708
eum	-13709
▁권유	-13710
▁세라	-13711
▁장면이	-13712
▁출전해	-13713
라리가의	-13714
▁의미에서	-13715
▁자유주의	-13716
시다	-13717
unk	-13718
▁상류	-13719
▁색을	-13720
▁수장	-13721
▁페리	-13722
▁선발로	-13723
▁안에는	-13724
▁again	-13725
▁룩셈부르크	-13726
▁깎	-13727
▁낚	-13728
▁맘	-13729
나우	-13730
▁광명	-13731
▁양주	-13732
▁인형	-13733
▁체류	-13734
▁노선의	-13735
학적으로	-13736
▁다양하다	-13737
▁설명하는	-13738
공립심상소	-13739
살의	-13740
약한	-13741
인승	-13742
재산	-13743
▁견제	-13744
▁더글	-13745
▁오류	-13746
▁진지	-13747
▁dem	-13748
▁공로로	-13749
▁방문한	-13750
▁림	-13751
신학	-13752
키를	-13753
ush	-13754
▁간선	-13755
▁김대	-13756
▁미국을	-13757
▁오른손	-13758
문제연구	-13759
▁확인되었다	-13760
▁society	-13761
팀을	-13762
▁노인	-13763
▁상담	-13764
▁후배	-13765
하자는	-13766
▁서쪽에	-13767
▁gold	-13768
▁자격으로	-13769
▁개발되었다	-13770
마지	-13771
청구	-13772
트페	-13773
▁고래	-13774
▁달이	-13775
▁북방	-13776
▁성사	-13777
적이지	-13778
▁고통을	-13779
▁조선인민	-13780
데라	-13781
▁곳의	-13782
▁미터	-13783
▁책의	-13784
▁mid	-13785
▁경찰은	-13786
▁발생하여	-13787
instrumental	-13788
은하	-13789
푸르	-13790
▁봉쇄	-13791
▁열심	-13792
▁이창	-13793
▁피어	-13794
게이트	-13795
▁건물로	-13796
▁넘어가	-13797
▁취하고	-13798
▁협상을	-13799
▁디자인을	-13800
▁차원에서	-13801
계종	-13802
사진	-13803
해와	-13804
▁세미	-13805
▁적지	-13806
▁투구	-13807
▁핑크	-13808
▁사거리	-13809
▁조약에	-13810
▁끊임없이	-13811
▁시뮬레이션	-13812
▁이루어지는	-13813
레알	-13814
ira	-13815
▁남매	-13816
▁대가	-13817
▁문법	-13818
▁백상	-13819
▁영유	-13820
▁지평	-13821
면에는	-13822
▁견해를	-13823
▁머리에	-13824
▁시장에	-13825
▁fest	-13826
▁알루미늄	-13827
감과	-13828
는가	-13829
타워	-13830
팀인	-13831
▁아부	-13832
▁워크	-13833
▁정말	-13834
▁이어진	-13835
▁주인공으로	-13836
받게	-13837
▁발현	-13838
▁보전	-13839
▁서포	-13840
▁소금	-13841
▁스노	-13842
▁표방	-13843
▁환영	-13844
▁boy	-13845
▁메시지를	-13846
▁이노우에	-13847
러드	-13848
산맥	-13849
▁바른	-13850
▁얻지	-13851
▁pop	-13852
▁죽였다	-13853
▁mart	-13854
▁미야자키	-13855
++	-13856
皇后	-13857
▁ir	-13858
▁다테	-13859
▁손꼽	-13860
▁중기	-13861
▁남부에	-13862
▁무료로	-13863
▁사랑에	-13864
▁기독교의	-13865
▁선언하였다	-13866
▁얽	-13867
▁글자	-13868
▁낳은	-13869
▁서민	-13870
▁현행	-13871
스페란	-13872
▁소송을	-13873
▁이론의	-13874
▁황제로	-13875
▁사건이다	-13876
0-	-13877
nt	-13878
▁차장	-13879
코미디	-13880
▁때에도	-13881
▁손해배	-13882
▁없어서	-13883
▁붐	-13884
왔던	-13885
의학	-13886
▁관악	-13887
▁기기	-13888
▁말미	-13889
운동의	-13890
▁서대문	-13891
소비	-13892
elf	-13893
▁마포	-13894
▁아담	-13895
▁이천	-13896
▁패한	-13897
거리를	-13898
▁기초를	-13899
▁house	-13900
각이	-13901
원자	-13902
▁두는	-13903
▁등극	-13904
▁비평	-13905
▁원반	-13906
▁위헌	-13907
▁적다	-13908
▁최강	-13909
▁나가노	-13910
▁없었기	-13911
▁시작하는	-13912
상대	-13913
커는	-13914
▁구에	-13915
▁깨끗	-13916
▁낸다	-13917
▁징병	-13918
당하는	-13919
▁블루스	-13920
▁신주쿠	-13921
▁state	-13922
rd	-13923
더는	-13924
부리	-13925
세손	-13926
자금	-13927
▁가려	-13928
▁고소	-13929
▁용어를	-13930
▁이즈미	-13931
▁향하는	-13932
▁덴마크의	-13933
▁되어있다	-13934
▁시칠리아	-13935
망의	-13936
▁공직	-13937
▁쿠로	-13938
▁태백	-13939
▁번호는	-13940
▁긍정적인	-13941
▁비밀리에	-13942
파라	-13943
▁스리	-13944
▁연호	-13945
▁쾰른	-13946
정책을	-13947
▁병으로	-13948
▁본인이	-13949
▁의원이	-13950
▁인접한	-13951
▁잡았다	-13952
ident	-13953
▁학생들의	-13954
▁도입되었다	-13955
▁0000).	-13956
닐라	-13957
유지	-13958
히라	-13959
▁구스타	-13960
▁시기를	-13961
▁land	-13962
▁물러났다	-13963
▁불가능한	-13964
▁프로그램에	-13965
(《	-13966
루에	-13967
타점	-13968
해온	-13969
▁둥글	-13970
▁물의	-13971
▁총칭	-13972
여명의	-13973
▁차량이	-13974
유니버설	-13975
▁일컫는다	-13976
▁조선시대의	-13977
열에	-13978
치료	-13979
▁도마	-13980
▁돌입	-13981
▁말의	-13982
▁제퍼	-13983
iness	-13984
ittle	-13985
▁sign	-13986
▁사망하자	-13987
▁remix	-13988
▁국가대표팀의	-13989
성사	-13990
스퍼	-13991
▁만의	-13992
▁사관	-13993
▁서인	-13994
▁선과	-13995
졌다고	-13996
ally	-13997
▁bas	-13998
▁가지가	-13999
▁동생인	-14000
▁부유한	-14001
▁다이스케	-14002
▁총대주교	-14003
》.	-14004
도라	-14005
서스	-14006
줬다	-14007
클로	-14008
▁발각	-14009
▁향을	-14010
도르프	-14011
우스가	-14012
ness	-14013
▁자기의	-14014
▁전통을	-14015
▁차량을	-14016
ral	-14017
▁서경	-14018
▁시골	-14019
▁진공	-14020
청소년	-14021
▁공화당	-14022
▁관직을	-14023
▁디비전	-14024
▁부근에	-14025
▁중국과	-14026
▁부분으로	-14027
bridge	-14028
거를	-14029
들여	-14030
법칙	-14031
ied	-14032
▁구와	-14033
▁들을	-14034
▁상동	-14035
▁세트	-14036
▁작아	-14037
▁안으로	-14038
▁회의를	-14039
국적	-14040
비언	-14041
사쿠	-14042
타수	-14043
▁고체	-14044
▁당대	-14045
▁산의	-14046
▁신기	-14047
감으로	-14048
▁갈등을	-14049
▁브로드	-14050
▁구마모토	-14051
블랙	-14052
영업	-14053
체계	-14054
▁다름	-14055
▁주체	-14056
▁첨단	-14057
자이며	-14058
▁행사를	-14059
▁그리스도의	-14060
▁제주특별자치도	-14061
親王	-14062
교에	-14063
위기	-14064
의사	-14065
▁ds	-14066
▁대덕	-14067
▁번식	-14068
스카이	-14069
▁hall	-14070
항에	-14071
▁가축	-14072
▁이끈	-14073
▁회수	-14074
▁현재에	-14075
▁대학교에	-14076
▁stand	-14077
▁피겨스케이팅	-14078
트페테르부르크	-14079
』(	-14080
품이	-14081
필리	-14082
▁가자	-14083
▁감마	-14084
▁나비	-14085
▁시부	-14086
▁용병	-14087
▁조언	-14088
▁직할	-14089
영사관	-14090
▁sky	-14091
▁저작권	-14092
▁점수를	-14093
았기	-14094
연수	-14095
특집	-14096
▁구할	-14097
▁띠고	-14098
▁봉건	-14099
▁의결	-14100
▁하부	-14101
▁san	-14102
▁동쪽에	-14103
▁뒤에도	-14104
▁압력을	-14105
▁예수의	-14106
▁실시하고	-14107
말의	-14108
유산	-14109
장로	-14110
▁모하	-14111
▁정사	-14112
▁중재	-14113
▁플랜	-14114
▁사범대학	-14115
왕에	-14116
지하	-14117
pos	-14118
▁가의	-14119
▁헬륨	-14120
▁hot	-14121
▁이글스	-14122
▁하느님	-14123
▁인정하는	-14124
것은	-14125
란은	-14126
▁옹립	-14127
▁제곱	-14128
▁니가타	-14129
▁시티의	-14130
▁제국에	-14131
노가	-14132
운행	-14133
▁지주	-14134
▁카롤	-14135
▁태자	-14136
▁나타낼	-14137
▁모습은	-14138
▁뮤지션	-14139
▁소비자	-14140
▁학자들은	-14141
gar	-14142
▁na	-14143
▁함유	-14144
폴란드	-14145
▁law	-14146
▁조건이	-14147
▁몬트리올	-14148
▁radio	-14149
▁다이아몬드	-14150
주택	-14151
▁무서	-14152
▁삼척	-14153
▁요정	-14154
쳤으며	-14155
▁월요일	-14156
▁주파수	-14157
▁참가자	-14158
특수학급	-14159
▁공격으로	-14160
▁캄보디아	-14161
량과	-14162
즈마	-14163
men	-14164
▁경로	-14165
▁미만	-14166
있었다	-14167
reet	-14168
▁아이들	-14169
▁정보가	-14170
▁부분에서	-14171
▁알려지게	-14172
▁올스타전	-14173
것이	-14174
상황	-14175
시한	-14176
청사	-14177
▁분출	-14178
▁이건	-14179
▁was	-14180
▁다음은	-14181
▁야마다	-14182
▁정도를	-14183
▁클라이언	-14184
padding	-14185
기본	-14186
량에	-14187
뮤지	-14188
▁딸로	-14189
▁산출	-14190
▁세븐	-14191
▁유비	-14192
▁유혹	-14193
▁파나	-14194
능력을	-14195
도비	-14196
모에	-14197
▁경의	-14198
▁경인	-14199
▁이호	-14200
▁철회	-14201
▁하우	-14202
▁동명의	-14203
▁버전이	-14204
▁붙여진	-14205
▁싸움을	-14206
▁이름에서	-14207
▁킬로미터	-14208
▁아르헨티나의	-14209
▁땄	-14210
▁여진	-14211
▁충성	-14212
어지고	-14213
▁은퇴한	-14214
▁집안의	-14215
▁정치적인	-14216
▁현대자동차	-14217
였을	-14218
함마	-14219
▁나를	-14220
▁만일	-14221
▁뽑아	-14222
▁일조	-14223
▁지선	-14224
▁횡단	-14225
계약을	-14226
해주는	-14227
▁max	-14228
▁같은해	-14229
▁본래의	-14230
▁수상작	-14231
▁온도가	-14232
▁정권의	-14233
▁슬로바키아	-14234
cp	-14235
리사	-14236
링을	-14237
병에	-14238
회전	-14239
▁신조	-14240
▁중퇴	-14241
▁척추	-14242
▁출산	-14243
▁콜린	-14244
▁양식을	-14245
▁인근의	-14246
▁패배를	-14247
위원회를	-14248
▁그들에게	-14249
▁연합군의	-14250
▁컬럼비아	-14251
▁가볍	-14252
▁강철	-14253
▁밝힌	-14254
▁배가	-14255
▁실망	-14256
▁왜곡	-14257
▁입원	-14258
메이트	-14259
점이다	-14260
▁nov	-14261
▁rna	-14262
▁새겨진	-14263
▁아스널	-14264
▁크라이	-14265
▁퍼포먼	-14266
▁하원의	-14267
▁orig	-14268
▁부문에서	-14269
▁진행되고	-14270
▁씌	-14271
널티	-14272
연료	-14273
▁#"	-14274
▁공신	-14275
▁나노	-14276
▁높게	-14277
▁배후	-14278
▁양호	-14279
▁통용	-14280
▁but	-14281
▁미래의	-14282
▁주위에	-14283
▁즉위한	-14284
▁부분적으로	-14285
▁0000000000	-14286
tw	-14287
괜찮	-14288
vin	-14289
war	-14290
▁경연	-14291
▁동상	-14292
▁말씀	-14293
▁숨어	-14294
▁밖에도	-14295
▁아돌프	-14296
▁이라고	-14297
예술대상	-14298
▁결정되었다	-14299
▁william	-14300
께서	-14301
내면	-14302
.0)	-14303
▁궁전	-14304
▁종은	-14305
루이스	-14306
연기상	-14307
회사로	-14308
▁강남구	-14309
▁비주얼	-14310
▁유로파	-14311
▁blue	-14312
▁입장에서	-14313
▁중소기업	-14314
▁드라마이다	-14315
니코	-14316
미트	-14317
약성	-14318
종과	-14319
mag	-14320
▁궁정	-14321
▁담아	-14322
▁제치고	-14323
▁메뉴	-14324
▁목조	-14325
▁토르	-14326
▁귀중한	-14327
▁데스크	-14328
▁똑같은	-14329
▁아레나	-14330
▁정치를	-14331
▁free	-14332
▁달성했다	-14333
▁쇼트트랙	-14334
▁공산주의자	-14335
들리	-14336
츠크	-14337
타고	-14338
▁성씨	-14339
▁let	-14340
▁더이상	-14341
▁니콜라이	-14342
영웅	-14343
평일	-14344
▁객원	-14345
▁공의	-14346
▁플러	-14347
▁영향이	-14348
▁용도로	-14349
▁분류된다	-14350
▁전체적인	-14351
하리	-14352
▁대명	-14353
▁떠올	-14354
▁연꽃	-14355
▁제노	-14356
▁토끼	-14357
▁목표는	-14358
▁벼슬을	-14359
▁역사의	-14360
▁코치로	-14361
▁크레이	-14362
▁설치하고	-14363
▁실패하고	-14364
미상	-14365
엑스	-14366
▁시속	-14367
▁좌표	-14368
▁캐서	-14369
▁인간을	-14370
▁차이로	-14371
▁표면에	-14372
학자이다	-14373
▁승격되었다	-14374
▁킥	-14375
아오	-14376
쿠버	-14377
플레	-14378
한이	-14379
무스메	-14380
▁격렬한	-14381
네트워크	-14382
▁국제적인	-14383
▁포기하고	-14384
유리	-14385
▁남산	-14386
▁성에	-14387
▁악마	-14388
▁제로	-14389
▁제의	-14390
영화상	-14391
▁기간을	-14392
▁있거나	-14393
▁크라운	-14394
▁시장에서	-14395
▁카를로스	-14396
mr	-14397
검은	-14398
장사	-14399
컨대	-14400
uch	-14401
▁ox	-14402
▁폭로	-14403
거리가	-14404
▁경기의	-14405
▁군대에	-14406
▁알리는	-14407
▁의미는	-14408
▁코스타	-14409
▁결정한다	-14410
▁도라에몽	-14411
▁cellpadding	-14412
원장	-14413
olf	-14414
▁극동	-14415
▁도둑	-14416
▁동위	-14417
▁지위	-14418
▁가리지	-14419
▁며느리	-14420
▁북부에	-14421
▁수도인	-14422
▁애틀랜	-14423
▁존재할	-14424
▁engine	-14425
봉을	-14426
일즈	-14427
티드	-14428
프에	-14429
행동	-14430
nam	-14431
pan	-14432
▁가산	-14433
▁무술	-14434
▁문고	-14435
▁발동	-14436
▁판정	-14437
▁모양이	-14438
▁일하고	-14439
urope	-14440
▁공격하는	-14441
▁연도	-14442
▁탁구	-14443
▁하락	-14444
▁해명	-14445
▁대가로	-14446
▁드물게	-14447
▁크기를	-14448
▁안토니오	-14449
▁하나였다	-14450
▁익스프레스	-14451
조선민주주의인민공화국의	-14452
▁꽃이	-14453
▁들려	-14454
▁신중	-14455
▁앞의	-14456
▁축적	-14457
문학상	-14458
mann	-14459
▁선정한	-14460
▁news	-14461
▁사회에서	-14462
성면	-14463
우회	-14464
▁led	-14465
▁비율이	-14466
▁사라진	-14467
▁받았지만	-14468
▁아시카가	-14469
전용	-14470
▁단원	-14471
▁돌고	-14472
▁이산	-14473
▁자국	-14474
▁품질	-14475
▁피츠	-14476
▁현금	-14477
티아의	-14478
▁인상을	-14479
▁설치하였다	-14480
esearch	-14481
녀를	-14482
솔린	-14483
주연	-14484
▁공수	-14485
▁동인	-14486
▁무척	-14487
▁사절	-14488
▁조광	-14489
▁동안의	-14490
▁최연소	-14491
▁disc	-14492
▁결혼하여	-14493
▁나머지는	-14494
▁배치되어	-14495
▁수산	-14496
▁스킬	-14497
▁충실	-14498
▁피를	-14499
▁south	-14500
오스트레일리아	-14501
▁쿤	-14502
냐는	-14503
레가	-14504
설에	-14505
:0.	-14506
▁각색	-14507
▁델라	-14508
▁상표	-14509
▁알지	-14510
▁직면	-14511
▁춤을	-14512
▁은퇴를	-14513
▁전세계	-14514
▁형태이다	-14515
▁활약하고	-14516
가장	-14517
영과	-14518
타우	-14519
▁강변	-14520
▁살려	-14521
▁상경	-14522
▁세속	-14523
▁조인	-14524
▁종속	-14525
▁관련해	-14526
▁막부의	-14527
▁문서를	-14528
▁서유럽	-14529
▁이론에	-14530
▁죽음의	-14531
▁투수로	-14532
▁한국철도	-14533
▁헤르체고	-14534
▁institute	-14535
벽을	-14536
중추	-14537
sam	-14538
▁교외	-14539
▁등재	-14540
▁모용	-14541
▁박용	-14542
▁본명	-14543
스트리	-14544
▁경찰에	-14545
▁왕국을	-14546
▁파일럿	-14547
▁힘으로	-14548
▁시베리아	-14549
▁중단되었다	-14550
야와	-14551
토쿠	-14552
한정	-14553
▁결론	-14554
▁김은	-14555
▁숙청	-14556
▁중산	-14557
▁차원	-14558
▁평정	-14559
▁호응	-14560
관계가	-14561
burg	-14562
▁나타낸	-14563
▁당선자	-14564
▁그레이트	-14565
▁설명했다	-14566
▁발견하였다	-14567
내며	-14568
튜브	-14569
han	-14570
▁더해	-14571
▁메소	-14572
▁이모	-14573
▁일산	-14574
▁탐색	-14575
렸다고	-14576
▁느끼고	-14577
▁font	-14578
▁승격하였다	-14579
진군	-14580
편집	-14581
▁성이	-14582
▁초연	-14583
레이트	-14584
▁대표적	-14585
▁싸우는	-14586
▁올리고	-14587
텍처	-14588
▁루스	-14589
▁주사	-14590
▁표본	-14591
왕후의	-14592
▁레스토	-14593
▁마르코	-14594
▁일대를	-14595
▁전반에	-14596
▁정권이	-14597
▁청와대	-14598
▁확실한	-14599
▁code	-14600
▁도카이도	-14601
아프리카계	-14602
드래	-14603
안동	-14604
▁미디	-14605
▁아닐	-14606
▁태평	-14607
부원군	-14608
▁마르세	-14609
▁표현하는	-14610
▁에티오피아	-14611
럴드	-14612
묘한	-14613
토와	-14614
해튼	-14615
▁제너	-14616
▁폭행	-14617
읍으로	-14618
ague	-14619
▁mit	-14620
▁차례의	-14621
보도	-14622
▁로그	-14623
▁법조	-14624
▁되었다는	-14625
▁주민들은	-14626
▁diocese	-14627
축제	-14628
▁"0	-14629
▁빈번	-14630
▁싸워	-14631
▁원숭	-14632
▁유연	-14633
▁정립	-14634
▁협조	-14635
iana	-14636
▁보유한	-14637
▁독립적인	-14638
왼쪽	-14639
pet	-14640
▁감금	-14641
▁공채	-14642
▁따온	-14643
▁바꿀	-14644
▁보헤	-14645
▁연희	-14646
▁이빨	-14647
▁주자	-14648
omys	-14649
ones	-14650
ople	-14651
▁교사로	-14652
▁통틀어	-14653
▁패밀리	-14654
▁유지하는	-14655
▁콘테스트	-14656
▁웬	-14657
개소	-14658
서부	-14659
슨과	-14660
창의	-14661
)》,	-14662
iro	-14663
▁때인	-14664
▁양국	-14665
▁에밀	-14666
▁위와	-14667
▁춘추	-14668
리조나	-14669
됨으로써	-14670
주민센터	-14671
▁과거에는	-14672
▁분위기를	-14673
▁이어진다	-14674
▁환경에서	-14675
특별위원회	-14676
▁진출하였다	-14677
▁펜실베이니아	-14678
▁렉	-14679
달의	-14680
▁nt	-14681
▁공손	-14682
▁모자	-14683
▁점에	-14684
▁타츠	-14685
▁교향악	-14686
▁친구인	-14687
▁결정하는	-14688
포켓몬스터	-14689
▁아이슬란드	-14690
▁잉글랜드인	-14691
고문	-14692
여름	-14693
▁카네	-14694
▁회화	-14695
되므로	-14696
▁것인가	-14697
▁중대한	-14698
▁페널티	-14699
▁헌액자	-14700
▁프랑스에	-14701
서리	-14702
▁전날	-14703
▁궤도를	-14704
▁주위의	-14705
▁투수가	-14706
▁바르샤바	-14707
大王	-14708
르다	-14709
트넘	-14710
gan	-14711
▁강에	-14712
▁대영	-14713
▁옮김	-14714
▁이며	-14715
▁원인을	-14716
▁000–	-14717
두산	-14718
hpa	-14719
▁박쥐	-14720
▁씨의	-14721
▁도입된	-14722
▁보내고	-14723
▁본선의	-14724
▁조정에	-14725
▁진행하고	-14726
▁항공모함	-14727
네오	-14728
보컬	-14729
학이	-14730
ben	-14731
wik	-14732
▁cp	-14733
▁ev	-14734
▁교전	-14735
▁보성	-14736
▁키가	-14737
▁폐교	-14738
▁두개골	-14739
▁스테이	-14740
▁팀에서	-14741
니즈	-14742
수정	-14743
트르	-14744
ery	-14745
▁로버	-14746
▁아역	-14747
자리의	-14748
협회상	-14749
ense	-14750
▁tom	-14751
▁것인지	-14752
▁알코올	-14753
▁trans	-14754
▁박스	-14755
▁우드	-14756
▁이데	-14757
▁투명	-14758
비서관	-14759
▁미시간	-14760
▁점령한	-14761
▁아라비아	-14762
▁00.0/	-14763
있게	-14764
집의	-14765
ipp	-14766
▁ho	-14767
▁냄새	-14768
▁마나	-14769
▁시정	-14770
▁임용	-14771
▁점수	-14772
▁포장	-14773
판에서	-14774
▁나라는	-14775
킬로미터	-14776
▁에어버스	-14777
vir	-14778
▁돌을	-14779
▁전무	-14780
게임넷	-14781
그러나	-14782
스카르	-14783
▁뚜렷한	-14784
▁반도의	-14785
▁타이거스	-14786
▁체코슬로바키아	-14787
그린	-14788
돌을	-14789
전인	-14790
지능	-14791
코로	-14792
cor	-14793
▁전격	-14794
▁처분	-14795
▁beat	-14796
▁국립공원	-14797
▁결혼하였다	-14798
공업고등학교	-14799
친일인명사전	-14800
▁민족문제연구	-14801
▁뻔	-14802
국방	-14803
업의	-14804
▁용암	-14805
▁홍성	-14806
티미터	-14807
▁부대가	-14808
▁실패한	-14809
▁합병해	-14810
프라이즈	-14811
▁주장하며	-14812
▁party	-14813
▁그레고리오	-14814
▁뭐	-14815
▁샐	-14816
▁동참	-14817
▁축성	-14818
형이다	-14819
▁sil	-14820
▁감독상	-14821
▁뒷받침	-14822
▁본인은	-14823
▁지구에	-14824
▁결정하였다	-14825
▁입단하였다	-14826
▁갯	-14827
거는	-14828
수영	-14829
족에	-14830
행의	-14831
▁가신	-14832
▁미들	-14833
▁자택	-14834
▁증후	-14835
▁바꾸는	-14836
-0)	-14837
▁광둥	-14838
▁비단	-14839
▁키워	-14840
▁김옥균	-14841
▁당연히	-14842
▁dist	-14843
▁作	-14844
능한	-14845
사자	-14846
카즈	-14847
mel	-14848
▁yo	-14849
▁학력	-14850
았다고	-14851
▁마라톤	-14852
▁모니터	-14853
▁의무를	-14854
▁현재도	-14855
불을	-14856
▁볼프	-14857
▁조영	-14858
▁해인	-14859
▁규모로	-14860
▁삼성전자	-14861
▁원조	-14862
urch	-14863
▁체육관	-14864
마니아의	-14865
▁캐릭터가	-14866
급을	-14867
열은	-14868
좋은	-14869
▁끝날	-14870
▁데미	-14871
▁세리	-14872
▁이별	-14873
▁죽인	-14874
▁선거구	-14875
▁조직이	-14876
▁르네상스	-14877
▁좋아한다	-14878
막을	-14879
▁워터	-14880
▁인원	-14881
▁헬리	-14882
책으로	-14883
inus	-14884
▁단어를	-14885
▁물러나	-14886
▁보다는	-14887
▁선거를	-14888
▁생산하는	-14889
▁연구학교	-14890
▁해결하기	-14891
▁때문이라고	-14892
쥐속	-14893
크에	-14894
▁수염	-14895
▁장흥	-14896
르트문	-14897
ique	-14898
▁모델이	-14899
▁살았던	-14900
▁속하며	-14901
▁일제의	-14902
ather	-14903
▁성격으로	-14904
▁이루어지지	-14905
▁취임하였다	-14906
▁엮	-14907
화문	-14908
▁세례	-14909
▁soc	-14910
▁가지의	-14911
▁앨범에	-14912
▁치러진	-14913
▁쿠데타	-14914
▁결정된다	-14915
▁진출했다	-14916
▁낫	-14917
경쟁	-14918
기나	-14919
전남	-14920
준이	-14921
dom	-14922
▁인플	-14923
▁잘라	-14924
▁뒤이어	-14925
▁베토벤	-14926
▁선택할	-14927
▁프로레슬링	-14928
ki	-14929
다스	-14930
▁단절	-14931
▁면이	-14932
▁성동	-14933
▁중위	-14934
▁van	-14935
▁인테르	-14936
▁설치하여	-14937
품의	-14938
▁갈아	-14939
▁고이	-14940
▁꿈꾸	-14941
▁나주	-14942
▁전함	-14943
층석탑	-14944
▁아폴로	-14945
▁영국에	-14946
univers	-14947
사유	-14948
피가	-14949
▁균형	-14950
▁넘버	-14951
▁부사	-14952
▁부총	-14953
▁집결	-14954
▁타마	-14955
▁필사	-14956
▁히카	-14957
일체유	-14958
하기는	-14959
▁따른다	-14960
▁떨어뜨	-14961
▁센고쿠	-14962
▁음악에	-14963
▁토지를	-14964
▁공격하여	-14965
▁보호하기	-14966
get	-14967
▁넷째	-14968
▁성별	-14969
▁싶다	-14970
▁유년	-14971
▁제천	-14972
▁내야수	-14973
▁범위를	-14974
▁설명할	-14975
▁분포한다	-14976
iction	-14977
aka	-14978
▁지미	-14979
▁가문은	-14980
▁가수로	-14981
▁되었던	-14982
▁역이다	-14983
▁자신들이	-14984
▁합스부르크	-14985
▁records	-14986
궁의	-14987
색과	-14988
칸의	-14989
폭탄	-14990
ids	-14991
lex	-14992
▁감리	-14993
▁감수	-14994
▁군정	-14995
주의가	-14996
ning	-14997
▁방송이	-14998
▁주민들이	-14999
▁플라스틱	-15000
▁langu	-15001
mn	-15002
락이	-15003
▁도네	-15004
▁번에	-15005
▁택시	-15006
라이드	-15007
브리엘	-15008
▁내리는	-15009
▁단어는	-15010
▁연구의	-15011
▁스페이스	-15012
▁프로젝트를	-15013
민을	-15014
▁뜻은	-15015
▁뱅크	-15016
▁부시	-15017
▁상해	-15018
▁송출	-15019
▁앞장	-15020
▁찍은	-15021
지역에	-15022
▁도시에	-15023
▁비하여	-15024
▁성장을	-15025
▁클럽의	-15026
단장	-15027
수욕	-15028
▁나미	-15029
▁마블	-15030
▁선행	-15031
▁필드	-15032
났는데	-15033
층으로	-15034
▁교육부	-15035
▁마을에	-15036
▁말기에	-15037
▁소문이	-15038
▁실시한	-15039
▁아름답	-15040
▁위치는	-15041
▁프로듀싱	-15042
잉글랜드계	-15043
로스앤젤레스	-15044
=0	-15045
▁규범	-15046
▁브란	-15047
▁죽어	-15048
▁지름	-15049
▁허위	-15050
물이다	-15051
조참판	-15052
▁나오고	-15053
ander	-15054
▁프리미엄	-15055
과거	-15056
아지	-15057
어촌	-15058
웠고	-15059
카쿠	-15060
협정	-15061
▁목성	-15062
will	-15063
▁일으킬	-15064
▁전했다	-15065
▁지휘자	-15066
스코리아	-15067
▁몸무게는	-15068
소득	-15069
▁반경	-15070
▁전산	-15071
▁정몽	-15072
▁편에	-15073
심으로	-15074
▁문화가	-15075
▁사업에	-15076
▁평화를	-15077
▁휘하의	-15078
▁고려하여	-15079
▁관계없이	-15080
▁아카데미상	-15081
조리	-15082
투수	-15083
▁단식	-15084
▁만세	-15085
▁모인	-15086
▁무의	-15087
▁전수	-15088
▁포토	-15089
▁협동	-15090
▁확신	-15091
iter	-15092
▁상처를	-15093
▁전하는	-15094
▁파라과	-15095
▁포로로	-15096
▁*000	-15097
▁가나가와	-15098
▁각지에서	-15099
▁아케이드	-15100
▁주어진다	-15101
▁시작하면서	-15102
로프	-15103
▁감안	-15104
▁관동	-15105
▁낙동	-15106
▁오로	-15107
▁오해	-15108
는지는	-15109
ider	-15110
▁베어스	-15111
▁패러디	-15112
▁text	-15113
▁헝가리의	-15114
▁(0:00)	-15115
녀의	-15116
재인	-15117
체험	-15118
▁값이	-15119
▁광양	-15120
▁대부	-15121
▁맺은	-15122
▁몸의	-15123
▁배수	-15124
▁병을	-15125
▁상급	-15126
▁워너	-15127
▁원천	-15128
▁his	-15129
▁게르만	-15130
▁생각이	-15131
위원으로	-15132
▁벵	-15133
벌을	-15134
참여	-15135
▁줄여	-15136
▁탁월	-15137
속에서	-15138
icus	-15139
▁역사적인	-15140
두를	-15141
창을	-15142
arc	-15143
▁미친	-15144
▁방화	-15145
▁분동	-15146
성이다	-15147
▁수행할	-15148
▁중국인	-15149
▁설일체유	-15150
▁익스플로	-15151
▁지나면서	-15152
마법	-15153
성장	-15154
철은	-15155
▁시직	-15156
▁싸이	-15157
▁부문에	-15158
▁산업의	-15159
▁이곳을	-15160
▁피해가	-15161
▁기록했고	-15162
▁manag	-15163
루트	-15164
부키	-15165
비야	-15166
시킴	-15167
쓰마	-15168
ker	-15169
▁대종	-15170
▁반격	-15171
▁재팬	-15172
▁마에다	-15173
▁보고서	-15174
▁설치한	-15175
▁외에는	-15176
▁자치구	-15177
▁제작자	-15178
▁활약했다	-15179
고와	-15180
창원	-15181
▁바나	-15182
▁알을	-15183
▁이라	-15184
▁해병대	-15185
적으로도	-15186
▁부근에서	-15187
마귀	-15188
식스	-15189
▁mb	-15190
▁정밀	-15191
▁증설	-15192
그리고	-15193
디지털	-15194
시간이	-15195
▁교육과	-15196
▁단행본	-15197
▁연평균	-15198
▁자체의	-15199
▁film	-15200
▁담당했다	-15201
보와	-15202
사도	-15203
▁개항	-15204
vers	-15205
▁과정이	-15206
▁제목의	-15207
▁총리가	-15208
▁거부하고	-15209
▁있어서의	-15210
선수권대회	-15211
예가	-15212
위인	-15213
취를	-15214
츠가	-15215
풀이	-15216
▁실무	-15217
론에서	-15218
▁별자리	-15219
▁시간의	-15220
▁시대가	-15221
▁작용을	-15222
▁설탕	-15223
▁이범	-15224
▁하치	-15225
▁후한	-15226
▁abc	-15227
▁못하여	-15228
▁행정동	-15229
▁으	-15230
드르	-15231
무대	-15232
지오	-15233
asy	-15234
▁극대	-15235
▁뛰고	-15236
▁루터	-15237
▁방침	-15238
▁의상	-15239
▁패전	-15240
▁당하고	-15241
▁대통령과	-15242
▁싣	-15243
메가	-15244
쇼와	-15245
포시	-15246
황금	-15247
den	-15248
nor	-15249
▁기각	-15250
▁동영	-15251
▁타당	-15252
▁혼다	-15253
▁기여를	-15254
▁기본으로	-15255
▁점령하고	-15256
▁업그레이드	-15257
▁카자흐스탄	-15258
ин	-15259
철학	-15260
쿠르	-15261
▁승점	-15262
▁야외	-15263
▁차체	-15264
▁가족의	-15265
▁본사는	-15266
japan	-15267
▁개칭하였다	-15268
▁나이지리아	-15269
레를	-15270
▁동점	-15271
▁빅뱅	-15272
▁취업	-15273
▁홈구	-15274
포인트	-15275
▁대신해	-15276
▁성격의	-15277
▁아나키	-15278
▁하워드	-15279
시켰으며	-15280
보라	-15281
에어	-15282
sec	-15283
▁감싸	-15284
▁반포	-15285
▁살라	-15286
▁석가	-15287
▁슈팅	-15288
르트의	-15289
▁big	-15290
▁가사를	-15291
▁따뜻한	-15292
▁상대를	-15293
▁소련은	-15294
▁열심히	-15295
▁그녀에게	-15296
▁하느님의	-15297
▁0-00000-000-0	-15298
개와	-15299
기일	-15300
다테	-15301
▁창녕	-15302
▁한해	-15303
스트는	-15304
▁모두를	-15305
▁치열한	-15306
텔레비전	-15307
▁그러다가	-15308
▁아니라는	-15309
▁형성되어	-15310
▁니코	-15311
▁짙은	-15312
▁고시엔	-15313
▁모티브	-15314
▁밴드는	-15315
▁본사를	-15316
▁새정치	-15317
▁태권도	-15318
▁방면으로	-15319
▁사용하면	-15320
▁에스페란	-15321
▁하였지만	-15322
갈색	-15323
무의	-15324
하와	-15325
ken	-15326
▁각료	-15327
▁블로	-15328
▁색채	-15329
▁서면	-15330
▁자선	-15331
▁조문	-15332
▁조화	-15333
▁헬로	-15334
▁공간이	-15335
▁기관차	-15336
▁기상청	-15337
▁나란히	-15338
▁바꾸고	-15339
▁사전에	-15340
▁세력은	-15341
▁영의정	-15342
▁유학생	-15343
▁투표를	-15344
리그에서	-15345
▁도르트문	-15346
▁해상에서	-15347
▁light	-15348
신정	-15349
▁교리	-15350
▁빈곤	-15351
▁송파	-15352
▁않자	-15353
▁에콰	-15354
▁읽는	-15355
▁붙였다	-15356
▁영지를	-15357
▁지키기	-15358
▁헌법에	-15359
▁coun	-15360
▁지어졌다	-15361
▁형성하고	-15362
sf	-15363
▁늙	-15364
동원	-15365
레기	-15366
만과	-15367
▁강은	-15368
▁내정	-15369
▁루시	-15370
▁봉기	-15371
▁서적	-15372
▁온다	-15373
공화당	-15374
라이브	-15375
상규명	-15376
요시의	-15377
▁공격해	-15378
▁역사에	-15379
▁열매는	-15380
▁이내에	-15381
▁회원국	-15382
▁레스토랑	-15383
▁프랑수아	-15384
▁고등학교를	-15385
▁디비시온의	-15386
▁아리스토텔레	-15387
만년	-15388
양과	-15389
쪽은	-15390
▁두꺼	-15391
▁성북	-15392
▁없던	-15393
▁이룩	-15394
▁정작	-15395
▁차용	-15396
▁피로	-15397
▁경찰의	-15398
▁물체의	-15399
▁아스카	-15400
▁했었다	-15401
노에	-15402
니티	-15403
발로	-15404
세인	-15405
▁공표	-15406
▁사서	-15407
▁성명	-15408
▁해고	-15409
▁것이나	-15410
▁시장을	-15411
▁않아도	-15412
▁제주시	-15413
▁지냈고	-15414
▁dire	-15415
니오	-15416
▁고아	-15417
▁링크	-15418
▁세션	-15419
▁음료	-15420
▁포획	-15421
▁화를	-15422
사회의	-15423
▁건축가	-15424
▁위치로	-15425
▁port	-15426
▁《0000	-15427
▁시작하였으며	-15428
▁옌	-15429
복음	-15430
▁0-	-15431
▁견인	-15432
▁상행	-15433
▁여배우	-15434
▁예이다	-15435
▁주머니	-15436
▁진출한	-15437
▁러시아는	-15438
▁special	-15439
오기	-15440
▁개종	-15441
▁남게	-15442
▁사야	-15443
▁죽게	-15444
▁각국의	-15445
▁기간은	-15446
▁우승자	-15447
▁개인적인	-15448
/0,000	-15449
▁슬로베니아	-15450
▁선사	-15451
▁수령	-15452
▁없었	-15453
▁종착	-15454
▁퇴역	-15455
▁항소	-15456
▁출신인	-15457
으로서는	-15458
날의	-15459
제비	-15460
▁난을	-15461
▁넓게	-15462
▁스태	-15463
▁풍자	-15464
▁회로	-15465
누스는	-15466
▁구하기	-15467
▁전역에	-15468
▁활발히	-15469
▁상관없이	-15470
▁샀	-15471
▁섀	-15472
가나	-15473
리면	-15474
사라	-15475
사실	-15476
▁gs	-15477
▁검출	-15478
▁길에	-15479
▁법의	-15480
▁사면	-15481
▁증대	-15482
노동당	-15483
▁:''	-15484
▁갈수록	-15485
▁케플러	-15486
▁도로이다	-15487
▁아이디얼	-15488
아르헨티나의	-15489
드림	-15490
퀘어	-15491
▁대안	-15492
▁반전	-15493
▁올드	-15494
▁즈음	-15495
▁칼럼	-15496
▁동일하게	-15497
▁역임하고	-15498
▁일종으로	-15499
▁친일인명사전	-15500
더의	-15501
무관	-15502
출소	-15503
큐어	-15504
▁xp	-15505
▁공방	-15506
▁버펄	-15507
▁전지	-15508
▁정종	-15509
oney	-15510
▁lab	-15511
▁건설을	-15512
▁뉴욕의	-15513
▁무대를	-15514
▁바다에	-15515
▁미나모토	-15516
▁등장하였다	-15517
여고	-15518
좌상	-15519
▁선비	-15520
▁저렴	-15521
되도록	-15522
▁음반은	-15523
▁airport	-15524
도서	-15525
면적	-15526
주공	-15527
▁il	-15528
▁담임	-15529
▁대웅	-15530
▁리베	-15531
▁발의	-15532
▁수에	-15533
▁인명	-15534
▁자서	-15535
▁카탈	-15536
▁est	-15537
▁pap	-15538
▁경상도	-15539
▁네티즌	-15540
▁사헌부	-15541
▁지키고	-15542
▁이전부터	-15543
▁콰	-15544
겨울	-15545
신도	-15546
oma	-15547
▁고산	-15548
▁파동	-15549
▁흔한	-15550
▁방사능	-15551
▁장관을	-15552
▁클레멘	-15553
▁파란색	-15554
▁design	-15555
▁research	-15556
환은	-15557
▁광학	-15558
▁동조	-15559
▁세금	-15560
▁제프	-15561
▁짐작	-15562
문화의	-15563
adem	-15564
▁묘사한	-15565
▁붙었다	-15566
▁하에서	-15567
▁행성이	-15568
▁음반이다	-15569
▁일리노이	-15570
+0	-15571
강이	-15572
cha	-15573
▁개가	-15574
▁공습	-15575
▁년간	-15576
▁대왕	-15577
▁렌즈	-15578
▁리우	-15579
▁볼로	-15580
▁부각	-15581
▁소말	-15582
▁식사	-15583
▁집착	-15584
나라가	-15585
났지만	-15586
▁말미암	-15587
▁아이가	-15588
▁주도로	-15589
glish	-15590
▁나타내고	-15591
院君	-15592
복의	-15593
▁ha	-15594
▁가열	-15595
▁다마	-15596
▁매수	-15597
▁수축	-15598
▁팔라	-15599
블랜드	-15600
일에서	-15601
▁ext	-15602
▁순위를	-15603
▁십자군	-15604
▁종으로	-15605
▁출입구	-15606
)(0000	-15607
▁헛	-15608
설계	-15609
프린	-15610
현수	-15611
▁글리	-15612
▁대역	-15613
▁무비	-15614
▁현에	-15615
▁휴전	-15616
개월간	-15617
공사의	-15618
양으로	-15619
▁기존에	-15620
▁정치에	-15621
▁카운티	-15622
▁동일하다	-15623
▁서식하는	-15624
라쿠	-15625
코를	-15626
▁tu	-15627
▁개소	-15628
▁고든	-15629
▁꼭대	-15630
▁다툼	-15631
▁분비	-15632
▁유벤	-15633
▁이누	-15634
▁크롬	-15635
▁환자	-15636
받았고	-15637
▁신학자	-15638
남동	-15639
표가	-15640
▁고사	-15641
▁도미	-15642
▁배속	-15643
▁선동	-15644
▁종업	-15645
레스를	-15646
▁var	-15647
▁규모는	-15648
▁아리아	-15649
▁일대에	-15650
▁작품상	-15651
▁담당한다	-15652
▁둘러싸여	-15653
▁따라서는	-15654
▁서식한다	-15655
▁이용해서	-15656
▁프로야구	-15657
공로	-15658
스콘	-15659
코딩	-15660
훈은	-15661
▁여우	-15662
▁태극	-15663
지지만	-15664
▁내무부	-15665
▁시트콤	-15666
▁않아서	-15667
▁영화가	-15668
▁중성자	-15669
세기부터	-15670
▁경제학자	-15671
광년	-15672
세력	-15673
와도	-15674
▁조세	-15675
acaf	-15676
▁기간이	-15677
▁영업을	-15678
▁올바른	-15679
oidea	-15680
nc	-15681
지상	-15682
호대	-15683
▁시오	-15684
▁안치	-15685
▁카우	-15686
▁파손	-15687
▁파인	-15688
릴랜드	-15689
협회는	-15690
illa	-15691
▁열차의	-15692
▁종교의	-15693
▁주장에	-15694
주의적인	-15695
▁참가하는	-15696
▁후지와라	-15697
mw	-15698
두에	-15699
심은	-15700
취급	-15701
풍이	-15702
▁루카	-15703
▁원격	-15704
▁최영	-15705
▁국제적	-15706
▁물질이	-15707
▁저명한	-15708
독한	-15709
외교	-15710
▁격투	-15711
▁다투	-15712
▁두께	-15713
▁순조	-15714
차이나	-15715
▁끌었다	-15716
▁모른다	-15717
▁무함마	-15718
▁알프레	-15719
▁작업에	-15720
▁down	-15721
▁북아프리카	-15722
kw	-15723
▁앗	-15724
솔리	-15725
hal	-15726
▁아산	-15727
▁추산	-15728
들었다	-15729
제도를	-15730
▁싱글로	-15731
▁관해서는	-15732
▁1	-15733
났던	-15734
승지	-15735
시카	-15736
ios	-15737
▁나갔	-15738
▁베리	-15739
▁인재	-15740
▁조르	-15741
▁탐구	-15742
▁합계	-15743
▁각본가	-15744
▁독일군	-15745
▁친구가	-15746
▁plat	-15747
▁드리	-15748
렸지만	-15749
▁새마을	-15750
▁접하며	-15751
그리스의	-15752
덴부르크	-15753
▁일어나고	-15754
나도	-15755
반도	-15756
▁날에	-15757
▁단말	-15758
▁메카	-15759
▁수양	-15760
▁즐길	-15761
▁미치지	-15762
▁상황은	-15763
▁north	-15764
▁복귀하였다	-15765
달마	-15766
트루	-15767
hed	-15768
▁공이	-15769
▁동력	-15770
▁면제	-15771
▁은거	-15772
▁조수	-15773
▁피오	-15774
방송국	-15775
▁게릴라	-15776
▁마음의	-15777
▁사태가	-15778
▁슈퍼컵	-15779
▁외국어	-15780
ility	-15781
▁rich	-15782
▁프로그래머	-15783
동화	-15784
락의	-15785
크레	-15786
▁경과	-15787
▁독서	-15788
▁산란	-15789
▁어업	-15790
sing	-15791
▁고향인	-15792
▁무렵에	-15793
▁비율은	-15794
▁올리는	-15795
▁야마가타	-15796
▁운행한다	-15797
hu	-15798
시경	-15799
트륨	-15800
use	-15801
▁간토	-15802
▁김연	-15803
▁닮은	-15804
▁반감	-15805
▁읽고	-15806
▁접수	-15807
▁초회	-15808
▁타협	-15809
▁bet	-15810
▁비용이	-15811
▁야구장	-15812
▁위험을	-15813
▁제사를	-15814
▁혼란을	-15815
▁중요성을	-15816
▁평가했다	-15817
▁신설되었다	-15818
▁크리스티안	-15819
▁육군사관학교	-15820
▁0-00-000000-0	-15821
▁애칭	-15822
▁연소	-15823
만명의	-15824
품으로	-15825
▁대회가	-15826
▁우체국	-15827
▁자유형	-15828
▁클라크	-15829
uring	-15830
▁시리즈는	-15831
▁프랑스가	-15832
▁summer	-15833
▁festival	-15834
두로	-15835
▁국적	-15836
▁살게	-15837
▁파랑	-15838
▁aut	-15839
▁강하다	-15840
▁사무소	-15841
▁양자로	-15842
▁런던에서	-15843
▁스튜어트	-15844
▁생식	-15845
▁수확	-15846
▁오기	-15847
▁완화	-15848
▁정읍	-15849
▁집계	-15850
▁창출	-15851
▁칼라	-15852
▁형법	-15853
▁왕가의	-15854
▁이를테면	-15855
닌다	-15856
아름	-15857
운의	-15858
log	-15859
▁러일	-15860
▁재일	-15861
▁체크	-15862
▁테라	-15863
▁테츠	-15864
▁gal	-15865
▁나이는	-15866
▁나폴리	-15867
▁선으로	-15868
▁와일드	-15869
▁표현한	-15870
▁존재했던	-15871
▁콜로라도	-15872
▁건설되었다	-15873
▁철도역이다	-15874
▁association	-15875
ан	-15876
월과	-15877
▁겹쳐	-15878
▁궁궐	-15879
▁암시	-15880
▁압둘	-15881
▁자부	-15882
hell	-15883
▁cbs	-15884
▁나라가	-15885
▁보여준	-15886
▁오클랜드	-15887
▁비판하였다	-15888
▁robert	-15889
농협	-15890
롭고	-15891
승의	-15892
운이	-15893
▁다윈	-15894
▁당주	-15895
▁어쩔	-15896
▁유타	-15897
▁추종	-15898
▁파산	-15899
▁은하의	-15900
▁지휘를	-15901
▁추가적인	-15902
▁public	-15903
▁program	-15904
▁―	-15905
▁딕	-15906
무네	-15907
보니	-15908
쿠치	-15909
▁느꼈	-15910
▁불태	-15911
▁시바	-15912
시카고	-15913
▁것들이	-15914
▁달리는	-15915
▁레전드	-15916
▁최소한	-15917
▁프레데	-15918
▁고려시대	-15919
▁구분된다	-15920
▁수준으로	-15921
▁올라간다	-15922
▁노르웨이의	-15923
▁단선	-15924
▁몰수	-15925
▁절차	-15926
▁시간대	-15927
▁안티오	-15928
▁엔진은	-15929
▁운영을	-15930
▁증거가	-15931
▁행동에	-15932
▁라트비아	-15933
▁under	-15934
▁아일랜드의	-15935
spacing	-15936
강한	-15937
▁맞붙	-15938
▁신촌	-15939
▁풍속	-15940
▁현을	-15941
페스트	-15942
▁그래프	-15943
▁언어는	-15944
▁음악은	-15945
▁이루며	-15946
권자	-15947
츠카	-15948
▁노란	-15949
▁믿는	-15950
▁섬과	-15951
▁스기	-15952
▁치즈	-15953
석에서	-15954
▁phy	-15955
▁이해할	-15956
▁전략을	-15957
▁학문을	-15958
erica	-15959
▁프로세스	-15960
diocese	-15961
마디	-15962
선택	-15963
연극	-15964
졌기	-15965
pha	-15966
▁명인	-15967
▁성숙	-15968
▁발라드	-15969
▁요새를	-15970
▁허가를	-15971
다드	-15972
액이	-15973
영리	-15974
츠를	-15975
▁데서	-15976
▁자책	-15977
▁줄리	-15978
우리당	-15979
▁머리카	-15980
▁생긴다	-15981
▁시가지	-15982
▁줄무늬	-15983
▁지도를	-15984
▁하늘을	-15985
▁가져왔다	-15986
피크	-15987
▁러셀	-15988
▁상수	-15989
▁신형	-15990
▁전한	-15991
▁청량	-15992
관계에	-15993
▁누구나	-15994
▁독일에	-15995
▁잡아먹	-15996
▁개를	-15997
▁날이	-15998
▁양키	-15999
▁유코	-16000
▁출석	-16001
▁가솔린	-16002
▁죽음에	-16003
▁온타리오	-16004
ij	-16005
더슨	-16006
동리	-16007
콜로	-16008
bro	-16009
ely	-16010
▁봉안	-16011
▁불참	-16012
▁요동	-16013
▁학위	-16014
프로스	-16015
▁tok	-16016
▁고대의	-16017
▁교통의	-16018
▁민간인	-16019
▁제작을	-16020
thing	-16021
▁0.00%	-16022
공립국민학교로	-16023
테러	-16024
hol	-16025
▁기회	-16026
▁아유	-16027
▁약물	-16028
글라데	-16029
ling	-16030
▁심하게	-16031
▁시스템에	-16032
-)	-16033
▁뾰	-16034
대우	-16035
pre	-16036
▁기법	-16037
▁에리	-16038
▁연못	-16039
▁하행	-16040
크리트	-16041
▁경쟁을	-16042
▁유래된	-16043
계에서는	-16044
▁기념하여	-16045
▁이용된다	-16046
▁video	-16047
난을	-16048
냐의	-16049
석사	-16050
안보	-16051
이동	-16052
▁경복	-16053
▁국소	-16054
▁나섰	-16055
▁불평	-16056
드래곤	-16057
edia	-16058
▁ben	-16059
▁마우스	-16060
▁선수의	-16061
▁중의원	-16062
▁천황이	-16063
▁핵융합	-16064
문화방송	-16065
▁개념으로	-16066
▁남북으로	-16067
▁부드러운	-16068
▁중앙정보	-16069
론자	-16070
아버	-16071
▁끌고	-16072
▁막시	-16073
▁박경	-16074
▁배드	-16075
▁상세	-16076
▁이봉	-16077
▁인과	-16078
▁dec	-16079
▁div	-16080
▁미술관	-16081
과정에서	-16082
ality	-16083
▁미시시피	-16084
▁학생들은	-16085
▁films	-16086
▁cellspacing	-16087
▁틸	-16088
네티	-16089
철이	-16090
포럼	-16091
행사	-16092
▁외래	-16093
▁정서	-16094
▁콜라	-16095
▁pan	-16096
▁결론을	-16097
▁교육인	-16098
▁심리학	-16099
▁장군은	-16100
▁종래의	-16101
▁혁명의	-16102
구무스메	-16103
라이어티	-16104
▁생겨났다	-16105
▁알렉산드르	-16106
▁예정이었으나	-16107
ón	-16108
도전	-16109
코어	-16110
▁시몬	-16111
사단은	-16112
캐스트	-16113
▁usb	-16114
▁리그를	-16115
▁변화는	-16116
▁올랐고	-16117
▁중심에	-16118
▁아무것도	-16119
오스트리아	-16120
▁상트페테르부르크	-16121
▁新	-16122
皇帝	-16123
▁쌓은	-16124
▁요절	-16125
▁원을	-16126
▁정렬	-16127
▁조모	-16128
문에서	-16129
appy	-16130
▁극심한	-16131
▁대단히	-16132
▁대전이	-16133
▁선수들	-16134
▁인류의	-16135
▁주지사	-16136
▁카리브	-16137
▁탤런트	-16138
▁like	-16139
▁연결되는	-16140
▁취임했다	-16141
▁champ	-16142
▁앰	-16143
끄러	-16144
커가	-16145
형인	-16146
▁돌출	-16147
▁불린	-16148
▁조립	-16149
▁kim	-16150
▁sal	-16151
▁교회를	-16152
▁다룬다	-16153
▁약속을	-16154
▁어워즈	-16155
▁완공된	-16156
▁제도는	-16157
▁count	-16158
▁사용하기도	-16159
ql	-16160
교와	-16161
▁데카	-16162
▁비전	-16163
홍콩의	-16164
▁레바논	-16165
▁바뀌어	-16166
▁트로이	-16167
▁에너지가	-16168
동초등학교	-16169
▁킴	-16170
모르	-16171
원수	-16172
인수	-16173
진주	-16174
not	-16175
▁간신	-16176
▁보드	-16177
▁사치	-16178
▁카디	-16179
▁포스	-16180
당하여	-16181
~000)	-16182
▁드러났다	-16183
▁일본군의	-16184
▁학생들을	-16185
▁후임으로	-16186
▁디트로이트	-16187
나로	-16188
밀히	-16189
▁괜찮	-16190
▁띤다	-16191
▁모의	-16192
▁사모	-16193
▁arm	-16194
▁놀라운	-16195
▁대화를	-16196
▁인간은	-16197
▁터키의	-16198
학교에서	-16199
▁그로부터	-16200
▁머물렀다	-16201
▁폐지하고	-16202
▁깜	-16203
방과	-16204
이한	-16205
▁다를	-16206
▁머신	-16207
▁요인	-16208
▁유료	-16209
▁집어	-16210
시아의	-16211
▁pet	-16212
▁하노버	-16213
▁월드컵에	-16214
▁캐릭터를	-16215
∼0000)	-16216
▁grand	-16217
병과	-16218
숙종	-16219
치히	-16220
▁기슭	-16221
▁내어	-16222
▁라그	-16223
▁서자	-16224
▁직장	-16225
▁논란을	-16226
▁성남시	-16227
▁열린다	-16228
▁제시한	-16229
판에서는	-16230
▁떨어졌다	-16231
▁발견하고	-16232
▁버전으로	-16233
광을	-16234
방식	-16235
진구	-16236
▁마야	-16237
▁연말	-16238
일이다	-16239
히어로	-16240
cycl	-16241
▁경제의	-16242
▁오로지	-16243
보병학교	-16244
▁수행한다	-16245
▁효과적으로	-16246
보우	-16247
분간	-16248
함대	-16249
히지	-16250
▁맺어	-16251
▁위촉	-16252
▁임원	-16253
▁황해	-16254
▁후루	-16255
것으로	-16256
어린이	-16257
▁나라에	-16258
▁elect	-16259
▁바에	-16260
▁불량	-16261
▁슈투	-16262
▁이양	-16263
▁mal	-16264
▁별명이	-16265
▁부대의	-16266
▁아이치	-16267
▁대응하는	-16268
▁선수들을	-16269
▁애슬레틱	-16270
』,	-16271
메트	-16272
사법	-16273
▁나인	-16274
▁늦게	-16275
▁만성	-16276
▁세기	-16277
▁행진	-16278
▁nba	-16279
▁가르침	-16280
▁건설된	-16281
▁국민당	-16282
▁선출된	-16283
▁장비를	-16284
▁중기의	-16285
▁중반에	-16286
▁열대폭풍	-16287
감은	-16288
예수	-16289
용과	-16290
fre	-16291
▁동요	-16292
▁벌여	-16293
▁서스	-16294
▁아메	-16295
▁유희	-16296
▁전복	-16297
00.0	-16298
▁내용에	-16299
▁목성의	-16300
▁캔자스	-16301
▁프로모	-16302
▁플러스	-16303
velop	-16304
▁공격했다	-16305
▁기록으로	-16306
▁일렉트로	-16307
▁프로그램으로	-16308
통과	-16309
▁슬픔	-16310
▁안경	-16311
▁좌측	-16312
회사의	-16313
best	-16314
▁마다가	-16315
▁앨범인	-16316
▁우즈베	-16317
▁의혹을	-16318
▁표현이	-16319
▁하늘의	-16320
▁마을에서	-16321
▁스테이션	-16322
상업고등학교	-16323
근의	-16324
유도	-16325
토론	-16326
홍보	-16327
▁obs	-16328
▁가깝다	-16329
▁경찰이	-16330
▁동쪽의	-16331
▁바다의	-16332
▁작성한	-16333
▁접근할	-16334
▁기여했다	-16335
▁사용자의	-16336
▁이전까지	-16337
▁공과대학교	-16338
브루	-16339
▁도박	-16340
▁부합	-16341
▁손실	-16342
▁자작	-16343
▁청동	-16344
▁프론	-16345
ages	-16346
▁아이콘	-16347
▁아르바이트	-16348
수호	-16349
전력	-16350
ago	-16351
▁갑옷	-16352
▁낙하	-16353
▁이문	-16354
▁자산	-16355
▁런던의	-16356
▁수도를	-16357
▁영국이	-16358
▁음악적	-16359
되어있다	-16360
▁plan	-16361
▁흥선대원	-16362
ls	-16363
자르	-16364
▁거점	-16365
▁격추	-16366
▁대출	-16367
▁독도	-16368
▁사에	-16369
▁재편	-16370
▁조국	-16371
▁측에	-16372
▁카지	-16373
사랑의	-16374
▁기억을	-16375
▁젊은이	-16376
대학으로	-16377
▁미사일을	-16378
▁사람들과	-16379
고려대학교	-16380
▁master	-16381
로봇	-16382
파울	-16383
학술	-16384
▁갖지	-16385
▁거뒀	-16386
▁꼬마	-16387
▁평을	-16388
▁피의	-16389
▁mot	-16390
▁카스티	-16391
▁rain	-16392
▁형성한다	-16393
엔터테인먼트	-16394
▁가쿠	-16395
▁입지	-16396
▁해가	-16397
▁후진	-16398
▁가상의	-16399
▁대전의	-16400
▁세상의	-16401
ering	-16402
▁기간동안	-16403
▁받았다고	-16404
방법	-16405
▁봉인	-16406
▁빌라	-16407
▁점과	-16408
▁팀과	-16409
안에서	-16410
▁who	-16411
▁똑같이	-16412
▁리모델	-16413
▁반도체	-16414
▁대학교를	-16415
▁준우승을	-16416
▁컨테이너	-16417
collapse	-16418
람회	-16419
작인	-16420
▁그루	-16421
▁라오	-16422
▁마일	-16423
▁사리	-16424
▁유령	-16425
▁필살	-16426
▁소나무	-16427
▁여성을	-16428
▁왕국은	-16429
▁카르타	-16430
▁현상은	-16431
▁유사하다	-16432
카운트다운	-16433
ti	-16434
트레	-16435
▁기성	-16436
▁덮여	-16437
▁리나	-16438
▁매킨	-16439
▁입수	-16440
▁조슈	-16441
▁지사	-16442
가능한	-16443
▁남쪽은	-16444
▁생명을	-16445
▁싸웠다	-16446
▁수록되었다	-16447
”,	-16448
▁룸	-16449
기반	-16450
다를	-16451
드릭	-16452
미라	-16453
인구	-16454
▁버그	-16455
▁주주	-16456
경기장	-16457
▁밴드를	-16458
▁장소에	-16459
▁하도록	-16460
▁나타나고	-16461
▁성립한다	-16462
▁특별기획	-16463
▁평안북도	-16464
▁0000》	-16465
cbs	-16466
▁가구	-16467
▁갤러	-16468
▁전세	-16469
▁정명	-16470
▁프렌	-16471
chen	-16472
▁que	-16473
▁가족은	-16474
▁기준을	-16475
▁보낸다	-16476
▁작가의	-16477
▁정측면	-16478
▁설명하고	-16479
▁올랐으며	-16480
▁아제르바이잔	-16481
로워	-16482
와라	-16483
토록	-16484
▁공휴	-16485
▁명종	-16486
▁섭정	-16487
▁재해	-16488
▁조형	-16489
▁헌정	-16490
▁힘썼	-16491
▁검은색	-16492
▁그곳에	-16493
▁대기업	-16494
▁되도록	-16495
▁비스타	-16496
▁서울로	-16497
▁엔진이	-16498
▁오르는	-16499
ester	-16500
▁시대부터	-16501
xx	-16502
그마	-16503
노미	-16504
민법	-16505
배가	-16506
조치	-16507
▁검거	-16508
▁본상	-16509
▁풍경	-16510
▁gra	-16511
▁규정을	-16512
▁아마존	-16513
▁헬리콥	-16514
▁더비	-16515
▁라쿠	-16516
▁우르	-16517
▁장제	-16518
▁치고	-16519
▁황도	-16520
미술관	-16521
부에는	-16522
▁ele	-16523
▁mir	-16524
▁경향을	-16525
▁마리의	-16526
▁미얀마	-16527
▁코러스	-16528
▁평안남도	-16529
▁몫	-16530
언스	-16531
조작	-16532
현실	-16533
▁다항	-16534
▁문경	-16535
▁미소	-16536
▁비치	-16537
▁튀니	-16538
book	-16539
▁가을에	-16540
▁그래도	-16541
▁방문하여	-16542
▁일이었다	-16543
▁백상예술대상	-16544
)・	-16545
▁얕	-16546
닷컴	-16547
일부	-16548
히게	-16549
sky	-16550
ule	-16551
▁vo	-16552
▁김주	-16553
▁부재	-16554
▁서태	-16555
▁장을	-16556
▁신이치	-16557
▁dance	-16558
▁남우조연상	-16559
▁network	-16560
▁찔	-16561
藤原	-16562
기니	-16563
bor	-16564
▁막는	-16565
▁성전	-16566
▁잃게	-16567
▁청계	-16568
wood	-16569
▁가격이	-16570
▁라이더	-16571
▁별개의	-16572
▁연합의	-16573
▁챌린지	-16574
▁흥미를	-16575
른베르크	-16576
▁편입하였다	-16577
▁욱	-16578
업은	-16579
퓨팅	-16580
▁산이	-16581
▁이도	-16582
▁장사	-16583
▁국왕의	-16584
▁로맨스	-16585
▁무대로	-16586
▁서쪽은	-16587
▁팰	-16588
차트	-16589
초로	-16590
▁양재	-16591
▁워드	-16592
▁조로	-16593
▁테르	-16594
하게도	-16595
ouis	-16596
weet	-16597
▁api	-16598
▁기온은	-16599
▁문제와	-16600
▁성으로	-16601
▁하나님	-16602
▁흔적이	-16603
요코하마	-16604
▁정부에서	-16605
▁하나님의	-16606
아일랜드의	-16607
ns	-16608
▁릭	-16609
항은	-16610
▁럭비	-16611
▁부채	-16612
자들에	-16613
전부터	-16614
하기가	-16615
▁sat	-16616
▁tem	-16617
▁로스쿨	-16618
▁스테파	-16619
▁일본식	-16620
▁농림수산	-16621
▁받으면서	-16622
근이	-16623
리쿠	-16624
정상	-16625
콘티	-16626
▁누적	-16627
▁사신	-16628
▁차출	-16629
▁화순	-16630
▁거리의	-16631
▁단독으로	-16632
▁물리치고	-16633
▁없으므로	-16634
▁princ	-16635
거의	-16636
나파	-16637
소장	-16638
우로	-16639
운을	-16640
you	-16641
▁공자	-16642
▁단장	-16643
▁맞대	-16644
▁방콕	-16645
▁영산	-16646
▁절망	-16647
▁제인	-16648
▁청산	-16649
▁파란	-16650
일요일	-16651
▁가족과	-16652
▁유력한	-16653
▁행위는	-16654
컬럼비아	-16655
▁보도했다	-16656
▁와이번스	-16657
씨로	-16658
카에	-16659
포와	-16660
▁레온	-16661
주인공	-16662
지라도	-16663
학교의	-16664
▁개인이	-16665
▁미유키	-16666
▁시상식	-16667
▁신화의	-16668
▁언급한	-16669
▁중점을	-16670
▁게임에서	-16671
▁시리즈를	-16672
▁white	-16673
!(	-16674
리치	-16675
정수	-16676
▁if	-16677
▁과일	-16678
▁주부	-16679
커니즘	-16680
▁mel	-16681
▁다녔다	-16682
▁시코쿠	-16683
처분	-16684
ona	-16685
▁cg	-16686
학적인	-16687
▁재판을	-16688
▁전국적으로	-16689
▁한편으로는	-16690
▁촛	-16691
문고	-16692
열대	-16693
▁동정	-16694
▁라마	-16695
▁요충	-16696
▁자란	-16697
▁휘말	-16698
▁정도에	-16699
▁타인의	-16700
▁법과대학	-16701
▁차지하며	-16702
▁체포되었다	-16703
란스	-16704
마력	-16705
매일	-16706
벨라	-16707
ava	-16708
▁gi	-16709
▁네팔	-16710
▁캐논	-16711
내었다	-16712
해졌고	-16713
king	-16714
▁그룹은	-16715
▁무소속	-16716
▁전설의	-16717
▁조직에	-16718
▁회장을	-16719
경희	-16720
초교	-16721
ips	-16722
▁ko	-16723
▁ra	-16724
▁교양	-16725
▁데모	-16726
▁얘기	-16727
▁휴식	-16728
리아는	-16729
onia	-16730
▁ktx	-16731
▁가이드	-16732
▁가지로	-16733
▁가브리엘	-16734
▁설명한다	-16735
▁실시하는	-16736
▁*000.	-16737
▁collection	-16738
벨트	-16739
병은	-16740
쉽게	-16741
지않	-16742
콜릿	-16743
▁되던	-16744
▁역명	-16745
▁하반	-16746
▁도왔다	-16747
▁사건과	-16748
▁사령부	-16749
▁완성된	-16750
▁장기간	-16751
▁내에서는	-16752
▁도착했다	-16753
▁시즈오카	-16754
▁맷	-16755
▁공감	-16756
▁복싱	-16757
▁컴파	-16758
해야만	-16759
▁wom	-16760
▁인간과	-16761
▁처분을	-16762
▁홍문관	-16763
▁track	-16764
▁시리즈에서	-16765
브는	-16766
자고	-16767
토로	-16768
▁예고	-16769
▁지쿠	-16770
▁컴백	-16771
▁테네	-16772
▁해왕	-16773
▁레인저	-16774
▁탈삼진	-16775
▁파리의	-16776
▁한계를	-16777
▁보이지만	-16778
▁스위스의	-16779
▁:0000	-16780
▁케임브리지	-16781
▁concacaf	-16782
분열	-16783
이론	-16784
태수	-16785
|''	-16786
▁김도	-16787
▁드는	-16788
▁철폐	-16789
▁전국의	-16790
▁포르투	-16791
▁oper	-16792
▁윌리엄스	-16793
▁해당된다	-16794
이탈리아계	-16795
ст	-16796
▁떡	-16797
▁밭	-16798
개정	-16799
나에	-16800
제조	-16801
편은	-16802
ias	-16803
▁강성	-16804
▁것일	-16805
▁도봉	-16806
▁묶어	-16807
▁보증	-16808
▁부도	-16809
▁소극	-16810
▁잔류	-16811
물리학	-16812
▁발전소	-16813
▁쓰여진	-16814
▁우려가	-16815
▁위치가	-16816
▁멕시코의	-16817
▁앨범이다	-16818
▁일본군은	-16819
쇼핑	-16820
정지	-16821
awa	-16822
▁그후	-16823
▁성분	-16824
▁이븐	-16825
▁자크	-16826
▁중원	-16827
▁차를	-16828
▁체인	-16829
▁회상	-16830
년에도	-16831
▁감옥에	-16832
▁닛폰햄	-16833
▁서쪽의	-16834
▁연구와	-16835
▁전철화	-16836
▁점성술	-16837
▁회사인	-16838
위원회에	-16839
▁지원하고	-16840
에스	-16841
오오	-16842
화산	-16843
eth	-16844
▁군부	-16845
▁뾰족	-16846
▁안중	-16847
▁입주	-16848
▁피핀	-16849
▁회피	-16850
부분에	-16851
소방서	-16852
▁뛰었다	-16853
▁최상위	-16854
▁more	-16855
▁만들어져	-16856
▁소프트웨어를	-16857
▁모범	-16858
▁번성	-16859
로이드	-16860
테인먼	-16861
▁cup	-16862
▁lee	-16863
▁받아야	-16864
▁방법에	-16865
▁성에서	-16866
▁소련이	-16867
▁시험을	-16868
▁단계에서	-16869
▁컴퓨터를	-16870
▁컴퓨터의	-16871
▁친일반민족행위자	-16872
리던	-16873
지아	-16874
▁00(	-16875
▁게임에	-16876
▁다이빙	-16877
▁버린다	-16878
▁언론에	-16879
▁캐스터	-16880
▁협력을	-16881
▁살아있는	-16882
▁성적으로	-16883
▁베네수엘라	-16884
▁세종특별자치	-16885
▁홉	-16886
변의	-16887
설은	-16888
▁권장	-16889
▁딸이	-16890
▁명목	-16891
▁사인	-16892
▁클러	-16893
▁티켓	-16894
▁항쟁	-16895
▁관직에	-16896
▁남자가	-16897
▁서울에	-16898
▁한민족	-16899
▁흐름을	-16900
▁기록되었다	-16901
두의	-16902
득표	-16903
레디	-16904
제약	-16905
푸른	-16906
황의	-16907
▁곡선	-16908
▁느낄	-16909
▁호를	-16910
▁북쪽은	-16911
▁수페르	-16912
▁시애틀	-16913
▁시에는	-16914
▁영역에	-16915
노와	-16916
러를	-16917
소니	-16918
한신	-16919
▁가늘	-16920
▁서사	-16921
▁잠깐	-16922
▁흥미	-16923
ible	-16924
▁경찰서	-16925
▁반정부	-16926
▁아키타	-16927
▁혁명을	-16928
▁오카야마	-16929
▁united	-16930
애미	-16931
오자	-16932
정비	-16933
mod	-16934
▁긴장	-16935
▁신원	-16936
▁양을	-16937
▁인력	-16938
▁허정	-16939
▁후작	-16940
▁동쪽은	-16941
▁맡았던	-16942
▁사이로	-16943
▁안되는	-16944
▁이사회	-16945
▁전투의	-16946
▁질량을	-16947
▁가정에서	-16948
▁james	-16949
unction	-16950
링은	-16951
분한	-16952
알라	-16953
워스	-16954
웍스	-16955
큐슈	-16956
하우	-16957
ped	-16958
▁가오	-16959
▁관세	-16960
▁수중	-16961
▁승무	-16962
▁코우	-16963
aven	-16964
▁보이스	-16965
▁유튜브	-16966
▁발표하고	-16967
▁최대풍속	-16968
건강	-16969
대행	-16970
등과	-16971
블루	-16972
화재	-16973
iff	-16974
▁승용	-16975
▁이회	-16976
▁입상	-16977
▁그보다	-16978
▁대대로	-16979
▁대성당	-16980
▁몬테네	-16981
▁유닉스	-16982
▁일대의	-16983
▁주계열	-16984
ister	-16985
▁계획이다	-16986
▁사용되지	-16987
▁지배하는	-16988
▁진행하는	-16989
이전	-16990
저는	-16991
▁동학	-16992
▁사하	-16993
▁석탑	-16994
▁압력	-16995
▁저자	-16996
사우스	-16997
업으로	-16998
투스의	-16999
▁넘어서	-17000
▁영원히	-17001
▁절차를	-17002
▁지나는	-17003
▁프리스	-17004
▁해마다	-17005
▁후보를	-17006
스테르담	-17007
▁교육과정	-17008
▁journal	-17009
아우	-17010
카쓰	-17011
▁무안	-17012
▁실존	-17013
▁아세	-17014
▁악의	-17015
▁자아	-17016
▁토목	-17017
치바나	-17018
했음을	-17019
fifa	-17020
obal	-17021
▁dom	-17022
▁two	-17023
▁넓이는	-17024
▁뉴저지	-17025
▁본질적	-17026
▁슬라브	-17027
▁이름과	-17028
▁자료가	-17029
▁전까지는	-17030
▁출연하여	-17031
▁기록하면서	-17032
▁기여하였다	-17033
▁데뷔하였으며	-17034
▁과반	-17035
▁다쓰	-17036
▁문인	-17037
▁종군	-17038
▁충전	-17039
레스의	-17040
회의를	-17041
▁부근의	-17042
▁여의도	-17043
▁조정의	-17044
▁올림픽의	-17045
▁임명되었고	-17046
▁인천국제공항	-17047
소재	-17048
어린	-17049
-0,	-17050
▁매체	-17051
▁발령	-17052
▁부에	-17053
▁사당	-17054
▁입양	-17055
▁혼혈	-17056
▁화강	-17057
▁그룹을	-17058
▁달한다	-17059
▁빛나는	-17060
▁생겨난	-17061
▁서바이	-17062
▁증조부	-17063
▁협정을	-17064
world	-17065
▁개발하고	-17066
▁연결된다	-17067
▁올림피아	-17068
▁원인으로	-17069
▁평가된다	-17070
kr	-17071
韓國	-17072
강전	-17073
▁kb	-17074
▁구절	-17075
▁기적	-17076
▁염려	-17077
▁조류	-17078
▁노르망	-17079
▁대전차	-17080
▁조약이	-17081
▁태그팀	-17082
)=000	-17083
▁비례대표	-17084
▁요청했다	-17085
▁위치하는	-17086
대비	-17087
임의	-17088
yal	-17089
▁공백	-17090
▁동창	-17091
▁중수	-17092
▁청색	-17093
자료실	-17094
▁how	-17095
▁각본을	-17096
▁리믹스	-17097
▁죽는다	-17098
▁제기되었다	-17099
ال	-17100
개에	-17101
포동	-17102
▁경원	-17103
▁달걀	-17104
▁문하	-17105
▁베른	-17106
▁유재	-17107
▁의령	-17108
▁적어	-17109
▁중엽	-17110
▁타점	-17111
▁호프	-17112
oria	-17113
▁fin	-17114
▁마법사	-17115
▁문화와	-17116
▁유리한	-17117
▁자세히	-17118
▁자유의	-17119
▁제작에	-17120
▁게임으로	-17121
▁필요성을	-17122
▁0.0.0	-17123
발사	-17124
유공	-17125
hen	-17126
▁고기	-17127
▁생모	-17128
▁오산	-17129
▁저하	-17130
▁가족을	-17131
▁국가와	-17132
▁멤버가	-17133
▁game	-17134
▁선수들의	-17135
▁역사에서	-17136
▁vocal	-17137
디부	-17138
코타	-17139
통치	-17140
sen	-17141
ved	-17142
▁가락	-17143
▁결별	-17144
▁날려	-17145
▁조례	-17146
▁즐거	-17147
필리핀	-17148
▁결정에	-17149
▁공격이	-17150
▁미쳤다	-17151
▁아오이	-17152
▁작업이	-17153
▁압도적인	-17154
▁이전하였다	-17155
▁information	-17156
天皇	-17157
순이	-17158
시외	-17159
▁공병	-17160
▁부왕	-17161
▁성곽	-17162
▁이희	-17163
▁토시	-17164
▁하쿠	-17165
▁호크	-17166
부리그	-17167
▁동유럽	-17168
▁말까지	-17169
▁메달을	-17170
▁배우로	-17171
▁유격수	-17172
▁표현할	-17173
·0000	-17174
▁말미암아	-17175
▁진행되는	-17176
▁(0,000	-17177
0:	-17178
gn	-17179
너가	-17180
시드	-17181
온을	-17182
정권	-17183
지던	-17184
▁느린	-17185
▁달고	-17186
▁보석	-17187
▁심지	-17188
▁유정	-17189
▁주조	-17190
▁쿠퍼	-17191
▁탄도	-17192
직할시	-17193
▁고문을	-17194
▁단거리	-17195
▁메구미	-17196
▁전신인	-17197
▁정하고	-17198
▁west	-17199
▁수단으로	-17200
▁일어나지	-17201
되나	-17202
땃쥐	-17203
미한	-17204
왕복	-17205
푸아	-17206
▁금산	-17207
▁박진	-17208
▁로마에	-17209
▁보내어	-17210
▁세워져	-17211
▁자랐다	-17212
▁행복한	-17213
▁여겨지고	-17214
▁우승했다	-17215
느러	-17216
증의	-17217
cat	-17218
▁강간	-17219
▁돌로	-17220
▁생겼	-17221
▁여단	-17222
현으로	-17223
▁our	-17224
▁음악과	-17225
▁장소로	-17226
▁헌법을	-17227
▁last	-17228
▁닥	-17229
▁랴	-17230
노선	-17231
플리	-17232
▁강풍	-17233
▁내걸	-17234
▁하코	-17235
신도시	-17236
▁:00	-17237
▁abo	-17238
▁내려가	-17239
▁도입한	-17240
▁두개의	-17241
▁디렉터	-17242
▁불안정	-17243
▁브뤼셀	-17244
▁역사와	-17245
▁오늘날에는	-17246
ар	-17247
▁냈	-17248
요원	-17249
전라	-17250
▁실은	-17251
▁와타	-17252
▁효고	-17253
play	-17254
▁견해가	-17255
▁달라고	-17256
▁드디어	-17257
▁명탐정	-17258
▁의혹이	-17259
▁000(	-17260
위원회에서	-17261
▁0000~0000,	-17262
▁흠	-17263
uct	-17264
▁사간	-17265
▁유의	-17266
▁정진	-17267
▁주먹	-17268
▁추리	-17269
▁토미	-17270
▁펑크	-17271
▁글러브	-17272
▁늘어났다	-17273
▁실시했다	-17274
▁한양대학교	-17275
▁(0000.0	-17276
막극	-17277
매치	-17278
문서	-17279
발은	-17280
비오	-17281
함수	-17282
▁리옹	-17283
▁섬식	-17284
▁습득	-17285
▁폭파	-17286
년도에	-17287
▁cur	-17288
▁박영효	-17289
▁이순신	-17290
▁전화를	-17291
▁제정된	-17292
▁행하는	-17293
light	-17294
▁스페인어	-17295
▁특징으로	-17296
▁짱	-17297
소련	-17298
▁가토	-17299
▁문정	-17300
▁박찬	-17301
▁우측	-17302
▁지수	-17303
▁최장	-17304
▁가져온	-17305
▁다이어	-17306
▁레이디	-17307
▁베이비	-17308
▁주연을	-17309
▁콤팩트	-17310
▁독일군의	-17311
▁활발하게	-17312
준을	-17313
쾌한	-17314
타자	-17315
)-0	-17316
▁고모	-17317
▁배달	-17318
▁원의	-17319
▁이득	-17320
▁종영	-17321
▁코카	-17322
▁키르	-17323
▁하타	-17324
▁mak	-17325
▁메시지	-17326
▁조지프	-17327
▁필리프	-17328
사회주의	-17329
black	-17330
▁점령했다	-17331
▁캐릭터의	-17332
tn	-17333
변에	-17334
▁기단	-17335
▁리사	-17336
▁마가	-17337
▁부파	-17338
▁사귀	-17339
▁사키	-17340
▁석조	-17341
▁집정	-17342
▁쪽이	-17343
▁학급	-17344
▁꼽힌다	-17345
▁소행성	-17346
▁스포르	-17347
▁연구원	-17348
▁왔으며	-17349
▁위주로	-17350
▁유지할	-17351
▁전원이	-17352
▁한국을	-17353
▁거부했다	-17354
▁출발하여	-17355
고속도로의	-17356
▁王	-17357
▁것의	-17358
▁김천	-17359
▁년에	-17360
▁산지	-17361
▁아소	-17362
▁잡는	-17363
▁주차	-17364
▁찰리	-17365
▁치루	-17366
▁터뜨	-17367
▁페니	-17368
▁필터	-17369
▁hpa	-17370
▁가져다	-17371
▁딸이다	-17372
▁쓰러뜨	-17373
▁조사에	-17374
라마운트	-17375
▁근무했다	-17376
▁한편으로	-17377
네트	-17378
노를	-17379
민정	-17380
불의	-17381
예산	-17382
▁고로	-17383
▁독창	-17384
▁맡는	-17385
▁스왈	-17386
▁해저	-17387
▁해전	-17388
▁황족	-17389
지역을	-17390
phil	-17391
side	-17392
▁공의회	-17393
▁구축함	-17394
▁구하는	-17395
▁들어올	-17396
▁생산된	-17397
▁신세계	-17398
▁의문을	-17399
▁조직은	-17400
세기에는	-17401
(000)	-17402
▁어머니와	-17403
▁angel	-17404
▁뷔	-17405
▁듀오	-17406
▁보리	-17407
▁육체	-17408
▁퇴장	-17409
방송을	-17410
▁어렵게	-17411
▁예전에	-17412
▁위험이	-17413
▁스톡홀름	-17414
연애	-17415
제철	-17416
태양	-17417
cra	-17418
▁넘게	-17419
▁이코	-17420
▁호족	-17421
위까지	-17422
▁주목할	-17423
▁도시에서	-17424
▁발견되어	-17425
kb	-17426
가이	-17427
동부	-17428
찬을	-17429
ych	-17430
▁강당	-17431
▁루돌프	-17432
▁배터리	-17433
▁알파벳	-17434
▁역임한	-17435
▁클레이	-17436
▁흐르고	-17437
▁증가하고	-17438
▁green	-17439
▁독자적으로	-17440
▁당신	-17441
▁만날	-17442
▁무작	-17443
▁산요	-17444
▁일간	-17445
▁정전	-17446
▁태국	-17447
▁한큐	-17448
〉()	-17449
해지자	-17450
eaut	-17451
▁명령에	-17452
▁목적이	-17453
▁한국과	-17454
▁희극인	-17455
하더라도	-17456
▁연합군은	-17457
public	-17458
▁studio	-17459
▁쉴	-17460
네르	-17461
보물	-17462
불이	-17463
장비	-17464
정류	-17465
훈의	-17466
omb	-17467
▁대북	-17468
▁박해	-17469
▁서임	-17470
▁이송	-17471
▁정씨	-17472
▁청사	-17473
▁퀘벡	-17474
inst	-17475
▁적외선	-17476
ference	-17477
실업	-17478
-0.	-17479
▁감찰	-17480
▁고원	-17481
▁기수	-17482
▁대패	-17483
▁생체	-17484
▁이석	-17485
▁이쿠	-17486
▁청송	-17487
▁커플	-17488
들보다	-17489
▁급속히	-17490
▁버클리	-17491
▁사항을	-17492
▁상에서	-17493
▁에어로	-17494
▁웨스턴	-17495
▁paul	-17496
▁라이온스	-17497
▁미쓰비시	-17498
▁유지하기	-17499
▁이시카와	-17500
▁고장	-17501
▁델타	-17502
▁재상	-17503
▁전래	-17504
▁중공	-17505
▁허리	-17506
크로아	-17507
▁교수를	-17508
▁교황청	-17509
▁순으로	-17510
▁어느날	-17511
▁알래스카	-17512
▁어머니를	-17513
▁정치적으로	-17514
천이	-17515
태종	-17516
확인	-17517
▁오아	-17518
▁정자	-17519
▁제사	-17520
▁채취	-17521
▁키는	-17522
▁투르	-17523
▁후예	-17524
▁계속된	-17525
▁학생이	-17526
▁발렌시아	-17527
ky	-17528
▁sr	-17529
▁명은	-17530
▁어리	-17531
▁이효	-17532
▁하프	-17533
▁계약이	-17534
▁스크립	-17535
▁시장의	-17536
▁정책은	-17537
▁baby	-17538
itable	-17539
보존	-17540
에쓰	-17541
웠던	-17542
치쿠	-17543
태를	-17544
aud	-17545
▁서귀	-17546
▁스이	-17547
▁여는	-17548
버스의	-17549
프로세	-17550
▁가르쳐	-17551
▁왕실의	-17552
▁몸길이는	-17553
▁의미하며	-17554
▁핀란드의	-17555
▁프란체스코	-17556
돌은	-17557
반은	-17558
사르	-17559
창한	-17560
티넘	-17561
▁동네	-17562
▁스와	-17563
▁스칸	-17564
▁중등	-17565
▁해남	-17566
베를린	-17567
▁되어야	-17568
▁마누엘	-17569
▁서로의	-17570
▁손실을	-17571
▁econ	-17572
▁헥	-17573
대역	-17574
챔프	-17575
▁나은	-17576
▁돼지	-17577
▁번영	-17578
▁보강	-17579
▁열쇠	-17580
▁오미	-17581
▁퇴적	-17582
저기압	-17583
▁데뷔한	-17584
▁맨해튼	-17585
▁컨트리	-17586
▁투어를	-17587
▁노선으로	-17588
▁발표하여	-17589
▁밝혀지지	-17590
▁개칭되었다	-17591
궁을	-17592
볼넷	-17593
여운	-17594
오토	-17595
외로	-17596
포에	-17597
.),	-17598
▁밀리	-17599
▁브룩	-17600
▁신봉	-17601
▁윤씨	-17602
▁한중	-17603
▁헌신	-17604
anus	-17605
▁머리가	-17606
▁미군의	-17607
▁체제가	-17608
▁클럽은	-17609
▁한국은	-17610
▁우루과이	-17611
교육청지정	-17612
▁이스라엘의	-17613
▁museum	-17614
bb	-17615
현과	-17616
▁겪고	-17617
▁노바	-17618
▁높여	-17619
▁미성	-17620
▁배운	-17621
▁어찌	-17622
▁일족	-17623
▁전담	-17624
▁첼시	-17625
나치오	-17626
▁레오폴	-17627
▁수도로	-17628
▁변경했다	-17629
▁인디애나	-17630
플레이스테이션	-17631
노벨	-17632
샤오	-17633
ota	-17634
ren	-17635
▁나갈	-17636
▁닫힌	-17637
▁막스	-17638
▁무네	-17639
▁별을	-17640
▁불행	-17641
▁상사	-17642
▁성산	-17643
▁소의	-17644
▁직행	-17645
프스키	-17646
ification	-17647
감의	-17648
기시	-17649
두리	-17650
질러	-17651
,00	-17652
ori	-17653
▁아타	-17654
▁후미	-17655
버린다	-17656
iano	-17657
rock	-17658
▁ram	-17659
▁거짓말	-17660
▁아미노	-17661
▁초창기	-17662
▁설립하여	-17663
▁개통되었다	-17664
▁이탈리아에서	-17665
--------	-17666
▁찢	-17667
임시	-17668
척을	-17669
▁개헌	-17670
▁농장	-17671
▁방치	-17672
▁유미	-17673
▁의문	-17674
▁제왕	-17675
스에게	-17676
▁기업이	-17677
▁되므로	-17678
▁세월호	-17679
▁안전한	-17680
▁여기는	-17681
▁이용객	-17682
▁참여할	-17683
▁개념이다	-17684
▁히틀러는	-17685
▁팔레스타인	-17686
▁000~000)	-17687
▁갚	-17688
개씩	-17689
구사	-17690
나비	-17691
더를	-17692
하트	-17693
ets	-17694
▁경에	-17695
▁와인	-17696
▁해독	-17697
났으나	-17698
▁곳곳에	-17699
▁극작가	-17700
▁논쟁이	-17701
▁명확한	-17702
▁자원을	-17703
▁지위에	-17704
opsis	-17705
▁내부에서	-17706
▁내용이다	-17707
▁전역에서	-17708
▁추구하는	-17709
▁대표적으로	-17710
때는	-17711
요의	-17712
▁우유	-17713
▁전전	-17714
▁천왕	-17715
▁치는	-17716
▁칼로	-17717
▁내리고	-17718
▁단체의	-17719
▁제국과	-17720
▁제한을	-17721
▁토리노	-17722
▁하루에	-17723
▁hand	-17724
▁대대적인	-17725
▁부르고뉴	-17726
▁사용되며	-17727
▁우에스기	-17728
▁일으킨다	-17729
▁함경남도	-17730
동주민센터	-17731
▁효율적으로	-17732
ui	-17733
든다	-17734
만장	-17735
시계	-17736
호르	-17737
▁기뻐	-17738
▁넣는	-17739
▁영의	-17740
▁오대	-17741
▁웨일	-17742
▁침묵	-17743
타이완	-17744
▁say	-17745
▁그림자	-17746
▁내각의	-17747
▁목요일	-17748
▁분리된	-17749
▁자기가	-17750
▁저항을	-17751
▁팬들의	-17752
▁technology	-17753
레우	-17754
배에	-17755
▁객체	-17756
▁사명	-17757
교에서	-17758
기념물	-17759
위원을	-17760
▁균형을	-17761
▁불규칙	-17762
▁없으면	-17763
▁항복을	-17764
▁cult	-17765
▁데이비스	-17766
▁부위원장	-17767
▁사용하게	-17768
ustral	-17769
▁꿀	-17770
마케	-17771
있어	-17772
투어	-17773
현종	-17774
uth	-17775
▁류큐	-17776
▁모색	-17777
▁박준	-17778
▁브랜	-17779
▁세키	-17780
▁양궁	-17781
▁양대	-17782
▁자결	-17783
▁점거	-17784
▁지극	-17785
▁화해	-17786
▁공격할	-17787
▁과학의	-17788
▁프레이	-17789
▁제안했다	-17790
사사	-17791
수학	-17792
캠프	-17793
mes	-17794
▁ht	-17795
▁국보	-17796
▁볼셰	-17797
▁사슬	-17798
▁수로	-17799
▁씨가	-17800
▁우회	-17801
▁커서	-17802
▁포착	-17803
▁혐의	-17804
▁홍수	-17805
우스와	-17806
▁att	-17807
▁공격은	-17808
▁도로를	-17809
▁엘리트	-17810
▁연고로	-17811
▁제목은	-17812
▁진행을	-17813
▁활약으로	-17814
▁대회에서는	-17815
레븐	-17816
린을	-17817
몽골	-17818
심과	-17819
▁구형	-17820
▁남작	-17821
▁너머	-17822
▁매치	-17823
▁모차	-17824
▁병이	-17825
▁질문	-17826
정부는	-17827
▁각지의	-17828
▁시작할	-17829
히로시마	-17830
▁문화예술	-17831
▁챙	-17832
각은	-17833
버른	-17834
중량	-17835
즈로	-17836
00(	-17837
cis	-17838
▁도사	-17839
▁무성	-17840
▁수락	-17841
▁애완	-17842
▁얇은	-17843
▁이렇	-17844
피안타	-17845
하겠다	-17846
▁nav	-17847
▁한사람	-17848
ür	-17849
수단	-17850
자전	-17851
▁미식	-17852
▁박원	-17853
▁찬양	-17854
▁총회	-17855
기관이	-17856
사이클	-17857
호선이	-17858
▁공으로	-17859
▁못했던	-17860
▁제도에	-17861
▁제조업	-17862
▁도입하였다	-17863
라드	-17864
토크	-17865
▁백악	-17866
▁신상	-17867
▁용서	-17868
▁트렌	-17869
고양이	-17870
였다는	-17871
자리가	-17872
텍사스	-17873
▁now	-17874
▁로맨틱	-17875
▁역할은	-17876
▁유럽과	-17877
▁철저히	-17878
onder	-17879
▁않았다는	-17880
▁쿠데타를	-17881
▁스코틀랜드의	-17882
겐의	-17883
세라	-17884
수송	-17885
피트	-17886
bel	-17887
rac	-17888
▁박태	-17889
▁사바	-17890
▁걸리는	-17891
▁과도한	-17892
▁무솔리	-17893
▁부모의	-17894
▁지닌다	-17895
▁케이스	-17896
▁가르쳤다	-17897
▁벨라루스	-17898
강화	-17899
기병	-17900
빈의	-17901
완전	-17902
이니	-17903
협의	-17904
kor	-17905
max	-17906
▁블레	-17907
▁영천	-17908
▁일화	-17909
▁자오	-17910
▁충렬	-17911
▁투항	-17912
▁하니	-17913
▁혼성	-17914
▁남자의	-17915
▁부작용	-17916
▁제한이	-17917
▁혁명이	-17918
▁혼자서	-17919
opter	-17920
oseph	-17921
▁just	-17922
▁그룹으로	-17923
▁다양하게	-17924
▁운행하고	-17925
ington	-17926
▁중화민국의	-17927
교구	-17928
막이	-17929
비용	-17930
bon	-17931
die	-17932
sol	-17933
tbs	-17934
▁공존	-17935
▁김소	-17936
▁도청	-17937
▁보은	-17938
▁스즈	-17939
▁연동	-17940
▁이차	-17941
▁절친	-17942
▁카시	-17943
이었을	-17944
출장소	-17945
피아의	-17946
▁것과는	-17947
▁끼쳤다	-17948
▁북조선	-17949
▁사랑과	-17950
▁안정된	-17951
▁진나라	-17952
▁프란치	-17953
▁환자의	-17954
▁brit	-17955
▁발견되지	-17956
▁완벽하게	-17957
▁통일신라	-17958
▁대한민국을	-17959
▁三	-17960
▁결핵	-17961
소수자	-17962
▁붙여졌다	-17963
▁series	-17964
▁지방자치단체	-17965
ен	-17966
▁쥰	-17967
▁캉	-17968
고스	-17969
극의	-17970
당할	-17971
예선	-17972
ski	-17973
▁국영	-17974
▁로비	-17975
▁실재	-17976
▁피할	-17977
학자인	-17978
회사가	-17979
ince	-17980
▁말부터	-17981
▁생각한	-17982
▁호크스	-17983
스웨덴의	-17984
▁지점에서	-17985
▁프로젝트의	-17986
cg	-17987
ро	-17988
대동	-17989
isa	-17990
▁듣지	-17991
▁성악	-17992
▁오크	-17993
▁유러	-17994
▁죽기	-17995
▁차츰	-17996
▁강화를	-17997
▁오스틴	-17998
▁함수의	-17999
▁행동이	-18000
▁fire	-18001
▁손해배상	-18002
▁사회주의자	-18003
▁000-0000	-18004
미경	-18005
▁교정	-18006
▁도래	-18007
▁모호	-18008
▁무어	-18009
▁아바	-18010
▁정문	-18011
▁치세	-18012
▁탈취	-18013
유가행	-18014
▁모르고	-18015
▁성향을	-18016
▁정리한	-18017
▁참석한	-18018
진상규명	-18019
▁000°	-18020
▁목소리가	-18021
개선	-18022
동산	-18023
련된	-18024
▁미셸	-18025
▁재난	-18026
▁카토	-18027
▁통보	-18028
▁성적이	-18029
▁와세다	-18030
▁자격이	-18031
▁제출한	-18032
▁카이로	-18033
▁판매를	-18034
▁예전에는	-18035
▁주인공이	-18036
▁클라우드	-18037
▁•	-18038
군인	-18039
민과	-18040
아니	-18041
▁디나	-18042
▁땄다	-18043
▁압록	-18044
▁온대	-18045
운동이	-18046
▁가지지	-18047
▁모리스	-18048
▁미카엘	-18049
▁법무부	-18050
▁작전에	-18051
ating	-18052
ities	-18053
▁것이지만	-18054
▁영화에서	-18055
▁в	-18056
강은	-18057
백제	-18058
회초	-18059
훈이	-18060
▁간첩	-18061
▁레버	-18062
▁면을	-18063
▁손잡	-18064
▁형인	-18065
×000	-18066
▁가문을	-18067
▁능력은	-18068
▁성적은	-18069
▁요시노	-18070
▁움직일	-18071
▁질문에	-18072
▁패트릭	-18073
anger	-18074
▁이승만은	-18075
▁작품에서	-18076
▁캐나다인	-18077
구라	-18078
key	-18079
▁ig	-18080
▁매력	-18081
▁장원	-18082
▁휩쓸	-18083
단체의	-18084
▁빨간색	-18085
▁사실에	-18086
▁생명의	-18087
▁수익을	-18088
▁쓰기도	-18089
▁열차를	-18090
▁클리어	-18091
▁만들었고	-18092
▁온게임넷	-18093
▁주민들의	-18094
▁해당되는	-18095
▁develop	-18096
구스	-18097
▁말도	-18098
▁안고	-18099
▁앞면	-18100
▁전대	-18101
팀으로	-18102
▁감독과	-18103
▁사례가	-18104
▁자란다	-18105
▁크리에	-18106
▁화장실	-18107
▁아이들을	-18108
uv	-18109
농구	-18110
화할	-18111
▁마다	-18112
▁마도	-18113
▁우파	-18114
▁이덕	-18115
▁주입	-18116
▁포털	-18117
▁프롤	-18118
》,《	-18119
법에서	-18120
▁버전을	-18121
▁소피아	-18122
▁수학적	-18123
▁요제프	-18124
▁음악이	-18125
▁공개했다	-18126
▁유식유가행	-18127
▁00.0%,	-18128
hs	-18129
기둥	-18130
나드	-18131
또한	-18132
의료	-18133
▁보복	-18134
▁예약	-18135
▁자제	-18136
레스트	-18137
▁일반적	-18138
▁진주시	-18139
▁컴퓨팅	-18140
▁푸에르	-18141
지역에서	-18142
할아버지	-18143
▁대항하여	-18144
▁승강장은	-18145
▁박사학위를	-18146
무는	-18147
배의	-18148
아역	-18149
▁관제	-18150
▁귀속	-18151
▁앵커	-18152
▁평평	-18153
지거나	-18154
직으로	-18155
프라노	-18156
▁느끼게	-18157
▁밝혀진	-18158
▁방사선	-18159
▁아이폰	-18160
▁의사소	-18161
▁싼	-18162
▁튼	-18163
ない	-18164
발생	-18165
비안	-18166
성공	-18167
센스	-18168
저를	-18169
▁ta	-18170
▁공성	-18171
▁유영	-18172
▁현악	-18173
분부터	-18174
쪽에는	-18175
▁공군의	-18176
▁권위를	-18177
▁대륙의	-18178
▁명확히	-18179
▁솔루션	-18180
▁의지를	-18181
▁리모델링	-18182
▁선수이자	-18183
대한제국의	-18184
ography	-18185
▁language	-18186
무사	-18187
베네	-18188
▁법전	-18189
▁보령	-18190
▁doc	-18191
▁mad	-18192
▁노래가	-18193
▁미주리	-18194
▁강조했다	-18195
▁시작하고	-18196
▁이승만의	-18197
▁sport	-18198
▁구성되었다	-18199
군수	-18200
ani	-18201
▁노이	-18202
▁바흐	-18203
▁송진	-18204
▁앞선	-18205
▁오락	-18206
▁간신히	-18207
▁동등한	-18208
▁세금을	-18209
▁이르게	-18210
▁이바지	-18211
▁존재로	-18212
yeong	-18213
▁귀국하여	-18214
▁버라이어티	-18215
▁활동하다가	-18216
dc	-18217
sr	-18218
엔진	-18219
제곱	-18220
춘추	-18221
▁축조	-18222
▁평야	-18223
탈삼진	-18224
blue	-18225
▁bur	-18226
▁tri	-18227
▁각자의	-18228
▁부드럽	-18229
▁함대를	-18230
▁hill	-18231
▁운영되고	-18232
▁street	-18233
▁publish	-18234
international	-18235
극을	-18236
내려	-18237
비밀	-18238
프턴	-18239
bat	-18240
▁동급	-18241
▁부다	-18242
▁소셜	-18243
▁영덕	-18244
▁지는	-18245
▁학칙	-18246
터에서	-18247
▁데이비	-18248
▁주제를	-18249
▁휴대전	-18250
▁국무위원	-18251
▁움직임이	-18252
상가	-18253
암의	-18254
mic	-18255
▁강행	-18256
▁돕기	-18257
▁부유	-18258
▁쉽다	-18259
▁영장	-18260
▁증폭	-18261
▁총을	-18262
▁법정동	-18263
▁중국을	-18264
▁이동하는	-18265
▁챌린지의	-18266
▁통과하는	-18267
루이	-18268
루즈	-18269
이승	-18270
칼리	-18271
▁기장	-18272
▁맞춘	-18273
▁산을	-18274
▁스텔	-18275
▁에반	-18276
▁우월	-18277
▁의정	-18278
▁최씨	-18279
▁라파엘	-18280
▁번째는	-18281
▁부모님	-18282
▁아라곤	-18283
▁알렉스	-18284
▁체제로	-18285
▁통치를	-18286
▁회사에	-18287
▁human	-18288
토지	-18289
▁사내	-18290
▁하리	-18291
▁헬싱	-18292
나이트	-18293
▁골드컵	-18294
▁블루윙	-18295
▁솔로몬	-18296
▁해군은	-18297
뮤직뱅크	-18298
공과	-18299
다만	-18300
이름	-18301
▁닌자	-18302
▁만료	-18303
▁열을	-18304
▁유가	-18305
▁혼동	-18306
府院君	-18307
갔으며	-18308
그룹의	-18309
익스피	-18310
체이다	-18311
▁ill	-18312
▁등번호	-18313
▁등에게	-18314
▁부르게	-18315
▁브레멘	-18316
▁국내에서	-18317
▁로마에서	-18318
▁적용된다	-18319
봉은	-18320
여왕	-18321
ado	-18322
▁온건	-18323
▁옮긴	-18324
▁치렀	-18325
▁하단	-18326
▁헬레	-18327
시간을	-18328
으려는	-18329
▁가리켜	-18330
▁기사단	-18331
▁생산을	-18332
▁향상을	-18333
▁00.0(	-18334
▁해체되었다	-18335
오스트리아의	-18336
▁management	-18337
례로	-18338
이케	-18339
천읍	-18340
▁도피	-18341
▁아프	-18342
▁완결	-18343
▁이겨	-18344
▁퀴즈	-18345
스콘신	-18346
▁국적을	-18347
▁매카트	-18348
▁체제의	-18349
▁초콜릿	-18350
권에서는	-18351
▁활동하던	-18352
▁담당하였다	-18353
▁알려져있다	-18354
▁people	-18355
방면	-18356
요미	-18357
위치	-18358
황이	-18359
bal	-18360
▁동진	-18361
▁에게	-18362
▁영월	-18363
▁이한	-18364
▁작다	-18365
▁조이	-18366
▁칼을	-18367
▁파기	-18368
▁하비	-18369
▁한가	-18370
▁합친	-18371
▁데이트	-18372
▁매거진	-18373
▁운행이	-18374
▁항성의	-18375
▁혐의를	-18376
아메리칸	-18377
▁무대에서	-18378
db	-18379
▁・	-18380
공영	-18381
귀족	-18382
인칭	-18383
증은	-18384
테의	-18385
iet	-18386
▁상서	-18387
▁신민	-18388
▁쓰촨	-18389
▁원활	-18390
▁친왕	-18391
▁팔아	-18392
ents	-18393
▁뉴캐슬	-18394
▁사쓰마	-18395
▁숫자를	-18396
▁다카하시	-18397
▁solid	-18398
~》	-18399
고양	-18400
도호	-18401
호기	-18402
▁lp	-18403
▁서진	-18404
▁운수	-18405
▁유태	-18406
▁전교	-18407
▁증진	-18408
▁치른	-18409
루에서	-18410
이야기	-18411
less	-18412
▁aug	-18413
▁기반한	-18414
▁드러머	-18415
▁사상은	-18416
▁퍼스트	-18417
stand	-18418
▁미나모토노	-18419
살인	-18420
심에	-18421
ful	-18422
oca	-18423
una	-18424
▁경질	-18425
▁구경	-18426
▁나름	-18427
▁드라	-18428
▁봄에	-18429
▁요하	-18430
▁조현	-18431
▁진사	-18432
▁파는	-18433
층에서	-18434
▁송나라	-18435
▁키예프	-18436
▁(0.0	-18437
▁들어가게	-18438
▁무시하고	-18439
▁front	-18440
인당	-18441
젝트	-18442
▁설비	-18443
▁원통	-18444
▁호리	-18445
cept	-18446
▁발달한	-18447
▁보이게	-18448
▁앤드루	-18449
▁패했다	-18450
명이었다	-18451
받았으며	-18452
▁band	-18453
▁jack	-18454
▁간격으로	-18455
▁볼리비아	-18456
▁아직까지	-18457
▁영향력이	-18458
▁옥스퍼드	-18459
▁유래했다	-18460
▁중앙아시아	-18461
▁0000.0.00	-18462
데일	-18463
성남	-18464
캠퍼	-18465
표는	-18466
bas	-18467
▁그저	-18468
▁몽고	-18469
▁발병	-18470
▁벌금	-18471
▁잠정	-18472
▁포럼	-18473
▁men	-18474
▁가라앉	-18475
▁신화에	-18476
▁아무리	-18477
▁유니콘	-18478
▁조반니	-18479
▁태양과	-18480
▁황제는	-18481
▁운행되고	-18482
▁퐁	-18483
방지	-18484
본의	-18485
오버	-18486
타율	-18487
타인	-18488
하곤	-18489
하타	-18490
해피	-18491
▁간사	-18492
▁나빠	-18493
▁안창	-18494
▁이고	-18495
▁cir	-18496
▁임명된	-18497
▁지역인	-18498
▁컴퍼니	-18499
▁멀티미디어	-18500
포니	-18501
mos	-18502
▁강대	-18503
▁맹세	-18504
▁위를	-18505
▁익산	-18506
▁잦은	-18507
▁제대	-18508
▁함양	-18509
ulus	-18510
▁결혼한	-18511
▁근거가	-18512
▁기술적	-18513
▁마을이	-18514
개국에서	-18515
▁mach	-18516
▁moon	-18517
▁의미이다	-18518
▁states	-18519
피에	-18520
▁무명	-18521
▁정주	-18522
▁질환	-18523
▁친한	-18524
리기도	-18525
cast	-18526
▁생활에	-18527
▁수업을	-18528
▁앨범으로	-18529
▁에콰도르	-18530
▁원칙적으로	-18531
▁theory	-18532
▁슛	-18533
바인	-18534
cam	-18535
▁간혹	-18536
▁김석	-18537
▁나열	-18538
▁신해	-18539
하버드	-18540
▁남성의	-18541
▁미야기	-18542
▁포로가	-18543
디에이고	-18544
▁사용되어	-18545
▁america	-18546
공작	-18547
싱글	-18548
▁마셜	-18549
▁모른	-18550
▁선은	-18551
▁오인	-18552
▁전동	-18553
▁짧고	-18554
▁파충	-18555
지었다	-18556
▁비중이	-18557
▁정의를	-18558
▁불과하다	-18559
▁회사이다	-18560
▁적용되었다	-18561
▁정기적으로	-18562
비크	-18563
des	-18564
▁),	-18565
▁낮다	-18566
▁신진	-18567
▁안도	-18568
가톨릭	-18569
차례의	-18570
itch	-18571
▁고양시	-18572
▁그것에	-18573
▁다리가	-18574
▁도덕적	-18575
▁무엇이	-18576
▁안타를	-18577
▁예컨대	-18578
▁온도는	-18579
▁전략적	-18580
▁축구를	-18581
▁침공을	-18582
공립심상소학교로	-18583
견이	-18584
다오	-18585
람실	-18586
연출	-18587
장교	-18588
전북	-18589
지금	-18590
하길	-18591
els	-18592
ror	-18593
▁격려	-18594
▁도리	-18595
▁양육	-18596
▁집회	-18597
▁추첨	-18598
▁출구	-18599
미스터	-18600
변호사	-18601
phal	-18602
reen	-18603
▁그렸다	-18604
▁듯하다	-18605
▁마르틴	-18606
▁마오쩌	-18607
▁수용할	-18608
▁숫자는	-18609
▁캠페인	-18610
super	-18611
▁들어오는	-18612
▁바르셀로	-18613
▁병원에서	-18614
▁상대방의	-18615
▁독립적으로	-18616
▁service	-18617
fi	-18618
kn	-18619
als	-18620
▁군용	-18621
▁밀란	-18622
▁산호	-18623
▁세네	-18624
▁앙골	-18625
▁왕과	-18626
▁이대	-18627
▁진한	-18628
▁천천	-18629
대학의	-18630
슬라프	-18631
▁rfc	-18632
▁높이가	-18633
▁만난다	-18634
▁명령어	-18635
▁비교해	-18636
▁성향의	-18637
▁주민의	-18638
▁날카로운	-18639
▁방글라데	-18640
▁슈투트가	-18641
▁타이베이	-18642
▁댈	-18643
▁엇	-18644
도루	-18645
랑카	-18646
상공	-18647
전화	-18648
피탈	-18649
▁고생	-18650
▁우아	-18651
▁천거	-18652
테리아	-18653
▁amd	-18654
▁개그맨	-18655
▁당대의	-18656
▁떠난다	-18657
▁바이트	-18658
▁사나이	-18659
▁장소를	-18660
▁전자의	-18661
▁전통적	-18662
▁제의를	-18663
▁데스크톱	-18664
▁서울중앙	-18665
가정	-18666
달라	-18667
망에	-18668
안과	-18669
ape	-18670
yes	-18671
▁발착	-18672
▁숨을	-18673
▁온난	-18674
▁했기	-18675
론으로	-18676
브라질	-18677
▁lim	-18678
▁갈등이	-18679
▁걸쳐서	-18680
▁그리는	-18681
▁목록은	-18682
▁선택한	-18683
▁우승팀	-18684
▁주도한	-18685
▁거리에서	-18686
dj	-18687
▁혀	-18688
금속	-18689
훈을	-18690
pen	-18691
▁기인	-18692
각으로	-18693
▁논쟁을	-18694
▁사무를	-18695
▁아카이	-18696
▁정보의	-18697
▁정책의	-18698
▁출판사	-18699
▁공항으로	-18700
▁도쿄에서	-18701
▁마지막에	-18702
▁못했지만	-18703
▁경희대학교	-18704
▁만들어진다	-18705
▁石	-18706
▁핼	-18707
운송	-18708
정역	-18709
▁급히	-18710
▁지장	-18711
시간에	-18712
ives	-18713
▁les	-18714
▁원칙을	-18715
▁캐서린	-18716
그라운드	-18717
▁시기에는	-18718
▁전해지는	-18719
▁프린스턴	-18720
wikitable	-18721
▁(0000.00.00)	-18722
강과	-18723
남성	-18724
▁uk	-18725
▁둘이	-18726
▁시어	-18727
▁요약	-18728
▁주임	-18729
▁카미	-18730
▁헌병	-18731
년대와	-18732
체육관	-18733
anna	-18734
ware	-18735
▁개인적	-18736
▁광고를	-18737
▁동메달	-18738
▁보너스	-18739
▁여겼다	-18740
▁연이어	-18741
▁등장하지	-18742
▁선수들은	-18743
▁키프로스	-18744
▁사용되기도	-18745
뉴얼	-18746
렐라	-18747
스프	-18748
전체	-18749
▁미호	-18750
▁전락	-18751
▁정형	-18752
icht	-18753
mark	-18754
▁규칙을	-18755
▁수사를	-18756
▁에이전	-18757
년대까지	-18758
▁정상적인	-18759
▁현장에서	-18760
▁micro	-18761
궤도	-18762
등은	-18763
통은	-18764
▁돕는	-18765
▁부당	-18766
▁암석	-18767
icle	-18768
ides	-18769
▁교육에	-18770
▁아내가	-18771
▁이케다	-18772
▁흩어져	-18773
▁아키텍처	-18774
▁쿠웨이트	-18775
▁파견하여	-18776
아르헨티나	-18777
▁발전하였다	-18778
겨레	-18779
김해	-18780
심판	-18781
오게	-18782
항이	-18783
▁간격	-18784
▁논산	-18785
▁당황	-18786
▁성도	-18787
▁준수	-18788
▁쪽에	-18789
▁차종	-18790
문제를	-18791
▁wil	-18792
▁시도를	-18793
▁시신을	-18794
[...]
