<unk>	0
<s>	0
</s>	0
▁t	-0
ng	-1
▁c	-2
▁đ	-3
nh	-4
▁l	-5
▁th	-6
▁v	-7
▁h	-8
00	-9
▁m	-10
▁b	-11
▁n	-12
▁tr	-13
▁s	-14
▁ch	-15
▁k	-16
▁p	-17
▁nh	-18
▁d	-19
▁00	-20
▁g	-21
▁ph	-22
▁ng	-23
''	-24
▁kh	-25
▁và	-26
ên	-27
▁là	-28
an	-29
qu	-30
▁qu	-31
ác	-32
ông	-33
ại	-34
▁củ	-35
iệ	-36
ượ	-37
▁của	-38
▁gi	-39
▁0000	-40
ong	-41
▁r	-42
ột	-43
ược	-44
ân	-45
▁một	-46
▁lo	-47
▁được	-48
iế	-49
▁(	-50
▁nă	-51
ườ	-52
▁*	-53
er	-54
ch	-55
▁năm	-56
▁x	-57
▁trong	-58
▁các	-59
on	-60
uy	-61
▁có	-62
ới	-63
in	-64
ày	-65
▁0	-66
iên	-67
▁''	-68
ar	-69
am	-70
ài	-71
ất	-72
▁họ	-73
en	-74
ành	-75
▁ho	-76
▁a	-77
▁thể	-78
ười	-79
or	-80
ầu	-81
ai	-82
ình	-83
ươ	-84
inh	-85
ương	-86
ật	-87
▁này	-88
▁người	-89
ay	-90
al	-91
ướ	-92
iề	-93
ực	-94
▁loại	-95
▁độ	-96
▁với	-97
▁thá	-98
iể	-99
ần	-100
es	-101
is	-102
iện	-103
au	-104
▁đã	-105
ang	-106
▁cho	-107
▁ở	-108
▁phá	-109
ung	-110
▁loài	-111
el	-112
ia	-113
▁số	-114
ập	-115
ận	-116
▁thành	-117
ốc	-118
iến	-119
ính	-120
▁đầu	-121
ải	-122
at	-123
ường	-124
▁vào	-125
▁từ	-126
ộc	-127
ước	-128
ao	-129
ản	-130
▁thu	-131
ây	-132
▁học	-133
iều	-134
ức	-135
ến	-136
th	-137
ùng	-138
▁ngh	-139
us	-140
▁như	-141
▁tháng	-142
anh	-143
▁không	-144
àn	-145
ững	-146
im	-147
▁những	-148
ol	-149
▁the	-150
▁kho	-151
▁tại	-152
▁khi	-153
iệt	-154
▁công	-155
▁f	-156
ic	-157
0000	-158
il	-159
▁0000.	-160
as	-161
▁quân	-162
ời	-163
▁đó	-164
▁đến	-165
ết	-166
ối	-167
▁ngày	-168
▁nam	-169
▁quốc	-170
▁ông	-171
▁vật	-172
▁ra	-173
▁0000,	-174
it	-175
▁000	-176
ống	-177
▁sau	-178
▁chính	-179
àng	-180
ơn	-181
▁đị	-182
▁dân	-183
▁về	-184
id	-185
▁"	-186
ục	-187
▁tiên	-188
ur	-189
▁w	-190
▁để	-191
▁bị	-192
âu	-193
000	-194
em	-195
▁sự	-196
ăn	-197
▁hoa	-198
▁trên	-199
iê	-200
os	-201
▁cu	-202
▁trung	-203
▁bắ	-204
▁giá	-205
▁nó	-206
ền	-207
▁nhà	-208
om	-209
um	-210
ồng	-211
ội	-212
▁tiế	-213
▁y	-214
ac	-215
ằng	-216
and	-217
ích	-218
▁thực	-219
ảng	-220
ũng	-221
▁gia	-222
ấn	-223
ph	-224
▁mô	-225
▁j	-226
▁khoa	-227
ặc	-228
et	-229
ánh	-230
▁làm	-231
▁theo	-232
▁bộ	-233
▁o	-234
▁-	-235
▁do	-236
▁tả	-237
▁hiện	-238
án	-239
▁lại	-240
▁nước	-241
ượng	-242
▁xu	-243
iểu	-244
▁nhất	-245
un	-246
ảo	-247
▁cũng	-248
▁con	-249
âm	-250
ổi	-251
▁động	-252
tr	-253
▁đại	-254
ed	-255
▁hành	-256
▁chiến	-257
ạo	-258
úc	-259
),	-260
▁phát	-261
▁thuộc	-262
iết	-263
▁quy	-264
ễn	-265
uyệ	-266
oàn	-267
▁cả	-268
le	-269
▁thế	-270
ạt	-271
▁nhiều	-272
òn	-273
▁anh	-274
iệu	-275
▁di	-276
ạn	-277
iển	-278
▁bản	-279
▁thời	-280
▁tập	-281
ae	-282
▁xã	-283
ái	-284
ad	-285
át	-286
).	-287
▁khác	-288
uyên	-289
▁tổ	-290
▁hai	-291
▁chỉ	-292
ing	-293
iêu	-294
ịch	-295
ir	-296
ạc	-297
▁thị	-298
ộng	-299
▁pháp	-300
uyện	-301
▁nhân	-302
▁sử	-303
iệc	-304
▁việt	-305
▁kỳ	-306
ặt	-307
▁việc	-308
▁chú	-309
òng	-310
ơi	-311
ag	-312
ôi	-313
ro	-314
▁quan	-315
ấy	-316
ấp	-317
▁đồng	-318
▁mà	-319
ưở	-320
▁cùng	-321
▁lớ	-322
ưởng	-323
ăng	-324
ôn	-325
▁hình	-326
▁còn	-327
▁viên	-328
▁khu	-329
▁dụ	-330
▁tin	-331
ởi	-332
ạng	-333
▁định	-334
▁(0000	-335
▁cao	-336
▁xuất	-337
▁tên	-338
ter	-339
▁thứ	-340
▁chủ	-341
ig	-342
▁hội	-343
▁tự	-344
ul	-345
▁trường	-346
▁in	-347
▁hơn	-348
▁thủ	-349
▁vị	-350
▁phí	-351
▁e	-352
▁sinh	-353
ion	-354
ấu	-355
ỉnh	-356
▁nhưng	-357
iền	-358
▁tu	-359
iểm	-360
ot	-361
áng	-362
▁lý	-363
▁văn	-364
▁giải	-365
▁cuộc	-366
▁liên	-367
▁đội	-368
ào	-369
ứng	-370
▁bắc	-371
▁tây	-372
ưa	-373
▁phần	-374
ẫn	-375
▁chiế	-376
▁cách	-377
▁đông	-378
▁dự	-379
re	-380
▁dụng	-381
ọi	-382
▁lu	-383
▁lập	-384
áy	-385
.000	-386
op	-387
▁phía	-388
▁đề	-389
ướng	-390
▁giới	-391
▁lớn	-392
▁cơ	-393
▁tuy	-394
▁bởi	-395
óng	-396
iệp	-397
▁phải	-398
▁bay	-399
▁bình	-400
▁lượng	-401
▁an	-402
▁trước	-403
▁giữ	-404
ak	-405
▁bằng	-406
▁điều	-407
▁al	-408
áo	-409
▁tỉnh	-410
ách	-411
▁trở	-412
▁of	-413
ợp	-414
▁thống	-415
od	-416
▁hợp	-417
▁đường	-418
ĩa	-419
▁đoàn	-420
▁ngo	-421
▁chúng	-422
▁thường	-423
▁lực	-424
▁vùng	-425
pg	-426
▁phố	-427
▁giáo	-428
▁trình	-429
▁châu	-430
▁i	-431
▁0,	-432
▁diễn	-433
òa	-434
àu	-435
▁ban	-436
▁tiếng	-437
▁chức	-438
▁mỹ	-439
óa	-440
jpg	-441
ển	-442
ắc	-443
▁đi	-444
iệm	-445
▁sĩ	-446
▁lên	-447
▁tiếp	-448
▁hoàng	-449
▁vì	-450
▁trị	-451
ent	-452
▁kết	-453
▁qua	-454
▁sản	-455
ell	-456
ốn	-457
▁dương	-458
▁tế	-459
ua	-460
▁nhận	-461
ồm	-462
▁thông	-463
ra	-464
uyền	-465
▁tích	-466
▁st	-467
▁đây	-468
▁rằng	-469
▁sống	-470
ưu	-471
ec	-472
▁#	-473
▁ba	-474
'',	-475
▁địa	-476
▁gồm	-477
▁sẽ	-478
ồi	-479
▁đối	-480
▁hay	-481
ạch	-482
▁so	-483
▁quyền	-484
▁đức	-485
ồn	-486
▁hàng	-487
▁đánh	-488
▁to	-489
▁tính	-490
▁gọi	-491
▁huyện	-492
▁hệ	-493
st	-494
▁nhiên	-495
▁tác	-496
▁vụ	-497
▁tổng	-498
▁tàu	-499
ọng	-500
ằm	-501
ậu	-502
▁hoặc	-503
ill	-504
▁tiểu	-505
▁minh	-506
▁điểm	-507
▁00,	-508
▁thì	-509
▁phim	-510
▁bắt	-511
ap	-512
hi	-513
▁tạo	-514
▁kinh	-515
▁máy	-516
▁:	-517
▁thái	-518
▁nữ	-519
ắng	-520
ri	-521
ut	-522
▁mình	-523
▁tới	-524
▁danh	-525
ab	-526
▁diện	-527
▁tranh	-528
▁phương	-529
▁chuy	-530
ov	-531
▁hà	-532
▁đô	-533
▁nguyên	-534
▁mặt	-535
▁lệ	-536
▁trận	-537
▁đất	-538
▁nhạc	-539
▁&	-540
▁hóa	-541
ard	-542
▁tử	-543
ếu	-544
▁lần	-545
av	-546
▁dư	-547
ạnh	-548
ẩm	-549
▁hòa	-550
▁đạo	-551
▁mới	-552
oc	-553
▁–	-554
ạm	-555
▁chu	-556
▁rất	-557
eae	-558
▁**	-559
▁cộng	-560
▁vực	-561
▁cứ	-562
▁đá	-563
▁phân	-564
▁nên	-565
▁đặc	-566
▁cấp	-567
▁tư	-568
▁toàn	-569
▁khoảng	-570
ốt	-571
▁vương	-572
-00	-573
▁chi	-574
if	-575
▁bao	-576
▁thức	-577
▁nghĩa	-578
▁and	-579
▁hải	-580
▁bang	-581
▁cầu	-582
▁cô	-583
▁biển	-584
iv	-585
▁tham	-586
▁quận	-587
▁ý	-588
▁0000)	-589
''.	-590
▁bảo	-591
▁tinh	-592
▁cử	-593
▁truyền	-594
▁su	-595
-0000	-596
ầm	-597
ùa	-598
▁gian	-599
▁ne	-600
ne	-601
ers	-602
ens	-603
ắt	-604
og	-605
▁ar	-606
▁năng	-607
▁ngoài	-608
▁tiến	-609
ist	-610
▁giữa	-611
ob	-612
▁nhật	-613
▁thấy	-614
▁điện	-615
ian	-616
▁chuyển	-617
▁đảo	-618
ảnh	-619
▁nguy	-620
▁km	-621
▁đo	-622
▁de	-623
▁le	-624
▁đơn	-625
ip	-626
▁hoạt	-627
▁cá	-628
▁thiết	-629
êu	-630
-0	-631
▁tướng	-632
▁nghiệp	-633
▁mar	-634
▁tâm	-635
▁hiệu	-636
▁sáng	-637
▁đang	-638
▁cuối	-639
êm	-640
▁phủ	-641
▁giả	-642
▁*''	-643
ie	-644
▁phong	-645
▁dưới	-646
▁nhau	-647
▁u	-648
ich	-649
all	-650
ow	-651
▁bu	-652
▁thuật	-653
▁sông	-654
▁cổ	-655
▁triển	-656
▁phòng	-657
▁chế	-658
▁thanh	-659
▁trọng	-660
▁lan	-661
▁nơi	-662
▁bài	-663
▁lã	-664
▁đế	-665
ine	-666
óm	-667
▁nằm	-668
▁á	-669
ìm	-670
▁đấu	-671
▁biệt	-672
▁ta	-673
..	-674
ọc	-675
▁miêu	-676
▁đặt	-677
▁đình	-678
▁trưởng	-679
▁âm	-680
▁dùng	-681
▁tấn	-682
▁tăng	-683
ắn	-684
▁mã	-685
ỗi	-686
ép	-687
▁dịch	-688
ant	-689
▁trí	-690
▁lưu	-691
▁nội	-692
▁tiêu	-693
▁chất	-694
▁nói	-695
▁đổi	-696
▁kế	-697
▁ca	-698
▁chiếc	-699
▁vi	-700
ét	-701
▁ảnh	-702
▁binh	-703
▁sách	-704
▁viện	-705
▁vai	-706
▁tình	-707
'')	-708
ừng	-709
▁dài	-710
ber	-711
▁vẫn	-712
▁br	-713
▁nay	-714
▁sh	-715
▁bên	-716
▁thiên	-717
▁nhỏ	-718
▁trang	-719
út	-720
▁vua	-721
▁chí	-722
▁is	-723
▁kỷ	-724
▁hậu	-725
▁chương	-726
▁mang	-727
▁vũ	-728
▁gần	-729
▁tài	-730
▁ăn	-731
▁bóng	-732
ord	-733
▁thần	-734
ưng	-735
▁lịch	-736
ok	-737
▁nguyễn	-738
iếu	-739
▁giao	-740
est	-741
▁cứu	-742
ỏi	-743
▁thay	-744
▁la	-745
▁thân	-746
ẩn	-747
yl	-748
kh	-749
▁tuổi	-750
▁nhóm	-751
▁tương	-752
▁hát	-753
▁hu	-754
▁(''	-755
▁báo	-756
▁sư	-757
▁nhiệm	-758
▁biết	-759
▁phục	-760
▁biến	-761
▁bà	-762
ọn	-763
▁tìm	-764
ou	-765
art	-766
▁hồ	-767
▁nổi	-768
▁z	-769
▁phi	-770
▁triều	-771
▁chơi	-772
▁phẩm	-773
▁sát	-774
ry	-775
aceae	-776
▁(0000)	-777
▁đều	-778
▁nghệ	-779
ce	-780
▁mục	-781
▁bố	-782
▁fr	-783
ĩnh	-784
▁quả	-785
ev	-786
▁thương	-787
ảy	-788
▁sở	-789
ủy	-790
▁viết	-791
▁huy	-792
▁biểu	-793
▁0.	-794
ậy	-795
▁sơn	-796
▁mùa	-797
ta	-798
ik	-799
ess	-800
".	-801
the	-802
te	-803
ina	-804
ữu	-805
ạp	-806
ợi	-807
▁chưa	-808
ton	-809
▁khí	-810
▁phụ	-811
úp	-812
▁hoàn	-813
▁lúc	-814
úng	-815
ation	-816
▁đời	-817
▁du	-818
▁đưa	-819
idae	-820
▁hữu	-821
...	-822
▁chiếm	-823
▁hộ	-824
▁mu	-825
▁tiền	-826
▁sân	-827
▁vệ	-828
▁gr	-829
▁thắng	-830
▁co	-831
▁dẫn	-832
▁kim	-833
▁quyết	-834
▁em	-835
▁long	-836
▁dù	-837
▁thi	-838
▁0.000	-839
▁yếu	-840
▁triệu	-841
man	-842
io	-843
▁đóng	-844
▁bỏ	-845
▁tục	-846
úi	-847
eg	-848
▁dựng	-849
ey	-850
▁màu	-851
▁liệu	-852
▁cư	-853
▁xây	-854
ặng	-855
▁cái	-856
▁kiến	-857
▁cung	-858
igh	-859
▁cảnh	-860
▁nhiệt	-861
▁miền	-862
▁nhập	-863
▁new	-864
ệnh	-865
▁lãnh	-866
▁bất	-867
▁ứng	-868
▁quá	-869
▁thư	-870
ẳng	-871
▁giáp	-872
▁000,	-873
ạy	-874
oh	-875
▁tho	-876
▁cây	-877
▁vô	-878
und	-879
▁sang	-880
▁rộng	-881
▁cánh	-882
▁alb	-883
▁mạnh	-884
▁bán	-885
ăm	-886
ừa	-887
▁từng	-888
▁mất	-889
▁đảng	-890
▁hạng	-891
▁hướng	-892
▁chống	-893
▁00%	-894
son	-895
ah	-896
▁chết	-897
▁quản	-898
▁tra	-899
ít	-900
uyết	-901
▁pr	-902
▁tượng	-903
▁nào	-904
ack	-905
eo	-906
▁trấn	-907
▁giống	-908
▁ấn	-909
▁tộc	-910
▁xe	-911
ấm	-912
iêm	-913
▁mở	-914
▁ngu	-915
▁mỗi	-916
▁tất	-917
▁tay	-918
▁đài	-919
▁vận	-920
ach	-921
▁chung	-922
▁kích	-923
▁sc	-924
ub	-925
▁am	-926
▁cần	-927
▁núi	-928
▁lạc	-929
ud	-930
▁ký	-931
▁nga	-932
▁hạ	-933
ặp	-934
.)	-935
▁sắc	-936
se	-937
▁câu	-938
▁sp	-939
▁lấy	-940
aw	-941
ge	-942
▁ngữ	-943
ib	-944
▁thuyết	-945
▁hy	-946
▁đạt	-947
▁thủy	-948
▁00.000	-949
▁môi	-950
▁nguồn	-951
",	-952
▁dạng	-953
▁âu	-954
ửa	-955
▁ty	-956
▁par	-957
▁niên	-958
▁yêu	-959
end	-960
-000	-961
▁trần	-962
ff	-963
ata	-964
▁trợ	-965
▁00.	-966
▁độc	-967
eb	-968
thực	-969
▁can	-970
▁thêm	-971
▁phản	-972
▁tỷ	-973
▁nghiên	-974
ium	-975
▁thích	-976
▁ngôi	-977
sh	-978
ep	-979
▁đoạn	-980
▁giờ	-981
ứa	-982
ass	-983
▁ii	-984
▁biên	-985
amp	-986
land	-987
▁(0	-988
▁xác	-989
▁phái	-990
▁mạng	-991
▁giúp	-992
▁đồ	-993
▁vậy	-994
iêng	-995
▁bệnh	-996
▁album	-997
az	-998
▁lệnh	-999
▁mật	-1000
▁luật	-1001
▁hiệp	-1002
per	-1003
▁chân	-1004
▁trò	-1005
ượt	-1006
▁un	-1007
▁án	-1008
ựa	-1009
▁sao	-1010
▁chia	-1011
ii	-1012
▁kể	-1013
▁hã	-1014
▁duy	-1015
sk	-1016
▁gây	-1017
▁tân	-1018
óc	-1019
▁vòng	-1020
▁phổ	-1021
▁nếu	-1022
▁ngoại	-1023
ind	-1024
▁hầu	-1025
▁mặc	-1026
▁=	-1027
áu	-1028
▁trực	-1029
▁chữ	-1030
▁car	-1031
uc	-1032
▁tuần	-1033
ếp	-1034
ight	-1035
▁tông	-1036
▁cl	-1037
▁ghi	-1038
oph	-1039
▁kiện	-1040
▁thổ	-1041
▁bàn	-1042
▁lễ	-1043
▁(00	-1044
▁ủy	-1045
▁tốt	-1046
▁khả	-1047
▁hết	-1048
▁nghị	-1049
▁đa	-1050
▁lê	-1051
▁ma	-1052
▁lục	-1053
▁hồng	-1054
▁chọn	-1055
▁khỏi	-1056
ắp	-1057
▁trai	-1058
▁lợi	-1059
ầy	-1060
▁xô	-1061
▁phạm	-1062
▁khai	-1063
▁ít	-1064
▁lời	-1065
▁or	-1066
▁phép	-1067
uk	-1068
col	-1069
▁thập	-1070
▁phiên	-1071
▁thảo	-1072
▁hán	-1073
▁hạn	-1074
▁chứng	-1075
ath	-1076
▁rồi	-1077
ern	-1078
▁gốc	-1079
▁for	-1080
▁nha	-1081
▁tỏ	-1082
ast	-1083
▁quảng	-1084
▁lớp	-1085
▁đào	-1086
ẫu	-1087
ug	-1088
ea	-1089
▁cố	-1090
▁đai	-1091
▁cảm	-1092
bo	-1093
▁làng	-1094
px	-1095
ìn	-1096
▁tôn	-1097
▁vấn	-1098
ụy	-1099
▁hưởng	-1100
ans	-1101
ẩu	-1102
người	-1103
▁sa	-1104
▁sức	-1105
▁tuyến	-1106
▁xem	-1107
▁pl	-1108
▁col	-1109
iac	-1110
ana	-1111
▁pháo	-1112
▁thượng	-1113
▁vàng	-1114
/0000	-1115
ma	-1116
▁as	-1117
▁gu	-1118
▁sch	-1119
▁chuẩn	-1120
ex	-1121
▁giám	-1122
ith	-1123
động	-1124
phim	-1125
iz	-1126
▁thiếu	-1127
orn	-1128
▁ké	-1129
▁chị	-1130
ica	-1131
ish	-1132
uôi	-1133
▁địch	-1134
▁đới	-1135
▁tưởng	-1136
▁xếp	-1137
▁dòng	-1138
▁khách	-1139
▁thơ	-1140
▁chạy	-1141
▁trái	-1142
ãi	-1143
ont	-1144
▁el	-1145
▁hồi	-1146
▁cụ	-1147
▁ngay	-1148
ier	-1149
▁mẹ	-1150
▁quay	-1151
▁tuyên	-1152
ue	-1153
ín	-1154
▁cận	-1155
▁lộ	-1156
▁trẻ	-1157
ắm	-1158
▁lâm	-1159
ly	-1160
▁ninh	-1161
▁quang	-1162
iếm	-1163
▁bo	-1164
ensis	-1165
ho	-1166
yr	-1167
ick	-1168
▁gặp	-1169
na	-1170
▁bại	-1171
▁mọi	-1172
▁be	-1173
▁riêng	-1174
▁hàn	-1175
br	-1176
ủng	-1177
▁thất	-1178
co	-1179
▁ed	-1180
▁chúa	-1181
▁nền	-1182
▁muốn	-1183
▁giành	-1184
▁kỹ	-1185
▁xuống	-1186
▁song	-1187
▁nông	-1188
▁cực	-1189
▁on	-1190
ius	-1191
ies	-1192
▁vành	-1193
▁rừng	-1194
▁linh	-1195
ity	-1196
▁khiến	-1197
iaceae	-1198
▁thúc	-1199
▁chuyên	-1200
▁giang	-1201
bn	-1202
ond	-1203
▁tiết	-1204
lin	-1205
ert	-1206
ám	-1207
▁khẩu	-1208
iss	-1209
▁hỗ	-1210
▁cha	-1211
▁áp	-1212
▁lâu	-1213
▁vài	-1214
▁thánh	-1215
▁san	-1216
gi	-1217
▁đứng	-1218
▁đốc	-1219
▁thuận	-1220
iếng	-1221
les	-1222
▁phó	-1223
▁giảm	-1224
▁gái	-1225
lo	-1226
▁doanh	-1227
ore	-1228
▁hạt	-1229
▁cải	-1230
▁tôi	-1231
▁cửa	-1232
▁thấp	-1233
▁xa	-1234
▁thờ	-1235
▁dung	-1236
▁ex	-1237
▁lương	-1238
▁bầu	-1239
▁giai	-1240
enn	-1241
▁kiểm	-1242
don	-1243
▁sai	-1244
▁nhanh	-1245
▁chiều	-1246
ort	-1247
▁quần	-1248
▁mắt	-1249
ork	-1250
▁giết	-1251
▁dục	-1252
▁com	-1253
▁bắn	-1254
▁nhằm	-1255
▁tam	-1256
▁khúc	-1257
ậm	-1258
▁pro	-1259
ỡng	-1260
▁phóng	-1261
▁đổ	-1262
0.	-1263
ary	-1264
▁yên	-1265
pr	-1266
▁nữa	-1267
ẹp	-1268
▁mẫu	-1269
▁lá	-1270
▁ai	-1271
▁bạn	-1272
ust	-1273
▁trúc	-1274
▁nghiệm	-1275
ile	-1276
▁joh	-1277
▁bổ	-1278
ara	-1279
▁tối	-1280
▁đêm	-1281
uyệt	-1282
▁luận	-1283
▁kê	-1284
▁tồn	-1285
▁.	-1286
▁ước	-1287
cn	-1288
▁điển	-1289
▁tịch	-1290
sinh	-1291
▁()	-1292
pl	-1293
▁cập	-1294
ym	-1295
▁môn	-1296
▁xỉ	-1297
▁bảng	-1298
▁đôi	-1299
ys	-1300
ash	-1301
▁ngôn	-1302
▁dựa	-1303
▁tức	-1304
▁bờ	-1305
▁xuân	-1306
▁đĩa	-1307
▁cal	-1308
▁toán	-1309
▁00,00	-1310
▁fran	-1311
▁man	-1312
▁chấp	-1313
ườn	-1314
▁0,0	-1315
▁vu	-1316
▁cr	-1317
bur	-1318
▁lĩnh	-1319
▁phú	-1320
ct	-1321
▁tốc	-1322
ảm	-1323
age	-1324
sch	-1325
▁lư	-1326
▁cấu	-1327
▁mi	-1328
▁mạch	-1329
▁bl	-1330
▁bar	-1331
▁us	-1332
▁đủ	-1333
▁hương	-1334
▁tù	-1335
▁tố	-1336
▁khởi	-1337
▁mal	-1338
lor	-1339
▁mức	-1340
ost	-1341
ate	-1342
▁0:	-1343
▁;	-1344
▁áo	-1345
ek	-1346
pt	-1347
▁quanh	-1348
▁cáo	-1349
▁coi	-1350
▁rõ	-1351
▁nặng	-1352
▁hạm	-1353
▁tống	-1354
▁hãng	-1355
▁trắng	-1356
▁ad	-1357
▁ir	-1358
▁kéo	-1359
ada	-1360
▁lửa	-1361
▁ser	-1362
▁đàn	-1363
ann	-1364
▁chịu	-1365
▁isbn	-1366
▁ro	-1367
anth	-1368
▁xuyên	-1369
▁trục	-1370
▁trương	-1371
▁ngành	-1372
▁re	-1373
our	-1374
ca	-1375
la	-1376
ôm	-1377
▁tòa	-1378
▁kiểu	-1379
▁bốn	-1380
▁luyện	-1381
ọa	-1382
▁00,0	-1383
▁ngựa	-1384
▁hại	-1385
yn	-1386
▁khó	-1387
▁đen	-1388
cl	-1389
▁đáng	-1390
ld	-1391
▁quý	-1392
▁súng	-1393
▁hoạch	-1394
▁0,00	-1395
="	-1396
ect	-1397
one	-1398
▁thưởng	-1399
▁he	-1400
▁lai	-1401
.,	-1402
ella	-1403
▁at	-1404
▁chứa	-1405
ão	-1406
▁truyện	-1407
▁nối	-1408
tiếng	-1409
▁tín	-1410
ory	-1411
▁air	-1412
ley	-1413
2,	-1414
▁tuyển	-1415
int	-1416
ipp	-1417
▁nuôi	-1418
mar	-1419
ock	-1420
▁trời	-1421
old	-1422
ón	-1423
▁(000	-1424
▁john	-1425
▁phil	-1426
▁đỏ	-1427
▁im	-1428
▁nhìn	-1429
▁se	-1430
▁ge	-1431
▁gh	-1432
▁sứ	-1433
▁trụ	-1434
ame	-1435
▁ngắn	-1436
ino	-1437
▁dành	-1438
▁lao	-1439
cr	-1440
▁bí	-1441
âng	-1442
▁cũ	-1443
con	-1444
▁(0000),	-1445
▁mét	-1446
▁gì	-1447
▁en	-1448
▁căn	-1449
tiểu	-1450
▁ru	-1451
nhỏ	-1452
▁sóng	-1453
▁buộc	-1454
era	-1455
ez	-1456
▁kịch	-1457
máy	-1458
2.	-1459
yp	-1460
▁gó	-1461
èo	-1462
▁cạnh	-1463
▁phận	-1464
▁ly	-1465
▁(0000).	-1466
▁vốn	-1467
ite	-1468
▁rút	-1469
▁000.000	-1470
–00	-1471
▁luôn	-1472
ka	-1473
▁per	-1474
▁cam	-1475
ọt	-1476
ler	-1477
▁chuyện	-1478
▁nghi	-1479
ỏa	-1480
▁quán	-1481
ott	-1482
▁lạp	-1483
▁0000-0000	-1484
▁vợ	-1485
▁har	-1486
▁niệm	-1487
ale	-1488
▁da	-1489
▁thừa	-1490
ft	-1491
gh	-1492
▁đà	-1493
▁sâu	-1494
▁nhi	-1495
▁pol	-1496
▁phúc	-1497
ầng	-1498
▁sol	-1499
▁trạng	-1500
▁thịt	-1501
de	-1502
▁trao	-1503
oss	-1504
▁chiếu	-1505
▁trả	-1506
sp	-1507
▁hưng	-1508
ver	-1509
▁trùng	-1510
▁võ	-1511
▁*0000	-1512
▁hàm	-1513
aul	-1514
▁00/	-1515
orld	-1516
▁vượt	-1517
▁min	-1518
▁ngô	-1519
tern	-1520
chim	-1521
ix	-1522
ett	-1523
▁kính	-1524
▁càng	-1525
bia	-1526
ve	-1527
▁chủng	-1528
▁lòng	-1529
car	-1530
▁dễ	-1531
▁khá	-1532
fr	-1533
ck	-1534
▁tầng	-1535
▁xung	-1536
ward	-1537
▁ấy	-1538
ỏng	-1539
ark	-1540
▁thật	-1541
▁băng	-1542
▁ngọc	-1543
▁bức	-1544
▁tcn	-1545
ama	-1546
ico	-1547
▁kiếm	-1548
rey	-1549
▁tải	-1550
km	-1551
▁tái	-1552
ice	-1553
▁ô	-1554
▁no	-1555
▁mo	-1556
▁cự	-1557
aria	-1558
▁tạp	-1559
èn	-1560
▁xứ	-1561
▁nhờ	-1562
0,	-1563
▁đạn	-1564
ict	-1565
▁tim	-1566
▁me	-1567
nhà	-1568
color	-1569
att	-1570
▁đăng	-1571
▁tan	-1572
ặn	-1573
▁thạch	-1574
▁tội	-1575
act	-1576
▁phật	-1577
▁york	-1578
▁khắc	-1579
▁xử	-1580
▁hùng	-1581
▁khối	-1582
▁rêu	-1583
▁:''	-1584
ya	-1585
▁trì	-1586
▁ber	-1587
▁thụy	-1588
▁0000:	-1589
▁rob	-1590
▁vừa	-1591
▁dần	-1592
▁tước	-1593
▁gen	-1594
▁trưng	-1595
▁vĩnh	-1596
nam	-1597
▁xảy	-1598
▁hiến	-1599
▁cục	-1600
ania	-1601
▁loạt	-1602
▁by	-1603
▁đầy	-1604
▁it	-1605
▁chuyến	-1606
."	-1607
▁mộ	-1608
▁mua	-1609
ement	-1610
▁mối	-1611
ẩy	-1612
▁phối	-1613
▁nor	-1614
up	-1615
▁phù	-1616
▁bom	-1617
00.	-1618
▁world	-1619
▁dã	-1620
itt	-1621
▁chim	-1622
ềm	-1623
▁thử	-1624
▁suốt	-1625
▁xanh	-1626
▁nhu	-1627
▁úc	-1628
▁huấn	-1629
▁diệt	-1630
▁cai	-1631
▁đột	-1632
▁trách	-1633
▁lính	-1634
▁ương	-1635
▁khóa	-1636
▁00000	-1637
▁will	-1638
ba	-1639
▁lược	-1640
▁bá	-1641
iel	-1642
▁str	-1643
▁thiện	-1644
mer	-1645
ood	-1646
uch	-1647
▁dấu	-1648
▁tần	-1649
:0	-1650
ém	-1651
▁ví	-1652
▁***	-1653
▁(0000-0000	-1654
gr	-1655
ign	-1656
▁thăng	-1657
▁mại	-1658
▁đem	-1659
▁thoại	-1660
▁tai	-1661
su	-1662
▁dữ	-1663
ụng	-1664
▁đích	-1665
▁suất	-1666
▁vây	-1667
opter	-1668
▁chùa	-1669
▁suy	-1670
▁tháp	-1671
▁họa	-1672
▁kẻ	-1673
berg	-1674
):	-1675
▁góp	-1676
▁buổi	-1677
ire	-1678
ide	-1679
▁thuốc	-1680
▁bò	-1681
▁uy	-1682
▁liệt	-1683
▁mềm	-1684
▁fl	-1685
▁mực	-1686
▁soát	-1687
ose	-1688
ines	-1689
ive	-1690
▁nổ	-1691
▁thú	-1692
▁thôn	-1693
iana	-1694
▁hôn	-1695
–0000	-1696
▁mai	-1697
order	-1698
▁khổ	-1699
▁cường	-1700
▁thiệu	-1701
▁bé	-1702
▁cuốn	-1703
▁ánh	-1704
▁thí	-1705
ace	-1706
▁wal	-1707
va	-1708
▁rời	-1709
▁đương	-1710
iam	-1711
▁mus	-1712
▁war	-1713
▁vườn	-1714
▁cầm	-1715
ura	-1716
asil	-1717
▁pal	-1718
''),	-1719
ien	-1720
▁vọng	-1721
▁0-0	-1722
we	-1723
▁xét	-1724
▁khánh	-1725
sen	-1726
bl	-1727
▁vú	-1728
▁nạn	-1729
▁tầm	-1730
▁tá	-1731
▁ngân	-1732
ial	-1733
▁dầu	-1734
▁mon	-1735
▁er	-1736
▁siêu	-1737
▁cậu	-1738
▁nghe	-1739
ùi	-1740
he	-1741
▁đảm	-1742
▁paris	-1743
uth	-1744
▁cảng	-1745
▁phê	-1746
một	-1747
ideo	-1748
ky	-1749
▁ang	-1750
och	-1751
▁mac	-1752
str	-1753
▁giác	-1754
cy	-1755
▁đẹp	-1756
▁rom	-1757
▁ab	-1758
òi	-1759
▁ven	-1760
▁trừ	-1761
▁chr	-1762
▁cỏ	-1763
orm	-1764
▁hủy	-1765
▁mưu	-1766
ner	-1767
▁mạc	-1768
yll	-1769
▁truy	-1770
▁bước	-1771
com	-1772
▁ale	-1773
▁gre	-1774
▁xương	-1775
▁,	-1776
▁bào	-1777
burg	-1778
▁dị	-1779
▁hỏi	-1780
ala	-1781
oi	-1782
▁kháng	-1783
▁her	-1784
ure	-1785
ald	-1786
ane	-1787
aur	-1788
ãn	-1789
ague	-1790
▁tách	-1791
ime	-1792
▁char	-1793
▁cát	-1794
▁lang	-1795
ena	-1796
▁bro	-1797
ille	-1798
▁cắt	-1799
▁tuyệt	-1800
amm	-1801
▁loạn	-1802
▁bạch	-1803
▁xâm	-1804
▁chỗ	-1805
|000	-1806
ays	-1807
▁os	-1808
ota	-1809
▁ac	-1810
iforn	-1811
▁hiểu	-1812
▁sm	-1813
ivers	-1814
▁mich	-1815
▁nâng	-1816
▁vân	-1817
ita	-1818
▁hiểm	-1819
ins	-1820
▁ngăn	-1821
be	-1822
oll	-1823
▁ủng	-1824
alem	-1825
▁mad	-1826
▁trào	-1827
▁ap	-1828
ical	-1829
▁giản	-1830
▁thao	-1831
ặm	-1832
ides	-1833
alia	-1834
▁chóng	-1835
▁ngũ	-1836
oth	-1837
ney	-1838
▁sơ	-1839
ứt	-1840
▁dav	-1841
▁thù	-1842
iềm	-1843
.''	-1844
unt	-1845
▁khảo	-1846
▁ẩm	-1847
▁californ	-1848
▁wil	-1849
▁đẩy	-1850
▁canada	-1851
ida	-1852
▁hoá	-1853
▁đỉnh	-1854
▁đệ	-1855
▁đe	-1856
ment	-1857
osa	-1858
▁chó	-1859
wn	-1860
▁mm	-1861
▁thác	-1862
▁mũ	-1863
▁phút	-1864
▁bạc	-1865
idaceae	-1866
bon	-1867
▁ol	-1868
▁lượt	-1869
▁video	-1870
▁sam	-1871
ửi	-1872
▁000.	-1873
▁sửa	-1874
▁đu	-1875
▁—	-1876
▁liền	-1877
ora	-1878
▁geor	-1879
▁philipp	-1880
▁khắp	-1881
▁0000),	-1882
▁thụ	-1883
▁chảy	-1884
▁vinh	-1885
istan	-1886
▁'	-1887
▁đền	-1888
to	-1889
▁li	-1890
▁cờ	-1891
▁vĩ	-1892
▁dọa	-1893
▁trịnh	-1894
▁my	-1895
▁california	-1896
▁des	-1897
▁ổ	-1898
ke	-1899
▁thoát	-1900
▁tường	-1901
▁nhiễ	-1902
▁lông	-1903
esia	-1904
▁trại	-1905
gro	-1906
ari	-1907
▁sing	-1908
-0.	-1909
▁bày	-1910
▁loan	-1911
▁bác	-1912
▁pet	-1913
thiên	-1914
▁sớ	-1915
ames	-1916
▁khiển	-1917
▁sắt	-1918
▁game	-1919
▁tán	-1920
▁te	-1921
ano	-1922
▁sáu	-1923
▁phường	-1924
ima	-1925
▁vịnh	-1926
▁hơi	-1927
▁hổ	-1928
ase	-1929
▁ngầm	-1930
▁nhĩ	-1931
aj	-1932
▁chỉnh	-1933
▁web	-1934
▁ind	-1935
onia	-1936
'').	-1937
▁gửi	-1938
▁xo	-1939
ola	-1940
uss	-1941
▁kar	-1942
▁lon	-1943
▁xin	-1944
▁thuyền	-1945
ula	-1946
▁del	-1947
▁brasil	-1948
▁gà	-1949
▁kênh	-1950
áp	-1951
▁bãi	-1952
ington	-1953
ps	-1954
di	-1955
▁camp	-1956
▁cừ	-1957
▁vuông	-1958
-00000	-1959
ros	-1960
▁gl	-1961
che	-1962
que	-1963
atus	-1964
ail	-1965
▁nhớ	-1966
me	-1967
▁bướ	-1968
▁chẳng	-1969
ions	-1970
▁dọc	-1971
▁na	-1972
▁đoạt	-1973
umb	-1974
▁league	-1975
pe	-1976
▁mil	-1977
ustr	-1978
▁đúng	-1979
ops	-1980
ford	-1981
▁mor	-1982
▁je	-1983
ron	-1984
ij	-1985
▁sung	-1986
▁press	-1987
▁start	-1988
aya	-1989
olog	-1990
▁thẳng	-1991
▁vạn	-1992
ậc	-1993
ani	-1994
iếp	-1995
ox	-1996
▁sớm	-1997
▁univers	-1998
▁cor	-1999
▁dạy	-2000
▁nửa	-2001
▁trải	-2002
▁kg	-2003
▁sal	-2004
0)	-2005
▁00-00	-2006
▁0:00	-2007
▁dis	-2008
▁ngược	-2009
▁thọ	-2010
▁săn	-2011
▁ngư	-2012
cầu	-2013
▁lat	-2014
▁máu	-2015
ubl	-2016
▁hen	-2017
oy	-2018
▁viễn	-2019
ican	-2020
▁bậc	-2021
bert	-2022
▁xạ	-2023
▁from	-2024
0"	-2025
eland	-2026
▁william	-2027
ational	-2028
▁vir	-2029
▁hỏa	-2030
▁nhẹ	-2031
▁hung	-2032
▁incr	-2033
ifol	-2034
▁00,00%	-2035
▁we	-2036
▁back	-2037
▁lăng	-2038
▁khô	-2039
▁wh	-2040
ót	-2041
▁tặng	-2042
ake	-2043
▁uk	-2044
▁with	-2045
▁nghề	-2046
▁ngụy	-2047
▁tỉ	-2048
▁chồng	-2049
▁tri	-2050
▁mc	-2051
▁bướm	-2052
én	-2053
không	-2054
▁gắn	-2055
▁grid	-2056
ger	-2057
ited	-2058
▁increment	-2059
ộn	-2060
▁scalem	-2061
▁dây	-2062
▁quyển	-2063
▁quỹ	-2064
▁đan	-2065
▁vol	-2066
grey	-2067
chi	-2068
▁bồ	-2069
sc	-2070
▁quê	-2071
năm	-2072
▁''"	-2073
by	-2074
▁gridcolor	-2075
▁đậu	-2076
ull	-2077
ụp	-2078
ker	-2079
▁cm	-2080
▁món	-2081
ini	-2082
nhân	-2083
▁sài	-2084
▁hài	-2085
▁dr	-2086
ze	-2087
▁0000).	-2088
▁rơi	-2089
▁ag	-2090
▁hol	-2091
air	-2092
▁rad	-2093
rich	-2094
▁tiện	-2095
▁ste	-2096
ữa	-2097
▁ha	-2098
▁bánh	-2099
được	-2100
▁trồng	-2101
▁phan	-2102
▁lin	-2103
alis	-2104
ham	-2105
ela	-2106
▁van	-2107
▁lẫn	-2108
▁go	-2109
ush	-2110
▁ngang	-2111
ence	-2112
▁ur	-2113
▁tùy	-2114
▁00%.	-2115
▁mag	-2116
nes	-2117
sa	-2118
▁/	-2119
▁thăm	-2120
▁mông	-2121
▁nghiêm	-2122
cu	-2123
úa	-2124
▁border	-2125
▁tránh	-2126
der	-2127
▁gòn	-2128
tt	-2129
▁ưu	-2130
par	-2131
▁mười	-2132
▁nhị	-2133
▁nắm	-2134
▁thước	-2135
▁tô	-2136
▁cừu	-2137
▁po	-2138
▁bur	-2139
▁cương	-2140
ẵn	-2141
▁solid	-2142
▁tứ	-2143
▁intern	-2144
▁giấy	-2145
▁lẽ	-2146
các	-2147
▁00,0%	-2148
▁lộc	-2149
▁bão	-2150
▁soạn	-2151
▁london	-2152
đại	-2153
▁mũi	-2154
▁đọc	-2155
ste	-2156
▁đáp	-2157
▁ben	-2158
men	-2159
ằn	-2160
uz	-2161
ha	-2162
úy	-2163
▁xúc	-2164
0/0000	-2165
▁“	-2166
▁nat	-2167
▁nhiễm	-2168
ona	-2169
▁gỗ	-2170
▁lam	-2171
▁điền	-2172
use	-2173
ía	-2174
ult	-2175
▁tàng	-2176
are	-2177
fl	-2178
▁q	-2179
ael	-2180
▁dãy	-2181
▁kì	-2182
▁tắc	-2183
▁alex	-2184
▁màn	-2185
▁cap	-2186
▁sợ	-2187
err	-2188
▁iii	-2189
▁đỗ	-2190
▁chặn	-2191
▁ngọt	-2192
▁cựu	-2193
▁đuổi	-2194
▁sim	-2195
▁cứng	-2196
▁khăn	-2197
▁chữa	-2198
▁bề	-2199
ester	-2200
▁may	-2201
▁tào	-2202
ko	-2203
▁chinh	-2204
õi	-2205
▁val	-2206
cal	-2207
▁rắn	-2208
▁file	-2209
▁trữ	-2210
phải	-2211
▁thiệt	-2212
▁tháo	-2213
▁0/	-2214
ise	-2215
▁lui	-2216
ci	-2217
ila	-2218
▁chiêu	-2219
▁ném	-2220
▁dan	-2221
▁dặm	-2222
po	-2223
mất	-2224
ther	-2225
▁von	-2226
▁bảy	-2227
▁usd	-2228
▁gió	-2229
▁sl	-2230
▁christ	-2231
dr	-2232
▁ốc	-2233
idge	-2234
▁đỡ	-2235
awa	-2236
▁bal	-2237
ene	-2238
▁dưỡng	-2239
▁mưa	-2240
▁hè	-2241
▁kr	-2242
▁đuôi	-2243
my	-2244
▁cup	-2245
▁tĩnh	-2246
ear	-2247
▁ga	-2248
▁robert	-2249
▁hút	-2250
ươi	-2251
ground	-2252
▁trích	-2253
▁xưa	-2254
▁cấm	-2255
ics	-2256
▁tàn	-2257
▁phiếu	-2258
sky	-2259
▁khủng	-2260
▁iv	-2261
▁hấp	-2262
▁ổn	-2263
itz	-2264
pan	-2265
▁lỗ	-2266
mann	-2267
▁hoang	-2268
▁rock	-2269
▁đẳng	-2270
▁huyền	-2271
▁nhánh	-2272
▁rec	-2273
▁all	-2274
ts	-2275
▁thậm	-2276
▁amer	-2277
▁cell	-2278
ero	-2279
▁họp	-2280
iat	-2281
▁hôm	-2282
▁sant	-2283
▁trinh	-2284
▁giảng	-2285
go	-2286
▁dậy	-2287
▁hòn	-2288
▁tắt	-2289
▁ống	-2290
▁#000	-2291
▁ngờ	-2292
▁mat	-2293
ki	-2294
▁chợ	-2295
▁đồn	-2296
▁nghĩ	-2297
gin	-2298
▁eur	-2299
▁mart	-2300
▁university	-2301
▁philippines	-2302
▁mời	-2303
▁tụ	-2304
▁top	-2305
bài	-2306
▁lựa	-2307
▁trống	-2308
▁cân	-2309
▁tận	-2310
▁ze	-2311
▁mỏ	-2312
▁bụng	-2313
ais	-2314
▁bra	-2315
▁sẵn	-2316
hy	-2317
);	-2318
ói	-2319
▁bật	-2320
'':	-2321
da	-2322
▁cúp	-2323
▁lôi	-2324
▁wind	-2325
ows	-2326
▁hoà	-2327
ướp	-2328
▁trú	-2329
▁khoản	-2330
▁tom	-2331
▁background	-2332
▁phu	-2333
▁pan	-2334
ượu	-2335
▁jo	-2336
ms	-2337
▁tur	-2338
▁south	-2339
▁sóc	-2340
▁gắng	-2341
pa	-2342
▁sw	-2343
mon	-2344
ele	-2345
▁tờ	-2346
▁nob	-2347
▁you	-2348
ớt	-2349
▁#000;	-2350
▁thua	-2351
danh	-2352
▁luân	-2353
oma	-2354
từ	-2355
▁bi	-2356
els	-2357
▁phạt	-2358
▁lou	-2359
:000	-2360
▁bel	-2361
▁uống	-2362
ago	-2363
illa	-2364
▁med	-2365
▁trăm	-2366
pol	-2367
▁rượu	-2368
▁jack	-2369
▁nghỉ	-2370
▁biện	-2371
▁"''	-2372
▁che	-2373
amb	-2374
▁rich	-2375
▁publ	-2376
tain	-2377
▁nỗ	-2378
▁hist	-2379
ỳnh	-2380
▁met	-2381
▁cà	-2382
▁sắp	-2383
▁lối	-2384
▁đinh	-2385
▁0,00%	-2386
▁phán	-2387
▁mont	-2388
▁lào	-2389
▁góc	-2390
▁austr	-2391
▁chấm	-2392
▁ích	-2393
ợt	-2394
▁pha	-2395
▁lưỡng	-2396
inc	-2397
▁phe	-2398
▁bèn	-2399
ors	-2400
▁đoán	-2401
▁hiếu	-2402
▁thẩm	-2403
ji	-2404
▁ox	-2405
▁ver	-2406
thành	-2407
ris	-2408
▁côn	-2409
nay	-2410
▁kia	-2411
▁vẽ	-2412
▁hư	-2413
▁award	-2414
▁chép	-2415
▁cụm	-2416
ade	-2417
▁av	-2418
une	-2419
▁united	-2420
▁yo	-2421
▁lạnh	-2422
ban	-2423
▁chắc	-2424
▁david	-2425
▁tex	-2426
▁trốn	-2427
▁0.0	-2428
▁vỏ	-2429
enter	-2430
▁tròn	-2431
▁paul	-2432
▁(0000-0000)	-2433
tên	-2434
entr	-2435
▁cặp	-2436
▁mệnh	-2437
▁mic	-2438
▁ẩn	-2439
▁just	-2440
▁tấm	-2441
▁triết	-2442
tv	-2443
▁00:	-2444
▁khuy	-2445
▁mod	-2446
▁thom	-2447
▁trứng	-2448
▁đau	-2449
▁bối	-2450
so	-2451
za	-2452
▁ràng	-2453
yle	-2454
▁kỉ	-2455
,0	-2456
urt	-2457
▁:*	-2458
ole	-2459
▁lỵ	-2460
▁indon	-2461
▁mos	-2462
▁ti	-2463
="0"	-2464
▁eng	-2465
▁lữ	-2466
wa	-2467
▁nóng	-2468
▁0000–00	-2469
raph	-2470
▁gro	-2471
▁pe	-2472
▁cháu	-2473
▁0000-00	-2474
▁phức	-2475
do	-2476
vis	-2477
ga	-2478
tu	-2479
sm	-2480
▁indonesia	-2481
rael	-2482
▁canh	-2483
trong	-2484
▁chăm	-2485
▁george	-2486
oto	-2487
▁vong	-2488
right	-2489
▁arg	-2490
▁00/00	-2491
▁franc	-2492
▁et	-2493
▁ham	-2494
ere	-2495
ks	-2496
▁thịnh	-2497
▁dày	-2498
▁fo	-2499
▁chối	-2500
▁phước	-2501
▁kỵ	-2502
esc	-2503
▁đợt	-2504
▁ả	-2505
▁kn	-2506
inn	-2507
▁james	-2508
▁ger	-2509
▁bor	-2510
▁nhảy	-2511
▁tổn	-2512
▁chở	-2513
▁der	-2514
▁hal	-2515
ander	-2516
ll	-2517
▁tám	-2518
ophyll	-2519
ater	-2520
yst	-2521
▁tạm	-2522
▁::	-2523
ợn	-2524
je	-2525
▁champ	-2526
▁vẻ	-2527
osh	-2528
▁kém	-2529
▁tọa	-2530
▁rập	-2531
▁af	-2532
aland	-2533
▁giọng	-2534
▁ft	-2535
ja	-2536
chen	-2537
▁cất	-2538
▁image	-2539
▁pop	-2540
đĩa	-2541
▁op	-2542
gu	-2543
▁voi	-2544
▁mas	-2545
èm	-2546
▁trạm	-2547
▁mong	-2548
▁saint	-2549
hel	-2550
▁trà	-2551
ami	-2552
▁ukra	-2553
▁don	-2554
▁dinh	-2555
▁thuế	-2556
ple	-2557
▁fri	-2558
trò	-2559
vi	-2560
arr	-2561
có	-2562
ony	-2563
▁đòi	-2564
bs	-2565
▁mel	-2566
hu	-2567
▁non	-2568
▁spec	-2569
▁west	-2570
hr	-2571
▁ranh	-2572
▁hit	-2573
ates	-2574
ding	-2575
▁shi	-2576
eri	-2577
▁hoài	-2578
ense	-2579
▁israel	-2580
▁frank	-2581
▁lỗi	-2582
yo	-2583
▁buôn	-2584
▁cong	-2585
esh	-2586
ira	-2587
ville	-2588
ngày	-2589
ngh	-2590
▁tệ	-2591
aut	-2592
▁mẽ	-2593
nữ	-2594
▁tiêm	-2595
olf	-2596
alb	-2597
▁nov	-2598
▁mãn	-2599
▁lee	-2600
fa	-2601
▁0000–0000	-2602
▁khổng	-2603
▁men	-2604
▁lũng	-2605
:0000	-2606
ếch	-2607
▁đua	-2608
▁giàu	-2609
▁ki	-2610
▁lưới	-2611
▁bến	-2612
▁tor	-2613
công	-2614
▁cơn	-2615
▁cốt	-2616
cus	-2617
▁chánh	-2618
▁kiên	-2619
aus	-2620
atum	-2621
▁điệu	-2622
elle	-2623
ome	-2624
▁cướp	-2625
ield	-2626
ador	-2627
icus	-2628
▁chìm	-2629
ee	-2630
▁bạo	-2631
aysia	-2632
▁đực	-2633
iver	-2634
▁vỡ	-2635
▁hi	-2636
▁nghèo	-2637
▁trúng	-2638
ings	-2639
▁cỡ	-2640
▁sur	-2641
ashington	-2642
ope	-2643
▁đám	-2644
▁nguyện	-2645
▁tak	-2646
▁tề	-2647
no	-2648
ato	-2649
▁đồi	-2650
▁thầy	-2651
▁rãi	-2652
ỏe	-2653
ance	-2654
–000	-2655
oria	-2656
board	-2657
▁windows	-2658
▁(0000–0000	-2659
▁khỏe	-2660
▁thai	-2661
▁tùng	-2662
li	-2663
▁khơi	-2664
chữ	-2665
▁lái	-2666
▁huân	-2667
▁ngừng	-2668
▁đốt	-2669
min	-2670
erson	-2671
eder	-2672
▁than	-2673
▁grand	-2674
00)	-2675
▁mái	-2676
▁ant	-2677
pro	-2678
▁thuần	-2679
wood	-2680
eta	-2681
▁cháy	-2682
▁đầm	-2683
bar	-2684
▁flor	-2685
▁thỏa	-2686
▁ireland	-2687
▁ác	-2688
ny	-2689
▁michael	-2690
▁miễn	-2691
▁north	-2692
▁bol	-2693
▁city	-2694
▁tung	-2695
▁sar	-2696
inus	-2697
▁malaysia	-2698
aki	-2699
ori	-2700
")	-2701
▁hạnh	-2702
▁liêu	-2703
▁huế	-2704
eck	-2705
ux	-2706
▁max	-2707
light	-2708
ifolia	-2709
▁tour	-2710
▁khán	-2711
▁0-0000	-2712
▁sil	-2713
▁mê	-2714
mo	-2715
▁dứt	-2716
▁hiển	-2717
astr	-2718
▁cán	-2719
af	-2720
▁mex	-2721
▁ám	-2722
uchia	-2723
▁ukraina	-2724
▁+	-2725
▁000-000	-2726
▁khái	-2727
trung	-2728
▁thảm	-2729
rh	-2730
ster	-2731
▁nho	-2732
bor	-2733
ations	-2734
▁cột	-2735
rad	-2736
▁xưng	-2737
gia	-2738
▁đẻ	-2739
▁lợn	-2740
sf	-2741
iro	-2742
den	-2743
▁louis	-2744
▁tuấn	-2745
▁washington	-2746
▁ill	-2747
▁chín	-2748
▁lưng	-2749
▁đàm	-2750
▁dàng	-2751
▁mer	-2752
▁hiếm	-2753
▁inter	-2754
vas	-2755
▁music	-2756
ondo	-2757
stein	-2758
iger	-2759
kho	-2760
▁rh	-2761
▁pat	-2762
aga	-2763
akh	-2764
▁zealand	-2765
mel	-2766
▁sót	-2767
gar	-2768
▁si	-2769
oman	-2770
▁dũng	-2771
▁ass	-2772
▁ung	-2773
▁chặt	-2774
▁cro	-2775
▁miss	-2776
lad	-2777
▁hang	-2778
▁khấu	-2779
▁henry	-2780
pal	-2781
▁chấn	-2782
can	-2783
▁ngàn	-2784
những	-2785
▁ax	-2786
▁mé	-2787
▁kông	-2788
▁nhắc	-2789
ife	-2790
▁ân	-2791
▁tú	-2792
000000	-2793
▁haw	-2794
▁art	-2795
▁thiến	-2796
▁dàn	-2797
giải	-2798
▁cửu	-2799
▁cy	-2800
▁vui	-2801
cer	-2802
▁giam	-2803
▁stud	-2804
abe	-2805
ụi	-2806
▁charles	-2807
▁hô	-2808
ling	-2809
▁khám	-2810
▁bill	-2811
way	-2812
▁es	-2813
▁cúc	-2814
▁hel	-2815
eter	-2816
ition	-2817
yd	-2818
itar	-2819
▁dao	-2820
▁chạm	-2821
▁campuchia	-2822
▁trăng	-2823
▁đứa	-2824
ỡi	-2825
▁ngọn	-2826
pid	-2827
▁già	-2828
▁argent	-2829
▁lib	-2830
cor	-2831
▁úy	-2832
▁bột	-2833
▁đón	-2834
▁ngự	-2835
▁huệ	-2836
▁bỉ	-2837
har	-2838
apore	-2839
gen	-2840
▁und	-2841
ye	-2842
ski	-2843
▁rối	-2844
▁tuyết	-2845
▁hor	-2846
▁cú	-2847
-000-00000	-2848
▁xưởng	-2849
▁park	-2850
▁00/0/0000	-2851
▁phỏng	-2852
▁mộc	-2853
hay	-2854
own	-2855
▁("	-2856
▁răng	-2857
ốm	-2858
▁cat	-2859
oshi	-2860
yth	-2861
▁ev	-2862
▁bách	-2863
)''	-2864
▁scot	-2865
pha	-2866
▁mồi	-2867
aka	-2868
▁kèm	-2869
▁túc	-2870
▁rau	-2871
▁ái	-2872
ypod	-2873
form	-2874
let	-2875
▁chắn	-2876
▁lũ	-2877
▁ak	-2878
▁thám	-2879
ain	-2880
▁vở	-2881
▁mark	-2882
▁colom	-2883
▁fil	-2884
ẹn	-2885
rid	-2886
▁hoan	-2887
▁chư	-2888
▁thả	-2889
▁nâu	-2890
▁record	-2891
ựu	-2892
▁bát	-2893
▁ni	-2894
▁hào	-2895
▁chậm	-2896
▁history	-2897
ias	-2898
cher	-2899
▁ngồi	-2900
fer	-2901
▁sub	-2902
▁đôn	-2903
▁hot	-2904
▁0000;	-2905
aud	-2906
▁richard	-2907
▁vững	-2908
▁gar	-2909
tàu	-2910
▁kit	-2911
▁mạn	-2912
▁res	-2913
▁bos	-2914
gan	-2915
uki	-2916
▁chứ	-2917
▁texas	-2918
iano	-2919
▁kị	-2920
inor	-2921
▁enter	-2922
ni	-2923
▁chuột	-2924
▁lãng	-2925
▁han	-2926
ated	-2927
éc	-2928
las	-2929
por	-2930
▁anime	-2931
ova	-2932
đức	-2933
▁thiểu	-2934
ryopter	-2935
▁bre	-2936
,...	-2937
eda	-2938
▁nô	-2939
▁singapore	-2940
▁lor	-2941
ệt	-2942
ylv	-2943
ịnh	-2944
▁sữa	-2945
▁brit	-2946
▁francis	-2947
thumb	-2948
▁thép	-2949
▁00–00	-2950
ats	-2951
zh	-2952
ava	-2953
▁khẳng	-2954
ike	-2955
▁kiều	-2956
anda	-2957
▁cẩm	-2958
ios	-2959
▁fe	-2960
▁quen	-2961
aris	-2962
▁hungary	-2963
orth	-2964
▁mắc	-2965
▁tw	-2966
▁hỗn	-2967
▁tang	-2968
▁thung	-2969
▁mur	-2970
sau	-2971
dark	-2972
▁jul	-2973
ễu	-2974
▁tre	-2975
▁edward	-2976
▁thomas	-2977
ric	-2978
▁ts	-2979
▁jose	-2980
vel	-2981
rom	-2982
▁mexico	-2983
hip	-2984
▁love	-2985
▁rev	-2986
ớp	-2987
ese	-2988
rob	-2989
▁ok	-2990
▁bụi	-2991
▁kêu	-2992
▁trans	-2993
▁0)	-2994
▁thang	-2995
▁american	-2996
▁00%,	-2997
▁son	-2998
ink	-2999
▁**''	-3000
▁sáp	-3001
ify	-3002
aker	-3003
over	-3004
ograph	-3005
tổ	-3006
port	-3007
ology	-3008
▁dừng	-3009
ower	-3010
▁0/0000	-3011
▁bọn	-3012
▁nobel	-3013
ashi	-3014
▁reg	-3015
▁tạng	-3016
▁duyên	-3017
▁hir	-3018
▁hồn	-3019
▁lân	-3020
mus	-3021
ymp	-3022
▁kiêm	-3023
ars	-3024
▁chụp	-3025
▁sk	-3026
ụt	-3027
▁thục	-3028
oo	-3029
▁berlin	-3030
inea	-3031
▁bia	-3032
▁black	-3033
▁red	-3034
nd	-3035
▁dược	-3036
!!	-3037
▁đặng	-3038
▁il	-3039
ello	-3040
ìa	-3041
trich	-3042
ran	-3043
▁bè	-3044
▁pak	-3045
rop	-3046
opsis	-3047
seud	-3048
uct	-3049
▁thôi	-3050
▁angel	-3051
▁sạch	-3052
▁{	-3053
▁ke	-3054
▁lão	-3055
▁maria	-3056
▁rã	-3057
▁hằng	-3058
▁port	-3059
▁00/00/0000	-3060
▁nòng	-3061
▁nương	-3062
odes	-3063
ùm	-3064
▁#"	-3065
▁tv	-3066
ectr	-3067
▁khuôn	-3068
▁bấy	-3069
▁chăn	-3070
▁tựa	-3071
ave	-3072
asa	-3073
▁sánh	-3074
▁cast	-3075
ette	-3076
▁xá	-3077
ajor	-3078
▁fre	-3079
▁gal	-3080
▁0,000	-3081
cel	-3082
-00.	-3083
▁scalemajor	-3084
▁scaleminor	-3085
▁nap	-3086
png	-3087
▁canvas	-3088
▁var	-3089
its	-3090
▁vết	-3091
ume	-3092
▁justify	-3093
▁que	-3094
cha	-3095
arp	-3096
colors	-3097
▁king	-3098
▁jon	-3099
▁0–	-3100
iệng	-3101
chester	-3102
ansas	-3103
▁dõi	-3104
▁sum	-3105
▁ôn	-3106
▁super	-3107
▁khoáng	-3108
▁cãi	-3109
▁hoảng	-3110
eu	-3111
▁xích	-3112
inae	-3113
▁penn	-3114
▁tảng	-3115
▁cản	-3116
▁trầm	-3117
▁mü	-3118
iew	-3119
▁style	-3120
▁0-000-00000	-3121
▁mọc	-3122
res	-3123
▁ram	-3124
▁khang	-3125
lightgrey	-3126
darkgrey	-3127
sfondo	-3128
phía	-3129
▁thiền	-3130
▁tuân	-3131
▁ken	-3132
▁sen	-3133
▁rep	-3134
kyo	-3135
▁thạnh	-3136
for	-3137
icul	-3138
ild	-3139
▁bon	-3140
▁điệp	-3141
tainment	-3142
able	-3143
▁comm	-3144
▁mid	-3145
▁đập	-3146
▁dâng	-3147
▁hắn	-3148
oe	-3149
enia	-3150
bb	-3151
▁huyết	-3152
ali	-3153
alt	-3154
▁khôi	-3155
▁one	-3156
▁colombia	-3157
▁bọc	-3158
▁kiệt	-3159
▁nhì	-3160
han	-3161
▁jackson	-3162
▁nét	-3163
▁manga	-3164
▁pap	-3165
quận	-3166
▁mãi	-3167
▁fried	-3168
▁vict	-3169
▁jean	-3170
pad	-3171
yan	-3172
▁argentina	-3173
ider	-3174
▁miệng	-3175
lịch	-3176
▁scotland	-3177
▁hứa	-3178
▁gấp	-3179
▁nai	-3180
▁nic	-3181
net	-3182
▁mảnh	-3183
ven	-3184
ượn	-3185
▁trông	-3186
▁(0.000	-3187
aly	-3188
▁ky	-3189
00,	-3190
mi	-3191
▁thoái	-3192
▁ter	-3193
▁khuyến	-3194
▁internet	-3195
uel	-3196
▁thải	-3197
▁rem	-3198
▁hẹp	-3199
▁nàng	-3200
dor	-3201
▁ju	-3202
éo	-3203
ute	-3204
▁mau	-3205
▁chuỗi	-3206
▁ấu	-3207
nesota	-3208
▁los	-3209
▁chàng	-3210
rys	-3211
▁kur	-3212
▁wales	-3213
bridge	-3214
▁gir	-3215
▁book	-3216
▁minnesota	-3217
thu	-3218
▁ép	-3219
▁lúa	-3220
▁dom	-3221
▁ếch	-3222
ser	-3223
▁muối	-3224
▁thuê	-3225
▁vang	-3226
▁sẻ	-3227
▁virgin	-3228
zo	-3229
▁màng	-3230
well	-3231
teridaceae	-3232
ùn	-3233
▁iran	-3234
▁australia	-3235
lines	-3236
andr	-3237
▁kan	-3238
cra	-3239
▁duyệt	-3240
ito	-3241
▁entertainment	-3242
▁tokyo	-3243
album	-3244
▁peter	-3245
▁lành	-3246
▁play	-3247
▁bul	-3248
utt	-3249
▁ros	-3250
ters	-3251
"''	-3252
▁lạ	-3253
▁ấp	-3254
▁lô	-3255
▁smith	-3256
▁ngủ	-3257
▁carl	-3258
yria	-3259
▁mấy	-3260
urg	-3261
▁jun	-3262
yg	-3263
▁hề	-3264
▁martin	-3265
ough	-3266
edia	-3267
▁mát	-3268
▁carol	-3269
▁khích	-3270
mm	-3271
▁{|	-3272
of	-3273
▁ngã	-3274
▁xấu	-3275
▁cưới	-3276
kin	-3277
anthus	-3278
als	-3279
▁hứng	-3280
▁****	-3281
▁ngại	-3282
việt	-3283
▁mơ	-3284
cia	-3285
▁az	-3286
▁bùi	-3287
▁series	-3288
ẵng	-3289
▁hiền	-3290
▁lồng	-3291
ior	-3292
▁tia	-3293
▁airlines	-3294
▁bas	-3295
sin	-3296
▁ath	-3297
chn	-3298
▁kon	-3299
▁guitar	-3300
ten	-3301
val	-3302
▁sàng	-3303
▁ob	-3304
▁dáng	-3305
ilis	-3306
▁lẻ	-3307
ado	-3308
▁xong	-3309
bro	-3310
cho	-3311
▁lồ	-3312
▁ul	-3313
▁kam	-3314
▁ngập	-3315
▁phụng	-3316
▁chờ	-3317
xico	-3318
▁mèo	-3319
▁sụp	-3320
▁fir	-3321
aea	-3322
uri	-3323
▁pi	-3324
▁bọ	-3325
▁green	-3326
mat	-3327
▁up	-3328
và	-3329
▁sin	-3330
▁suối	-3331
▁cd	-3332
iflor	-3333
▁champions	-3334
▁colle	-3335
▁с	-3336
▁giáng	-3337
▁tóc	-3338
▁gai	-3339
ax	-3340
ựng	-3341
▁giận	-3342
ilia	-3343
▁000–000	-3344
▁khung	-3345
▁(0000-0000),	-3346
▁hầm	-3347
▁nhuận	-3348
chiến	-3349
stant	-3350
sylv	-3351
▁venez	-3352
▁$	-3353
.00	-3354
tam	-3355
▁trâu	-3356
▁not	-3357
▁cop	-3358
phal	-3359
rod	-3360
emon	-3361
▁ð	-3362
uyễn	-3363
rew	-3364
tập	-3365
▁publish	-3366
alin	-3367
▁orch	-3368
▁pakistan	-3369
ank	-3370
osta	-3371
field	-3372
▁gián	-3373
▁0000-0000,	-3374
tra	-3375
▁soái	-3376
▁''(	-3377
apan	-3378
ür	-3379
▁sun	-3380
▁cổng	-3381
ãng	-3382
▁leo	-3383
zil	-3384
▁mah	-3385
▁rồng	-3386
▁hộp	-3387
agon	-3388
▁bút	-3389
cc	-3390
▁|	-3391
▁lò	-3392
eld	-3393
▁records	-3394
▁wat	-3395
▁nạp	-3396
▁align	-3397
emat	-3398
aster	-3399
ces	-3400
▁fer	-3401
▁thận	-3402
▁nhượng	-3403
▁quạt	-3404
▁gold	-3405
trái	-3406
▁xám	-3407
▁méxico	-3408
bc	-3409
xi	-3410
▁pp	-3411
▁niềm	-3412
▁dryopter	-3413
▁his	-3414
rie	-3415
gl	-3416
.0	-3417
si	-3418
▁simon	-3419
oda	-3420
▁thợ	-3421
▁nẵng	-3422
elt	-3423
▁show	-3424
▁khuẩn	-3425
▁ep	-3426
▁ecu	-3427
▁sec	-3428
oides	-3429
▁dec	-3430
▁dryopteridaceae	-3431
ema	-3432
▁off	-3433
▁cas	-3434
wh	-3435
ộp	-3436
inois	-3437
phor	-3438
ов	-3439
/00	-3440
▁lật	-3441
như	-3442
▁nghìn	-3443
ange	-3444
▁bội	-3445
ury	-3446
▁est	-3447
▁aug	-3448
lan	-3449
-00000-000	-3450
xem	-3451
▁len	-3452
▁lọt	-3453
▁ecuador	-3454
òm	-3455
line	-3456
▁sel	-3457
▁seo	-3458
ets	-3459
▁giê	-3460
▁ghế	-3461
jo	-3462
▁cống	-3463
sylvania	-3464
▁lọc	-3465
jan	-3466
▁part	-3467
▁viêm	-3468
▁town	-3469
▁ann	-3470
▁dỡ	-3471
▁ku	-3472
▁species	-3473
ỗng	-3474
▁mol	-3475
bi	-3476
▁friedrich	-3477
▁polypod	-3478
ode	-3479
▁olymp	-3480
▁lỏng	-3481
▁đợi	-3482
ution	-3483
▁eo	-3484
eng	-3485
▁jac	-3486
lov	-3487
▁jer	-3488
bra	-3489
▁ngợi	-3490
▁(0000–0000)	-3491
ator	-3492
▁ic	-3493
▁act	-3494
▁international	-3495
▁diên	-3496
ẫm	-3497
▁chút	-3498
aq	-3499
▁trộn	-3500
▁000000	-3501
tháng	-3502
omel	-3503
▁ưa	-3504
▁nag	-3505
▁bern	-3506
▁polypodiaceae	-3507
umi	-3508
▁id	-3509
▁phế	-3510
▁rô	-3511
▁hill	-3512
war	-3513
▁mây	-3514
tôi	-3515
▁phẳng	-3516
▁trân	-3517
ific	-3518
▁mậu	-3519
▁bàng	-3520
liên	-3521
▁mill	-3522
mic	-3523
▁*0000:	-3524
▁high	-3525
000000).	-3526
▁kín	-3527
bach	-3528
▁miếu	-3529
tức	-3530
char	-3531
▁00,0%:	-3532
▁00°	-3533
ér	-3534
▁lắp	-3535
vin	-3536
vd	-3537
▁°	-3538
▁mao	-3539
▁comp	-3540
▁khuyên	-3541
cul	-3542
oli	-3543
▁ko	-3544
▁mir	-3545
▁peru	-3546
▁oscar	-3547
▁nav	-3548
▁illinois	-3549
ily	-3550
lu	-3551
▁dịp	-3552
ient	-3553
▁đâu	-3554
sv	-3555
▁nấu	-3556
▁oxford	-3557
''"	-3558
▁lb	-3559
▁electr	-3560
▁(0000000000).	-3561
▁guinea	-3562
▁xoay	-3563
ete	-3564
▁national	-3565
▁mig	-3566
amer	-3567
▁ruột	-3568
▁but	-3569
▁ten	-3570
▁pennsylvania	-3571
itch	-3572
craft	-3573
▁в	-3574
▁dải	-3575
ball	-3576
▁nề	-3577
▁spr	-3578
là	-3579
optera	-3580
▁joseph	-3581
▁khen	-3582
▁lim	-3583
ales	-3584
▁bus	-3585
▁karl	-3586
new	-3587
▁quái	-3588
sea	-3589
▁thách	-3590
win	-3591
hoàng	-3592
tre	-3593
▁are	-3594
▁mass	-3595
ump	-3596
▁giỏi	-3597
bu	-3598
chủ	-3599
▁sợi	-3600
▁nguyệt	-3601
ams	-3602
arg	-3603
▁0–0	-3604
▁som	-3605
▁đắc	-3606
ever	-3607
▁wall	-3608
▁prem	-3609
▁mùi	-3610
▁sul	-3611
itan	-3612
arch	-3613
▁ray	-3614
▁đáy	-3615
▁best	-3616
sw	-3617
▁nỗi	-3618
,00	-3619
▁hãn	-3620
▁bir	-3621
▁lau	-3622
▁nik	-3623
ottom	-3624
oni	-3625
king	-3626
▁thiệp	-3627
▁wood	-3628
amin	-3629
bộ	-3630
▁bê	-3631
▁kịp	-3632
vision	-3633
▁huỳnh	-3634
▁mosk	-3635
▁gạo	-3636
▁anton	-3637
họ	-3638
▁cre	-3639
▁nhấn	-3640
▁0,0%	-3641
▁cuba	-3642
▁khê	-3643
▁ruộng	-3644
rick	-3645
▁xi	-3646
▁shin	-3647
▁island	-3648
acing	-3649
igan	-3650
▁uss	-3651
▁uỷ	-3652
▁girl	-3653
▁manchester	-3654
bill	-3655
▁brazil	-3656
bus	-3657
▁cốc	-3658
▁tươi	-3659
▁?	-3660
dan	-3661
▁bat	-3662
ges	-3663
ogl	-3664
cây	-3665
:00	-3666
▁oper	-3667
▁treo	-3668
her	-3669
▁0%	-3670
uela	-3671
off	-3672
▁lind	-3673
▁tp	-3674
▁dời	-3675
hio	-3676
ison	-3677
▁dem	-3678
▁bồi	-3679
▁kil	-3680
▁dẹp	-3681
tây	-3682
▁dường	-3683
▁hitler	-3684
▁ngưỡng	-3685
▁đèn	-3686
▁vịt	-3687
▁thẻ	-3688
ego	-3689
▁sườn	-3690
▁dar	-3691
enburg	-3692
ée	-3693
▁kaz	-3694
center	-3695
hoa	-3696
padding	-3697
▁khứ	-3698
▁ball	-3699
wer	-3700
ianus	-3701
▁cellpadding	-3702
ique	-3703
bao	-3704
helm	-3705
▁thuỷ	-3706
site	-3707
▁thỏ	-3708
▁sàn	-3709
▁tem	-3710
▁bông	-3711
▁não	-3712
odon	-3713
ịa	-3714
▁mìn	-3715
▁pu	-3716
▁kir	-3717
san	-3718
'';	-3719
▁duệ	-3720
▁lầm	-3721
▁tản	-3722
ait	-3723
ram	-3724
▁radio	-3725
▁cối	-3726
▁plat	-3727
▁tiềm	-3728
umbia	-3729
ben	-3730
icum	-3731
spacing	-3732
▁quỳnh	-3733
▁nhãn	-3734
▁củng	-3735
cá	-3736
bản	-3737
▁tốn	-3738
▁vii	-3739
▁00/0000	-3740
▁đựng	-3741
uma	-3742
на	-3743
▁tạ	-3744
▁moskva	-3745
▁roy	-3746
sal	-3747
▁kitô	-3748
▁fu	-3749
actyl	-3750
▁khải	-3751
▁ngài	-3752
▁stev	-3753
▁conc	-3754
▁cellspacing	-3755
▁star	-3756
▁pa	-3757
0000.	-3758
gy	-3759
cycl	-3760
▁pot	-3761
xy	-3762
▁say	-3763
mac	-3764
▁kĩ	-3765
▁ren	-3766
iform	-3767
abeth	-3768
iga	-3769
▁bái	-3770
▁mừng	-3771
▁hawai	-3772
▁land	-3773
sự	-3774
stit	-3775
▁cáp	-3776
▁steph	-3777
mid	-3778
▁buồn	-3779
▁dò	-3780
ren	-3781
▁iraq	-3782
▁gra	-3783
▁club	-3784
out	-3785
aku	-3786
▁00.0	-3787
▁division	-3788
phil	-3789
▁đòn	-3790
▁thuẫn	-3791
▁trạch	-3792
▁day	-3793
oft	-3794
▁quế	-3795
▁gener	-3796
▁quách	-3797
▁va	-3798
▁dak	-3799
▁awards	-3800
mas	-3801
ghan	-3802
▁far	-3803
oid	-3804
ety	-3805
▁lar	-3806
▁angeles	-3807
▁п	-3808
ool	-3809
elli	-3810
▁mot	-3811
▁disney	-3812
▁hảo	-3813
▁xóm	-3814
▁thỉnh	-3815
ston	-3816
inger	-3817
▁las	-3818
▁centr	-3819
▁micros	-3820
còn	-3821
ures	-3822
▁ruồi	-3823
▁kl	-3824
atra	-3825
▁end	-3826
ẳn	-3827
kim	-3828
▁xứng	-3829
coln	-3830
nguyễn	-3831
▁win	-3832
▁000,000	-3833
▁tha	-3834
oku	-3835
▁francisco	-3836
chính	-3837
-00,	-3838
▁đúc	-3839
▁myan	-3840
thời	-3841
▁life	-3842
▁website	-3843
▁vis	-3844
▁that	-3845
▁nở	-3846
▁bưu	-3847
▁sùng	-3848
▁dai	-3849
▁hâm	-3850
▁hưu	-3851
▁tel	-3852
▁inch	-3853
▁phấn	-3854
etnam	-3855
ons	-3856
▁brown	-3857
oz	-3858
▁căng	-3859
wan	-3860
▁cac	-3861
gs	-3862
cd	-3863
▁dâm	-3864
gre	-3865
▁sn	-3866
▁bùng	-3867
ộm	-3868
▁0-00000-000	-3869
org	-3870
▁0''	-3871
ướt	-3872
▁les	-3873
ism	-3874
▁mảng	-3875
▁chel	-3876
▁ri	-3877
▁soci	-3878
▁nấm	-3879
▁virginia	-3880
yt	-3881
▁syst	-3882
pseud	-3883
▁chuồn	-3884
theo	-3885
iation	-3886
tein	-3887
▁măng	-3888
▁bad	-3889
usa	-3890
▁she	-3891
▁nhiếp	-3892
▁ngạn	-3893
▁syria	-3894
ois	-3895
ti	-3896
bắc	-3897
▁arch	-3898
▁santa	-3899
istr	-3900
▁sừng	-3901
▁đáo	-3902
▁bây	-3903
"''.	-3904
▁chôn	-3905
▁lincoln	-3906
▁venezuela	-3907
ather	-3908
met	-3909
▁ấm	-3910
▁wilhelm	-3911
isch	-3912
▁ot	-3913
▁mak	-3914
▁*"	-3915
anus	-3916
agas	-3917
▁den	-3918
▁ohio	-3919
outh	-3920
▁ong	-3921
▁ảo	-3922
▁columbia	-3923
ista	-3924
▁night	-3925
iff	-3926
row	-3927
▁hẳn	-3928
▁quét	-3929
cas	-3930
aurus	-3931
▁điêu	-3932
yu	-3933
▁gói	-3934
mos	-3935
▁đậm	-3936
elia	-3937
▁key	-3938
wig	-3939
▁hawaii	-3940
▁0-00	-3941
▁premier	-3942
▁gỡ	-3943
.-	-3944
fo	-3945
una	-3946
giáo	-3947
▁tal	-3948
huyện	-3949
▁hall	-3950
▁meg	-3951
td	-3952
▁bơi	-3953
▁phùng	-3954
▁rub	-3955
▁vit	-3956
▁đói	-3957
▁000-0	-3958
▁nar	-3959
ati	-3960
|''	-3961
▁mươi	-3962
ện	-3963
kov	-3964
▁0/0	-3965
mu	-3966
▁ghép	-3967
lô	-3968
▁tí	-3969
▁00)	-3970
▁chile	-3971
▁ue	-3972
▁bền	-3973
▁hum	-3974
▁seoul	-3975
pp	-3976
ophyllum	-3977
▁hoằng	-3978
▁móng	-3979
▁hook	-3980
▁cạn	-3981
▁nhịp	-3982
▁bot	-3983
▁sưu	-3984
▁sổ	-3985
▁lạt	-3986
▁bó	-3987
▁kat	-3988
▁*00	-3989
▁hối	-3990
▁vill	-3991
bit	-3992
▁hỏng	-3993
▁ron	-3994
▁foot	-3995
plen	-3996
ênh	-3997
ẫy	-3998
unn	-3999
▁mix	-4000
▁nhạt	-4001
▁diego	-4002
▁tật	-4003
eton	-4004
hol	-4005
quân	-4006
▁tar	-4007
▁cer	-4008
▁nêu	-4009
ych	-4010
ules	-4011
▁sạn	-4012
▁dê	-4013
▁quát	-4014
▁ngộ	-4015
▁nu	-4016
▁sab	-4017
tz	-4018
▁tráng	-4019
mal	-4020
andra	-4021
▁radar	-4022
agr	-4023
▁eth	-4024
▁lit	-4025
▁nút	-4026
enberg	-4027
▁0.00	-4028
aux	-4029
cam	-4030
quốc	-4031
▁diệp	-4032
▁chiêm	-4033
etr	-4034
nhạc	-4035
ourn	-4036
▁séc	-4037
ble	-4038
ual	-4039
▁00-	-4040
▁young	-4041
unk	-4042
▁axit	-4043
▁sat	-4044
iii	-4045
anc	-4046
din	-4047
▁gan	-4048
ấc	-4049
anch	-4050
▁phượng	-4051
ichi	-4052
▁law	-4053
▁thơm	-4054
attle	-4055
phyll	-4056
000.	-4057
▁vers	-4058
▁roma	-4059
▁gall	-4060
orus	-4061
bottom	-4062
▁lằn	-4063
agu	-4064
▁lab	-4065
cp	-4066
▁was	-4067
ни	-4068
▁tràn	-4069
press	-4070
▁cẩn	-4071
wang	-4072
▁eliz	-4073
▁bính	-4074
ãy	-4075
▁bell	-4076
tổng	-4077
du	-4078
khu	-4079
▁florida	-4080
ст	-4081
bre	-4082
▁pin	-4083
ery	-4084
olk	-4085
pes	-4086
isa	-4087
▁slov	-4088
sel	-4089
▁real	-4090
▁triệt	-4091
tor	-4092
▁mỏng	-4093
ru	-4094
▁vé	-4095
▁mâu	-4096
khoảng	-4097
với	-4098
▁giây	-4099
▁táng	-4100
▁hãy	-4101
ques	-4102
ophyllaceae	-4103
app	-4104
kan	-4105
▁nan	-4106
▁yam	-4107
és	-4108
▁ah	-4109
work	-4110
▁0.000.000	-4111
▁0-0000-0000	-4112
mor	-4113
hoặc	-4114
▁chào	-4115
oa	-4116
▁time	-4117
▁white	-4118
▁diệu	-4119
border	-4120
ason	-4121
ра	-4122
▁count	-4123
ierre	-4124
ural	-4125
ds	-4126
dam	-4127
▁đằng	-4128
dro	-4129
▁dạ	-4130
lant	-4131
▁cúng	-4132
▁gard	-4133
▁pau	-4134
cle	-4135
ject	-4136
ohn	-4137
▁ut	-4138
▁hms	-4139
▁dakota	-4140
▁dốc	-4141
▁gab	-4142
văn	-4143
pop	-4144
rit	-4145
owa	-4146
▁khmer	-4147
long	-4148
▁pri	-4149
via	-4150
kar	-4151
▁uefa	-4152
▁mun	-4153
▁mary	-4154
▁00'	-4155
▁pho	-4156
▁jan	-4157
▁khỉ	-4158
▁mỡ	-4159
▁ức	-4160
▁chục	-4161
▁class	-4162
lam	-4163
inal	-4164
▁xiêm	-4165
▁ott	-4166
▁compan	-4167
esco	-4168
▁000,00	-4169
▁alexander	-4170
▁hãm	-4171
wal	-4172
▁ear	-4173
mont	-4174
▁tru	-4175
olis	-4176
▁dre	-4177
ogon	-4178
▁khẩn	-4179
▁lắng	-4180
▁(,	-4181
▁henri	-4182
▁quỷ	-4183
▁bulg	-4184
▁gương	-4185
ẹt	-4186
eum	-4187
▁pas	-4188
▁liv	-4189
▁euro	-4190
iflora	-4191
omar	-4192
chỉ	-4193
aska	-4194
elyp	-4195
sur	-4196
bat	-4197
▁microsoft	-4198
hà	-4199
đông	-4200
dp	-4201
▁afghan	-4202
ns	-4203
zy	-4204
▁hon	-4205
▁constant	-4206
ei	-4207
pur	-4208
▁ji	-4209
bai	-4210
▁madrid	-4211
▁(00.000	-4212
ка	-4213
▁thâm	-4214
quy	-4215
▁trừng	-4216
▁british	-4217
stan	-4218
▁zh	-4219
▁lãm	-4220
▁pre	-4221
pool	-4222
▁lad	-4223
▁bích	-4224
▁nhầm	-4225
cast	-4226
▁tràng	-4227
▁0000-0000.	-4228
cop	-4229
ario	-4230
▁gặm	-4231
▁nhắm	-4232
▁túi	-4233
iop	-4234
▁pict	-4235
▁japan	-4236
▁bh	-4237
▁nhựa	-4238
vent	-4239
▁nhơn	-4240
▁corn	-4241
▁live	-4242
ous	-4243
▁lườn	-4244
ident	-4245
▁vải	-4246
▁stre	-4247
▁dvd	-4248
▁mạo	-4249
▁sri	-4250
pin	-4251
aeus	-4252
▁chẽ	-4253
▁protein	-4254
▁group	-4255
▁đứt	-4256
đồng	-4257
ogle	-4258
▁mộng	-4259
▁lệch	-4260
éon	-4261
▁inc	-4262
▁mem	-4263
▁rules	-4264
▁russ	-4265
icago	-4266
▁german	-4267
atia	-4268
thur	-4269
▁chuông	-4270
tel	-4271
▁aqu	-4272
▁pur	-4273
▁jung	-4274
edonia	-4275
emy	-4276
▁phun	-4277
eds	-4278
ody	-4279
▁chelsea	-4280
▁súc	-4281
iction	-4282
ocarp	-4283
enz	-4284
▁gò	-4285
▁scien	-4286
ika	-4287
mand	-4288
▁múa	-4289
shire	-4290
▁charl	-4291
vua	-4292
ynch	-4293
▁м	-4294
▁nợ	-4295
▁harry	-4296
bol	-4297
▁big	-4298
ắk	-4299
▁cuồng	-4300
▁aircraft	-4301
▁dc	-4302
agen	-4303
▁làn	-4304
ivia	-4305
▁rạp	-4306
▁fc	-4307
▁tôm	-4308
▁aur	-4309
dy	-4310
uck	-4311
▁ngon	-4312
azz	-4313
esl	-4314
ifa	-4315
▁bốc	-4316
▁elizabeth	-4317
▁bass	-4318
▁hẹn	-4319
▁thô	-4320
▁sand	-4321
▁johann	-4322
ère	-4323
khủng	-4324
dong	-4325
ves	-4326
▁system	-4327
▁liễu	-4328
▁mì	-4329
▁vượng	-4330
anga	-4331
▁lũy	-4332
vn	-4333
emen	-4334
ogen	-4335
aire	-4336
rian	-4337
▁barb	-4338
▁khe	-4339
▁sav	-4340
▁phẫu	-4341
elph	-4342
▁lặp	-4343
▁khoan	-4344
số	-4345
nghệ	-4346
▁gợi	-4347
egon	-4348
▁bữa	-4349
ju	-4350
▁ngực	-4351
▁dội	-4352
ept	-4353
▁taylor	-4354
▁heo	-4355
▁0-	-4356
iji	-4357
odend	-4358
▁victoria	-4359
cat	-4360
▁đắm	-4361
▁bù	-4362
▁bit	-4363
ingen	-4364
▁afghanistan	-4365
▁phiến	-4366
ret	-4367
▁lừa	-4368
call	-4369
▁đấy	-4370
iki	-4371
▁society	-4372
▁bulgaria	-4373
urus	-4374
▁albert	-4375
ví	-4376
▁afr	-4377
▁00,000	-4378
▁serbia	-4379
▁uyên	-4380
mond	-4381
▁rog	-4382
ittle	-4383
aun	-4384
zer	-4385
▁sir	-4386
▁chừng	-4387
▁philip	-4388
trước	-4389
▁mường	-4390
▁virus	-4391
▁gấu	-4392
agascar	-4393
▁khuyết	-4394
▁out	-4395
▁dur	-4396
▁call	-4397
pet	-4398
▁tỏa	-4399
▁vietnam	-4400
diễn	-4401
uka	-4402
ammy	-4403
sim	-4404
ouri	-4405
▁por	-4406
▁đạp	-4407
▁mù	-4408
arus	-4409
▁mặn	-4410
▁000)	-4411
▁khương	-4412
▁bou	-4413
erto	-4414
sl	-4415
▁fal	-4416
▁lưỡi	-4417
med	-4418
▁thằn	-4419
cm	-4420
agne	-4421
▁rang	-4422
▁gil	-4423
chin	-4424
ital	-4425
ör	-4426
▁yu	-4427
▁ay	-4428
▁carib	-4429
▁chém	-4430
uce	-4431
fe	-4432
▁milan	-4433
▁company	-4434
▁dính	-4435
▁model	-4436
ray	-4437
▁mầm	-4438
ize	-4439
ision	-4440
▁trượt	-4441
▁carolina	-4442
▁leon	-4443
▁🔗	-4444
omi	-4445
▁band	-4446
▁beat	-4447
▁east	-4448
rai	-4449
▁first	-4450
▁ottoman	-4451
mü	-4452
▁rod	-4453
▁stan	-4454
bul	-4455
▁card	-4456
▁year	-4457
▁bayern	-4458
chr	-4459
eman	-4460
▁film	-4461
▁harv	-4462
▁kansas	-4463
▁ash	-4464
▁august	-4465
▁jam	-4466
ages	-4467
ủi	-4468
▁ngạc	-4469
▁piano	-4470
▁pen	-4471
ube	-4472
uto	-4473
▁cent	-4474
hn	-4475
ty	-4476
svg	-4477
▁0000–00,	-4478
▁great	-4479
agn	-4480
var	-4481
▁ry	-4482
▁italia	-4483
▁yến	-4484
▁au	-4485
▁mòn	-4486
tic	-4487
▁gọn	-4488
billboard	-4489
ction	-4490
▁hoại	-4491
▁nhai	-4492
▁fa	-4493
▁billboard	-4494
chy	-4495
▁google	-4496
▁wilson	-4497
▁sak	-4498
▁nak	-4499
▁tuệ	-4500
▁đâm	-4501
▁rio	-4502
▁xóa	-4503
▁house	-4504
phần	-4505
▁congo	-4506
....	-4507
▁toà	-4508
▁(0,0	-4509
▁net	-4510
▁edition	-4511
cin	-4512
▁kal	-4513
red	-4514
▁lầy	-4515
odont	-4516
▁tịnh	-4517
▁games	-4518
ifer	-4519
ister	-4520
▁hoành	-4521
tin	-4522
▁madagascar	-4523
ovo	-4524
▁sốt	-4525
▁mốc	-4526
▁cóc	-4527
iếc	-4528
▁ple	-4529
ordan	-4530
▁times	-4531
ugh	-4532
▁000,0	-4533
00.00	-4534
bab	-4535
▁xướng	-4536
▁mượn	-4537
trường	-4538
mit	-4539
▁lud	-4540
▁mit	-4541
ủa	-4542
▁kor	-4543
▁him	-4544
▁bớt	-4545
▁daniel	-4546
ylla	-4547
ро	-4548
▁costa	-4549
▁cậy	-4550
▁way	-4551
▁inform	-4552
kins	-4553
▁jim	-4554
▁lạm	-4555
▁fish	-4556
ople	-4557
eing	-4558
▁fam	-4559
chu	-4560
▁khói	-4561
▁cambridge	-4562
sol	-4563
▁olympic	-4564
mir	-4565
mb	-4566
gn	-4567
▁cur	-4568
ingham	-4569
▁stalin	-4570
▁chua	-4571
▁ngòi	-4572
▁dám	-4573
▁mov	-4574
▁hymen	-4575
iko	-4576
▁vay	-4577
▁sói	-4578
▁panama	-4579
▁dơi	-4580
▁giặc	-4581
▁phiêu	-4582
des	-4583
iev	-4584
▁khâm	-4585
▁tiệc	-4586
▁chuyền	-4587
▁bob	-4588
đường	-4589
▁remix	-4590
hai	-4591
iidae	-4592
▁nghịch	-4593
▁càn	-4594
▁ướt	-4595
avia	-4596
▁đắp	-4597
cô	-4598
▁liver	-4599
▁maj	-4600
▁táo	-4601
▁vo	-4602
▁nit	-4603
▁chốt	-4604
▁lạng	-4605
▁gam	-4606
▁trật	-4607
▁greg	-4608
▁wis	-4609
▁opera	-4610
uta	-4611
▁wars	-4612
▁sea	-4613
agi	-4614
ournal	-4615
bin	-4616
mad	-4617
▁tiệp	-4618
▁)	-4619
fred	-4620
▁ark	-4621
▁marsh	-4622
▁quỳ	-4623
▁electron	-4624
0.0000	-4625
ogloss	-4626
▁niger	-4627
▁cacbon	-4628
▁harris	-4629
ishi	-4630
▁pyr	-4631
ival	-4632
oon	-4633
▁tết	-4634
oce	-4635
olia	-4636
▁ps	-4637
▁ye	-4638
▁ion	-4639
xu	-4640
▁ker	-4641
▁football	-4642
▁broth	-4643
hem	-4644
▁chiết	-4645
▁scott	-4646
-0,	-4647
▁khanh	-4648
urn	-4649
▁tể	-4650
▁liêm	-4651
▁guy	-4652
escens	-4653
địa	-4654
▁diệm	-4655
▁gạch	-4656
▁school	-4657
▁quên	-4658
▁nộp	-4659
ken	-4660
eur	-4661
▁anth	-4662
edy	-4663
▁mẫn	-4664
▁java	-4665
amo	-4666
▁nhan	-4667
▁dĩ	-4668
▁work	-4669
ко	-4670
pyr	-4671
▁tiễn	-4672
ally	-4673
").	-4674
▁cài	-4675
ơm	-4676
▁latinh	-4677
▁cle	-4678
▁cười	-4679
ogne	-4680
fff	-4681
,"	-4682
ree	-4683
kai	-4684
▁grammy	-4685
▁armen	-4686
iner	-4687
trận	-4688
▁béo	-4689
▁rẽ	-4690
▁mün	-4691
pu	-4692
▁ever	-4693
cos	-4694
▁rai	-4695
▁ret	-4696
▁doug	-4697
abr	-4698
▁ful	-4699
▁móc	-4700
▁books	-4701
▁latin	-4702
▁ka	-4703
▁pil	-4704
opus	-4705
cựu	-4706
▁ngẫu	-4707
odactyl	-4708
▁doãn	-4709
▁iowa	-4710
▁sương	-4711
▁oregon	-4712
▁ơn	-4713
die	-4714
▁viếng	-4715
hl	-4716
khi	-4717
▁jeff	-4718
ýt	-4719
▁nepal	-4720
▁nhấm	-4721
▁serv	-4722
▁orchid	-4723
▁giấu	-4724
▁nhện	-4725
▁hoãn	-4726
▁phao	-4727
ilus	-4728
▁pra	-4729
ifolium	-4730
▁sem	-4731
▁nồng	-4732
ious	-4733
▁đính	-4734
agan	-4735
dend	-4736
▁pic	-4737
▁rửa	-4738
xã	-4739
jin	-4740
▁michigan	-4741
nia	-4742
ulata	-4743
▁prod	-4744
▁royal	-4745
▁vạch	-4746
не	-4747
ido	-4748
▁sâm	-4749
▁plan	-4750
achus	-4751
hyp	-4752
▁mồ	-4753
▁tím	-4754
any	-4755
▁chap	-4756
,''	-4757
▁rào	-4758
▁america	-4759
▁liverpool	-4760
▁đổng	-4761
otte	-4762
▁moz	-4763
▁wes	-4764
▁dance	-4765
mes	-4766
▁bành	-4767
▁huống	-4768
:''	-4769
aro	-4770
▁chèo	-4771
owell	-4772
uke	-4773
arum	-4774
part	-4775
amber	-4776
,000	-4777
▁grac	-4778
ũi	-4779
▁kw	-4780
ative	-4781
ovich	-4782
ript	-4783
▁ped	-4784
▁assoc	-4785
▁queens	-4786
▁xen	-4787
▁hong	-4788
▁two	-4789
▁khiêm	-4790
▁pteridaceae	-4791
▁dol	-4792
▁kom	-4793
nhật	-4794
▁blue	-4795
cap	-4796
▁dj	-4797
▁old	-4798
đạo	-4799
▁um	-4800
▁phot	-4801
▁maur	-4802
▁wolf	-4803
▁cơm	-4804
▁single	-4805
▁publishing	-4806
▁đê	-4807
▁pres	-4808
▁0/0/0000	-4809
iph	-4810
▁squ	-4811
▁state	-4812
kon	-4813
▁vời	-4814
▁pul	-4815
▁sải	-4816
▁pt	-4817
▁ngón	-4818
zania	-4819
▁coll	-4820
▁đoan	-4821
phát	-4822
▁00:00	-4823
rol	-4824
▁rose	-4825
ku	-4826
▁khiết	-4827
▁christian	-4828
▁missouri	-4829
omy	-4830
john	-4831
▁châm	-4832
▁rải	-4833
ef	-4834
xt	-4835
sung	-4836
ön	-4837
''".	-4838
ways	-4839
▁line	-4840
▁jones	-4841
pter	-4842
▁sound	-4843
pi	-4844
▁ras	-4845
etta	-4846
▁×	-4847
▁vợt	-4848
antha	-4849
▁lõi	-4850
▁lùi	-4851
▁leg	-4852
eria	-4853
ômét	-4854
▁quãng	-4855
ugu	-4856
thái	-4857
pos	-4858
▁god	-4859
▁ngưng	-4860
▁ngụ	-4861
▁ngục	-4862
aru	-4863
▁engl	-4864
▁media	-4865
tan	-4866
▁dắt	-4867
0000000	-4868
▁đãi	-4869
▁rạch	-4870
-00)	-4871
▁hab	-4872
▁clark	-4873
asia	-4874
▁luc	-4875
▁0-000-00000-0	-4876
▁bạt	-4877
▁túy	-4878
ule	-4879
▁hố	-4880
▁rel	-4881
▁jordan	-4882
▁williams	-4883
▁stand	-4884
▁ss	-4885
adal	-4886
▁light	-4887
cs	-4888
omon	-4889
quan	-4890
eim	-4891
▁hau	-4892
▁boeing	-4893
fal	-4894
urch	-4895
ẻo	-4896
omb	-4897
▁lặng	-4898
▁instit	-4899
dd	-4900
▁dal	-4901
zen	-4902
▁khoang	-4903
thế	-4904
▁ltd	-4905
▁nig	-4906
▁nốt	-4907
▁sút	-4908
▁thùng	-4909
oste	-4910
▁hand	-4911
▁chicago	-4912
lt	-4913
▁mach	-4914
pel	-4915
▁poly	-4916
nếu	-4917
▁jae	-4918
▁hard	-4919
▁online	-4920
pat	-4921
▁bolivia	-4922
▁has	-4923
▁trôi	-4924
ulus	-4925
▁khoán	-4926
▁nhậm	-4927
▁armenia	-4928
▁fab	-4929
▁jos	-4930
▁tơ	-4931
▁xít	-4932
▁и	-4933
▁boy	-4934
▁tanzania	-4935
▁amaz	-4936
▁dong	-4937
▁sét	-4938
▁eu	-4939
gra	-4940
uction	-4941
ươu	-4942
▁bộc	-4943
▁nghiêng	-4944
▁khía	-4945
"),	-4946
ili	-4947
▁plant	-4948
phi	-4949
▁nhọn	-4950
eva	-4951
▁fan	-4952
▁kun	-4953
▁lanka	-4954
▁bệ	-4955
orum	-4956
▁khan	-4957
olution	-4958
▁thở	-4959
▁down	-4960
uyến	-4961
wart	-4962
▁nhiêu	-4963
▁arn	-4964
sân	-4965
▁(0)	-4966
▁nhiễu	-4967
eto	-4968
etts	-4969
tỉnh	-4970
wis	-4971
▁yể	-4972
tiền	-4973
top	-4974
back	-4975
odendron	-4976
star	-4977
▁pun	-4978
▁benth	-4979
oro	-4980
▁tê	-4981
▁nén	-4982
▁vẹn	-4983
▁center	-4984
rat	-4985
hội	-4986
▁catal	-4987
try	-4988
▁xà	-4989
▁dig	-4990
▁your	-4991
nhóm	-4992
▁py	-4993
ingrad	-4994
▁cn	-4995
▁kẽ	-4996
▁tro	-4997
ely	-4998
bourg	-4999
▁thelyp	-5000
omen	-5001
▁rác	-5002
▁thoảng	-5003
▁ngai	-5004
neo	-5005
achi	-5006
▁fle	-5007
ươn	-5008
▁ins	-5009
▁sôi	-5010
quer	-5011
▁kilômét	-5012
ular	-5013
▁chúc	-5014
▁vin	-5015
uca	-5016
▁jane	-5017
▁muộn	-5018
▁unesco	-5019
▁cọ	-5020
▁fel	-5021
rô	-5022
▁rap	-5023
sta	-5024
▁chrys	-5025
lee	-5026
▁princ	-5027
▁dev	-5028
▁cass	-5029
▁jr	-5030
▁nhã	-5031
ents	-5032
▁tà	-5033
▁anim	-5034
00.0000	-5035
ngo	-5036
▁đệm	-5037
▁boston	-5038
▁gray	-5039
▁heart	-5040
▁eds	-5041
▁public	-5042
iri	-5043
kinh	-5044
▁chart	-5045
▁holly	-5046
▁(00000)	-5047
▁rễ	-5048
▁tụng	-5049
ography	-5050
omo	-5051
▁rôma	-5052
▁sv	-5053
aman	-5054
chan	-5055
▁log	-5056
▁hoạn	-5057
▁manh	-5058
▁mess	-5059
▁0-000-00000-0.	-5060
box	-5061
gon	-5062
▁phổi	-5063
hen	-5064
▁vách	-5065
vers	-5066
will	-5067
▁nảy	-5068
▁sev	-5069
▁tấu	-5070
idium	-5071
▁lứa	-5072
plat	-5073
▁tựu	-5074
▁kép	-5075
ictionary	-5076
▁dia	-5077
▁robin	-5078
cyclop	-5079
▁00000000	-5080
▁dâu	-5081
▁good	-5082
▁tị	-5083
íp	-5084
gal	-5085
▁river	-5086
beria	-5087
▁andrew	-5088
thường	-5089
atsu	-5090
emia	-5091
ipes	-5092
▁lấn	-5093
oléon	-5094
▁this	-5095
▁blo	-5096
▁clb	-5097
▁cua	-5098
-000000	-5099
tron	-5100
▁fern	-5101
▁mờ	-5102
ianum	-5103
▁nướng	-5104
mỹ	-5105
oster	-5106
▁buồng	-5107
ennis	-5108
▁miếng	-5109
▁tắm	-5110
▁over	-5111
▁hydro	-5112
▁ell	-5113
icola	-5114
ente	-5115
ogn	-5116
▁arsen	-5117
▁münchen	-5118
▁fin	-5119
fi	-5120
▁museum	-5121
celona	-5122
▁syn	-5123
▁yak	-5124
thes	-5125
▁†	-5126
▁gốm	-5127
▁xiv	-5128
▁dam	-5129
ić	-5130
icia	-5131
▁had	-5132
▁sph	-5133
▁hans	-5134
▁bìa	-5135
isc	-5136
▁walter	-5137
pen	-5138
isia	-5139
▁tảo	-5140
▁ớt	-5141
éné	-5142
▁đeo	-5143
ardo	-5144
▁bin	-5145
▁conn	-5146
▁coun	-5147
trần	-5148
▁arm	-5149
▁arkansas	-5150
▁chùm	-5151
▁lụt	-5152
thị	-5153
▁(;	-5154
но	-5155
▁bec	-5156
▁moh	-5157
ault	-5158
▁roman	-5159
not	-5160
consin	-5161
▁00/0/0000,	-5162
lav	-5163
▁hươu	-5164
iy	-5165
aco	-5166
▁cry	-5167
vo	-5168
▁(0000,	-5169
bes	-5170
▁alt	-5171
▁thạc	-5172
▁thùy	-5173
asc	-5174
bt	-5175
▁ván	-5176
▁khóc	-5177
▁baker	-5178
icol	-5179
ре	-5180
fin	-5181
▁00.00	-5182
omor	-5183
estine	-5184
achusetts	-5185
▁vôi	-5186
pháp	-5187
fri	-5188
atar	-5189
lớp	-5190
▁fall	-5191
▁kiệm	-5192
▁napoléon	-5193
▁gor	-5194
▁nhẫn	-5195
ymn	-5196
▁ngột	-5197
mun	-5198
phan	-5199
▁cành	-5200
▁news	-5201
▁road	-5202
chel	-5203
cur	-5204
▁são	-5205
camp	-5206
▁nắng	-5207
▁johnson	-5208
▁é	-5209
▁under	-5210
chương	-5211
▁andre	-5212
▁đày	-5213
▁kenya	-5214
esar	-5215
▁cab	-5216
kham	-5217
▁ao	-5218
eyer	-5219
▁cắn	-5220
▁cồn	-5221
▁schl	-5222
ember	-5223
zon	-5224
trop	-5225
▁neu	-5226
▁xx	-5227
ui	-5228
▁kong	-5229
▁mắn	-5230
thal	-5231
▁queensland	-5232
▁marshall	-5233
ersey	-5234
bel	-5235
bury	-5236
sche	-5237
▁langu	-5238
cro	-5239
fish	-5240
▁lev	-5241
▁vắng	-5242
inia	-5243
▁khâu	-5244
▁macedonia	-5245
ved	-5246
▁om	-5247
▁vũng	-5248
▁ny	-5249
▁rùa	-5250
▁pers	-5251
▁croatia	-5252
ioc	-5253
▁nhũng	-5254
midt	-5255
▁hein	-5256
▁bromel	-5257
▁chang	-5258
ape	-5259
osus	-5260
▁т	-5261
elly	-5262
▁bám	-5263
▁hem	-5264
under	-5265
▁glob	-5266
▁brand	-5267
▁pierre	-5268
▁fox	-5269
▁đốm	-5270
▁mult	-5271
zan	-5272
▁fifa	-5273
▁hắc	-5274
▁nhạy	-5275
ss	-5276
▁main	-5277
▁(000),	-5278
eth	-5279
▁thự	-5280
▁trác	-5281
station	-5282
▁lộn	-5283
▁==	-5284
▁hat	-5285
▁bể	-5286
▁eug	-5287
alus	-5288
▁arthur	-5289
▁water	-5290
yte	-5291
ians	-5292
müll	-5293
▁blu	-5294
-000)	-5295
▁neo	-5296
▁ghét	-5297
▁mand	-5298
▁volume	-5299
▁freder	-5300
dip	-5301
ager	-5302
ylon	-5303
fu	-5304
▁college	-5305
vir	-5306
rium	-5307
▁maxim	-5308
▁tòng	-5309
điều	-5310
▁europe	-5311
▁ia	-5312
▁(0):	-5313
cht	-5314
▁sus	-5315
▁color	-5316
ilton	-5317
õm	-5318
ift	-5319
phân	-5320
▁bbc	-5321
▁ngãi	-5322
▁mĩ	-5323
▁gran	-5324
▁journal	-5325
àm	-5326
bour	-5327
▁myanma	-5328
imir	-5329
▁pav	-5330
xon	-5331
▁set	-5332
▁abd	-5333
▁nhược	-5334
▁story	-5335
▁county	-5336
)"	-5337
▁ching	-5338
▁right	-5339
▁whit	-5340
▁mác	-5341
▁oct	-5342
ле	-5343
kok	-5344
▁gio	-5345
▁vlad	-5346
tur	-5347
ophila	-5348
▁massachusetts	-5349
▁bis	-5350
▁yosh	-5351
ional	-5352
▁gdp	-5353
▁rẻ	-5354
▁bromeliaceae	-5355
▁rạn	-5356
▁barcelona	-5357
▁od	-5358
▁ivan	-5359
▁kenn	-5360
▁lake	-5361
▁ing	-5362
▁lac	-5363
▁dor	-5364
augh	-5365
lins	-5366
aven	-5367
ental	-5368
▁miên	-5369
▁miến	-5370
▁hop	-5371
▁lùn	-5372
raion	-5373
uro	-5374
▁project	-5375
tris	-5376
▁sid	-5377
▁đàng	-5378
▁láng	-5379
ude	-5380
▁tok	-5381
▁lắm	-5382
▁trù	-5383
tha	-5384
thủ	-5385
▁wild	-5386
▁gũi	-5387
▁science	-5388
▁gãy	-5389
▁spring	-5390
hein	-5391
▁hôi	-5392
ioides	-5393
▁offic	-5394
▁wr	-5395
▁sic	-5396
lac	-5397
▁mg	-5398
osum	-5399
aze	-5400
athe	-5401
▁nick	-5402
▁thổi	-5403
omys	-5404
oper	-5405
▁sor	-5406
angel	-5407
▁ve	-5408
(''	-5409
▁dệt	-5410
▁alexand	-5411
yx	-5412
▁giãn	-5413
▁(0000):	-5414
wick	-5415
▁nát	-5416
▁douglas	-5417
▁indiana	-5418
▁tab	-5419
ли	-5420
▁pac	-5421
▁vel	-5422
anger	-5423
sar	-5424
▁mtv	-5425
-0000,	-5426
ụa	-5427
▁bếp	-5428
bal	-5429
bay	-5430
tuần	-5431
▁contr	-5432
tus	-5433
▁sấu	-5434
▁00-0	-5435
▁hãi	-5436
▁ngõ	-5437
phorbia	-5438
(0	-5439
cùng	-5440
▁map	-5441
▁wisconsin	-5442
▁ig	-5443
arta	-5444
▁bet	-5445
▁distr	-5446
▁att	-5447
▁đắk	-5448
▁ran	-5449
▁stone	-5450
west	-5451
hệ	-5452
▁put	-5453
phiên	-5454
▁magn	-5455
bout	-5456
kr	-5457
▁juan	-5458
▁palestine	-5459
▁arsenal	-5460
eller	-5461
nat	-5462
▁nord	-5463
▁rica	-5464
▁aer	-5465
▁sher	-5466
osaurus	-5467
.;	-5468
!''	-5469
asy	-5470
inawa	-5471
▁hamp	-5472
gard	-5473
▁domin	-5474
ote	-5475
▁bầy	-5476
▁mập	-5477
▁giật	-5478
%)	-5479
bir	-5480
▁spin	-5481
▁bah	-5482
▁hollywood	-5483
▁eric	-5484
▁hart	-5485
sông	-5486
▁hun	-5487
▁georgia	-5488
esa	-5489
oka	-5490
▁vội	-5491
dorf	-5492
rog	-5493
▁mk	-5494
▁china	-5495
arn	-5496
▁!!	-5497
▁đống	-5498
but	-5499
hist	-5500
▁sap	-5501
▁championship	-5502
▁shim	-5503
▁trùm	-5504
onna	-5505
opteris	-5506
vô	-5507
kel	-5508
▁wang	-5509
idel	-5510
▁gord	-5511
hung	-5512
▁christoph	-5513
eps	-5514
▁mik	-5515
▁brun	-5516
ла	-5517
itis	-5518
▁đèo	-5519
▁nhường	-5520
adi	-5521
▁sanh	-5522
”.	-5523
▁nin	-5524
aca	-5525
nik	-5526
▁ein	-5527
▁jin	-5528
▁beng	-5529
edon	-5530
eme	-5531
roy	-5532
vol	-5533
cell	-5534
ector	-5535
bas	-5536
▁rỗng	-5537
▁diêm	-5538
ки	-5539
▁chai	-5540
▁devel	-5541
▁khuất	-5542
▁nhung	-5543
uda	-5544
▁hid	-5545
▁mãnh	-5546
ots	-5547
chia	-5548
▁cra	-5549
adelph	-5550
nguyên	-5551
▁000),	-5552
etia	-5553
▁cắm	-5554
▁lấp	-5555
▁trọn	-5556
▁trộm	-5557
▁xoáy	-5558
achsen	-5559
2)	-5560
sd	-5561
▁cir	-5562
▁kent	-5563
tim	-5564
▁kem	-5565
▁yểm	-5566
thuộc	-5567
untze	-5568
▁giấc	-5569
cuộc	-5570
ench	-5571
rence	-5572
▁tuyền	-5573
(0000	-5574
ifera	-5575
▁đụng	-5576
▁allen	-5577
ega	-5578
▁(00,0	-5579
ante	-5580
▁raf	-5581
▁flav	-5582
aba	-5583
▁oxy	-5584
ied	-5585
▁б	-5586
▁alfred	-5587
▁rud	-5588
▁engine	-5589
▁oanh	-5590
▁nikol	-5591
▁atlant	-5592
▁ross	-5593
▁jersey	-5594
▁hann	-5595
▁viol	-5596
▁chris	-5597
▁franç	-5598
oko	-5599
▁marie	-5600
▁power	-5601
▁church	-5602
▁thiêng	-5603
▁association	-5604
mark	-5605
▁mến	-5606
nick	-5607
ocarpus	-5608
▁xấp	-5609
euphorbia	-5610
▁(0000-0000).	-5611
lag	-5612
▁yang	-5613
▁gun	-5614
▁zim	-5615
▁rand	-5616
▁khớp	-5617
thia	-5618
▁bắp	-5619
▁lùng	-5620
▁о	-5621
uchi	-5622
▁cù	-5623
rin	-5624
▁dat	-5625
▁sho	-5626
owski	-5627
phus	-5628
▁cưỡi	-5629
led	-5630
▁000000-0000	-5631
nger	-5632
▁bai	-5633
austr	-5634
▁okinawa	-5635
tambon	-5636
otrich	-5637
cry	-5638
thần	-5639
▁general	-5640
▁mcc	-5641
▁khoai	-5642
▁playstation	-5643
▁bùn	-5644
thanh	-5645
▁gác	-5646
▁liều	-5647
▁solo	-5648
idth	-5649
▁lụa	-5650
vat	-5651
ites	-5652
olas	-5653
▁orig	-5654
vì	-5655
hình	-5656
▁mr	-5657
antes	-5658
▁schmidt	-5659
▁france	-5660
▁má	-5661
otus	-5662
raine	-5663
van	-5664
ymph	-5665
▁anna	-5666
▁chan	-5667
eed	-5668
wat	-5669
dia	-5670
sil	-5671
lept	-5672
▁states	-5673
wo	-5674
▁д	-5675
ydney	-5676
▁chẩn	-5677
▁cưỡng	-5678
▁pall	-5679
sn	-5680
▁lựu	-5681
▁bổng	-5682
▁dire	-5683
▁about	-5684
sia	-5685
▁ce	-5686
tình	-5687
▁amazon	-5688
ippi	-5689
▁cay	-5690
▁bóc	-5691
▁jacob	-5692
furt	-5693
▁kos	-5694
▁xoắn	-5695
▁found	-5696
▁ludwig	-5697
cum	-5698
avan	-5699
▁fun	-5700
ớn	-5701
▁tạc	-5702
vùng	-5703
▁hiếp	-5704
agin	-5705
▁ton	-5706
▁adam	-5707
cũng	-5708
feld	-5709
▁khát	-5710
▁mikh	-5711
▁roll	-5712
."''	-5713
▁ern	-5714
▁oh	-5715
▁figh	-5716
▁laur	-5717
▁khuynh	-5718
về	-5719
oke	-5720
▁desc	-5721
▁girls	-5722
rd	-5723
▁sọc	-5724
zi	-5725
▁rat	-5726
▁hước	-5727
▁airways	-5728
▁samsung	-5729
▁open	-5730
▁cand	-5731
▁page	-5732
▁develop	-5733
pson	-5734
dân	-5735
rix	-5736
sey	-5737
tương	-5738
▁chuộng	-5739
▁*:	-5740
▁kazakh	-5741
.:	-5742
▁rider	-5743
giờ	-5744
opa	-5745
anum	-5746
▁anne	-5747
▁0-00000-000-0.	-5748
uld	-5749
▁orient	-5750
▁information	-5751
burn	-5752
▁guide	-5753
▁0),	-5754
▁quyên	-5755
▁chase	-5756
▁kuntze	-5757
▁aleks	-5758
gồm	-5759
▁sah	-5760
▁quyến	-5761
ioch	-5762
iensis	-5763
rac	-5764
▁dừa	-5765
▁lãi	-5766
▁đao	-5767
đã	-5768
▁edit	-5769
▁prof	-5770
oba	-5771
▁xii	-5772
▁goth	-5773
bad	-5774
ader	-5775
▁soc	-5776
▁acad	-5777
▁zo	-5778
lind	-5779
sten	-5780
▁thor	-5781
▁well	-5782
▁franklin	-5783
dom	-5784
roid	-5785
▁socor	-5786
▁post	-5787
▁tiếc	-5788
ри	-5789
▁coc	-5790
▁cuộn	-5791
ocer	-5792
athan	-5793
gor	-5794
▁techn	-5795
▁socorro	-5796
asp	-5797
ria	-5798
▁0000-00,	-5799
xít	-5800
▁hind	-5801
cao	-5802
won	-5803
roph	-5804
▁bae	-5805
▁tae	-5806
araceae	-5807
▁hận	-5808
▁gánh	-5809
omic	-5810
yeong	-5811
rov	-5812
▁emp	-5813
▁vòm	-5814
chúng	-5815
▁fest	-5816
▁trip	-5817
▁noc	-5818
▁00-00,	-5819
▁pictures	-5820
▁hoạ	-5821
▁0/0000,	-5822
dc	-5823
love	-5824
▁sax	-5825
eroon	-5826
▁jud	-5827
▁asia	-5828
▁gay	-5829
▁trắc	-5830
black	-5831
▁ngừa	-5832
perm	-5833
earch	-5834
cơ	-5835
lý	-5836
atem	-5837
▁gala	-5838
▁chướng	-5839
icle	-5840
▁little	-5841
▁kề	-5842
kaz	-5843
vận	-5844
hiện	-5845
▁lie	-5846
ultan	-5847
▁khiêu	-5848
oga	-5849
▁cav	-5850
▁liban	-5851
evich	-5852
▁iceland	-5853
го	-5854
uzia	-5855
▁team	-5856
▁asplen	-5857
book	-5858
▁pseud	-5859
▁studio	-5860
ids	-5861
lich	-5862
▁trướng	-5863
▁xí	-5864
▁000–000.	-5865
del	-5866
sy	-5867
igo	-5868
▁quật	-5869
▁ip	-5870
oglossum	-5871
▁hạch	-5872
xa	-5873
rier	-5874
▁trin	-5875
▁commun	-5876
▁•	-5877
▁cher	-5878
▁0).	-5879
énées	-5880
▁harvard	-5881
▁hond	-5882
▁cont	-5883
ladesh	-5884
▁alaska	-5885
▁stephen	-5886
▁kob	-5887
▁nếp	-5888
▁sup	-5889
▁đành	-5890
▁(?	-5891
▁sky	-5892
trọng	-5893
▁moon	-5894
▁''00	-5895
▁prot	-5896
▁lường	-5897
tại	-5898
▁aud	-5899
▁chen	-5900
▁cult	-5901
▁puerto	-5902
▁tóm	-5903
▁lept	-5904
▁lây	-5905
key	-5906
apse	-5907
khoa	-5908
wall	-5909
▁grande	-5910
él	-5911
▁ib	-5912
▁cact	-5913
▁corpor	-5914
▁thúy	-5915
▁ug	-5916
▁zam	-5917
thứ	-5918
iper	-5919
▁fem	-5920
▁who	-5921
▁cons	-5922
ska	-5923
ipal	-5924
▁đam	-5925
uten	-5926
▁cau	-5927
▁crass	-5928
▁boh	-5929
▁list	-5930
▁street	-5931
▁nồi	-5932
▁trội	-5933
▁kiềm	-5934
naeus	-5935
alian	-5936
cess	-5937
mùa	-5938
iopia	-5939
▁milit	-5940
▁fire	-5941
cyclopedia	-5942
▁bag	-5943
▁shō	-5944
▁romania	-5945
đề	-5946
hook	-5947
▁hái	-5948
aph	-5949
▁lawrence	-5950
day	-5951
dre	-5952
yon	-5953
▁*****	-5954
▁nigeria	-5955
▁ráy	-5956
nhưng	-5957
pus	-5958
▁network	-5959
▁điên	-5960
▁hạc	-5961
heim	-5962
thus	-5963
▁jay	-5964
▁dun	-5965
▁jenn	-5966
▁luồng	-5967
▁copel	-5968
▁sydney	-5969
osm	-5970
▁metal	-5971
▁kai	-5972
▁hao	-5973
lat	-5974
▁diêu	-5975
▁jong	-5976
epis	-5977
▁natri	-5978
▁gruzia	-5979
kt	-5980
▁sport	-5981
shi	-5982
ione	-5983
▁hạo	-5984
asha	-5985
bang	-5986
low	-5987
ince	-5988
▁disc	-5989
▁research	-5990
urs	-5991
''..	-5992
▁kav	-5993
▁vươn	-5994
▁second	-5995
xung	-5996
▁civ	-5997
american	-5998
▁cameroon	-5999
▁amar	-6000
▁marx	-6001
▁müll	-6002
▁viii	-6003
osp	-6004
yrt	-6005
▁tag	-6006
▁thới	-6007
iant	-6008
▁ngắm	-6009
▁bú	-6010
▁hụt	-6011
dự	-6012
▁cel	-6013
eyrick	-6014
▁bangladesh	-6015
edt	-6016
▁tát	-6017
amoto	-6018
▁mob	-6019
▁baltic	-6020
ль	-6021
idi	-6022
▁point	-6023
▁genera	-6024
▁sas	-6025
▁wo	-6026
▁chì	-6027
ebo	-6028
▁miện	-6029
acanth	-6030
ré	-6031
mich	-6032
▁josé	-6033
▁nato	-6034
▁guadal	-6035
usta	-6036
▁khuê	-6037
▁beatles	-6038
▁constantin	-6039
hab	-6040
▁thiêu	-6041
▁broad	-6042
▁institute	-6043
view	-6044
▁yết	-6045
illon	-6046
▁papua	-6047
ammad	-6048
▁four	-6049
▁palomar	-6050
▁anderson	-6051
ahl	-6052
▁ngà	-6053
▁giày	-6054
df	-6055
ando	-6056
elson	-6057
idgeon	-6058
▁*0	-6059
vương	-6060
▁0/00	-6061
▁thính	-6062
▁vn	-6063
▁dub	-6064
world	-6065
rym	-6066
▁quà	-6067
▁bull	-6068
▁know	-6069
▁tas	-6070
-000.	-6071
mart	-6072
▁slovak	-6073
▁kang	-6074
ocal	-6075
pap	-6076
▁tun	-6077
▁aspleniaceae	-6078
▁det	-6079
ẹo	-6080
▁berg	-6081
see	-6082
urai	-6083
▁bush	-6084
edo	-6085
▁đạc	-6086
▁sudan	-6087
ological	-6088
▁cri	-6089
▁lặn	-6090
▁(00)	-6091
▁melan	-6092
▁solomon	-6093
asu	-6094
jac	-6095
uston	-6096
rum	-6097
acea	-6098
adelphia	-6099
▁guatem	-6100
esch	-6101
▁rụng	-6102
▁xv	-6103
tướng	-6104
▁cape	-6105
▁davis	-6106
▁progr	-6107
▁battle	-6108
omus	-6109
▁mắm	-6110
izona	-6111
▁gang	-6112
▁form	-6113
hải	-6114
idia	-6115
trên	-6116
▁lewis	-6117
iva	-6118
ives	-6119
▁sủng	-6120
▁sz	-6121
▁xinh	-6122
eno	-6123
đội	-6124
▁0-0.	-6125
▁moore	-6126
▁norman	-6127
gg	-6128
▁hyp	-6129
▁hò	-6130
icon	-6131
▁gối	-6132
▁fort	-6133
▁(0,00	-6134
▁pel	-6135
ellow	-6136
▁tum	-6137
▁lorraine	-6138
▁tẩy	-6139
▁victor	-6140
▁bab	-6141
▁rot	-6142
▁terr	-6143
annel	-6144
zant	-6145
▁fly	-6146
▁hok	-6147
▁roi	-6148
odium	-6149
qđ	-6150
ebr	-6151
▁lady	-6152
fil	-6153
ible	-6154
▁kin	-6155
▁buck	-6156
▁gom	-6157
issippi	-6158
▁fac	-6159
▁let	-6160
▁ethiopia	-6161
hal	-6162
▁bac	-6163
▁bow	-6164
▁ngâm	-6165
▁bì	-6166
▁joe	-6167
▁thiếp	-6168
sburg	-6169
▁aut	-6170
chiều	-6171
bell	-6172
nước	-6173
▁huynh	-6174
▁khử	-6175
ection	-6176
nham	-6177
arius	-6178
▁trưa	-6179
▁loire	-6180
▁alan	-6181
▁fact	-6182
illo	-6183
▁cit	-6184
▁cắp	-6185
▁ther	-6186
▁villa	-6187
hồ	-6188
mét	-6189
rea	-6190
awi	-6191
oud	-6192
▁vat	-6193
▁bank	-6194
▁chưởng	-6195
life	-6196
thiết	-6197
▁ngơi	-6198
▁0;	-6199
==	-6200
▁math	-6201
rif	-6202
she	-6203
gart	-6204
aza	-6205
▁dna	-6206
▁lav	-6207
▁prad	-6208
▁ré	-6209
▁cant	-6210
▁chiên	-6211
▁ballad	-6212
stad	-6213
ieu	-6214
enne	-6215
ophora	-6216
hin	-6217
olo	-6218
uter	-6219
▁thói	-6220
▁mold	-6221
đặc	-6222
less	-6223
wich	-6224
▁development	-6225
wait	-6226
▁cõi	-6227
▁corporation	-6228
rot	-6229
ngôn	-6230
▁family	-6231
ан	-6232
▁chọc	-6233
▁bangkok	-6234
▁its	-6235
▁nich	-6236
onder	-6237
▁caribe	-6238
▁ali	-6239
▁rey	-6240
▁thắt	-6241
▁00.0.0000	-6242
▁lề	-6243
érie	-6244
sam	-6245
ulu	-6246
▁occ	-6247
otis	-6248
▁bud	-6249
▁nhục	-6250
anthes	-6251
▁raven	-6252
▁bồn	-6253
▁giêng	-6254
▁johannes	-6255
syn	-6256
▁pont	-6257
▁pom	-6258
▁khinh	-6259
▁union	-6260
fly	-6261
/0	-6262
▁grant	-6263
▁khoá	-6264
▁đắt	-6265
▁mind	-6266
▁xông	-6267
▁organ	-6268
atha	-6269
▁wik	-6270
ốp	-6271
dav	-6272
▁gri	-6273
▁chern	-6274
▁songs	-6275
usalem	-6276
▁walker	-6277
mill	-6278
▁aff	-6279
▁nhái	-6280
▁tony	-6281
stone	-6282
ml	-6283
▁rủi	-6284
▁vladimir	-6285
stre	-6286
▁út	-6287
▁dream	-6288
yland	-6289
nghĩa	-6290
iae	-6291
▁trán	-6292
roll	-6293
▁báu	-6294
ender	-6295
▁caesar	-6296
ctor	-6297
jun	-6298
▁ble	-6299
▁more	-6300
▁frederick	-6301
▁#0	-6302
fort	-6303
▁phồn	-6304
iformes	-6305
enko	-6306
▁ess	-6307
▁studios	-6308
nom	-6309
▁def	-6310
ер	-6311
▁ferr	-6312
▁thấu	-6313
mund	-6314
▁dum	-6315
▁aley	-6316
▁central	-6317
ras	-6318
▁num	-6319
▁rắc	-6320
▁garden	-6321
▁cactaceae	-6322
lands	-6323
▁chòm	-6324
▁nà	-6325
▁lánh	-6326
▁sultan	-6327
anna	-6328
omat	-6329
evin	-6330
▁perry	-6331
py	-6332
ization	-6333
▁::''	-6334
▁khôn	-6335
▁uyển	-6336
?"	-6337
▁chặng	-6338
▁bengal	-6339
▁pass	-6340
ogue	-6341
ips	-6342
▁adams	-6343
ware	-6344
▁die	-6345
▁thủng	-6346
aa	-6347
orf	-6348
▁bén	-6349
▁dập	-6350
ako	-6351
olm	-6352
▁mị	-6353
▁belarus	-6354
▁aleyrod	-6355
pas	-6356
uya	-6357
▁univ	-6358
▁econ	-6359
▁version	-6360
lepid	-6361
▁dark	-6362
ih	-6363
cil	-6364
▁vằn	-6365
▁mississippi	-6366
kam	-6367
▁lội	-6368
▁junior	-6369
alum	-6370
▁nghiệt	-6371
apon	-6372
ibia	-6373
▁myanmar	-6374
▁*#	-6375
▁bẫy	-6376
▁won	-6377
▁cuống	-6378
plenium	-6379
rain	-6380
▁pod	-6381
▁fight	-6382
▁gioan	-6383
ffer	-6384
▁riv	-6385
erbai	-6386
ễm	-6387
utube	-6388
bos	-6389
▁leuc	-6390
kun	-6391
mil	-6392
▁kha	-6393
▁paulo	-6394
alo	-6395
-0)	-6396
ennes	-6397
ped	-6398
▁phác	-6399
▁field	-6400
▁vớt	-6401
▁(0.00	-6402
▁libya	-6403
gir	-6404
thủy	-6405
uil	-6406
ăk	-6407
▁hoán	-6408
▁kazakhstan	-6409
▁khống	-6410
you	-6411
▁khuếch	-6412
eon	-6413
00-00	-6414
anni	-6415
▁crist	-6416
peg	-6417
▁ix	-6418
▁madonna	-6419
▁sad	-6420
▁english	-6421
opl	-6422
unei	-6423
▁cin	-6424
▁kab	-6425
▁brad	-6426
▁0000-	-6427
▁000-000.	-6428
▁guatemala	-6429
ech	-6430
▁phơi	-6431
▁giêsu	-6432
▁nham	-6433
▁steve	-6434
▁now	-6435
lê	-6436
mah	-6437
elis	-6438
▁swift	-6439
ün	-6440
▁‘	-6441
▁curt	-6442
!"	-6443
pot	-6444
itus	-6445
▁tol	-6446
▁nón	-6447
▁phả	-6448
▁rìa	-6449
▁ford	-6450
▁philadelphia	-6451
cow	-6452
eston	-6453
▁tod	-6454
nheim	-6455
worth	-6456
fon	-6457
play	-6458
▁font	-6459
▁thấm	-6460
▁brian	-6461
▁serie	-6462
ны	-6463
▁lem	-6464
erbaijan	-6465
▁pc	-6466
tô	-6467
eti	-6468
ieg	-6469
head	-6470
▁rol	-6471
nar	-6472
pil	-6473
▁dại	-6474
zu	-6475
agua	-6476
▁axít	-6477
▁youtube	-6478
rus	-6479
aica	-6480
▁mỏi	-6481
▁prim	-6482
▁xuôi	-6483
anensis	-6484
▁gordon	-6485
▁bour	-6486
▁linux	-6487
▁rasmus	-6488
vũ	-6489
öl	-6490
tạm	-6491
uku	-6492
inum	-6493
âl	-6494
để	-6495
▁merr	-6496
▁mệt	-6497
▁koch	-6498
dle	-6499
▁sent	-6500
andria	-6501
non	-6502
ovsky	-6503
▁newton	-6504
',	-6505
▁(000)	-6506
▁kennedy	-6507
raz	-6508
▁fur	-6509
▁nôm	-6510
▁đạm	-6511
▁review	-6512
▁rum	-6513
▁roth	-6514
eckl	-6515
▁pec	-6516
wen	-6517
▁gìn	-6518
anta	-6519
rock	-6520
▁xôi	-6521
▁đục	-6522
▁arizona	-6523
aug	-6524
eki	-6525
iod	-6526
▁shar	-6527
▁angola	-6528
▁peters	-6529
▁nev	-6530
▁sund	-6531
câu	-6532
▁loc	-6533
▁niêm	-6534
ariidae	-6535
wald	-6536
ngu	-6537
roc	-6538
▁kle	-6539
▁raj	-6540
▁monte	-6541
dal	-6542
-0000.	-6543
▁christopher	-6544
canal	-6545
kor	-6546
▁india	-6547
rag	-6548
▁dall	-6549
▁truất	-6550
lex	-6551
estr	-6552
▁apple	-6553
anime	-6554
то	-6555
viết	-6556
house	-6557
▁lenn	-6558
▁albania	-6559
▁tặc	-6560
▁have	-6561
▁hav	-6562
asplenium	-6563
eca	-6564
mitt	-6565
▁pradesh	-6566
bảo	-6567
kn	-6568
mag	-6569
ento	-6570
▁chal	-6571
▁thiểm	-6572
▁rasmussen	-6573
▁flo	-6574
▁chuối	-6575
▁→	-6576
▁vs	-6577
0.0	-6578
issa	-6579
kir	-6580
lar	-6581
▁khéo	-6582
iculata	-6583
▁cớ	-6584
▁moun	-6585
▁img	-6586
heter	-6587
▁site	-6588
▁queen	-6589
▁mis	-6590
▁movie	-6591
▁rệt	-6592
ful	-6593
▁azerbaijan	-6594
tuy	-6595
ones	-6596
born	-6597
▁other	-6598
▁kaw	-6599
▁lát	-6600
''):	-6601
onto	-6602
▁marc	-6603
bis	-6604
▁feder	-6605
▁rico	-6606
▁trơn	-6607
enness	-6608
▁leyte	-6609
▁borneo	-6610
▁natural	-6611
folk	-6612
viện	-6613
▁giề	-6614
▁ronald	-6615
▁rãnh	-6616
▁vinc	-6617
oraemon	-6618
▁0-00-000000	-6619
▁ja	-6620
▁dẻo	-6621
▁chéo	-6622
▁encyclopedia	-6623
▁sed	-6624
▁kiêu	-6625
atherine	-6626
ornis	-6627
▁giềng	-6628
▁vảy	-6629
;"	-6630
ierra	-6631
▁gabri	-6632
▁«	-6633
phy	-6634
▁ich	-6635
▁~	-6636
▁dragon	-6637
▁android	-6638
meg	-6639
▁rậm	-6640
thy	-6641
▁pir	-6642
▁antonio	-6643
▁shah	-6644
borough	-6645
▁à	-6646
▁khố	-6647
▁nắp	-6648
▁sọ	-6649
đảng	-6650
ardia	-6651
▁michel	-6652
▁0-0000-0000-0	-6653
super	-6654
eni	-6655
▁tồi	-6656
▁mv	-6657
000,	-6658
▁cord	-6659
▁(0000–	-6660
▁roger	-6661
▁clin	-6662
▁fair	-6663
▁prov	-6664
max	-6665
hand	-6666
▁bed	-6667
▁miy	-6668
▁râu	-6669
▁head	-6670
tự	-6671
ès	-6672
dic	-6673
fan	-6674
▁chổi	-6675
bourne	-6676
imus	-6677
abase	-6678
▁thuở	-6679
cộng	-6680
▁galaxy	-6681
centr	-6682
young	-6683
▁giường	-6684
tar	-6685
▁brook	-6686
▁haute	-6687
▁hamilton	-6688
▁frankfurt	-6689
▁00/00/0000,	-6690
của	-6691
▁##	-6692
agar	-6693
▁lầu	-6694
burgh	-6695
▁nhốt	-6696
▁cross	-6697
▁potter	-6698
▁festival	-6699
▁ea	-6700
ification	-6701
lim	-6702
▁bund	-6703
▁byzant	-6704
mod	-6705
ưởi	-6706
▁wol	-6707
▁chay	-6708
▁naval	-6709
ulf	-6710
hard	-6711
yrus	-6712
▁ted	-6713
▁lượn	-6714
▁vitamin	-6715
gymn	-6716
▁phím	-6717
etti	-6718
phalus	-6719
fia	-6720
▁kap	-6721
▁again	-6722
▁giế	-6723
▁rực	-6724
uguay	-6725
▁buýt	-6726
2).	-6727
acia	-6728
▁africa	-6729
är	-6730
sor	-6731
phong	-6732
▁got	-6733
ought	-6734
▁their	-6735
ipe	-6736
▁#''	-6737
ophor	-6738
opolis	-6739
▁cyathe	-6740
lon	-6741
conus	-6742
▁nang	-6743
▁novel	-6744
▁brunei	-6745
ustin	-6746
▁000/	-6747
▁trump	-6748
▁xăng	-6749
ariaceae	-6750
bek	-6751
ants	-6752
endo	-6753
▁golden	-6754
phương	-6755
▁franz	-6756
iformis	-6757
sư	-6758
esi	-6759
▁iso	-6760
▁run	-6761
▁crit	-6762
▁xiii	-6763
▁cyatheaceae	-6764
ucn	-6765
▁enz	-6766
stand	-6767
▁noctu	-6768
▁carlos	-6769
да	-6770
wil	-6771
ness	-6772
acy	-6773
▁og	-6774
▁dịu	-6775
▁thề	-6776
elles	-6777
tham	-6778
das	-6779
etz	-6780
ươm	-6781
▁cribb	-6782
▁ard	-6783
''...	-6784
istol	-6785
tress	-6786
▁holt	-6787
uru	-6788
▁rể	-6789
▁hip	-6790
itter	-6791
▁tambon	-6792
▁lg	-6793
làng	-6794
▁bơm	-6795
▁robot	-6796
▁histor	-6797
▁singles	-6798
▁alg	-6799
▁rome	-6800
▁gõ	-6801
igu	-6802
▁rain	-6803
▁chanh	-6804
▁din	-6805
ating	-6806
ет	-6807
đảo	-6808
▁mini	-6809
▁jerusalem	-6810
▁guadalcanal	-6811
ен	-6812
ning	-6813
▁hựu	-6814
";	-6815
▁official	-6816
▁0-0000-0000-0.	-6817
bau	-6818
▁dyn	-6819
▁thê	-6820
iella	-6821
nie	-6822
chrys	-6823
▁scand	-6824
▁gon	-6825
▁howard	-6826
đô	-6827
ahn	-6828
▁chuồng	-6829
▁forest	-6830
▁phaolô	-6831
▁hiroshi	-6832
▁how	-6833
▁saudi	-6834
get	-6835
kal	-6836
▁rung	-6837
acearum	-6838
▁miller	-6839
▁mổ	-6840
▁huỷ	-6841
▁warner	-6842
uit	-6843
...)	-6844
▁dồn	-6845
▁century	-6846
▁heinrich	-6847
idad	-6848
▁uốn	-6849
lia	-6850
emer	-6851
utan	-6852
▁cày	-6853
▁nọc	-6854
▁orchidacearum	-6855
esse	-6856
▁lomb	-6857
▁malta	-6858
ference	-6859
▁morris	-6860
▁paragu	-6861
huy	-6862
đơn	-6863
huân	-6864
sing	-6865
▁dối	-6866
ausen	-6867
▁giun	-6868
ène	-6869
▁bil	-6870
cái	-6871
▁sib	-6872
▁mam	-6873
▁sào	-6874
▁special	-6875
yi	-6876
▁--	-6877
jung	-6878
tria	-6879
▁sony	-6880
inese	-6881
▁0000''	-6882
▁colorado	-6883
idea	-6884
▁pad	-6885
▁quặng	-6886
▁uganda	-6887
▁nung	-6888
▁lap	-6889
▁jazz	-6890
▁otto	-6891
lie	-6892
down	-6893
▁kra	-6894
▁shaw	-6895
▁expl	-6896
▁matt	-6897
▁database	-6898
)..	-6899
▁last	-6900
▁slovakia	-6901
▁dictionary	-6902
sum	-6903
▁rỡ	-6904
bình	-6905
▁kol	-6906
artney	-6907
mai	-6908
000)	-6909
thor	-6910
▁khoẻ	-6911
▁collection	-6912
▁mike	-6913
eron	-6914
igen	-6915
ucle	-6916
во	-6917
▁walt	-6918
▁khiếp	-6919
nga	-6920
etto	-6921
▁norfolk	-6922
▁brach	-6923
▁bart	-6924
▁rhein	-6925
▁southern	-6926
▁по	-6927
▁like	-6928
miss	-6929
▁nghiện	-6930
điện	-6931
▁chin	-6932
▁bận	-6933
icana	-6934
▁polit	-6935
▁julius	-6936
dec	-6937
▁nhôm	-6938
gom	-6939
lev	-6940
▁aus	-6941
imm	-6942
▁estonia	-6943
▁harrison	-6944
▁(0000–0000),	-6945
▁force	-6946
pom	-6947
▁giã	-6948
▁mân	-6949
▁rèn	-6950
france	-6951
ls	-6952
enos	-6953
▁bog	-6954
hynch	-6955
▁ryan	-6956
sử	-6957
▁beau	-6958
▁earth	-6959
▁major	-6960
▁gs	-6961
coll	-6962
uv	-6963
▁ling	-6964
▁micro	-6965
reg	-6966
▁home	-6967
00000.	-6968
▁phiệt	-6969
tay	-6970
▁wa	-6971
▁cob	-6972
làm	-6973
biên	-6974
cách	-6975
ennessee	-6976
tính	-6977
▁hunt	-6978
▁width	-6979
▁valent	-6980
▁lặc	-6981
onc	-6982
▁mut	-6983
▁obl	-6984
▁sac	-6985
▁lót	-6986
▁nóc	-6987
▁salv	-6988
hom	-6989
ici	-6990
wing	-6991
with	-6992
hương	-6993
dis	-6994
anti	-6995
▁cook	-6996
yme	-6997
▁litva	-6998
▁loa	-6999
▁libr	-7000
tư	-7001
▁ôxy	-7002
▁doll	-7003
bec	-7004
đài	-7005
plex	-7006
▁bry	-7007
mania	-7008
▁(0).	-7009
île	-7010
quảng	-7011
▁thưa	-7012
sterdam	-7013
▁service	-7014
utsch	-7015
▁merc	-7016
leit	-7017
▁khoái	-7018
▁concert	-7019
▁uruguay	-7020
essa	-7021
▁channel	-7022
▁houston	-7023
uman	-7024
▁kas	-7025
uttgart	-7026
cambridge	-7027
fc	-7028
lv	-7029
thew	-7030
▁khiếu	-7031
▁valley	-7032
hot	-7033
▁yok	-7034
▁cope	-7035
▁âl	-7036
▁death	-7037
nu	-7038
▁slovenia	-7039
cz	-7040
▁ō	-7041
▁dae	-7042
gọi	-7043
ering	-7044
▁conf	-7045
arct	-7046
song	-7047
rough	-7048
ublic	-7049
▁hell	-7050
▁wright	-7051
yllidaceae	-7052
athy	-7053
▁:::	-7054
▁bun	-7055
▁lil	-7056
illand	-7057
▁giếng	-7058
evo	-7059
osev	-7060
ânia	-7061
▁bey	-7062
▁trễ	-7063
abama	-7064
▁họng	-7065
lực	-7066
babwe	-7067
▁houten	-7068
ists	-7069
▁chil	-7070
▁gust	-7071
▁paraguay	-7072
▁cò	-7073
left	-7074
▁seg	-7075
▁transl	-7076
uras	-7077
▁obs	-7078
▁đừng	-7079
ambique	-7080
▁kavkaz	-7081
imp	-7082
▁trav	-7083
encia	-7084
▁xbox	-7085
▁western	-7086
▁sắm	-7087
tân	-7088
▁ent	-7089
▁chán	-7090
▁phàn	-7091
▁khoác	-7092
▁people	-7093
iller	-7094
aser	-7095
▁chè	-7096
xe	-7097
iti	-7098
uga	-7099
▁lay	-7100
▁sex	-7101
oleon	-7102
▁nem	-7103
▁platnick	-7104
hợp	-7105
▁titan	-7106
ryopteris	-7107
ove	-7108
ấng	-7109
▁anthony	-7110
ửu	-7111
gus	-7112
azine	-7113
▁gán	-7114
▁00),	-7115
anthera	-7116
osc	-7117
▁text	-7118
▁three	-7119
zig	-7120
▁côi	-7121
itor	-7122
▁mào	-7123
▁intr	-7124
▁bernard	-7125
dipl	-7126
▁đếm	-7127
▁after	-7128
▁amaryllidaceae	-7129
▁fus	-7130
ypodium	-7131
▁а	-7132
abad	-7133
▁justin	-7134
ype	-7135
▁beach	-7136
dryopteris	-7137
▁dọn	-7138
▁fred	-7139
▁type	-7140
▁human	-7141
zz	-7142
ũa	-7143
eus	-7144
▁donald	-7145
▁*0000–00	-7146
mã	-7147
▁ốm	-7148
▁compl	-7149
▁wel	-7150
▁flow	-7151
▁đuối	-7152
▁margar	-7153
buch	-7154
hich	-7155
far	-7156
iens	-7157
▁cói	-7158
▁russell	-7159
▁ruf	-7160
▁000-	-7161
▁sicilia	-7162
▁0-000000-00	-7163
▁shir	-7164
icolor	-7165
▁test	-7166
▁fighting	-7167
len	-7168
▁geo	-7169
▁vtv	-7170
▁logic	-7171
”,	-7172
▁cỗ	-7173
▁dim	-7174
▁maroc	-7175
▁lis	-7176
sat	-7177
ostr	-7178
▁cẩu	-7179
▁cost	-7180
▁soul	-7181
▁oai	-7182
▁track	-7183
▁cấy	-7184
▁fut	-7185
?)	-7186
▁wy	-7187
ische	-7188
mặt	-7189
tom	-7190
▁eff	-7191
▁nứt	-7192
▁ráp	-7193
▁hamburg	-7194
▁zimbabwe	-7195
lưu	-7196
xin	-7197
odia	-7198
athea	-7199
water	-7200
arte	-7201
aves	-7202
▁meth	-7203
▁tiệm	-7204
bri	-7205
▁fai	-7206
▁metro	-7207
nor	-7208
rhod	-7209
▁ast	-7210
▁00.00.0000	-7211
▁most	-7212
▁kevin	-7213
▁sachsen	-7214
aban	-7215
ocen	-7216
▁male	-7217
myr	-7218
▁inf	-7219
▁view	-7220
▁mozambique	-7221
▁lị	-7222
▁000%	-7223
▁0-00000-000-0	-7224
haw	-7225
may	-7226
▁thầu	-7227
▁week	-7228
▁nhuộm	-7229
osevelt	-7230
▁stuttgart	-7231
onne	-7232
▁sumatra	-7233
erd	-7234
gray	-7235
ellus	-7236
▁acid	-7237
▁pedro	-7238
mol	-7239
agus	-7240
▁ric	-7241
▁mits	-7242
▁rước	-7243
▁gov	-7244
▁oliv	-7245
oen	-7246
rox	-7247
đối	-7248
odor	-7249
vert	-7250
▁row	-7251
▁nad	-7252
▁kiếp	-7253
▁tiger	-7254
▁nagar	-7255
town	-7256
asaki	-7257
0-	-7258
igma	-7259
▁...	-7260
brach	-7261
ends	-7262
ockh	-7263
▁kamen	-7264
▁collins	-7265
dar	-7266
ede	-7267
phổ	-7268
aver	-7269
more	-7270
▁flag	-7271
▁ê	-7272
sha	-7273
▁gol	-7274
illes	-7275
smith	-7276
ophy	-7277
▁mph	-7278
pridgeon	-7279
tw	-7280
ollo	-7281
▁00/0	-7282
▁bruce	-7283
▁thoải	-7284
ña	-7285
▁gas	-7286
▁gộp	-7287
▁phill	-7288
▁semat	-7289
за	-7290
apt	-7291
hang	-7292
▁ướp	-7293
saint	-7294
▁nhàng	-7295
wi	-7296
izu	-7297
▁muh	-7298
▁modern	-7299
▁noctuidae	-7300
gang	-7301
ylan	-7302
▁phà	-7303
dinand	-7304
▁einstein	-7305
▁lyn	-7306
lyn	-7307
▁hd	-7308
akes	-7309
▁ngọ	-7310
enna	-7311
chb	-7312
qua	-7313
▁hil	-7314
▁dick	-7315
▁lyon	-7316
christ	-7317
odactylus	-7318
alph	-7319
▁phys	-7320
iềng	-7321
avy	-7322
rec	-7323
opol	-7324
-000,	-7325
▁moll	-7326
định	-7327
▁ach	-7328
▁england	-7329
▁ober	-7330
zel	-7331
▁ôm	-7332
ieri	-7333
thys	-7334
vườn	-7335
▁sán	-7336
ischer	-7337
los	-7338
shin	-7339
▁rid	-7340
▁sái	-7341
▁vor	-7342
▁ptol	-7343
▁tong	-7344
=0	-7345
teris	-7346
itaine	-7347
▁0×	-7348
'.	-7349
▁ngao	-7350
▁drama	-7351
▁phiền	-7352
▁small	-7353
imi	-7354
robium	-7355
▁alice	-7356
▁luxem	-7357
cổ	-7358
acc	-7359
rez	-7360
hành	-7361
▁gậy	-7362
▁ont	-7363
▁empire	-7364
▁montana	-7365
▁gả	-7366
▁lí	-7367
▁amph	-7368
▁mend	-7369
▁lenin	-7370
▁centre	-7371
omer	-7372
▁fuj	-7373
▁moth	-7374
auss	-7375
hara	-7376
▁usa	-7377
▁boys	-7378
▁parv	-7379
▁sign	-7380
ophylla	-7381
ás	-7382
fur	-7383
enes	-7384
▁visual	-7385
▁digital	-7386
▁veg	-7387
▁hend	-7388
gio	-7389
châu	-7390
▁dic	-7391
starr	-7392
▁gene	-7393
▁hở	-7394
▁cham	-7395
▁free	-7396
▁spir	-7397
zawa	-7398
▁bồng	-7399
▁krym	-7400
▁schles	-7401
▁xả	-7402
▁amb	-7403
▁mars	-7404
▁carbon	-7405
▁military	-7406
osia	-7407
▁int	-7408
▁vòi	-7409
▁benn	-7410
▁chrysomel	-7411
▁cad	-7412
▁vic	-7413
▁incl	-7414
▁leop	-7415
▁0000):	-7416
▁kẽm	-7417
▁ưng	-7418
▁ngưu	-7419
▁cath	-7420
ities	-7421
▁fant	-7422
iata	-7423
inter	-7424
▁cruz	-7425
▁gig	-7426
thiếu	-7427
ussia	-7428
▁gaul	-7429
▁pter	-7430
etic	-7431
▁arab	-7432
beh	-7433
eshi	-7434
▁pent	-7435
▁clinton	-7436
▁gregory	-7437
otr	-7438
▁lennon	-7439
lem	-7440
umin	-7441
▁guam	-7442
dō	-7443
▁hur	-7444
leitão	-7445
ône	-7446
▁esp	-7447
▁master	-7448
▁toy	-7449
muell	-7450
▁alber	-7451
sun	-7452
đầu	-7453
▁uz	-7454
▁mys	-7455
lời	-7456
marck	-7457
▁yuri	-7458
▁ngươi	-7459
▁000000.	-7460
rub	-7461
yang	-7462
▁qui	-7463
trans	-7464
▁barr	-7465
ifolius	-7466
ưới	-7467
thượng	-7468
▁cọp	-7469
▁00).	-7470
▁pycn	-7471
▁tree	-7472
intern	-7473
▁românia	-7474
▁mccartney	-7475
kat	-7476
00000	-7477
▁nicar	-7478
▁mẻ	-7479
▁(),	-7480
▁rou	-7481
▁sẫm	-7482
▁iucn	-7483
ulaceae	-7484
hiệp	-7485
peter	-7486
▁nasa	-7487
▁mikhail	-7488
▁magazine	-7489
▁chrysomelidae	-7490
aig	-7491
ucky	-7492
▁thoi	-7493
▁hp	-7494
omit	-7495
eli	-7496
lou	-7497
▁chích	-7498
cou	-7499
dou	-7500
ogy	-7501
▁#:	-7502
edes	-7503
▁nhí	-7504
▁françois	-7505
▁dực	-7506
▁march	-7507
phyllum	-7508
emb	-7509
phó	-7510
anes	-7511
▁giuse	-7512
hm	-7513
time	-7514
▁pon	-7515
▁kelly	-7516
nus	-7517
etus	-7518
trang	-7519
▁turner	-7520
▁front	-7521
pyrénées	-7522
▁sey	-7523
▁side	-7524
ularis	-7525
▁toronto	-7526
emis	-7527
iden	-7528
▁cia	-7529
osaur	-7530
▁canxi	-7531
bí	-7532
▁на	-7533
utch	-7534
▁roosevelt	-7535
ixon	-7536
okia	-7537
▁ghé	-7538
▁soph	-7539
▁adolf	-7540
how	-7541
south	-7542
▁sảnh	-7543
▁leningrad	-7544
bet	-7545
▁nom	-7546
▁quấy	-7547
▁jason	-7548
lah	-7549
▁phì	-7550
ugawa	-7551
▁xing	-7552
▁creek	-7553
▁nhắn	-7554
aude	-7555
other	-7556
▁gö	-7557
▁muôn	-7558
▁alexandros	-7559
arpa	-7560
▁arts	-7561
enh	-7562
ices	-7563
lach	-7564
▁kiev	-7565
▁santo	-7566
▁watson	-7567
▁vy	-7568
▁anal	-7569
▁short	-7570
...''	-7571
thông	-7572
▁nhâm	-7573
▁sierra	-7574
bnd	-7575
▁lip	-7576
▁khal	-7577
▁quad	-7578
astern	-7579
▁matthew	-7580
▁lồi	-7581
ijing	-7582
▁anat	-7583
▁keo	-7584
▁our	-7585
apa	-7586
▁mp	-7587
▁sy	-7588
rina	-7589
▁mõm	-7590
ror	-7591
▁isa	-7592
fried	-7593
▁female	-7594
tác	-7595
▁ek	-7596
oven	-7597
▁nelson	-7598
▁steven	-7599
sai	-7600
tric	-7601
▁pos	-7602
▁parad	-7603
▁apg	-7604
▁seb	-7605
▁ubnd	-7606
pent	-7607
▁sáo	-7608
skaya	-7609
▁nhào	-7610
▁alexandria	-7611
vị	-7612
sec	-7613
▁wwe	-7614
▁clay	-7615
▁which	-7616
▁melbourne	-7617
tai	-7618
thể	-7619
▁00;	-7620
▁mes	-7621
▁khao	-7622
▁ueda	-7623
▁dy	-7624
▁lec	-7625
bom	-7626
mur	-7627
anco	-7628
ause	-7629
igon	-7630
▁thầm	-7631
▁years	-7632
▁aquitaine	-7633
aha	-7634
tal	-7635
giao	-7636
▁dri	-7637
▁japon	-7638
▁laser	-7639
▁stewart	-7640
đa	-7641
uban	-7642
▁dật	-7643
▁tâu	-7644
gie	-7645
▁minor	-7646
▁ngoan	-7647
▁theod	-7648
đây	-7649
ostis	-7650
▁hero	-7651
▁ships	-7652
▁gắt	-7653
▁byzantine	-7654
▁nept	-7655
yotr	-7656
alpes	-7657
▁blog	-7658
▁alabama	-7659
kiến	-7660
manga	-7661
▁bong	-7662
▁khép	-7663
▁tennessee	-7664
▁đùa	-7665
phone	-7666
▁lepid	-7667
▁samuel	-7668
"'',	-7669
nell	-7670
▁kot	-7671
▁pit	-7672
▁equ	-7673
▁fas	-7674
▁nao	-7675
▁diều	-7676
▁margin	-7677
▁academy	-7678
bà	-7679
kể	-7680
aise	-7681
▁rổ	-7682
▁reich	-7683
▁market	-7684
ems	-7685
(0):	-7686
▁thuỵ	-7687
donald	-7688
▁seiji	-7689
▁telev	-7690
▁chamber	-7691
▁patrick	-7692
▁hed	-7693
phidae	-7694
▁age	-7695
▁scar	-7696
▁urban	-7697
▁algérie	-7698
▁fighter	-7699
ioni	-7700
▁kag	-7701
jeune	-7702
ythec	-7703
nhagen	-7704
▁space	-7705
▁office	-7706
%),	-7707
▁bế	-7708
enson	-7709
▁mamm	-7710
▁prince	-7711
cent	-7712
achy	-7713
iter	-7714
plic	-7715
rent	-7716
▁xay	-7717
▁warren	-7718
euc	-7719
▁if	-7720
ampton	-7721
▁pacific	-7722
▁ferdinand	-7723
ymen	-7724
▁ign	-7725
▁0–00	-7726
▁global	-7727
▁yuk	-7728
▁hách	-7729
ilding	-7730
william	-7731
anthaceae	-7732
hậu	-7733
▁suz	-7734
▁tao	-7735
▁vul	-7736
0.000	-7737
simon	-7738
▁00.000.000	-7739
ulo	-7740
▁manila	-7741
mặc	-7742
nơi	-7743
▁mb	-7744
▁link	-7745
▁soft	-7746
oshima	-7747
ру	-7748
iza	-7749
▁kō	-7750
arin	-7751
olus	-7752
▁eun	-7753
▁kum	-7754
▁name	-7755
та	-7756
▁vá	-7757
▁tet	-7758
▁beg	-7759
▁cám	-7760
▁butter	-7761
▁amsterdam	-7762
▁mụ	-7763
▁nicaragua	-7764
thơ	-7765
idus	-7766
ysis	-7767
▁brev	-7768
▁mello	-7769
ird	-7770
dson	-7771
▁tưới	-7772
▁barbara	-7773
mc	-7774
▁ö	-7775
▁xảo	-7776
00.000	-7777
▁nghênh	-7778
polypodium	-7779
uli	-7780
loài	-7781
▁civil	-7782
▁angust	-7783
obi	-7784
▁gaga	-7785
gun	-7786
vai	-7787
▁ey	-7788
▁ccd	-7789
▁rịa	-7790
mis	-7791
otti	-7792
▁bau	-7793
iw	-7794
▁sầu	-7795
▁pitt	-7796
pect	-7797
aiser	-7798
crypt	-7799
▁pott	-7800
▁ster	-7801
▁macro	-7802
▁sag	-7803
▁phoen	-7804
nđ	-7805
him	-7806
unea	-7807
▁also	-7808
▁gracill	-7809
▁jacques	-7810
▁(0000–00	-7811
hon	-7812
pit	-7813
▁tuỳ	-7814
walker	-7815
▁publications	-7816
ober	-7817
tiến	-7818
▁ghana	-7819
▁nại	-7820
▁chênh	-7821
▁report	-7822
▁lejeune	-7823
phon	-7824
baker	-7825
▁fuji	-7826
▁ring	-7827
▁stat	-7828
▁maryland	-7829
chis	-7830
north	-7831
▁hokkai	-7832
kẻ	-7833
emp	-7834
orge	-7835
quin	-7836
video	-7837
▁đũa	-7838
ulatus	-7839
ouk	-7840
▁honduras	-7841
▁jefferson	-7842
fall	-7843
▁gởi	-7844
aspid	-7845
▁benj	-7846
▁hugh	-7847
▁hymenoptera	-7848
▁aleksandr	-7849
iers	-7850
▁bôi	-7851
witz	-7852
▁sr	-7853
▁kay	-7854
▁vatican	-7855
eh	-7856
ло	-7857
bank	-7858
moore	-7859
▁seine	-7860
▁library	-7861
▁lig	-7862
▁zen	-7863
iness	-7864
▁lung	-7865
▁marcus	-7866
tc	-7867
tok	-7868
▁dưa	-7869
▁chớp	-7870
▁full	-7871
▁beijing	-7872
▁muhammad	-7873
▁к	-7874
▁ov	-7875
▁(00/	-7876
▁data	-7877
▁rick	-7878
▁yemen	-7879
idelberg	-7880
jer	-7881
truyện	-7882
cock	-7883
arm	-7884
abar	-7885
awak	-7886
best	-7887
▁yoshi	-7888
lã	-7889
lay	-7890
▁hân	-7891
▁baden	-7892
▁ontario	-7893
▁generation	-7894
esper	-7895
music	-7896
icipal	-7897
strong	-7898
▁gross	-7899
▁pyotr	-7900
mr	-7901
ares	-7902
▁vần	-7903
▁chao	-7904
▁nova	-7905
▁điềm	-7906
permum	-7907
stantin	-7908
kg	-7909
▁oán	-7910
▁stu	-7911
▁chuộc	-7912
ady	-7913
▁mép	-7914
white	-7915
▁hoff	-7916
ornith	-7917
▁common	-7918
▁00/0000/	-7919
▁tokugawa	-7920
▁túng	-7921
▁sarah	-7922
▁marine	-7923
what	-7924
▁lăn	-7925
▁pob	-7926
▁kali	-7927
▁điểu	-7928
▁castr	-7929
▁mài	-7930
▁lừng	-7931
▁obser	-7932
▁design	-7933
▁lejeuneaceae	-7934
▁bạ	-7935
alan	-7936
omet	-7937
ean	-7938
cheon	-7939
iatus	-7940
bằng	-7941
khởi	-7942
face	-7943
ylum	-7944
▁nậm	-7945
tro	-7946
▁arc	-7947
pez	-7948
▁buồm	-7949
▁castile	-7950
▁universal	-7951
rau	-7952
▁haut	-7953
▁khốc	-7954
▁andes	-7955
▁bhutan	-7956
▁abr	-7957
.00.00	-7958
inidae	-7959
imo	-7960
▁jak	-7961
entes	-7962
▁georg	-7963
adn	-7964
học	-7965
isbn	-7966
▁bib	-7967
▁works	-7968
▁jaeger	-7969
▁sê	-7970
brit	-7971
▁lột	-7972
▁đẫm	-7973
thánh	-7974
▁ngặt	-7975
opoda	-7976
?''	-7977
amph	-7978
ève	-7979
wind	-7980
fs	-7981
iago	-7982
▁gib	-7983
▁heidelberg	-7984
▁publishers	-7985
say	-7986
▁somalia	-7987
▁г	-7988
fford	-7989
▁amin	-7990
bry	-7991
igl	-7992
illy	-7993
▁arec	-7994
▁aster	-7995
▁french	-7996
iros	-7997
▁gươm	-7998
▁evans	-7999
card	-8000
cens	-8001
▁mom	-8002
ipedia	-8003
▁direct	-8004
▁kaneda	-8005
▁vincent	-8006
▁cour	-8007
▁they	-8008
▁viv	-8009
▁thun	-8010
▁there	-8011
vre	-8012
usse	-8013
▁mitch	-8014
hán	-8015
vor	-8016
▁rũ	-8017
▁rỉ	-8018
▁ải	-8019
shev	-8020
ading	-8021
▁mack	-8022
▁italy	-8023
ensen	-8024
▁0'',	-8025
▁next	-8026
▁phyl	-8027
▁wayne	-8028
bên	-8029
cre	-8030
▁cos	-8031
▁nas	-8032
▁flower	-8033
lang	-8034
▁athlet	-8035
màu	-8036
▁rib	-8037
▁hông	-8038
▁into	-8039
▁pear	-8040
jeunea	-8041
anz	-8042
ecta	-8043
tượng	-8044
▁latvia	-8045
cker	-8046
dịch	-8047
▁box	-8048
▁pok	-8049
upr	-8050
▁lag	-8051
attan	-8052
▁mine	-8053
▁ngạch	-8054
))	-8055
jar	-8056
stal	-8057
▁luxembourg	-8058
weet	-8059
▁mitt	-8060
▁catherine	-8061
margin	-8062
xh	-8063
ige	-8064
▁malawi	-8065
/00/0000	-8066
▁european	-8067
hor	-8068
ogo	-8069
▁bret	-8070
▁gary	-8071
▁intel	-8072
lúc	-8073
mut	-8074
▁gram	-8075
dh	-8076
ти	-8077
irus	-8078
paul	-8079
pers	-8080
▁cut	-8081
▁đăk	-8082
▁bros	-8083
▁đắng	-8084
shū	-8085
ưỡi	-8086
ados	-8087
berry	-8088
▁feet	-8089
▁kamp	-8090
▁slav	-8091
▁cover	-8092
sách	-8093
▁thoả	-8094
castle	-8095
▁television	-8096
▁mía	-8097
▁chén	-8098
▁carth	-8099
lit	-8100
▁uất	-8101
▁dĩnh	-8102
▁carey	-8103
acer	-8104
awan	-8105
▁vuốt	-8106
▁luyến	-8107
▁minas	-8108
uni	-8109
▁ất	-8110
ensk	-8111
ovic	-8112
▁bak	-8113
▁vóc	-8114
▁cycl	-8115
-0000)	-8116
braska	-8117
▁hyper	-8118
iet	-8119
nge	-8120
vào	-8121
xic	-8122
gold	-8123
▁indian	-8124
▁trich	-8125
tín	-8126
▁toản	-8127
▁himal	-8128
dendrobium	-8129
dig	-8130
ceol	-8131
▁some	-8132
▁arist	-8133
nen	-8134
▁::*	-8135
▁viền	-8136
▁salvador	-8137
leg	-8138
▁dh	-8139
chus	-8140
ioph	-8141
▁tir	-8142
▁wer	-8143
▁summer	-8144
▁napoleon	-8145
leuc	-8146
▁sukh	-8147
bac	-8148
ienne	-8149
cnd	-8150
▁mul	-8151
ahu	-8152
▁sỹ	-8153
▁hột	-8154
falz	-8155
sean	-8156
▁spear	-8157
pis	-8158
▁hiđ	-8159
▁nhuệ	-8160
emberg	-8161
▁carter	-8162
amus	-8163
▁sik	-8164
▁obama	-8165
▁xinglong	-8166
uh	-8167
▁rong	-8168
dl	-8169
estin	-8170
▁child	-8171
bud	-8172
rem	-8173
▁tăm	-8174
▁00''	-8175
▁woods	-8176
etty	-8177
isha	-8178
▁mịn	-8179
▁biếm	-8180
▁isab	-8181
▁capit	-8182
▁forster	-8183
aust	-8184
ymus	-8185
grand	-8186
ostoma	-8187
▁peckham	-8188
pei	-8189
▁nàn	-8190
▁imper	-8191
▁sard	-8192
▁louisiana	-8193
sao	-8194
esta	-8195
önig	-8196
▁sụt	-8197
▁nucle	-8198
▁wrest	-8199
agrostis	-8200
▁foundation	-8201
pc	-8202
boy	-8203
yeon	-8204
▁bỗng	-8205
▁place	-8206
▁benjamin	-8207
▁lở	-8208
▁poit	-8209
cept	-8210
▁het	-8211
▁connect	-8212
til	-8213
ility	-8214
▁army	-8215
quercus	-8216
▁social	-8217
▁samurai	-8218
▁ww	-8219
dcnd	-8220
▁đớn	-8221
oidea	-8222
▁names	-8223
itte	-8224
▁cụt	-8225
▁mw	-8226
▁не	-8227
horn	-8228
paris	-8229
▁dog	-8230
▁kèn	-8231
▁rov	-8232
▁stal	-8233
itu	-8234
uf	-8235
uba	-8236
▁óc	-8237
aran	-8238
▁pep	-8239
ature	-8240
▁only	-8241
▁thâu	-8242
▁guyana	-8243
▁0000-00-00	-8244
jet	-8245
nov	-8246
trấn	-8247
▁kẹt	-8248
▁rug	-8249
▁stephani	-8250
ipa	-8251
hồng	-8252
▁naz	-8253
▁kush	-8254
▁debeh	-8255
▁debehogne	-8256
iso	-8257
▁mạ	-8258
ithi	-8259
▁sankt	-8260
0000,	-8261
▁0-0,	-8262
▁hack	-8263
▁muỗi	-8264
▁sept	-8265
anny	-8266
▁dra	-8267
▁vil	-8268
▁mall	-8269
roe	-8270
hill	-8271
▁#00	-8272
schum	-8273
▁chày	-8274
trừ	-8275
▁heb	-8276
issima	-8277
▁sever	-8278
▁nikolai	-8279
alex	-8280
chlor	-8281
▁dead	-8282
▁xơ	-8283
▁luộc	-8284
▁ship	-8285
etum	-8286
main	-8287
ylus	-8288
▁gris	-8289
▁stanley	-8290
bow	-8291
uan	-8292
▁nau	-8293
▁jang	-8294
▁sele	-8295
▁praha	-8296
▁sahara	-8297
▁evolution	-8298
anto	-8299
quyết	-8300
▁left	-8301
▁studies	-8302
▁nebraska	-8303
▁lh	-8304
schild	-8305
▁depart	-8306
▁luther	-8307
oki	-8308
put	-8309
ecker	-8310
keley	-8311
▁choi	-8312
league	-8313
▁alpha	-8314
▁tỵ	-8315
▁căm	-8316
ebook	-8317
▁fat	-8318
▁hey	-8319
icata	-8320
▁orth	-8321
gam	-8322
uis	-8323
chil	-8324
▁phôi	-8325
atlant	-8326
▁maine	-8327
gov	-8328
ttum	-8329
ngoại	-8330
stadt	-8331
▁000:	-8332
lc	-8333
fir	-8334
▁zambia	-8335
núi	-8336
▁surv	-8337
▁chước	-8338
▁kyoto	-8339
vet	-8340
eler	-8341
ller	-8342
lãnh	-8343
▁led	-8344
ithec	-8345
▁kane	-8346
▁tuất	-8347
▁jamaica	-8348
ries	-8349
marit	-8350
mia	-8351
tất	-8352
band	-8353
ween	-8354
▁reb	-8355
▁yan	-8356
▁đán	-8357
assan	-8358
▁plate	-8359
omorpha	-8360
▁philipin	-8361
▁dies	-8362
▁illustr	-8363
fire	-8364
mail	-8365
▁kill	-8366
▁chdcnd	-8367
.),	-8368
otes	-8369
thi	-8370
▁ord	-8371
▁nhàn	-8372
▁schltr	-8373
▁sentai	-8374
▁*0000.00.00	-8375
''",	-8376
jean	-8377
▁koh	-8378
▁oan	-8379
▁lanc	-8380
▁osaka	-8381
▁chảo	-8382
▁then	-8383
▁canad	-8384
)0	-8385
abi	-8386
good	-8387
iton	-8388
▁lậu	-8389
▁mant	-8390
lahoma	-8391
▁pink	-8392
aton	-8393
ayan	-8394
▁phò	-8395
esliga	-8396
eral	-8397
hyun	-8398
▁dsc	-8399
▁ngủi	-8400
eve	-8401
▁gad	-8402
▁were	-8403
▁bridge	-8404
▁munich	-8405
éd	-8406
ulin	-8407
▁kak	-8408
▁gừng	-8409
shō	-8410
▁dang	-8411
▁sylv	-8412
▁00-000	-8413
▁bm	-8414
▁jar	-8415
eryth	-8416
▁lord	-8417
▁aguil	-8418
siêu	-8419
▁mùng	-8420
▁stor	-8421
▁schwar	-8422
đi	-8423
▁arecaceae	-8424
▁bẻ	-8425
ardi	-8426
imum	-8427
▁mày	-8428
upright	-8429
▁hiên	-8430
▁standard	-8431
▁gy	-8432
alth	-8433
▁batt	-8434
▁athena	-8435
nt	-8436
fre	-8437
▁kid	-8438
▁area	-8439
▁chạp	-8440
▁schw	-8441
▁libert	-8442
▁athletic	-8443
ffe	-8444
pob	-8445
este	-8446
noth	-8447
▁jess	-8448
▁0000.0000000	-8449
ев	-8450
lepidoptera	-8451
yc	-8452
kes	-8453
▁kad	-8454
▁kash	-8455
▁0000''.	-8456
▁holttum	-8457
▁district	-8458
▁valencia	-8459
unda	-8460
▁das	-8461
epend	-8462
salvia	-8463
▁women	-8464
đến	-8465
▁nhô	-8466
▁tect	-8467
▁toại	-8468
sg	-8469
prise	-8470
▁rodr	-8471
▁gieo	-8472
▁pier	-8473
▁vasil	-8474
▁moscow	-8475
▁parthia	-8476
asi	-8477
zia	-8478
▁mạt	-8479
phòng	-8480
▁vall	-8481
▁northern	-8482
jack	-8483
▁atr	-8484
▁iss	-8485
▁trượng	-8486
▁(000-000	-8487
neph	-8488
edd	-8489
▁dồi	-8490
▁nhũ	-8491
raham	-8492
strum	-8493
▁ghen	-8494
▁asean	-8495
▁ralph	-8496
▁linnaeus	-8497
▁adn	-8498
▁chem	-8499
▁raymond	-8500
▁gracillariidae	-8501
big	-8502
phật	-8503
▁aeg	-8504
▁sập	-8505
▁tit	-8506
▁theory	-8507
▁station	-8508
-0,0	-8509
ches	-8510
▁oak	-8511
emann	-8512
▁nhát	-8513
▁server	-8514
ukov	-8515
wara	-8516
▁andy	-8517
▁batman	-8518
▁orange	-8519
dai	-8520
▁ik	-8521
prim	-8522
▁gau	-8523
▁sầm	-8524
▁tỉa	-8525
▁chip	-8526
▁botan	-8527
lau	-8528
dale	-8529
▁did	-8530
▁pick	-8531
":	-8532
xx	-8533
▁úp	-8534
ossa	-8535
obius	-8536
phaer	-8537
▁balkan	-8538
▁includ	-8539
▁babylon	-8540
fta	-8541
▁sốc	-8542
▁tvb	-8543
▁chồn	-8544
▁idol	-8545
▁wag	-8546
track	-8547
▁since	-8548
▁panzer	-8549
▁xvi	-8550
▁giov	-8551
▁jura	-8552
▁0000/	-8553
fest	-8554
this	-8555
▁burg	-8556
▁trib	-8557
▁trinidad	-8558
▁konstantin	-8559
vật	-8560
kina	-8561
▁húc	-8562
▁timor	-8563
▁cherny	-8564
▁gyeong	-8565
▁churchill	-8566
▁ec	-8567
▁cou	-8568
▁gân	-8569
▁đả	-8570
émon	-8571
▁đốn	-8572
romis	-8573
olepis	-8574
▁express	-8575
ửng	-8576
▁boiss	-8577
▁industr	-8578
▁aviation	-8579
yam	-8580
phala	-8581
▁doraemon	-8582
▁đè	-8583
▁sig	-8584
anther	-8585
lé	-8586
bóng	-8587
▁tul	-8588
▁thìn	-8589
▁mobile	-8590
ски	-8591
▁gel	-8592
▁maz	-8593
ockholm	-8594
▁govern	-8595
)-	-8596
kỹ	-8597
▁sô	-8598
etes	-8599
hymen	-8600
▁nixon	-8601
▁copenhagen	-8602
▁hin	-8603
▁gerais	-8604
00'	-8605
ping	-8606
▁ian	-8607
▁síp	-8608
▁rein	-8609
▁(0000-	-8610
jpeg	-8611
▁rac	-8612
▁see	-8613
ichum	-8614
icill	-8615
obium	-8616
ographic	-8617
▁vả	-8618
▁xẻ	-8619
)...	-8620
▁kind	-8621
▁lộng	-8622
▁ngói	-8623
▁claud	-8624
oct	-8625
agle	-8626
eang	-8627
▁rạng	-8628
▁mountain	-8629
▁princeton	-8630
ич	-8631
iste	-8632
▁hoả	-8633
▁republic	-8634
pul	-8635
▁đéc	-8636
japan	-8637
▁shad	-8638
▁nhưỡng	-8639
rel	-8640
▁ngỗng	-8641
▁0000-0000)	-8642
▁(00000000000	-8643
xis	-8644
▁tý	-8645
aer	-8646
gly	-8647
▁dở	-8648
cory	-8649
olph	-8650
▁berkeley	-8651
aev	-8652
▁liga	-8653
truyền	-8654
▁knight	-8655
▁morgan	-8656
▁poitou	-8657
▁article	-8658
▁0000-00-00.	-8659
đất	-8660
▁thềm	-8661
▁ninja	-8662
▁whitney	-8663
▁ou	-8664
▁beta	-8665
hynchus	-8666
▁secret	-8667
nn	-8668
▁hăng	-8669
▁kình	-8670
▁bundesliga	-8671
aron	-8672
▁hốt	-8673
▁kuwait	-8674
mt	-8675
rio	-8676
thr	-8677
uti	-8678
▁mh	-8679
▁als	-8680
▁luzon	-8681
▁manag	-8682
yla	-8683
load	-8684
▁gem	-8685
▁nhữ	-8686
▁yoo	-8687
▁chọi	-8688
▁midi	-8689
▁nakh	-8690
ocephalus	-8691
kl	-8692
flor	-8693
imon	-8694
▁thạo	-8695
▁jimmy	-8696
▁weber	-8697
те	-8698
▁kul	-8699
ialis	-8700
▁subsp	-8701
gil	-8702
beck	-8703
elaph	-8704
▁gand	-8705
▁kham	-8706
▁nash	-8707
▁delhi	-8708
▁powell	-8709
▁language	-8710
wik	-8711
nhiều	-8712
▁griff	-8713
▁spears	-8714
▁normand	-8715
▁australian	-8716
aqu	-8717
ibution	-8718
thuật	-8719
▁heavy	-8720
▁systems	-8721
▁technology	-8722
iba	-8723
atur	-8724
▁dậu	-8725
osph	-8726
▁rưỡi	-8727
▁(00000000000).	-8728
sống	-8729
ichte	-8730
▁giàn	-8731
istanbul	-8732
▁š	-8733
đôi	-8734
▁agr	-8735
▁bỏng	-8736
▁elst	-8737
▁heter	-8738
▁phách	-8739
–0	-8740
cyrt	-8741
▁turk	-8742
ivan	-8743
ving	-8744
ères	-8745
naceae	-8746
▁dylan	-8747
▁norte	-8748
sph	-8749
▁mort	-8750
▁lucas	-8751
▁gabriel	-8752
▁wikipedia	-8753
wes	-8754
vill	-8755
▁bod	-8756
▁inv	-8757
▁bỉnh	-8758
▁hyun	-8759
▁islands	-8760
▁namibia	-8761
spr	-8762
▁xé	-8763
ming	-8764
unes	-8765
▁bọt	-8766
▁dent	-8767
▁camera	-8768
▁luis	-8769
.).	-8770
anne	-8771
ency	-8772
court	-8773
▁giọt	-8774
▁trop	-8775
▁zero	-8776
mà	-8777
istic	-8778
▁00–00.	-8779
▁orchide	-8780
▁phylogen	-8781
▁robinson	-8782
▁pottiaceae	-8783
gne	-8784
skie	-8785
anning	-8786
ño	-8787
iber	-8788
▁tig	-8789
▁jerry	-8790
▁gilbert	-8791
ẻm	-8792
fle	-8793
▁dỗ	-8794
blue	-8795
▁cart	-8796
▁palau	-8797
▁airbus	-8798
▁bosnia	-8799
▁perfor	-8800
▁tectariaceae	-8801
nic	-8802
zar	-8803
▁ves	-8804
▁days	-8805
meyrick	-8806
▁apollo	-8807
hart	-8808
obus	-8809
▁kẹo	-8810
▁deep	-8811
▁đọng	-8812
ếm	-8813
▁hủ	-8814
apur	-8815
icut	-8816
▁mcn	-8817
▁nhồi	-8818
adnought	-8819
▁margaret	-8820
▁búa	-8821
▁pix	-8822
▁uzbek	-8823
▁tunisia	-8824
▁kentucky	-8825
bị	-8826
aden	-8827
▁đun	-8828
▁diễu	-8829
bie	-8830
▁daw	-8831
itain	-8832
▁phêrô	-8833
▁nevada	-8834
bun	-8835
▁milano	-8836
asis	-8837
undi	-8838
▁cot	-8839
▁kre	-8840
▁yong	-8841
▁europa	-8842
▁kras	-8843
onic	-8844
rhin	-8845
▁00-00%	-8846
▁winter	-8847
kur	-8848
▁abu	-8849
▁vas	-8850
▁wei	-8851
chẳng	-8852
clark	-8853
▁augustus	-8854
▁alp	-8855
▁chìa	-8856
▁mueang	-8857
collapse	-8858
phr	-8859
sang	-8860
▁thr	-8861
▁use	-8862
▁shel	-8863
▁suýt	-8864
▁tot	-8865
▁kiss	-8866
▁eryth	-8867
▁explor	-8868
set	-8869
▁tủ	-8870
▁wu	-8871
▁baby	-8872
▁hopkins	-8873
agh	-8874
sub	-8875
▁rw	-8876
)''.	-8877
bine	-8878
chev	-8879
elma	-8880
▁quạ	-8881
▁lanh	-8882
▁ụ	-8883
syr	-8884
▁vỗ	-8885
▁mck	-8886
▁myr	-8887
▁malp	-8888
▁surin	-8889
oco	-8890
eneg	-8891
▁bón	-8892
▁seattle	-8893
▁0-00-000000-0	-8894
bou	-8895
icta	-8896
▁guang	-8897
▁african	-8898
▁jonathan	-8899
bey	-8900
gần	-8901
hop	-8902
anis	-8903
▁exper	-8904
▁sports	-8905
▁swan	-8906
▁study	-8907
▁wonder	-8908
▁jennifer	-8909
hall	-8910
▁vấp	-8911
▁wak	-8912
uncul	-8913
odactylidae	-8914
vòng	-8915
▁what	-8916
minh	-8917
▁tẩm	-8918
presl	-8919
▁till	-8920
▁final	-8921
▁philippine	-8922
woo	-8923
▁bẩn	-8924
orial	-8925
vedev	-8926
▁yellow	-8927
▁control	-8928
▁dei	-8929
▁boris	-8930
▁ngoặt	-8931
▁genève	-8932
acr	-8933
▁iz	-8934
illaria	-8935
0+	-8936
epp	-8937
nan	-8938
▁:-	-8939
ilio	-8940
dictionary	-8941
▁schleswig	-8942
umo	-8943
▁lỡ	-8944
▁pao	-8945
actus	-8946
▁want	-8947
▁beaut	-8948
▁octav	-8949
iku	-8950
▁rơm	-8951
▁living	-8952
ses	-8953
amar	-8954
reen	-8955
ulum	-8956
ikaze	-8957
▁tiễu	-8958
aci	-8959
sei	-8960
cole	-8961
▁whe	-8962
gramm	-8963
▁cước	-8964
▁thoáng	-8965
▁(000–000	-8966
đo	-8967
emi	-8968
▁ql	-8969
▁nou	-8970
▁nguyền	-8971
▁silver	-8972
ми	-8973
0),	-8974
▁pand	-8975
▁đấng	-8976
▁stein	-8977
▁carthage	-8978
ecklenburg	-8979
pre	-8980
rah	-8981
ocol	-8982
▁000°	-8983
▁inte	-8984
▁punk	-8985
▁yale	-8986
ailles	-8987
▁flash	-8988
▁murray	-8989
▁produc	-8990
icz	-8991
ypt	-8992
oder	-8993
teau	-8994
▁beth	-8995
▁low	-8996
▁trãi	-8997
▁chlor	-8998
luật	-8999
▁actress	-9000
▁stalingrad	-9001
atr	-9002
▁ner	-9003
▁sciences	-9004
rik	-9005
iban	-9006
ović	-9007
▁vik	-9008
▁zar	-9009
▁teen	-9010
▁bung	-9011
▁nint	-9012
▁0000000000	-9013
iol	-9014
biểu	-9015
▁esc	-9016
▁liu	-9017
▁sour	-9018
▁yoon	-9019
▁engel	-9020
high	-9021
▁2).	-9022
▁léo	-9023
micro	-9024
ocaly	-9025
▁takeshi	-9026
olejeunea	-9027
serv	-9028
▁báng	-9029
▁word	-9030
aia	-9031
▁né	-9032
)'',	-9033
▁jav	-9034
ollis	-9035
0:	-9036
▁franco	-9037
cả	-9038
▁iw	-9039
enta	-9040
▁cond	-9041
▁columb	-9042
▁schult	-9043
▁philippe	-9044
▁santiago	-9045
▁dán	-9046
▁abdul	-9047
▁court	-9048
▁dollar	-9049
yriaceae	-9050
▁stockholm	-9051
appy	-9052
atin	-9053
chal	-9054
orde	-9055
quần	-9056
▁brid	-9057
▁chốn	-9058
▁hunter	-9059
▁napoli	-9060
edom	-9061
loch	-9062
▁cưa	-9063
ondon	-9064
▁hills	-9065
mẹ	-9066
▁ồn	-9067
hamp	-9068
antan	-9069
schl	-9070
▁oce	-9071
▁altern	-9072
▁thompson	-9073
▁kv	-9074
▁app	-9075
▁hom	-9076
idis	-9077
▁adv	-9078
▁dạo	-9079
▁get	-9080
ayama	-9081
ience	-9082
▁note	-9083
▁hudson	-9084
▁department	-9085
iful	-9086
▁bẩm	-9087
▁oklahoma	-9088
ril	-9089
chùa	-9090
eran	-9091
fraz	-9092
▁gaz	-9093
steph	-9094
apolis	-9095
▁janeiro	-9096
▁descript	-9097
emum	-9098
▁cảo	-9099
▁ext	-9100
▁kau	-9101
▁rộn	-9102
▁bổn	-9103
▁gott	-9104
▁luke	-9105
▁tiber	-9106
▁sarawak	-9107
ān	-9108
phạm	-9109
▁mog	-9110
▁(0,000	-9111
▁images	-9112
pm	-9113
cata	-9114
▁rét	-9115
aps	-9116
gle	-9117
orph	-9118
điểm	-9119
▁elli	-9120
▁gabon	-9121
charentes	-9122
oly	-9123
ral	-9124
loph	-9125
ulia	-9126
hanna	-9127
▁cock	-9128
▁thiều	-9129
▁woman	-9130
▁graham	-9131
▁vác	-9132
.0000	-9133
ittor	-9134
dt	-9135
ghi	-9136
▁ya	-9137
▁bóp	-9138
▁bond	-9139
▁geoff	-9140
▁haiti	-9141
▁00-00.	-9142
xuân	-9143
▁soi	-9144
illus	-9145
▁ident	-9146
international	-9147
phys	-9148
▁hold	-9149
▁maya	-9150
cephal	-9151
alaceae	-9152
▁caribbe	-9153
▁council	-9154
▁animation	-9155
nó	-9156
lis	-9157
▁nạ	-9158
▁cởi	-9159
▁rốt	-9160
▁giục	-9161
couver	-9162
▁athyriaceae	-9163
▁000-0-000-00000	-9164
img	-9165
lacion	-9166
côn	-9167
ache	-9168
dương	-9169
▁trừu	-9170
imar	-9171
▁chak	-9172
▁glau	-9173
instit	-9174
▁contin	-9175
▁oliver	-9176
▁newcastle	-9177
▁vancouver	-9178
tis	-9179
asser	-9180
▁golf	-9181
▁gustav	-9182
▁0000-00.	-9183
ởm	-9184
0).	-9185
fen	-9186
▁0"	-9187
▁tỳ	-9188
benth	-9189
▁andré	-9190
▁sebast	-9191
▁through	-9192
aid	-9193
enk	-9194
asty	-9195
found	-9196
pierre	-9197
▁stars	-9198
▁(000-000)	-9199
ece	-9200
iston	-9201
▁herz	-9202
▁kurt	-9203
▁path	-9204
▁shot	-9205
▁urani	-9206
▁leopold	-9207
hee	-9208
itsu	-9209
▁ngạo	-9210
ellidae	-9211
▁hermann	-9212
▁aguilera	-9213
▁brachythec	-9214
hik	-9215
phụ	-9216
vinc	-9217
▁raz	-9218
▁pays	-9219
▁cf	-9220
▁lều	-9221
araon	-9222
▁horn	-9223
▁niel	-9224
ubishi	-9225
tài	-9226
▁taj	-9227
uster	-9228
▁bismarck	-9229
ди	-9230
opt	-9231
opis	-9232
▁''0	-9233
▁geb	-9234
frank	-9235
▁educ	-9236
▁frig	-9237
▁tuồng	-9238
▁nation	-9239
▁medvedev	-9240
▁0/0/0000,	-9241
▁yas	-9242
▁khoát	-9243
bàn	-9244
had	-9245
lục	-9246
park	-9247
▁fuk	-9248
▁roc	-9249
▁date	-9250
▁mount	-9251
▁ủ	-9252
▁miz	-9253
▁vect	-9254
▁genus	-9255
▁abraham	-9256
lễ	-9257
eor	-9258
inz	-9259
bull	-9260
inte	-9261
▁khuông	-9262
▁manuel	-9263
ymb	-9264
▁utt	-9265
▁đặn	-9266
▁bryan	-9267
▁early	-9268
▁effect	-9269
▁leptodactylidae	-9270
ỉa	-9271
mak	-9272
pon	-9273
core	-9274
▁pay	-9275
▁diễm	-9276
▁dors	-9277
▁shog	-9278
phantes	-9279
▁curtis	-9280
▁product	-9281
acin	-9282
chân	-9283
cten	-9284
tram	-9285
▁fay	-9286
▁jet	-9287
▁isaac	-9288
▁ernest	-9289
▁legend	-9290
ono	-9291
▁hak	-9292
▁nanh	-9293
▁tiều	-9294
▁strat	-9295
illandsia	-9296
▁μ	-9297
aill	-9298
uther	-9299
▁hindu	-9300
ryn	-9301
web	-9302
khov	-9303
▁dos	-9304
arium	-9305
ements	-9306
etcher	-9307
▁váy	-9308
green	-9309
▁face	-9310
▁hoắc	-9311
▁charlie	-9312
▁mariana	-9313
arre	-9314
▁celt	-9315
▁blues	-9316
cot	-9317
quel	-9318
unct	-9319
▁gren	-9320
▁johnny	-9321
hãy	-9322
▁quin	-9323
▁brothers	-9324
▁biography	-9325
ва	-9326
ayo	-9327
lab	-9328
nev	-9329
igny	-9330
lett	-9331
tera	-9332
pfalz	-9333
▁dmit	-9334
▁nong	-9335
▁chernykh	-9336
▁vãn	-9337
▁krist	-9338
▁anders	-9339
▁thuyên	-9340
just	-9341
▁ibm	-9342
▁chev	-9343
▁rangers	-9344
isp	-9345
edoc	-9346
▁kìm	-9347
▁highway	-9348
tem	-9349
▁nơ	-9350
▁nặc	-9351
▁rest	-9352
▁giông	-9353
▁insee	-9354
▁introd	-9355
tillandsia	-9356
otrichaceae	-9357
hav	-9358
▁nụ	-9359
phis	-9360
▁dist	-9361
▁điếm	-9362
hat	-9363
map	-9364
▁pia	-9365
▁fiji	-9366
▁phạn	-9367
▁thoạt	-9368
▁holland	-9369
▁atlantic	-9370
obe	-9371
▁chù	-9372
enegro	-9373
▁complete	-9374
kom	-9375
suk	-9376
muth	-9377
▁edo	-9378
▁sỏi	-9379
chiếc	-9380
▁guard	-9381
aldo	-9382
chnaceae	-9383
▁chinese	-9384
iot	-9385
izz	-9386
quả	-9387
...,	-9388
oser	-9389
▁hợi	-9390
ipzig	-9391
little	-9392
▁asian	-9393
▁coast	-9394
zyg	-9395
thom	-9396
▁suk	-9397
▁seung	-9398
▁maurit	-9399
tp	-9400
inga	-9401
▁(0/	-9402
istry	-9403
loire	-9404
▁kant	-9405
▁kens	-9406
lenger	-9407
▁shell	-9408
▁period	-9409
▁edwards	-9410
▁management	-9411
▁oz	-9412
ushi	-9413
▁phra	-9414
▁juvent	-9415
ugi	-9416
diện	-9417
esus	-9418
ereus	-9419
konoff	-9420
▁birds	-9421
▁advent	-9422
▁person	-9423
▁country	-9424
▁nintendo	-9425
▁đẩu	-9426
▁sess	-9427
▁nguội	-9428
▁silic	-9429
size	-9430
▁sửu	-9431
▁georges	-9432
▁00/0/0000.	-9433
ptus	-9434
▁apr	-9435
▁lắk	-9436
▁sis	-9437
▁đắn	-9438
▁thối	-9439
street	-9440
▁taxon	-9441
aek	-9442
oby	-9443
pta	-9444
erem	-9445
nass	-9446
▁tau	-9447
cheil	-9448
ulosa	-9449
▁hypnaceae	-9450
kết	-9451
▁euc	-9452
▁nol	-9453
agawa	-9454
andro	-9455
▁number	-9456
frazioni	-9457
oux	-9458
idos	-9459
dun	-9460
đêm	-9461
linh	-9462
▁bert	-9463
▁logo	-9464
▁nuốt	-9465
▁xp	-9466
▁vie	-9467
▁xix	-9468
endorf	-9469
▁xuồng	-9470
▁khoảnh	-9471
▁nakhon	-9472
ophoridae	-9473
log	-9474
tak	-9475
▁rig	-9476
▁buff	-9477
▁cold	-9478
chuyện	-9479
▁ernst	-9480
▁silla	-9481
▁iberia	-9482
▁proton	-9483
▁hẻm	-9484
▁korea	-9485
▁cooper	-9486
▁0000-0000:	-9487
ма	-9488
cir	-9489
jab	-9490
▁thon	-9491
▁japanese	-9492
kō	-9493
adin	-9494
▁rus	-9495
▁tua	-9496
▁made	-9497
iflorum	-9498
eup	-9499
brid	-9500
cler	-9501
mông	-9502
▁tch	-9503
champ	-9504
▁mond	-9505
▁miami	-9506
▁height	-9507
rhi	-9508
▁vụn	-9509
▁kiệu	-9510
▁trọt	-9511
▁stanford	-9512
▁performan	-9513
aho	-9514
hed	-9515
▁kẹp	-9516
itsch	-9517
▁bonap	-9518
▁rhône	-9519
▁herbert	-9520
▁facebook	-9521
▁aleyrodidae	-9522
pod	-9523
▁ris	-9524
▁ôxi	-9525
apest	-9526
▁vern	-9527
▁published	-9528
▁mecklenburg	-9529
aeng	-9530
ring	-9531
▁erioc	-9532
▁hiđrô	-9533
igi	-9534
▁io	-9535
akov	-9536
dren	-9537
inho	-9538
▁cúm	-9539
▁chầu	-9540
▁hamm	-9541
▁nhuyễn	-9542
ký	-9543
chir	-9544
roth	-9545
▁bửu	-9546
leton	-9547
▁josh	-9548
▁serg	-9549
ingidae	-9550
▁roberts	-9551
jon	-9552
▁gill	-9553
▁lgbt	-9554
cyathea	-9555
oire	-9556
▁bourg	-9557
▁giovanni	-9558
iman	-9559
▁lắc	-9560
count	-9561
▁order	-9562
▁tower	-9563
univers	-9564
ть	-9565
hnt	-9566
ück	-9567
inda	-9568
than	-9569
▁eleg	-9570
▁thpt	-9571
ushima	-9572
uckland	-9573
▁istanbul	-9574
▁−	-9575
bất	-9576
xác	-9577
▁ub	-9578
▁xê	-9579
engl	-9580
▁denn	-9581
▁stuart	-9582
▁ost	-9583
▁sbs	-9584
▁aragon	-9585
mach	-9586
▁nur	-9587
▁maurice	-9588
▁montenegro	-9589
▁dận	-9590
▁lamp	-9591
london	-9592
▁nokia	-9593
▁critics	-9594
dev	-9595
▁kè	-9596
fran	-9597
▁party	-9598
▁himalaya	-9599
▁greenland	-9600
hạ	-9601
som	-9602
acon	-9603
onym	-9604
▁fig	-9605
▁kok	-9606
break	-9607
▁ngoạn	-9608
▁scient	-9609
▁vh	-9610
▁clar	-9611
▁phàm	-9612
▁connecticut	-9613
▁utah	-9614
abilis	-9615
inster	-9616
▁qatar	-9617
▁support	-9618
tứ	-9619
ár	-9620
kit	-9621
▁ht	-9622
toàn	-9623
arina	-9624
oming	-9625
reich	-9626
▁cypr	-9627
enidae	-9628
▁search	-9629
dol	-9630
nhất	-9631
ores	-9632
othy	-9633
▁00"	-9634
▁gle	-9635
elius	-9636
▁thóc	-9637
▁000.0	-9638
▁adult	-9639
▁khiên	-9640
▁rhodes	-9641
▁keyboard	-9642
▁у	-9643
num	-9644
▁đái	-9645
▁carp	-9646
▁doub	-9647
▁000-0-0000	-9648
cont	-9649
ichl	-9650
side	-9651
brand	-9652
▁chun	-9653
▁nitơ	-9654
▁lơ	-9655
cham	-9656
▁bưởi	-9657
▁hispan	-9658
▁reagan	-9659
▁discover	-9660
gur	-9661
text	-9662
▁mez	-9663
▁mão	-9664
▁rao	-9665
akura	-9666
▁stock	-9667
▁britton	-9668
▁hokkaidō	-9669
▁0/00/0000	-9670
▁nm	-9671
▁vờ	-9672
ellen	-9673
▁:''"	-9674
▁grey	-9675
▁mick	-9676
▁vick	-9677
ún	-9678
dem	-9679
kol	-9680
even	-9681
isen	-9682
▁hcm	-9683
▁sta	-9684
▁mồng	-9685
▁trăn	-9686
▁uông	-9687
▁venezia	-9688
oir	-9689
dưới	-9690
fore	-9691
▁dấy	-9692
▁soo	-9693
▁chót	-9694
▁thoa	-9695
▁christmas	-9696
▁dào	-9697
▁toa	-9698
▁uttar	-9699
chys	-9700
omin	-9701
rest	-9702
allis	-9703
giống	-9704
▁baltim	-9705
▁musical	-9706
luc	-9707
four	-9708
hoff	-9709
nier	-9710
việc	-9711
▁urb	-9712
cross	-9713
▁take	-9714
▁billy	-9715
▁cyrus	-9716
▁thuột	-9717
▁castel	-9718
ussillon	-9719
▁dì	-9720
▁vã	-9721
▁zu	-9722
fect	-9723
▁jas	-9724
▁xua	-9725
▁diam	-9726
▁blood	-9727
▁watan	-9728
ighiaceae	-9729
odontidae	-9730
▁0.000,00	-9731
▁hag	-9732
▁xói	-9733
antis	-9734
arist	-9735
umbai	-9736
▁less	-9737
▁sara	-9738
▁britain	-9739
▁original	-9740
dòng	-9741
hàng	-9742
ickr	-9743
imer	-9744
obar	-9745
azaki	-9746
perma	-9747
▁clip	-9748
hap	-9749
▁lén	-9750
▁ngả	-9751
idion	-9752
▁glor	-9753
▁00.0%	-9754
▁nicol	-9755
▁baltimore	-9756
fel	-9757
ogr	-9758
vit	-9759
oker	-9760
▁châ	-9761
itzer	-9762
melin	-9763
▁been	-9764
▁hipp	-9765
▁board	-9766
▁castro	-9767
▁nghiền	-9768
▁languedoc	-9769
đnd	-9770
▁đh	-9771
ński	-9772
▁tỏi	-9773
▁clor	-9774
▁león	-9775
thương	-9776
▁julia	-9777
▁malpighiaceae	-9778
%00	-9779
pic	-9780
imes	-9781
▁fed	-9782
▁marse	-9783
▁samoa	-9784
ulation	-9785
▁******	-9786
▁nicolas	-9787
▁christina	-9788
▁revolution	-9789
lock	-9790
▁thệ	-9791
▁auth	-9792
▁edge	-9793
▁magic	-9794
▁greene	-9795
▁juventus	-9796
aft	-9797
mot	-9798
▁bird	-9799
▁gibr	-9800
▁liêng	-9801
▁lockh	-9802
▁notes	-9803
▁vectơ	-9804
▁ef	-9805
emma	-9806
poly	-9807
pros	-9808
aught	-9809
cient	-9810
▁lion	-9811
▁ward	-9812
▁xavan	-9813
maritime	-9814
hd	-9815
tke	-9816
ibal	-9817
▁bìm	-9818
▁tía	-9819
▁zur	-9820
▁0.0.	-9821
▁actor	-9822
▁ingrid	-9823
sơ	-9824
ocy	-9825
tes	-9826
aces	-9827
aten	-9828
enda	-9829
tien	-9830
▁eul	-9831
▁lít	-9832
▁vau	-9833
▁vẹt	-9834
▁firm	-9835
inburgh	-9836
tail	-9837
▁need	-9838
ricius	-9839
▁poblacion	-9840
▁tb	-9841
beri	-9842
cung	-9843
viet	-9844
▁bretagne	-9845
%).	-9846
fab	-9847
▁gn	-9848
▁bach	-9849
▁rost	-9850
▁sten	-9851
▁rhine	-9852
▁terry	-9853
michael	-9854
▁putnam	-9855
▁season	-9856
▁meyrick	-9857
đế	-9858
▁meteor	-9859
▁steyer	-9860
▁tasmania	-9861
riv	-9862
▁chir	-9863
▁campbell	-9864
▁bast	-9865
▁athens	-9866
▁nepticul	-9867
▁hệt	-9868
▁rạc	-9869
flies	-9870
ogram	-9871
▁austin	-9872
võ	-9873
ahan	-9874
mang	-9875
arach	-9876
▁00(0):	-9877
▁mirage	-9878
▁palace	-9879
▁(000.000	-9880
▁mitchell	-9881
hàn	-9882
iya	-9883
oye	-9884
pia	-9885
jima	-9886
▁palm	-9887
▁vegas	-9888
▁butler	-9889
elypteris	-9890
soo	-9891
sson	-9892
▁aux	-9893
▁hik	-9894
altar	-9895
▁deutsch	-9896
▁sphingidae	-9897
▁atp	-9898
▁doi	-9899
▁sấm	-9900
anton	-9901
orean	-9902
▁dave	-9903
▁basil	-9904
▁bristol	-9905
▁madison	-9906
elaphoglossum	-9907
ngôi	-9908
▁mae	-9909
▁raw	-9910
▁midway	-9911
sản	-9912
▁für	-9913
▁square	-9914
▁gầm	-9915
▁(0.0	-9916
▁tiếu	-9917
▁malaya	-9918
▁analysis	-9919
▁charlotte	-9920
▁mitsubishi	-9921
cord	-9922
thụy	-9923
▁tốp	-9924
ianth	-9925
ledge	-9926
▁stad	-9927
▁(0000–)	-9928
▁ms	-9929
obry	-9930
▁nil	-9931
▁kitt	-9932
▁nhặt	-9933
▁versailles	-9934
▁mò	-9935
▁đùi	-9936
staedt	-9937
▁miguel	-9938
cánh	-9939
hãng	-9940
▁tệp	-9941
▁hugo	-9942
taylor	-9943
▁liber	-9944
rhododendron	-9945
▁во	-9946
▁pup	-9947
amura	-9948
▁kath	-9949
▁nã	-9950
súng	-9951
▁cow	-9952
▁alder	-9953
▁docum	-9954
hyl	-9955
boat	-9956
from	-9957
▁chà	-9958
trình	-9959
rhynch	-9960
tri	-9961
borg	-9962
tiêu	-9963
▁abc	-9964
▁bấm	-9965
louis	-9966
▁beck	-9967
ilidae	-9968
▁uzbekistan	-9969
kas	-9970
dragon	-9971
▁berry	-9972
▁tamil	-9973
▁eastern	-9974
shu	-9975
hood	-9976
uria	-9977
▁fau	-9978
▁pub	-9979
gorod	-9980
▁thiếc	-9981
▁choice	-9982
▁0000,000	-9983
igm	-9984
ecil	-9985
esis	-9986
▁sud	-9987
ocaul	-9988
▁grad	-9989
▁chưng	-9990
roussillon	-9991
mec	-9992
miền	-9993
quản	-9994
ellan	-9995
iance	-9996
nguồn	-9997
▁cairo	-9998
▁erich	-9999
▁verlag	-10000
▁thomson	-10001
erg	-10002
icy	-10003
ngô	-10004
▁#*	-10005
▁mhnt	-10006
trương	-10007
▁000).	-10008
▁bresc	-10009
▁johns	-10010
▁warri	-10011
ouc	-10012
▁cằn	-10013
▁pag	-10014
▁sie	-10015
▁banks	-10016
▁nhúng	-10017
▁nicholas	-10018
▁rò	-10019
ansa	-10020
live	-10021
vnch	-10022
▁nac	-10023
▁quấn	-10024
▁films	-10025
▁$00.000	-10026
▁caroline	-10027
▁eriocaul	-10028
▁0000–0000)	-10029
▁佛	-10030
▁cucur	-10031
national	-10032
▁00.000.	-10033
ør	-10034
по	-10035
皇后	-10036
nội	-10037
xen	-10038
▁eg	-10039
nông	-10040
rand	-10041
▁île	-10042
estes	-10043
▁nhạn	-10044
wy	-10045
abal	-10046
bago	-10047
▁deb	-10048
▁kop	-10049
▁meh	-10050
tains	-10051
▁hier	-10052
▁trev	-10053
0;	-10054
▁tō	-10055
stra	-10056
equ	-10057
tetr	-10058
▁add	-10059
▁cichl	-10060
▁middle	-10061
▁schust	-10062
▁performance	-10063
oge	-10064
▁:"	-10065
▁tt	-10066
minster	-10067
▁phoenix	-10068
▁bent	-10069
▁khiếm	-10070
▁between	-10071
▁%	-10072
away	-10073
tinh	-10074
▁tat	-10075
▁tẩu	-10076
▁khốn	-10077
▁never	-10078
▁punct	-10079
mingham	-10080
thesaban	-10081
▁bonaparte	-10082
ener	-10083
rons	-10084
▁gly	-10085
▁tap	-10086
▁sulf	-10087
▁vocal	-10088
▁darwin	-10089
▁picture	-10090
▁eriocaulaceae	-10091
neth	-10092
▁cọc	-10093
▁hiv	-10094
▁lận	-10095
gomery	-10096
fast	-10097
▁kel	-10098
▁opt	-10099
acter	-10100
▁dend	-10101
▁gamb	-10102
▁iron	-10103
▁slam	-10104
icidae	-10105
▁rosen	-10106
▁budapest	-10107
▁dag	-10108
athus	-10109
▁chui	-10110
▁enzyme	-10111
▁kosovo	-10112
zio	-10113
▁wi	-10114
cảnh	-10115
▁case	-10116
hạng	-10117
▁tằm	-10118
▁buông	-10119
▁(0000–00)	-10120
▁distribution	-10121
sz	-10122
beg	-10123
uez	-10124
xit	-10125
wein	-10126
▁alc	-10127
▁dền	-10128
▁ôxít	-10129
▁delta	-10130
alensis	-10131
▁arnold	-10132
▁chả	-10133
▁nôn	-10134
▁six	-10135
▁trèo	-10136
electr	-10137
èze	-10138
▁nộ	-10139
muban	-10140
▁fisher	-10141
▁business	-10142
.''"	-10143
alla	-10144
oncé	-10145
▁bean	-10146
▁serge	-10147
▁cameron	-10148
▁electric	-10149
▁000-0-00000-000	-10150
báo	-10151
▁aw	-10152
into	-10153
▁lẫy	-10154
▁astr	-10155
ayashi	-10156
▁cucurbit	-10157
▁manhattan	-10158
ango	-10159
ovsk	-10160
▁phô	-10161
astic	-10162
inson	-10163
▁erik	-10164
▁trot	-10165
▁dubai	-10166
▁software	-10167
лю	-10168
arc	-10169
enke	-10170
▁imp	-10171
▁trĩ	-10172
▁action	-10173
▁claude	-10174
▁strand	-10175
foundland	-10176
ols	-10177
run	-10178
chúa	-10179
yama	-10180
▁gin	-10181
▁vos	-10182
zburg	-10183
▁lead	-10184
▁phẫn	-10185
▁sparta	-10186
ttemberg	-10187
▁auckland	-10188
asso	-10189
▁metz	-10190
▁stap	-10191
opogon	-10192
▁historical	-10193
bạn	-10194
atti	-10195
quez	-10196
đánh	-10197
▁hawk	-10198
▁wien	-10199
▁calvin	-10200
▁suzuki	-10201
▁warszawa	-10202
▁lombardia	-10203
hir	-10204
atre	-10205
ellia	-10206
ersch	-10207
▁rheinland	-10208
▁aleyrodinae	-10209
ws	-10210
đà	-10211
chết	-10212
mern	-10213
▁oss	-10214
▁mumbai	-10215
hòa	-10216
▁ơi	-10217
▁rég	-10218
▁sle	-10219
▁kirk	-10220
▁phen	-10221
▁bafta	-10222
▁command	-10223
▁culture	-10224
sơn	-10225
▁bc	-10226
olle	-10227
▁gur	-10228
▁inn	-10229
emont	-10230
iscus	-10231
ustic	-10232
▁plut	-10233
▁nature	-10234
▁present	-10235
▁watanabe	-10236
jas	-10237
ucc	-10238
acher	-10239
▁fernando	-10240
tấn	-10241
spir	-10242
▁cum	-10243
trach	-10244
▁pang	-10245
▁leipzig	-10246
ürttemberg	-10247
sud	-10248
▁0000);	-10249
▁access	-10250
▁thorell	-10251
bed	-10252
lom	-10253
etin	-10254
xicô	-10255
▁pax	-10256
▁saw	-10257
ometr	-10258
▁must	-10259
agioch	-10260
▁kings	-10261
ος	-10262
afr	-10263
ège	-10264
ippe	-10265
estra	-10266
▁cort	-10267
icollis	-10268
▁chiang	-10269
▁nepticulidae	-10270
ال	-10271
▁bơ	-10272
dich	-10273
utus	-10274
▁pug	-10275
taine	-10276
▁bald	-10277
oliv	-10278
thay	-10279
▁bún	-10280
iceps	-10281
▁core	-10282
▁parker	-10283
▁000-0000	-10284
độ	-10285
▁đố	-10286
abra	-10287
thân	-10288
xanth	-10289
▁cole	-10290
itable	-10291
▁putin	-10292
▁dallas	-10293
▁profile	-10294
▁rihanna	-10295
magn	-10296
phid	-10297
▁gặt	-10298
▁saf	-10299
▁lách	-10300
▁nobita	-10301
▁resour	-10302
▁00/0000,	-10303
光大	-10304
iere	-10305
ress	-10306
rieg	-10307
▁gục	-10308
▁kbs	-10309
tranh	-10310
▁(0),	-10311
ellaria	-10312
▁saipan	-10313
▁00-0-0000,	-10314
bot	-10315
ippon	-10316
▁break	-10317
▁chăng	-10318
vietnam	-10319
▁gibraltar	-10320
▁crassulaceae	-10321
gas	-10322
▁fro	-10323
▁hep	-10324
ullah	-10325
▁bottom	-10326
iad	-10327
isi	-10328
đền	-10329
auer	-10330
gate	-10331
▁chê	-10332
▁cod	-10333
▁dặn	-10334
▁mali	-10335
▁pour	-10336
▁samp	-10337
▁philos	-10338
▁download	-10339
fus	-10340
hydro	-10341
triều	-10342
▁rhod	-10343
▁***''	-10344
▁pound	-10345
▁rommel	-10346
▁venice	-10347
ttg	-10348
▁chàm	-10349
▁hisp	-10350
▁pulch	-10351
▁diesel	-10352
lep	-10353
wel	-10354
aren	-10355
mari	-10356
▁gạt	-10357
imoto	-10358
▁shan	-10359
▁wing	-10360
▁chick	-10361
aeaceae	-10362
ów	-10363
辭典	-10364
coc	-10365
nea	-10366
chất	-10367
iday	-10368
lồng	-10369
ilian	-10370
shevik	-10371
▁ocean	-10372
▁sherman	-10373
onn	-10374
▁lily	-10375
▁ngắt	-10376
▁motor	-10377
▁gothic	-10378
▁neutron	-10379
▁đò	-10380
chưa	-10381
kmen	-10382
▁giò	-10383
▁frog	-10384
▁june	-10385
▁marcel	-10386
▁naruto	-10387
▁florence	-10388
▁lockheed	-10389
▁portland	-10390
atty	-10391
▁xoa	-10392
▁snow	-10393
polyst	-10394
▁angkor	-10395
▁ulithi	-10396
▁0-000000-00-0.	-10397
biển	-10398
▁xót	-10399
union	-10400
ianthus	-10401
▁antioch	-10402
tho	-10403
acle	-10404
area	-10405
entz	-10406
▁sou	-10407
▁vọt	-10408
evsky	-10409
night	-10410
phường	-10411
▁aires	-10412
0,0	-10413
▁kyr	-10414
▁lex	-10415
▁wim	-10416
▁佛光大	-10417
ablan	-10418
▁food	-10419
▁sche	-10420
ecidae	-10421
▁佛光大辭典	-10422
▁harvey	-10423
dù	-10424
▁brah	-10425
▁noãn	-10426
▁hidey	-10427
▁third	-10428
▁mollus	-10429
▁hampson	-10430
eka	-10431
▁toạ	-10432
▁yah	-10433
▁craw	-10434
▁fitz	-10435
▁hels	-10436
▁harper	-10437
annes	-10438
▁fund	-10439
eville	-10440
▁liter	-10441
▁polyn	-10442
▁zhang	-10443
icester	-10444
▁concerto	-10445
xyl	-10446
idum	-10447
ukos	-10448
▁wan	-10449
▁đản	-10450
▁five	-10451
▁phất	-10452
garden	-10453
omanes	-10454
orning	-10455
▁helen	-10456
▁000-0-0000-0000	-10457
lus	-10458
census	-10459
vatory	-10460
▁baehr	-10461
▁belle	-10462
ospermum	-10463
▁00/00/0000.	-10464
ụn	-10465
▁pé	-10466
▁sep	-10467
▁urata	-10468
▁profess	-10469
▁village	-10470
▁phanxicô	-10471
jō	-10472
loa	-10473
inch	-10474
scop	-10475
cv	-10476
▁húy	-10477
▁kis	-10478
▁mâm	-10479
▁pus	-10480
▁kara	-10481
osorus	-10482
tm	-10483
kos	-10484
▁gã	-10485
arov	-10486
▁emmy	-10487
▁fighters	-10488
kỷ	-10489
▁ud	-10490
elin	-10491
▁cpu	-10492
▁jen	-10493
▁scandin	-10494
▁mathemat	-10495
cyn	-10496
▁ủi	-10497
▁áng	-10498
▁giòn	-10499
▁writ	-10500
▁flora	-10501
▁bowell	-10502
▁eugène	-10503
▁champion	-10504
▁0000000000.	-10505
dir	-10506
cass	-10507
đoàn	-10508
arren	-10509
istis	-10510
▁chậu	-10511
▁dean	-10512
ionidae	-10513
rolling	-10514
syrphidae	-10515
▁cucurbitaceae	-10516
ес	-10517
fam	-10518
▁sò	-10519
prot	-10520
uste	-10521
david	-10522
▁chải	-10523
martin	-10524
▁lé	-10525
▁dep	-10526
quyền	-10527
▁hanh	-10528
▁sull	-10529
▁vind	-10530
▁seven	-10531
▁brandenburg	-10532
.”	-10533
gif	-10534
ikon	-10535
▁peg	-10536
▁roh	-10537
▁tửu	-10538
ajima	-10539
ngoài	-10540
▁anto	-10541
▁conan	-10542
▁grove	-10543
▁limited	-10544
▁siberia	-10545
öm	-10546
cod	-10547
▁md	-10548
assa	-10549
iler	-10550
inki	-10551
nghị	-10552
steg	-10553
ôxít	-10554
emens	-10555
▁newfoundland	-10556
▁(??	-10557
▁trứ	-10558
▁violin	-10559
ottenham	-10560
▁petersburg	-10561
ilo	-10562
law	-10563
oru	-10564
/000	-10565
huấn	-10566
▁montgomery	-10567
hđ	-10568
hát	-10569
alty	-10570
etsu	-10571
▁bướu	-10572
▁gonz	-10573
etidae	-10574
municipal	-10575
vụ	-10576
▁vàm	-10577
▁jump	-10578
▁nhụy	-10579
utsche	-10580
▁during	-10581
▁rapper	-10582
abo	-10583
jul	-10584
enzo	-10585
loại	-10586
unov	-10587
▁hig	-10588
▁sym	-10589
chung	-10590
osoma	-10591
▁anti	-10592
▁albums	-10593
ков	-10594
▁bw	-10595
come	-10596
▁orn	-10597
▁joel	-10598
▁bloom	-10599
▁comics	-10600
▁standl	-10601
action	-10602
▁varia	-10603
▁voice	-10604
ophorus	-10605
▁hiroshima	-10606
atu	-10607
▁dẻ	-10608
pert	-10609
▁gos	-10610
ified	-10611
ellata	-10612
mannia	-10613
thelypteris	-10614
azi	-10615
ffy	-10616
nag	-10617
loyd	-10618
▁ibn	-10619
▁oda	-10620
▁tad	-10621
robert	-10622
än	-10623
bắt	-10624
girl	-10625
▁lõm	-10626
▁sut	-10627
amine	-10628
leans	-10629
thống	-10630
arthur	-10631
▁alpes	-10632
▁0000/00	-10633
▁government	-10634
teen	-10635
▁fon	-10636
▁phr	-10637
▁0.0,	-10638
▁shimizu	-10639
▁independ	-10640
bạch	-10641
▁baz	-10642
hangul	-10643
▁conquer	-10644
▁reference	-10645
mỗi	-10646
hiko	-10647
yler	-10648
▁poc	-10649
▁rỗi	-10650
▁tày	-10651
▁bish	-10652
▁gehr	-10653
▁leone	-10654
▁00.000,	-10655
▁burundi	-10656
mp	-10657
:00)	-10658
▁mít	-10659
▁mút	-10660
queen	-10661
▁trâm	-10662
▁dicran	-10663
▁edinburgh	-10664
--	-10665
enev	-10666
last	-10667
pháo	-10668
reng	-10669
then	-10670
▁gate	-10671
▁look	-10672
▁pied	-10673
ief	-10674
▁gek	-10675
▁emma	-10676
▁00/0,	-10677
▁plants	-10678
dido	-10679
inth	-10680
triết	-10681
▁blume	-10682
▁schum	-10683
▁secur	-10684
ichthys	-10685
▁sakura	-10686
▁panther	-10687
▁êm	-10688
▁aero	-10689
▁gent	-10690
▁photo	-10691
▁cannes	-10692
▁0.0.0000	-10693
▁cạp	-10694
▁rim	-10695
media	-10696
▁computer	-10697
▁hispanic	-10698
úm	-10699
▁step	-10700
▁(00.0	-10701
inensis	-10702
▁sheeran	-10703
▁collapse	-10704
lib	-10705
▁pack	-10706
▁vượn	-10707
sis	-10708
▁mek	-10709
ophus	-10710
▁nhẹn	-10711
▁vald	-10712
▁vựng	-10713
ipennis	-10714
▁seleukos	-10715
acca	-10716
▁ars	-10717
▁xào	-10718
-00-0	-10719
thing	-10720
▁crom	-10721
▁past	-10722
▁watt	-10723
▁alger	-10724
▁kwang	-10725
▁sailor	-10726
▁(0000);	-10727
lần	-10728
tôn	-10729
▁rb	-10730
opod	-10731
vict	-10732
▁rin	-10733
▁marg	-10734
▁near	-10735
▁archive	-10736
cấp	-10737
▁),	-10738
..."	-10739
chet	-10740
angay	-10741
izard	-10742
▁''0000	-10743
▁morrison	-10744
ный	-10745
giai	-10746
▁jag	-10747
▁xát	-10748
ecium	-10749
fox	-10750
tòa	-10751
▁kệ	-10752
▁nt	-10753
▁cầy	-10754
▁doạ	-10755
▁lun	-10756
veland	-10757
си	-10758
tâm	-10759
ilum	-10760
utth	-10761
▁pai	-10762
▁trói	-10763
united	-10764
ablanca	-10765
▁photon	-10766
▁planet	-10767
1⁄	-10768
dez	-10769
▁fm	-10770
▁hốc	-10771
▁lot	-10772
ophis	-10773
▁000;	-10774
▁boul	-10775
master	-10776
▁felix	-10777
▁marseille	-10778
sb	-10779
bird	-10780
iani	-10781
▁tụy	-10782
eppel	-10783
▁here	-10784
▁lisa	-10785
▁sons	-10786
emaker	-10787
▁rovers	-10788
▁germany	-10789
▁occident	-10790
00"	-10791
trực	-10792
-00-00	-10793
▁danube	-10794
lá	-10795
enc	-10796
gow	-10797
qui	-10798
▁hé	-10799
ovka	-10800
isenh	-10801
▁lock	-10802
▁pale	-10803
▁könig	-10804
▁castle	-10805
▁mozart	-10806
▁santos	-10807
giám	-10808
▁yel	-10809
vince	-10810
▁lướt	-10811
▁braun	-10812
blo	-10813
ctr	-10814
edi	-10815
god	-10816
rap	-10817
viv	-10818
bers	-10819
list	-10820
▁haz	-10821
▁hoi	-10822
▁nees	-10823
▁when	-10824
▁atlas	-10825
▁falcon	-10826
▁tottenham	-10827
chú	-10828
cid	-10829
gren	-10830
xuất	-10831
▁kod	-10832
aleur	-10833
▁frigate	-10834
▁electronic	-10835
▁dicranaceae	-10836
uin	-10837
ades	-10838
utes	-10839
▁nod	-10840
▁rut	-10841
▁nach	-10842
▁owen	-10843
▁span	-10844
active	-10845
▁guill	-10846
▁kiêng	-10847
bảng	-10848
▁cang	-10849
▁bruno	-10850
▁porto	-10851
ostemon	-10852
▁rights	-10853
öln	-10854
▁hyd	-10855
▁nab	-10856
▁lute	-10857
▁kingdom	-10858
▁bolshevik	-10859
▁rì	-10860
▁dạt	-10861
▁haj	-10862
icket	-10863
▁host	-10864
▁moss	-10865
▁mãng	-10866
▁nano	-10867
▁toan	-10868
sphaer	-10869
▁anura	-10870
▁natur	-10871
▁starr	-10872
berland	-10873
staedtiaceae	-10874
hak	-10875
mật	-10876
▁át	-10877
emic	-10878
giữa	-10879
onda	-10880
oney	-10881
plan	-10882
quet	-10883
▁joy	-10884
▁woo	-10885
▁đúp	-10886
unaga	-10887
▁mans	-10888
▁ngải	-10889
▁hooker	-10890
▁pharaon	-10891
lid	-10892
oca	-10893
▁pend	-10894
▁speed	-10895
▁itunes	-10896
▁motion	-10897
▁vector	-10898
▁laurent	-10899
▁turkmen	-10900
tử	-10901
ocr	-10902
arya	-10903
mans	-10904
▁lum	-10905
▁tib	-10906
onment	-10907
▁krông	-10908
▁orleans	-10909
▁armstrong	-10910
đá	-10911
▁ỷ	-10912
hil	-10913
mler	-10914
▁mhz	-10915
▁sồi	-10916
erner	-10917
▁carn	-10918
▁toshi	-10919
▁0-0000,	-10920
公主	-10921
▁eva	-10922
▁body	-10923
etalum	-10924
▁singh	-10925
▁russian	-10926
▁wallace	-10927
**	-10928
▁hee	-10929
athon	-10930
inder	-10931
▁wend	-10932
▁japonica	-10933
▁suriname	-10934
мо	-10935
amon	-10936
atie	-10937
flag	-10938
iane	-10939
ires	-10940
ytum	-10941
▁amy	-10942
▁later	-10943
kre	-10944
atis	-10945
trip	-10946
ylis	-10947
▁soy	-10948
james	-10949
▁nùng	-10950
▁ostr	-10951
▁orchi	-10952
▁harold	-10953
▁ptolem	-10954
▁atlanta	-10955
▁£	-10956
nas	-10957
unc	-10958
▁ana	-10959
gesch	-10960
▁jour	-10961
hanouk	-10962
ifrons	-10963
mg	-10964
’’	-10965
ité	-10966
ileo	-10967
angan	-10968
▁mương	-10969
▁oricon	-10970
cửa	-10971
gyz	-10972
pho	-10973
▁xì	-10974
acro	-10975
▁ráo	-10976
▁tủy	-10977
▁prix	-10978
uridae	-10979
festuca	-10980
▁theodor	-10981
atory	-10982
▁thre	-10983
▁leicester	-10984
▁soundtrack	-10985
▁westminster	-10986
uary	-10987
▁bri	-10988
▁rab	-10989
doanh	-10990
ularia	-10991
▁huber	-10992
▁cornelis	-10993
▁explorer	-10994
''0	-10995
▁".	-10996
▁lọ	-10997
phản	-10998
▁extr	-10999
itions	-11000
▁steyerm	-11001
▁observatory	-11002
▁000000-000000)	-11003
wu	-11004
chor	-11005
gent	-11006
norm	-11007
some	-11008
▁sean	-11009
▁zeus	-11010
▁hebrew	-11011
▁machine	-11012
cea	-11013
ryū	-11014
▁hq	-11015
ский	-11016
align	-11017
(0000)	-11018
ünther	-11019
▁linda	-11020
▁monroe	-11021
▁fantasy	-11022
▁freedom	-11023
peterburg	-11024
alon	-11025
ingo	-11026
▁mắng	-11027
▁bened	-11028
eleuther	-11029
▁bohemia	-11030
▁0000–0000,	-11031
qué	-11032
▁ow	-11033
▁sá	-11034
mers	-11035
▁hut	-11036
swana	-11037
▁barry	-11038
▁bobby	-11039
▁delle	-11040
▁khước	-11041
▁peace	-11042
▁flight	-11043
▁wagner	-11044
▁newport	-11045
▁ч	-11046
det	-11047
thư	-11048
▁мо	-11049
pear	-11050
▁kíp	-11051
idens	-11052
▁0,00.	-11053
▁alderw	-11054
▁attack	-11055
▁fishes	-11056
▁sihanouk	-11057
hồi	-11058
aios	-11059
chny	-11060
cter	-11061
ière	-11062
▁htv	-11063
▁hern	-11064
▁oslo	-11065
▁sưng	-11066
▁fujiwara	-11067
▁president	-11068
ophon	-11069
▁epis	-11070
▁divers	-11071
де	-11072
▁nọ	-11073
mani	-11074
tăng	-11075
▁rốn	-11076
▁grace	-11077
▁stark	-11078
▁zhukov	-11079
▁flowers	-11080
▁ко	-11081
mine	-11082
▁dẹt	-11083
▁uẩn	-11084
▁destin	-11085
bán	-11086
▁xế	-11087
adel	-11088
▁arms	-11089
▁code	-11090
▁khất	-11091
schaft	-11092
holstein	-11093
▁blechnaceae	-11094
::	-11095
mex	-11096
olin	-11097
seng	-11098
▁vất	-11099
mouth	-11100
▁assyria	-11101
▁beyoncé	-11102
fun	-11103
▁oa	-11104
▁ios	-11105
▁xoài	-11106
▁danny	-11107
building	-11108
cav	-11109
lip	-11110
pac	-11111
▁nied	-11112
▁stur	-11113
ulatum	-11114
▁phone	-11115
▁range	-11116
▁maxwell	-11117
▁children	-11118
kw	-11119
ík	-11120
▁sd	-11121
gens	-11122
oque	-11123
unus	-11124
▁ace	-11125
khách	-11126
george	-11127
opatra	-11128
▁takah	-11129
eneveld	-11130
▁knowles	-11131
rim	-11132
igin	-11133
▁thêu	-11134
marine	-11135
▁devon	-11136
▁tobago	-11137
▁vienna	-11138
thm	-11139
vier	-11140
▁mbc	-11141
▁turbine	-11142
▁diakonoff	-11143
▁sphecidae	-11144
tù	-11145
ви	-11146
ebe	-11147
uko	-11148
alie	-11149
ioth	-11150
▁hod	-11151
▁trỗi	-11152
▁witt	-11153
▁đĩnh	-11154
▁horse	-11155
▁miles	-11156
linnaeus	-11157
▁wolfgang	-11158
▁wrestling	-11159
gel	-11160
orp	-11161
▁vỹ	-11162
▁kub	-11163
▁pgs	-11164
▁tac	-11165
eshow	-11166
millan	-11167
ussels	-11168
gb	-11169
aign	-11170
andi	-11171
▁heath	-11172
▁louise	-11173
▁rudolf	-11174
hđbt	-11175
orax	-11176
otten	-11177
trịnh	-11178
▁joan	-11179
▁tenu	-11180
▁block	-11181
▁clear	-11182
▁marco	-11183
▁hanover	-11184
wikitable	-11185
▁committe	-11186
▁hye	-11187
▁ener	-11188
ocarpa	-11189
ochilus	-11190
utthaya	-11191
▁rocket	-11192
▁leonard	-11193
isenhower	-11194
groeneveld	-11195
did	-11196
hae	-11197
inen	-11198
orst	-11199
rush	-11200
sons	-11201
abria	-11202
▁khảm	-11203
▁sharp	-11204
alyptus	-11205
▁torino	-11206
▁00-0000	-11207
▁cichlidae	-11208
▁búp	-11209
▁ghê	-11210
▁góa	-11211
bledon	-11212
▁trũng	-11213
▁louvre	-11214
▁botswana	-11215
bệnh	-11216
hips	-11217
▁ens	-11218
▁súp	-11219
andal	-11220
▁bron	-11221
▁train	-11222
▁region	-11223
▁viktor	-11224
ellaceae	-11225
▁chamberlin	-11226
omia	-11227
prem	-11228
...).	-11229
▁jima	-11230
▁levi	-11231
▁latino	-11232
▁against	-11233
cob	-11234
amia	-11235
▁bân	-11236
▁trệ	-11237
phila	-11238
quang	-11239
sberg	-11240
▁faso	-11241
▁0000–0000.	-11242
ós	-11243
▁pô	-11244
gall	-11245
ikov	-11246
▁afc	-11247
cerat	-11248
gastr	-11249
phora	-11250
vironment	-11251
dur	-11252
binh	-11253
▁phỉ	-11254
blatt	-11255
broth	-11256
▁kenshin	-11257
▁nations	-11258
ngũ	-11259
▁vạc	-11260
encer	-11261
▁arct	-11262
▁sens	-11263
pommern	-11264
▁flying	-11265
▁burkina	-11266
▁rothschild	-11267
thập	-11268
ushu	-11269
igera	-11270
istics	-11271
▁quark	-11272
▁steel	-11273
ogh	-11274
▁tẻ	-11275
antom	-11276
ippus	-11277
▁adel	-11278
▁leaf	-11279
▁piet	-11280
▁prom	-11281
▁honor	-11282
▁ayutthaya	-11283
liv	-11284
▁bö	-11285
chez	-11286
ized	-11287
▁alam	-11288
manuel	-11289
▁airport	-11290
▁gehrels	-11291
▁economic	-11292
▁committee	-11293
▁production	-11294
ław	-11295
erno	-11296
▁mey	-11297
▁carr	-11298
▁fore	-11299
▁gymn	-11300
▁used	-11301
▁bahia	-11302
▁eugen	-11303
▁huyệt	-11304
▁laura	-11305
▁pages	-11306
▁sofia	-11307
▁rachel	-11308
otz	-11309
▁bã	-11310
shan	-11311
▁hus	-11312
▁nản	-11313
stedt	-11314
▁sảng	-11315
▁moldova	-11316
fem	-11317
▁lợp	-11318
▁uit	-11319
itect	-11320
ograd	-11321
▁dion	-11322
▁health	-11323
▁murphy	-11324
▁rwanda	-11325
aspidium	-11326
▁conserv	-11327
nhh	-11328
▁rí	-11329
eric	-11330
▁sci	-11331
▁tes	-11332
▁pyth	-11333
▁vent	-11334
▁mario	-11335
icornis	-11336
▁bahrain	-11337
rip	-11338
▁joc	-11339
▁kền	-11340
▁chat	-11341
▁lump	-11342
aguchi	-11343
▁broadway	-11344
▁habsburg	-11345
хо	-11346
ỏm	-11347
pell	-11348
ukan	-11349
chnyj	-11350
▁điếu	-11351
▁salam	-11352
▁nauchnyj	-11353
▁engineering	-11354
▁gb	-11355
akan	-11356
sáng	-11357
▁dry	-11358
▁camb	-11359
▁chẵn	-11360
▁large	-11361
▁gracilis	-11362
▁0000/0000	-11363
▁geographic	-11364
▁loranthaceae	-11365
cụ	-11366
га	-11367
▁č	-11368
ôme	-11369
avar	-11370
▁kik	-11371
▁cháo	-11372
▁tall	-11373
▁sukhoi	-11374
▁introduction	-11375
▁pg	-11376
teri	-11377
echin	-11378
▁bath	-11379
▁dans	-11380
▁plot	-11381
smouth	-11382
▁eagle	-11383
bức	-11384
нов	-11385
▁за	-11386
▁hlv	-11387
▁hổng	-11388
ulidae	-11389
cac	-11390
ecca	-11391
emus	-11392
ycho	-11393
▁nhở	-11394
▁method	-11395
▁0/0000.	-11396
▁conidae	-11397
▁broadcast	-11398
ijk	-11399
▁kou	-11400
▁tót	-11401
▁corse	-11402
history	-11403
▁marvel	-11404
▁>	-11405
oed	-11406
erus	-11407
▁cag	-11408
▁race	-11409
▁crete	-11410
british	-11411
▁rafael	-11412
+0	-11413
ahr	-11414
who	-11415
vĩnh	-11416
witt	-11417
chang	-11418
▁simpson	-11419
oue	-11420
annon	-11421
▁brom	-11422
▁chóp	-11423
▁tnhh	-11424
▁elean	-11425
▁geneva	-11426
▁pascal	-11427
▁bj	-11428
▁rộ	-11429
olic	-11430
▁away	-11431
▁tech	-11432
dinger	-11433
▁buenos	-11434
▁constr	-11435
▁elegans	-11436
▁henderson	-11437
▁(0000–0000).	-11438
▁iau	-11439
achys	-11440
▁navy	-11441
▁busan	-11442
▁(00,00	-11443
▁future	-11444
▁friends	-11445
tex	-11446
ffen	-11447
▁đấm	-11448
▁serr	-11449
▁thốt	-11450
▁maría	-11451
▁seneg	-11452
▁thiêm	-11453
▁wander	-11454
▁kushiro	-11455
▁ravenna	-11456
".''	-11457
kara	-11458
when	-11459
▁pab	-11460
▁đởm	-11461
ended	-11462
▁dres	-11463
▁rush	-11464
▁alsace	-11465
▁eleanor	-11466
▁mcnaught	-11467
▁kạn	-11468
▁nến	-11469
▁make	-11470
▁petr	-11471
▁shak	-11472
comune	-11473
eppelin	-11474
▁kyrgyz	-11475
▁monster	-11476
tìm	-11477
▁hs	-11478
pens	-11479
uyển	-11480
▁*000	-11481
▁drum	-11482
▁sold	-11483
▁termin	-11484
▁phillips	-11485
▁reinmuth	-11486
▁alexandre	-11487
▁eisenhower	-11488
bil	-11489
arde	-11490
igne	-11491
iped	-11492
▁pdf	-11493
▁xáo	-11494
waffe	-11495
▁0.0%	-11496
▁huyên	-11497
▁octavius	-11498
pak	-11499
abin	-11500
oyan	-11501
▁ily	-11502
▁keith	-11503
▁today	-11504
▁0000'',	-11505
▁butterflies	-11506
yō	-11507
eles	-11508
epid	-11509
iera	-11510
▁dứa	-11511
hyper	-11512
▁assam	-11513
▁moldenke	-11514
▁caledonia	-11515
giá	-11516
hạt	-11517
icht	-11518
mass	-11519
▁†''	-11520
▁lửng	-11521
▁0000..	-11522
▁hideyoshi	-11523
▁birmingham	-11524
pok	-11525
udo	-11526
▁"0	-11527
▁cs	-11528
▁bee	-11529
▁bới	-11530
▁cyr	-11531
carex	-11532
osteg	-11533
▁bella	-11534
▁known	-11535
▁fergus	-11536
▁capitol	-11537
atz	-11538
dry	-11539
ebu	-11540
kot	-11541
quý	-11542
▁hm	-11543
▁náu	-11544
▁sek	-11545
▁trỏ	-11546
okawa	-11547
quist	-11548
▁liềm	-11549
▁mann	-11550
▁marketing	-11551
▁sộ	-11552
ichy	-11553
▁lys	-11554
achim	-11555
▁đãng	-11556
▁fraser	-11557
0/	-11558
etri	-11559
▁byr	-11560
istor	-11561
oslav	-11562
works	-11563
▁hope	-11564
▁neil	-11565
inique	-11566
▁crime	-11567
▁malay	-11568
▁champagne	-11569
eph	-11570
nab	-11571
china	-11572
▁born	-11573
▁glas	-11574
charles	-11575
▁dominica	-11576
▁woodsiaceae	-11577
carp	-11578
wish	-11579
▁atl	-11580
ophry	-11581
▁ahmad	-11582
▁daily	-11583
▁klein	-11584
▁vướng	-11585
▁econom	-11586
ohy	-11587
acus	-11588
▁aja	-11589
empor	-11590
▁adele	-11591
▁craig	-11592
▁della	-11593
▁psych	-11594
▁kenneth	-11595
▁mercury	-11596
seo	-11597
uno	-11598
đốt	-11599
tháp	-11600
▁aco	-11601
▁lopez	-11602
▁everton	-11603
▁shoemaker	-11604
▁alternative	-11605
ße	-11606
nos	-11607
▁hỷ	-11608
▁winn	-11609
▁paran	-11610
▁fleisch	-11611
▁twitter	-11612
▁planning	-11613
''-	-11614
tuổi	-11615
▁chử	-11616
▁qué	-11617
▁0''.	-11618
▁typh	-11619
ertsch	-11620
▁based	-11621
▁crypt	-11622
▁medic	-11623
▁cardot	-11624
▁britney	-11625
▁ronaldo	-11626
ads	-11627
hcm	-11628
his	-11629
tầm	-11630
▁lak	-11631
▁lăm	-11632
▁hử	-11633
anas	-11634
rchb	-11635
▁kiy	-11636
▁náo	-11637
▁nấp	-11638
great	-11639
▁andr	-11640
▁arbor	-11641
▁silva	-11642
▁vista	-11643
▁gaulle	-11644
▁barangay	-11645
raf	-11646
etch	-11647
hind	-11648
hoàn	-11649
class	-11650
▁võng	-11651
adenia	-11652
ogramma	-11653
▁portsmouth	-11654
hóa	-11655
kha	-11656
hren	-11657
lion	-11658
rang	-11659
▁ave	-11660
▁zoo	-11661
▁*#''	-11662
standing	-11663
qa	-11664
jord	-11665
▁"00	-11666
▁gav	-11667
▁chèn	-11668
▁lạch	-11669
▁(00),	-11670
▁doctor	-11671
▁lumpur	-11672
▁0,0-0,0	-11673
vus	-11674
▁ci	-11675
▁lờ	-11676
▁vv	-11677
eper	-11678
▁vid	-11679
aulis	-11680
marie	-11681
▁caud	-11682
▁rama	-11683
▁reed	-11684
▁rené	-11685
▁mason	-11686
▁meyer	-11687
▁saxif	-11688
▁tajik	-11689
▁stevens	-11690
lake	-11691
ound	-11692
▁rox	-11693
iland	-11694
▁folk	-11695
ission	-11696
▁thong	-11697
▁belize	-11698
▁ancient	-11699
iah	-11700
onde	-11701
▁ria	-11702
▁biền	-11703
▁many	-11704
▁mett	-11705
astrum	-11706
ential	-11707
▁ashley	-11708
▁barbar	-11709
▁monaco	-11710
▁mỉ	-11711
anao	-11712
anol	-11713
chon	-11714
frey	-11715
stro	-11716
umen	-11717
▁nới	-11718
insky	-11719
▁köln	-11720
▁quất	-11721
berger	-11722
▁arena	-11723
▁euler	-11724
▁hannibal	-11725
ieve	-11726
▁clo	-11727
▁ngây	-11728
▁thớt	-11729
▁kunth	-11730
▁lloyd	-11731
▁dennis	-11732
kk	-11733
бо	-11734
ска	-11735
▁líu	-11736
▁zap	-11737
▁humb	-11738
▁mori	-11739
▁lower	-11740
▁xanth	-11741
▁hautes	-11742
họa	-11743
ров	-11744
▁vùi	-11745
anced	-11746
harry	-11747
triệu	-11748
▁brig	-11749
ogalum	-11750
schltr	-11751
▁khark	-11752
▁viking	-11753
▁liberia	-11754
▁princess	-11755
▁programm	-11756
▁ж	-11757
▁troy	-11758
allium	-11759
▁grimm	-11760
▁sweet	-11761
▁crystal	-11762
▁mauritius	-11763
arth	-11764
kamp	-11765
onga	-11766
phot	-11767
▁bùa	-11768
▁câm	-11769
▁hae	-11770
obase	-11771
▁"000	-11772
▁base	-11773
▁tánh	-11774
kinson	-11775
▁clarke	-11776
▁hampshire	-11777
▁α	-11778
ibo	-11779
cula	-11780
roit	-11781
anium	-11782
▁viet	-11783
▁weekly	-11784
▁liberty	-11785
▁pyrénées	-11786
▁zeppelin	-11787
▁education	-11788
cía	-11789
kut	-11790
pres	-11791
spec	-11792
▁liễn	-11793
▁islam	-11794
▁kuala	-11795
▁ulmer	-11796
▁diamond	-11797
до	-11798
▁bf	-11799
spur	-11800
▁củi	-11801
ansen	-11802
royal	-11803
▁jules	-11804
▁loãng	-11805
▁edited	-11806
▁heaven	-11807
▁province	-11808
vy	-11809
aric	-11810
ctus	-11811
game	-11812
▁bug	-11813
▁pam	-11814
▁sop	-11815
▁yun	-11816
osuka	-11817
quyển	-11818
▁kate	-11819
▁lost	-11820
▁vert	-11821
ftwaffe	-11822
ministr	-11823
▁sergey	-11824
gardenology	-11825
▁·	-11826
▁з	-11827
gol	-11828
vik	-11829
лов	-11830
elus	-11831
film	-11832
like	-11833
▁bực	-11834
ellum	-11835
iques	-11836
wards	-11837
▁bolog	-11838
▁senior	-11839
đồ	-11840
mea	-11841
aldi	-11842
fare	-11843
leon	-11844
▁răm	-11845
▁vẩy	-11846
▁"...	-11847
▁hatt	-11848
▁luang	-11849
▁punjab	-11850
▁interview	-11851
▁-00	-11852
▁jut	-11853
imate	-11854
▁bess	-11855
▁oman	-11856
▁rice	-11857
▁britt	-11858
▁infin	-11859
gat	-11860
elor	-11861
niên	-11862
▁edu	-11863
andie	-11864
state	-11865
▁aden	-11866
▁muội	-11867
▁smol	-11868
▁graph	-11869
▁detail	-11870
▁shield	-11871
▁taliban	-11872
▁productions	-11873
pir	-11874
xus	-11875
▁aj	-11876
hiệu	-11877
khối	-11878
moon	-11879
▁bok	-11880
▁lod	-11881
▁hash	-11882
▁polym	-11883
▁macdonald	-11884
đó	-11885
soc	-11886
▁ròng	-11887
idence	-11888
▁0.00%	-11889
▁normandy	-11890
▁leh	-11891
iflorus	-11892
eucalyptus	-11893
▁australis	-11894
polystichum	-11895
се	-11896
mud	-11897
sav	-11898
mour	-11899
berra	-11900
ighter	-11901
▁lindl	-11902
anthemum	-11903
▁alberta	-11904
▁fischer	-11905
▁liveshow	-11906
cen	-11907
flu	-11908
imb	-11909
jos	-11910
lai	-11911
sant	-11912
▁kep	-11913
cules	-11914
▁april	-11915
opterus	-11916
ostachys	-11917
▁nobunaga	-11918
▁wimbledon	-11919
ija	-11920
▁ló	-11921
odus	-11922
▁nhím	-11923
▁thốn	-11924
▁vược	-11925
▁chiểu	-11926
▁morning	-11927
apo	-11928
tun	-11929
male	-11930
otto	-11931
erica	-11932
▁knot	-11933
▁kobe	-11934
trưởng	-11935
▁storm	-11936
▁touch	-11937
▁author	-11938
▁ukraine	-11939
pri	-11940
▁db	-11941
atic	-11942
fors	-11943
itas	-11944
▁băm	-11945
bombus	-11946
▁sabah	-11947
lb	-11948
lei	-11949
oul	-11950
▁ds	-11951
anov	-11952
ytes	-11953
recht	-11954
▁duke	-11955
▁0000"	-11956
lington	-11957
▁challe	-11958
mô	-11959
hua	-11960
nak	-11961
bund	-11962
edit	-11963
kers	-11964
▁sắn	-11965
▁ajax	-11966
▁volga	-11967
▁barnes	-11968
▁collect	-11969
kỳ	-11970
nis	-11971
tab	-11972
omum	-11973
▁''“	-11974
▁cạo	-11975
▁trọ	-11976
▁wed	-11977
▁luck	-11978
angelo	-11979
▁colombo	-11980
ornithogalum	-11981
gram	-11982
umer	-11983
▁ghề	-11984
▁care	-11985
▁mith	-11986
▁00,0%,	-11987
underland	-11988
▁acoustic	-11989
oxy	-11990
pae	-11991
abol	-11992
▁hèn	-11993
▁kuz	-11994
ylind	-11995
clarke	-11996
▁clorua	-11997
▁pokémon	-11998
▁communic	-11999
++	-12000
đê	-12001
cit	-12002
nav	-12003
ổng	-12004
▁sq	-12005
phin	-12006
▁lov	-12007
eling	-12008
staff	-12009
▁suff	-12010
atsuki	-12011
entina	-12012
ermann	-12013
▁schne	-12014
▁navarre	-12015
lâm	-12016
sab	-12017
dall	-12018
▁hùm	-12019
▁rip	-12020
0000)	-12021
▁eich	-12022
▁yakov	-12023
▁youth	-12024
williams	-12025
▁0000000	-12026
▁canadian	-12027
▁saxifrag	-12028
bner	-12029
mamm	-12030
phyl	-12031
▁vắt	-12032
ality	-12033
▁amur	-12034
▁olig	-12035
▁moselle	-12036
opsidaceae	-12037
aume	-12038
hler	-12039
inis	-12040
izer	-12041
ocha	-12042
▁tus	-12043
▁ðức	-12044
princ	-12045
titan	-12046
▁alba	-12047
▁zone	-12048
dendro	-12049
format	-12050
▁baham	-12051
▁samar	-12052
▁bremen	-12053
▁ground	-12054
▁mother	-12055
▁müller	-12056
athyrium	-12057
inas	-12058
▁ghz	-12059
aware	-12060
quest	-12061
▁joão	-12062
ophilus	-12063
▁bamber	-12064
▁forbes	-12065
emporary	-12066
▁trotsky	-12067
▁scandinavia	-12068
gau	-12069
owe	-12070
▁vò	-12071
bánh	-12072
▁nòi	-12073
orpha	-12074
▁dens	-12075
▁rặng	-12076
hausen	-12077
▁compos	-12078
▁nagasaki	-12079
lez	-12080
ocl	-12081
▁ال	-12082
prov	-12083
▁khế	-12084
▁til	-12085
brook	-12086
ushin	-12087
▁::::	-12088
▁rchb	-12089
-000''	-12090
▁valle	-12091
▁siberi	-12092
stephani	-12093
▁process	-12094
▁revision	-12095
▁orchestra	-12096
▁mahar	-12097
▁willd	-12098
▁fernand	-12099
boa	-12100
cis	-12101
▁cp	-12102
agos	-12103
pont	-12104
usia	-12105
▁fib	-12106
first	-12107
▁chồi	-12108
▁half	-12109
▁midd	-12110
▁susan	-12111
▁wilton	-12112
▁bartram	-12113
kế	-12114
show	-12115
ucci	-12116
ésar	-12117
bolus	-12118
chiếm	-12119
isada	-12120
▁hubb	-12121
▁lane	-12122
▁nero	-12123
▁trad	-12124
▁ghost	-12125
ocaulon	-12126
▁astron	-12127
▁holmes	-12128
▁source	-12129
▁chester	-12130
▁environment	-12131
▁translation	-12132
ferr	-12133
nord	-12134
▁bịt	-12135
▁sit	-12136
▁zhu	-12137
▁bear	-12138
▁crow	-12139
kaiser	-12140
▁ahmed	-12141
▁torre	-12142
▁nghiêu	-12143
▁soviet	-12144
▁ptolemy	-12145
▁caribbean	-12146
▁turkmenistan	-12147
ebec	-12148
▁aki	-12149
hướng	-12150
▁cheo	-12151
▁shep	-12152
german	-12153
journal	-12154
▁(0:00)	-12155
▁bourbon	-12156
▁crawford	-12157
irō	-12158
tạp	-12159
yêu	-12160
anax	-12161
bold	-12162
▁fav	-12163
▁gud	-12164
ocene	-12165
▁chật	-12166
▁khỏa	-12167
▁animal	-12168
▁community	-12169
amed	-12170
▁hét	-12171
▁ssp	-12172
▁trá	-12173
thiền	-12174
trait	-12175
▁bonn	-12176
▁finn	-12177
▁nhám	-12178
▁krasn	-12179
▁moltke	-12180
▁yokosuka	-12181
doc	-12182
nha	-12183
asan	-12184
ibar	-12185
▁gầy	-12186
▁ngừ	-12187
▁spe	-12188
inella	-12189
▁bosna	-12190
▁carlo	-12191
▁const	-12192
▁phnom	-12193
▁qlvnch	-12194
▁siding	-12195
▁gallery	-12196
▁thunder	-12197
huế	-12198
reb	-12199
▁ка	-12200
athi	-12201
ovit	-12202
▁hog	-12203
azium	-12204
▁cosm	-12205
▁tetr	-12206
akespe	-12207
db	-12208
hau	-12209
odo	-12210
▁dw	-12211
▁ét	-12212
'');	-12213
iran	-12214
lain	-12215
▁spl	-12216
beaut	-12217
▁garr	-12218
▁unit	-12219
igidae	-12220
▁hotel	-12221
▁sophie	-12222
▁000/0000	-12223
▁illustrated	-12224
dn	-12225
raw	-12226
▁auto	-12227
▁hers	-12228
▁mats	-12229
▁quai	-12230
▁labor	-12231
▁polyg	-12232
▁upper	-12233
akespeare	-12234
rach	-12235
▁dil	-12236
▁tụt	-12237
▁xav	-12238
pleur	-12239
point	-12240
▁alps	-12241
▁para	-12242
▁salt	-12243
▁coron	-12244
▁emper	-12245
▁falls	-12246
▁mater	-12247
▁bailey	-12248
▁brooklyn	-12249
amy	-12250
asma	-12251
city	-12252
inem	-12253
isto	-12254
▁syr	-12255
▁paper	-12256
▁phanh	-12257
▁gregor	-12258
▁nathan	-12259
▁origin	-12260
▁blackburn	-12261
bão	-12262
▁rợ	-12263
enée	-12264
▁mab	-12265
▁falk	-12266
▁nhớt	-12267
▁wake	-12268
▁chron	-12269
▁comic	-12270
▁index	-12271
▁still	-12272
▁tommy	-12273
▁linden	-12274
▁magnet	-12275
japanese	-12276
▁cacbonat	-12277
▁taxonomic	-12278
mem	-12279
▁iwo	-12280
entin	-12281
▁cric	-12282
▁audio	-12283
▁scyth	-12284
▁lomari	-12285
▁€	-12286
jam	-12287
amen	-12288
arab	-12289
bled	-12290
scut	-12291
▁spp	-12292
▁wir	-12293
jones	-12294
ument	-12295
▁canon	-12296
▁retri	-12297
▁spirit	-12298
▁struct	-12299
▁program	-12300
▁charente	-12301
▁helsinki	-12302
▁political	-12303
▁orientation	-12304
▁ф	-12305
bak	-12306
div	-12307
▁ạt	-12308
bars	-12309
▁div	-12310
▁xoá	-12311
dream	-12312
endra	-12313
▁foll	-12314
▁sind	-12315
▁close	-12316
▁edmund	-12317
')	-12318
ht	-12319
bois	-12320
cola	-12321
enzl	-12322
yris	-12323
yuan	-12324
zech	-12325
▁cov	-12326
erous	-12327
▁fasc	-12328
▁route	-12329
▁dresden	-12330
▁со	-12331
leri	-12332
▁hex	-12333
icles	-12334
uensis	-12335
watson	-12336
▁thuấn	-12337
acantha	-12338
▁00–000	-12339
▁spencer	-12340
▁winston	-12341
diplazium	-12342
enny	-12343
eppe	-12344
▁truk	-12345
▁trêu	-12346
▁match	-12347
▁differ	-12348
▁nippon	-12349
▁schwarz	-12350
institute	-12351
▁services	-12352
▁charleston	-12353
,,	-12354
obu	-12355
sov	-12356
iard	-12357
muda	-12358
▁och	-12359
▁tyr	-12360
heart	-12361
ocentr	-12362
▁smart	-12363
scopula	-12364
▁adiant	-12365
▁micron	-12366
rophylla	-12367
▁capital	-12368
sở	-12369
òe	-12370
0''	-12371
now	-12372
▁kut	-12373
▁pip	-12374
▁yar	-12375
▁derby	-12376
▁honda	-12377
general	-12378
▁gandhi	-12379
▁cândido	-12380
tō	-12381
hur	-12382
kad	-12383
▁ari	-12384
iment	-12385
▁gluc	-12386
▁plus	-12387
▁trầu	-12388
acacia	-12389
▁blake	-12390
▁hughes	-12391
▁masters	-12392
▁warriors	-12393
▁conference	-12394
▁ptolemaios	-12395
mn	-12396
ар	-12397
▁ü	-12398
aic	-12399
mob	-12400
rax	-12401
▁lợ	-12402
sand	-12403
▁răn	-12404
agoza	-12405
front	-12406
▁cyan	-12407
flower	-12408
weight	-12409
▁akira	-12410
▁glass	-12411
▁(00-00	-12412
▁00000.	-12413
▁iaurif	-12414
▁purpur	-12415
▁phantom	-12416
▁kamikaze	-12417
▁conservation	-12418
baz	-12419
gian	-12420
phút	-12421
roma	-12422
▁ngỏ	-12423
▁ngào	-12424
▁pana	-12425
▁prize	-12426
normandie	-12427
__	-12428
tỷ	-12429
hun	-12430
isb	-12431
link	-12432
▁dép	-12433
▁pow	-12434
▁vắc	-12435
▁độn	-12436
▁máng	-12437
▁talk	-12438
▁nancy	-12439
▁eugene	-12440
▁korean	-12441
▁fletcher	-12442
▁provence	-12443
né	-12444
hiz	-12445
▁pv	-12446
▁uh	-12447
▁jai	-12448
▁tell	-12449
chenko	-12450
000-000	-12451
▁scotia	-12452
▁temple	-12453
▁jessica	-12454
▁shipbuilding	-12455
yū	-12456
nho	-12457
tas	-12458
eker	-12459
foot	-12460
gers	-12461
▁ách	-12462
artes	-12463
▁chợt	-12464
▁icao	-12465
chuyển	-12466
▁email	-12467
▁marit	-12468
▁schol	-12469
phoc	-12470
▁dow	-12471
▁flem	-12472
▁kiền	-12473
ologie	-12474
▁chong	-12475
▁double	-12476
▁marion	-12477
▁brussels	-12478
▁security	-12479
▁sunderland	-12480
lên	-12481
nob	-12482
sac	-12483
xia	-12484
ayev	-12485
kiểu	-12486
▁aim	-12487
▁vét	-12488
ashtra	-12489
canada	-12490
▁module	-12491
cad	-12492
deb	-12493
cair	-12494
▁ctv	-12495
▁shu	-12496
▁beast	-12497
▁baroque	-12498
▁galicia	-12499
▁zaragoza	-12500
▁tộ	-12501
ocus	-12502
tech	-12503
ahara	-12504
▁mari	-12505
▁nest	-12506
▁rout	-12507
▁xách	-12508
▁aston	-12509
▁reser	-12510
▁choàng	-12511
▁carroll	-12512
▁firmino	-12513
▁0000–00.	-12514
▁document	-12515
▁orthotrichaceae	-12516
hong	-12517
▁pyg	-12518
oyama	-12519
▁đôla	-12520
▁activ	-12521
▁tupol	-12522
▁garcía	-12523
▁torres	-12524
vợ	-12525
sus	-12526
▁lü	-12527
biến	-12528
iona	-12529
▁vứt	-12530
▁kurd	-12531
▁rele	-12532
▁enzym	-12533
▁fland	-12534
▁vosges	-12535
▁richmond	-12536
ớm	-12537
eco	-12538
thổ	-12539
ượm	-12540
▁aa	-12541
allia	-12542
kunth	-12543
▁miệt	-12544
▁trou	-12545
otzsch	-12546
▁gamma	-12547
▁jakarta	-12548
▁michelle	-12549
▁philippin	-12550
igua	-12551
thel	-12552
▁gao	-12553
▁tip	-12554
ikawa	-12555
▁gale	-12556
▁hass	-12557
▁hori	-12558
pteris	-12559
▁artist	-12560
▁memory	-12561
▁québec	-12562
▁tupolev	-12563
▁ferguson	-12564
mé	-12565
lea	-12566
▁hỉ	-12567
idan	-12568
▁dầm	-12569
▁job	-12570
atham	-12571
ogonida	-12572
▁incheon	-12573
▁0000-0000),	-12574
cut	-12575
amel	-12576
izen	-12577
olds	-12578
delph	-12579
▁$000	-12580
▁ambr	-12581
▁cron	-12582
▁mare	-12583
▁vend	-12584
▁aless	-12585
▁soyuz	-12586
▁tuber	-12587
ophytum	-12588
▁circle	-12589
▁julian	-12590
▁photos	-12591
▁biology	-12592
▁bryaceae	-12593
▁johnston	-12594
▁informatie	-12595
▁pycnogonida	-12596
▁å	-12597
onis	-12598
osis	-12599
▁own	-12600
▁www	-12601
▁mode	-12602
▁unix	-12603
▁hwang	-12604
▁gebase	-12605
▁gorbach	-12606
▁alliance	-12607
▁transport	-12608
cab	-12609
actin	-12610
▁chóc	-12611
▁vnch	-12612
bamber	-12613
▁denis	-12614
▁grass	-12615
▁manus	-12616
▁thặng	-12617
▁vinden	-12618
▁bicolor	-12619
▁gebaseerd	-12620
▁pycnobase	-12621
hui	-12622
pra	-12623
▁tì	-12624
▁bần	-12625
▁trổ	-12626
''(''	-12627
aries	-12628
gloss	-12629
▁seri	-12630
▁vamp	-12631
▁0,00%,	-12632
▁andrea	-12633
▁britann	-12634
▁elliott	-12635
nói	-12636
ochi	-12637
▁lut	-12638
▁rhy	-12639
lindl	-12640
onica	-12641
▁cogn	-12642
ything	-12643
▁duyện	-12644
▁price	-12645
▁norton	-12646
lio	-12647
▁kö	-12648
▁eph	-12649
▁pes	-12650
▁xăm	-12651
▁0–0.	-12652
▁moths	-12653
▁thằng	-12654
western	-12655
▁foster	-12656
iru	-12657
tái	-12658
vac	-12659
ayat	-12660
otia	-12661
truy	-12662
▁herm	-12663
▁nice	-12664
▁xviii	-12665
▁porter	-12666
▁bennett	-12667
▁nielsen	-12668
▁trailer	-12669
▁botanical	-12670
asse	-12671
auld	-12672
thôn	-12673
▁ail	-12674
▁jal	-12675
▁jur	-12676
▁vig	-12677
▁bapt	-12678
▁budd	-12679
khoáng	-12680
▁aaron	-12681
▁hardy	-12682
▁kalin	-12683
▁lynch	-12684
johnson	-12685
serling	-12686
▁я	-12687
iec	-12688
rất	-12689
yph	-12690
▁ỏi	-12691
chat	-12692
▁dir	-12693
▁gul	-12694
▁lạy	-12695
ences	-12696
stream	-12697
▁chand	-12698
▁diana	-12699
▁symph	-12700
aterina	-12701
command	-12702
▁austral	-12703
▁macmillan	-12704
anu	-12705
hit	-12706
yên	-12707
cing	-12708
etsk	-12709
▁gáy	-12710
▁joo	-12711
▁rớt	-12712
estan	-12713
▁bomb	-12714
inness	-12715
▁where	-12716
▁sikkim	-12717
bah	-12718
rev	-12719
▁rủ	-12720
khai	-12721
lung	-12722
olit	-12723
oris	-12724
▁“''	-12725
ected	-12726
▁rách	-12727
▁00.00%	-12728
▁saigon	-12729
▁alberto	-12730
▁imperial	-12731
▁relations	-12732
dreadnought	-12733
▁cricetidae	-12734
▁adiantaceae	-12735
▁dd	-12736
arian	-12737
width	-12738
▁bống	-12739
▁clap	-12740
▁cris	-12741
▁phèn	-12742
▁rail	-12743
europe	-12744
▁contemporary	-12745
rha	-12746
sex	-12747
aloe	-12748
erty	-12749
teur	-12750
york	-12751
▁nhổ	-12752
▁rag	-12753
▁vệt	-12754
▁hitch	-12755
nem	-12756
uts	-12757
đời	-12758
▁*.	-12759
coni	-12760
erts	-12761
▁ryu	-12762
tuyên	-12763
▁clav	-12764
▁nhẵn	-12765
▁todd	-12766
▁vest	-12767
ophone	-12768
▁césar	-12769
▁sassan	-12770
▁survey	-12771
,.	-12772
bãi	-12773
ged	-12774
gins	-12775
▁ced	-12776
▁đậy	-12777
issus	-12778
▁thắp	-12779
▁''000	-12780
▁appro	-12781
▁clara	-12782
▁helin	-12783
atsuura	-12784
▁energy	-12785
▁bahamas	-12786
▁columbus	-12787
cần	-12788
jim	-12789
▁lp	-12790
self	-12791
▁utc	-12792
rique	-12793
▁chài	-12794
▁diff	-12795
▁diels	-12796
▁acumin	-12797
▁manstein	-12798
▁sardinia	-12799
▁saxifragaceae	-12800
00:	-12801
von	-12802
cuối	-12803
ngọc	-12804
▁pig	-12805
▁0...	-12806
▁estr	-12807
▁brest	-12808
▁print	-12809
▁buffalo	-12810
▁château	-12811
▁contain	-12812
▁springs	-12813
ues	-12814
alli	-12815
azur	-12816
ermo	-12817
ninh	-12818
▁voy	-12819
ectes	-12820
esses	-12821
macro	-12822
▁issn	-12823
▁yeon	-12824
▁idaho	-12825
▁willis	-12826
▁cleopatra	-12827
▁maharashtra	-12828
umn	-12829
▁tc	-12830
▁ào	-12831
ürich	-12832
▁horm	-12833
▁togo	-12834
▁hoffman	-12835
▁memorial	-12836
ẳm	-12837
kyi	-12838
tec	-12839
jose	-12840
oche	-12841
pass	-12842
▁elis	-12843
▁herr	-12844
▁luna	-12845
▁dynam	-12846
▁store	-12847
▁tatar	-12848
ithecus	-12849
▁blanco	-12850
▁dmitri	-12851
▁mekong	-12852
▁aristot	-12853
▁novgorod	-12854
sui	-12855
arro	-12856
oldt	-12857
rite	-12858
▁cox	-12859
▁hóc	-12860
▁ruiz	-12861
▁sakh	-12862
▁tort	-12863
▁europ	-12864
▁karen	-12865
▁sword	-12866
▁wells	-12867
▁0000.)	-12868
▁andrews	-12869
▁kashmir	-12870
▁architect	-12871
giả	-12872
▁đẽ	-12873
"...	-12874
base	-12875
thea	-12876
zion	-12877
▁dort	-12878
▁epic	-12879
▁ereb	-12880
▁fame	-12881
▁lima	-12882
▁luer	-12883
▁toge	-12884
▁isles	-12885
▁andrei	-12886
▁dublin	-12887
handbuch	-12888
▁maximilian	-12889
▁sü	-12890
merc	-12891
tran	-12892
▁nạc	-12893
▁vog	-12894
sonia	-12895
▁copa	-12896
▁trau	-12897
▁guian	-12898
▁before	-12899
▁invest	-12900
▁yamato	-12901
▁ư	-12902
bulb	-12903
isse	-12904
▁cus	-12905
▁kro	-12906
▁mia	-12907
iatic	-12908
▁diox	-12909
▁ambly	-12910
ocactus	-12911
▁helena	-12912
▁leonardo	-12913
▁yoshisada	-12914
▁identification	-12915
sul	-12916
▁(=	-12917
imac	-12918
▁inh	-12919
▁usb	-12920
acrit	-12921
nhard	-12922
▁alle	-12923
▁crim	-12924
▁magu	-12925
▁pach	-12926
▁herce	-12927
▁stefan	-12928
▁andreas	-12929
▁without	-12930
1⁄2	-12931
▁ct	-12932
-00/	-12933
▁bwv	-12934
▁bash	-12935
thomas	-12936
▁tennis	-12937
▁jutland	-12938
▁piedmont	-12939
▁including	-12940
bm	-12941
uza	-12942
atta	-12943
▁feb	-12944
▁ăng	-12945
ening	-12946
icult	-12947
pinus	-12948
▁chum	-12949
unning	-12950
▁admir	-12951
▁marina	-12952
▁taipei	-12953
▁00-0-0000	-12954
uj	-12955
▁bt	-12956
bass	-12957
iles	-12958
▁().	-12959
▁aub	-12960
▁cru	-12961
▁tuý	-12962
ching	-12963
itrea	-12964
ández	-12965
▁chắt	-12966
▁pros	-12967
00000000	-12968
▁bologna	-12969
?),	-12970
bởi	-12971
chợ	-12972
ssel	-12973
▁cào	-12974
allus	-12975
ciata	-12976
shine	-12977
▁demo	-12978
▁tann	-12979
▁phiện	-12980
▁leaves	-12981
▁phraya	-12982
iculatum	-12983
▁paradox	-12984
bh	-12985
bern	-12986
tery	-12987
ichen	-12988
ocera	-12989
phorb	-12990
▁qđnd	-12991
▁tsuk	-12992
▁colon	-12993
▁phồng	-12994
▁seych	-12995
▁sebastian	-12996
alm	-12997
ovi	-12998
sem	-12999
ướn	-13000
▁uý	-13001
isei	-13002
▁rẫy	-13003
▁yếm	-13004
melan	-13005
cai	-13006
azar	-13007
ples	-13008
tuyệt	-13009
▁chae	-13010
▁montr	-13011
▁khrush	-13012
▁galileo	-13013
▁organization	-13014
ís	-13015
00-	-13016
aja	-13017
yad	-13018
▁tò	-13019
enus	-13020
gypt	-13021
▁hua	-13022
essen	-13023
▁money	-13024
▁rogers	-13025
té	-13026
jav	-13027
blem	-13028
elii	-13029
▁dord	-13030
▁guốc	-13031
▁obsc	-13032
▁vitt	-13033
germain	-13034
▁sevilla	-13035
nq	-13036
mey	-13037
▁bô	-13038
▁го	-13039
▁(0,	-13040
▁fol	-13041
▁both	-13042
▁hits	-13043
▁ibra	-13044
▁rise	-13045
▁vary	-13046
▁frame	-13047
▁sướng	-13048
▁phosph	-13049
▁quebec	-13050
▁pickard	-13051
phù	-13052
yna	-13053
▁fi	-13054
cine	-13055
tang	-13056
▁nub	-13057
▁drake	-13058
▁ellip	-13059
▁leeds	-13060
▁spart	-13061
▁yahoo	-13062
▁mission	-13063
▁00000000.	-13064
▁administr	-13065
▁discovery	-13066
ве	-13067
hwa	-13068
ohl	-13069
▁yi	-13070
chas	-13071
omac	-13072
▁dul	-13073
▁kus	-13074
▁perc	-13075
donnell	-13076
▁smolensk	-13077
▁theodore	-13078
lox	-13079
tum	-13080
assin	-13081
▁diss	-13082
▁kerr	-13083
▁0000–	-13084
▁zimmer	-13085
▁together	-13086
▁kobayashi	-13087
hya	-13088
▁eb	-13089
▁mễ	-13090
cant	-13091
homo	-13092
kong	-13093
▁noi	-13094
ectus	-13095
estic	-13096
namen	-13097
ottis	-13098
▁stapf	-13099
▁kaiser	-13100
▁région	-13101
▁severus	-13102
▁macarthur	-13103
▁wanderers	-13104
rig	-13105
tet	-13106
tol	-13107
▁mủ	-13108
hiro	-13109
▁zag	-13110
trick	-13111
▁ruth	-13112
▁văng	-13113
plectr	-13114
▁panch	-13115
▁ridge	-13116
▁alexios	-13117
▁delaware	-13118
ẽn	-13119
eul	-13120
two	-13121
neri	-13122
nhìn	-13123
▁abb	-13124
▁lẩn	-13125
▁wai	-13126
aspis	-13127
cheir	-13128
▁chad	-13129
kovsky	-13130
▁creta	-13131
▁around	-13132
jeff	-13133
▁ova	-13134
▁stop	-13135
▁true	-13136
▁change	-13137
▁stream	-13138
doraemon	-13139
▁hotspur	-13140
▁roberto	-13141
geschichte	-13142
▁beautiful	-13143
▁cleveland	-13144
chế	-13145
maj	-13146
roa	-13147
weg	-13148
'')-	-13149
ngựa	-13150
phne	-13151
▁giỗ	-13152
▁graf	-13153
▁knox	-13154
▁vold	-13155
sworth	-13156
▁wings	-13157
▁iphone	-13158
▁player	-13159
▁sergei	-13160
▁destiny	-13161
▁hercegov	-13162
hō	-13163
''(	-13164
kay	-13165
lith	-13166
pach	-13167
sens	-13168
▁neg	-13169
▁asen	-13170
▁yard	-13171
▁carac	-13172
▁logan	-13173
▁month	-13174
acritic	-13175
deutsch	-13176
▁mechan	-13177
▁clement	-13178
▁000-000,	-13179
▁resources	-13180
ça	-13181
ск	-13182
tội	-13183
▁dz	-13184
ised	-13185
▁hos	-13186
▁mcl	-13187
▁nim	-13188
inium	-13189
radio	-13190
▁lucy	-13191
▁taxi	-13192
▁đoái	-13193
▁garay	-13194
▁kyung	-13195
ecklist	-13196
▁bermuda	-13197
qi	-13198
eza	-13199
tea	-13200
quir	-13201
▁dùi	-13202
▁breed	-13203
▁jeong	-13204
▁andaman	-13205
▁nacional	-13206
cuc	-13207
▁nr	-13208
eres	-13209
schiz	-13210
▁abel	-13211
▁gund	-13212
▁lith	-13213
▁lund	-13214
▁serb	-13215
▁stol	-13216
▁larry	-13217
▁petro	-13218
imation	-13219
ocereus	-13220
▁razowski	-13221
▁shakespeare	-13222
cup	-13223
andy	-13224
ende	-13225
idon	-13226
okai	-13227
ished	-13228
▁desk	-13229
▁eyes	-13230
▁lười	-13231
▁nomi	-13232
▁demetri	-13233
▁geometr	-13234
▁counties	-13235
▁konstantinos	-13236
dys	-13237
mẫu	-13238
that	-13239
▁bói	-13240
▁exp	-13241
▁jol	-13242
▁sặc	-13243
ideae	-13244
parad	-13245
▁aren	-13246
▁nhộn	-13247
▁rosa	-13248
▁eddie	-13249
▁faroe	-13250
▁timea	-13251
▁tyler	-13252
▁chiêng	-13253
▁gerald	-13254
ocephala	-13255
▁formosa	-13256
▁sassanid	-13257
-0-	-13258
lấy	-13259
iris	-13260
opal	-13261
▁gut	-13262
▁héc	-13263
▁vặt	-13264
iffer	-13265
where	-13266
▁burn	-13267
▁gaza	-13268
▁hoch	-13269
▁giàng	-13270
▁herod	-13271
▁pablo	-13272
osperma	-13273
▁davies	-13274
▁harmon	-13275
▁richardson	-13276
▁description	-13277
gou	-13278
zak	-13279
▁yū	-13280
enza	-13281
opon	-13282
đang	-13283
arten	-13284
asian	-13285
banon	-13286
▁(00.	-13287
▁mượt	-13288
▁ural	-13289
▁colin	-13290
▁dixon	-13291
▁plaza	-13292
▁mexican	-13293
lob	-13294
tit	-13295
▁gw	-13296
▁tn	-13297
kịch	-13298
▁bôn	-13299
▁ice	-13300
▁rìu	-13301
iales	-13302
iatum	-13303
umman	-13304
▁foss	-13305
▁sach	-13306
▁tuốc	-13307
▁combin	-13308
▁joachim	-13309
▁popular	-13310
▁metropol	-13311
hs	-13312
kee	-13313
kum	-13314
coun	-13315
endi	-13316
itta	-13317
mary	-13318
moth	-13319
ético	-13320
▁fast	-13321
▁mnet	-13322
▁omar	-13323
▁janet	-13324
▁phúng	-13325
ilaceae	-13326
opodium	-13327
vention	-13328
▁karate	-13329
▁cricket	-13330
▁vickers	-13331
độc	-13332
abom	-13333
bast	-13334
chem	-13335
▁ces	-13336
▁fbi	-13337
▁lóc	-13338
▁lẻo	-13339
jeong	-13340
lando	-13341
▁dnie	-13342
▁every	-13343
▁kursk	-13344
▁paraná	-13345
▁werner	-13346
lao	-13347
pdf	-13348
đan	-13349
▁mè	-13350
airs	-13351
chio	-13352
corn	-13353
nees	-13354
olig	-13355
▁appl	-13356
▁niệu	-13357
▁suez	-13358
▁quest	-13359
▁scapa	-13360
▁thess	-13361
▁waters	-13362
▁nieders	-13363
▁deutsche	-13364
▁bam	-13365
▁sên	-13366
▁chau	-13367
▁crus	-13368
▁riga	-13369
▁thảy	-13370
andros	-13371
ecular	-13372
▁jocqué	-13373
▁petrov	-13374
▁timeaxis	-13375
▁ó	-13376
ifr	-13377
nez	-13378
club	-13379
pton	-13380
anthe	-13381
kamen	-13382
▁burton	-13383
▁singer	-13384
▁lambert	-13385
▁hannover	-13386
▁checklist	-13387
hey	-13388
lập	-13389
arat	-13390
lava	-13391
ours	-13392
stor	-13393
▁osp	-13394
carpa	-13395
eyasu	-13396
ignon	-13397
rolep	-13398
▁july	-13399
▁quắn	-13400
zygium	-13401
▁mafia	-13402
▁truman	-13403
cố	-13404
ein	-13405
fat	-13406
hib	-13407
izh	-13408
nap	-13409
phu	-13410
ngen	-13411
▁asa	-13412
chase	-13413
▁corr	-13414
igmella	-13415
▁brachy	-13416
▁brother	-13417
▁dortmund	-13418
▁interactive	-13419
че	-13420
blume	-13421
▁boss	-13422
▁sòng	-13423
contin	-13424
▁amphoe	-13425
▁0000.00.00	-13426
▁ồ	-13427
bác	-13428
ivo	-13429
lối	-13430
xây	-13431
alog	-13432
dick	-13433
kill	-13434
ouch	-13435
untu	-13436
▁bừa	-13437
ammed	-13438
calyp	-13439
santa	-13440
▁0/0,	-13441
▁cors	-13442
▁nana	-13443
▁sưởi	-13444
▁nadal	-13445
tenstein	-13446
▁building	-13447
kow	-13448
nai	-13449
ungen	-13450
varia	-13451
▁dass	-13452
▁kuhn	-13453
▁tail	-13454
▁democ	-13455
▁schel	-13456
▁planck	-13457
▁chaplin	-13458
▁campania	-13459
▁yakovlev	-13460
▁kyrgyzstan	-13461
dj	-13462
ew	-13463
elo	-13464
▁ges	-13465
▁lbf	-13466
▁ono	-13467
▁cool	-13468
▁spar	-13469
▁round	-13470
▁valer	-13471
▁branch	-13472
ochromis	-13473
▁günther	-13474
▁scythia	-13475
bye	-13476
fay	-13477
hra	-13478
wei	-13479
▁cộ	-13480
phos	-13481
uron	-13482
▁găng	-13483
▁hirs	-13484
▁plac	-13485
▁oblast	-13486
▁zürich	-13487
▁strateg	-13488
▁theatre	-13489
▁metacritic	-13490
ühr	-13491
asim	-13492
free	-13493
▁gaon	-13494
▁giac	-13495
▁khắt	-13496
battle	-13497
essler	-13498
ishima	-13499
▁(00%)	-13500
▁screen	-13501
▁hepburn	-13502
▁challenge	-13503
▁hercegovina	-13504
▁constantinus	-13505
trị	-13506
|00	-13507
bbit	-13508
erna	-13509
rint	-13510
▁cbs	-13511
▁lus	-13512
ophrys	-13513
▁issue	-13514
▁raion	-13515
▁becker	-13516
oucester	-13517
cảm	-13518
mục	-13519
orno	-13520
▁ies	-13521
▁pum	-13522
▁tuế	-13523
▁cồng	-13524
▁hòng	-13525
▁phai	-13526
▁stav	-13527
arctic	-13528
itional	-13529
▁*00.00	-13530
▁rooney	-13531
▁alignbars	-13532
▁lancaster	-13533
isk	-13534
oise	-13535
▁gör	-13536
iffel	-13537
ulina	-13538
▁spee	-13539
▁stau	-13540
▁fruit	-13541
▁relig	-13542
▁thuôn	-13543
▁franch	-13544
iculatus	-13545
cũ	-13546
kv	-13547
▁β	-13548
eug	-13549
agna	-13550
lasi	-13551
▁bic	-13552
akawa	-13553
annah	-13554
▁bênh	-13555
▁fang	-13556
▁poll	-13557
▁vâng	-13558
▁stage	-13559
enstein	-13560
▁00000,	-13561
▁nicole	-13562
syzygium	-13563
bố	-13564
body	-13565
koku	-13566
okes	-13567
para	-13568
▁pla	-13569
▁haus	-13570
▁reyn	-13571
female	-13572
phorus	-13573
▁barth	-13574
hampson	-13575
▁marian	-13576
▁commelin	-13577
đt	-13578
cio	-13579
def	-13580
đạt	-13581
▁ра	-13582
imen	-13583
nova	-13584
phar	-13585
▁rán	-13586
awesi	-13587
▁ngan	-13588
▁phốt	-13589
▁read	-13590
▁tard	-13591
▁thắm	-13592
chuyến	-13593
enbach	-13594
prunus	-13595
wilson	-13596
▁scinc	-13597
▁compar	-13598
californ	-13599
▁politics	-13600
▁tajikistan	-13601
đào	-13602
east	-13603
viên	-13604
▁lah	-13605
▁scn	-13606
aceus	-13607
denis	-13608
ernet	-13609
orsky	-13610
▁marl	-13611
▁pred	-13612
▁wein	-13613
▁disco	-13614
▁phình	-13615
chicago	-13616
▁granit	-13617
▁typhoon	-13618
▁nakajima	-13619
▁orchidee	-13620
▁orchideen	-13621
▁(00/00/0000	-13622
ля	-13623
ся	-13624
itr	-13625
kyō	-13626
yah	-13627
enty	-13628
ethe	-13629
fern	-13630
ocoma	-13631
swick	-13632
▁duck	-13633
▁peak	-13634
▁saar	-13635
▁trát	-13636
orient	-13637
psycho	-13638
schist	-13639
▁alain	-13640
▁greek	-13641
▁pearl	-13642
▁turbo	-13643
▁gigant	-13644
▁bourgogne	-13645
▁niedersachsen	-13646
khí	-13647
▁mỳ	-13648
hydr	-13649
lass	-13650
shir	-13651
▁buch	-13652
▁shop	-13653
▁abbas	-13654
▁mammal	-13655
▁complex	-13656
▁eritrea	-13657
▁orientalis	-13658
đệ	-13659
kus	-13660
nin	-13661
phú	-13662
▁cồ	-13663
▁rê	-13664
bước	-13665
onso	-13666
type	-13667
▁cic	-13668
chnya	-13669
▁bali	-13670
▁mald	-13671
▁penh	-13672
▁necker	-13673
▁senegal	-13674
▁minamoto	-13675
cic	-13676
ión	-13677
dùng	-13678
eves	-13679
urum	-13680
▁bes	-13681
brown	-13682
▁bure	-13683
▁dart	-13684
▁guer	-13685
▁ment	-13686
▁thán	-13687
vergne	-13688
▁combat	-13689
▁conrad	-13690
▁dizion	-13691
▁auguste	-13692
▁glasgow	-13693
▁miranda	-13694
▁plotarea	-13695
▁imagesize	-13696
▁dizionario	-13697
hymenophyllum	-13698
mik	-13699
mom	-13700
▁nê	-13701
oros	-13702
▁ald	-13703
ellig	-13704
▁joon	-13705
▁jonas	-13706
▁phích	-13707
ordeaux	-13708
▁algeria	-13709
▁goldman	-13710
▁guardian	-13711
▁valentin	-13712
bồ	-13713
jak	-13714
sải	-13715
yar	-13716
▁yg	-13717
bách	-13718
▁asc	-13719
▁lic	-13720
areth	-13721
▁aber	-13722
▁grig	-13723
▁sequ	-13724
▁thẳm	-13725
▁torr	-13726
oideae	-13727
▁vichy	-13728
▁nghiễm	-13729
▁palermo	-13730
eba	-13731
ils	-13732
loo	-13733
vic	-13734
eros	-13735
▁acr	-13736
▁paz	-13737
▁quỵ	-13738
▁toả	-13739
achne	-13740
igata	-13741
▁0–0,	-13742
▁mesa	-13743
▁ngậm	-13744
▁quar	-13745
nghiên	-13746
▁julie	-13747
▁rocky	-13748
▁scout	-13749
▁0000-0	-13750
▁kepler	-13751
▁điôxít	-13752
▁oriental	-13753
▁000/0000/	-13754
▁0000-0000''.	-13755
▁»	-13756
dub	-13757
hei	-13758
baum	-13759
lean	-13760
omal	-13761
▁cul	-13762
▁gat	-13763
▁vữa	-13764
▁yus	-13765
atrec	-13766
entry	-13767
girls	-13768
perry	-13769
▁iata	-13770
▁ngốc	-13771
dicran	-13772
▁basic	-13773
▁elong	-13774
▁fidel	-13775
▁presl	-13776
ailable	-13777
▁beatty	-13778
▁hancock	-13779
▁lebanon	-13780
▁mollusca	-13781
cyclosorus	-13782
▁southampton	-13783
▁±	-13784
ско	-13785
▁nể	-13786
idas	-13787
▁aph	-13788
allene	-13789
onotus	-13790
▁bibli	-13791
▁collet	-13792
▁spider	-13793
▁stephan	-13794
▁griffith	-13795
▁intermedia	-13796
eee	-13797
ogi	-13798
▁ми	-13799
adia	-13800
ceed	-13801
oble	-13802
graph	-13803
▁tord	-13804
▁turn	-13805
▁johan	-13806
▁swall	-13807
▁triền	-13808
▁palmer	-13809
▁russia	-13810
▁scincidae	-13811
gill	-13812
uren	-13813
▁kén	-13814
▁nêm	-13815
▁xốp	-13816
itage	-13817
oclad	-13818
▁gunn	-13819
▁pine	-13820
ogramm	-13821
▁debut	-13822
▁lines	-13823
▁applic	-13824
▁ieyasu	-13825
▁pyrros	-13826
▁minogue	-13827
scutellaria	-13828
pf	-13829
itat	-13830
ongo	-13831
▁*0.	-13832
▁múi	-13833
▁niv	-13834
nguin	-13835
ström	-13836
▁acet	-13837
▁late	-13838
▁mccl	-13839
▁nara	-13840
▁ngạt	-13841
▁nile	-13842
ashima	-13843
callic	-13844
change	-13845
lichen	-13846
ropter	-13847
▁boliv	-13848
▁guild	-13849
▁thừng	-13850
richard	-13851
▁rumani	-13852
▁clapton	-13853
▁seychelles	-13854
bốn	-13855
alle	-13856
etok	-13857
iser	-13858
tawa	-13859
uana	-13860
▁ist	-13861
▁mim	-13862
▁rah	-13863
itten	-13864
teria	-13865
▁blan	-13866
▁mina	-13867
▁basel	-13868
▁towns	-13869
▁sullivan	-13870
▁phylogeny	-13871
▁translated	-13872
бе	-13873
▁mấu	-13874
▁dell	-13875
▁feed	-13876
▁sành	-13877
▁xvii	-13878
ensive	-13879
prince	-13880
▁bayer	-13881
acaceae	-13882
▁shogun	-13883
otrichum	-13884
▁account	-13885
▁gertsch	-13886
rei	-13887
asco	-13888
eong	-13889
mons	-13890
oton	-13891
zano	-13892
▁boc	-13893
▁cyn	-13894
▁fow	-13895
▁via	-13896
▁wid	-13897
▁giấm	-13898
▁glen	-13899
▁czech	-13900
▁josef	-13901
▁nueva	-13902
▁tchad	-13903
inville	-13904
▁eiffel	-13905
▁penins	-13906
▁voldem	-13907
▁phillip	-13908
▁alexandra	-13909
quá	-13910
ococ	-13911
▁wor	-13912
alism	-13913
inkel	-13914
ovina	-13915
▁khản	-13916
▁venus	-13917
▁ibrahim	-13918
dim	-13919
▁ish	-13920
ersin	-13921
ettel	-13922
iacco	-13923
inata	-13924
▁katy	-13925
▁wald	-13926
incinn	-13927
mannii	-13928
▁guyane	-13929
qg	-13930
ät	-13931
alc	-13932
dad	-13933
poa	-13934
upp	-13935
uve	-13936
▁fy	-13937
rice	-13938
▁rca	-13939
▁lóng	-13940
▁verr	-13941
▁baron	-13942
▁squad	-13943
antidae	-13944
▁larsen	-13945
▁wyoming	-13946
▁asilidae	-13947
▁marathon	-13948
▁boulenger	-13949
0%	-13950
has	-13951
rae	-13952
zem	-13953
▁aé	-13954
ebus	-13955
▁mẩu	-13956
▁nud	-13957
▁sục	-13958
osuke	-13959
vries	-13960
▁much	-13961
▁nhút	-13962
▁stam	-13963
panicum	-13964
▁angela	-13965
▁bombay	-13966
▁indica	-13967
▁guinness	-13968
▁chinensis	-13969
uo	-13970
fth	-13971
sym	-13972
tia	-13973
tir	-13974
leya	-13975
rose	-13976
▁sấy	-13977
▁shen	-13978
wright	-13979
▁wiley	-13980
▁gambia	-13981
▁yorkshire	-13982
obo	-13983
▁dn	-13984
aiss	-13985
dafi	-13986
elae	-13987
itia	-13988
thyl	-13989
▁hul	-13990
▁piô	-13991
ardin	-13992
▁inst	-13993
ethoven	-13994
▁lanceol	-13995
bé	-13996
vs	-13997
чи	-13998
)".	-13999
sax	-14000
sức	-14001
hoạt	-14002
▁eniw	-14003
▁kuch	-14004
▁seas	-14005
▁haven	-14006
ostemma	-14007
▁olympia	-14008
▁anatolia	-14009
▁eniwetok	-14010
▁commission	-14011
▁dateformat	-14012
▁ż	-14013
2),	-14014
thí	-14015
chap	-14016
hran	-14017
spin	-14018
▁dut	-14019
romus	-14020
rubus	-14021
▁inca	-14022
▁vụng	-14023
amount	-14024
▁asper	-14025
▁happy	-14026
▁reinh	-14027
▁treat	-14028
▁desert	-14029
opy	-14030
upe	-14031
eira	-14032
kiss	-14033
maur	-14034
post	-14035
đình	-14036
▁hẻo	-14037
▁alph	-14038
▁holy	-14039
▁mòng	-14040
▁mọng	-14041
oceros	-14042
turner	-14043
▁khuổi	-14044
▁classic	-14045
▁(000–000)	-14046
▁voldemort	-14047
ци	-14048
hum	-14049
squ	-14050
▁bb	-14051
▁dí	-14052
▁до	-14053
sted	-14054
tông	-14055
-00''	-14056
ohama	-14057
roman	-14058
▁guin	-14059
▁hinh	-14060
▁nghẽn	-14061
▁phông	-14062
oriacco	-14063
ridates	-14064
▁pocock	-14065
▁sunday	-14066
▁taiwan	-14067
▁atlético	-14068
▁chechnya	-14069
)(	-14070
:"	-14071
▁π	-14072
chị	-14073
was	-14074
imbr	-14075
udes	-14076
▁hoh	-14077
watch	-14078
▁kiel	-14079
▁mell	-14080
▁thản	-14081
▁felipe	-14082
▁genova	-14083
▁monter	-14084
▁warsaw	-14085
anderson	-14086
magnolia	-14087
▁federer	-14088
▁princip	-14089
сь	-14090
jud	-14091
mọi	-14092
fifa	-14093
tiên	-14094
▁bei	-14095
▁sei	-14096
▁aure	-14097
▁chul	-14098
▁ieee	-14099
▁edgar	-14100
▁trảng	-14101
▁agency	-14102
▁formos	-14103
:00.0000	-14104
▁hercules	-14105
▁humboldt	-14106
môn	-14107
▁dẫu	-14108
▁oxi	-14109
▁aids	-14110
▁krak	-14111
▁myth	-14112
▁ngất	-14113
▁nách	-14114
▁thèm	-14115
ellite	-14116
▁cohen	-14117
▁roland	-14118
▁kharkov	-14119
▁december	-14120
▁fontaine	-14121
▁francesco	-14122
ocn	-14123
▁sb	-14124
▁tm	-14125
icho	-14126
▁dro	-14127
▁gấm	-14128
camus	-14129
maria	-14130
▁think	-14131
english	-14132
▁khuyển	-14133
▁marcos	-14134
▁qđndvn	-14135
▁associat	-14136
▁polytrich	-14137
rs	-14138
ims	-14139
opf	-14140
▁đt	-14141
hell	-14142
rome	-14143
thầy	-14144
▁cùi	-14145
▁bend	-14146
▁dais	-14147
▁fuku	-14148
atidae	-14149
inated	-14150
▁fritz	-14151
▁stras	-14152
▁barney	-14153
▁return	-14154
▁augusta	-14155
▁chapman	-14156
▁italian	-14157
▁randall	-14158
▁retriev	-14159
▁00-00-0000	-14160
▁tz	-14161
fram	-14162
psil	-14163
▁ain	-14164
nymph	-14165
treal	-14166
▁byte	-14167
adiant	-14168
▁miley	-14169
▁milne	-14170
▁planch	-14171
▁sainte	-14172
▁vampire	-14173
▁midlands	-14174
vorpommern	-14175
▁:0.	-14176
▁umb	-14177
egger	-14178
etics	-14179
olulu	-14180
warts	-14181
▁loét	-14182
▁ochy	-14183
▁send	-14184
▁umbr	-14185
▁xiên	-14186
inalis	-14187
▁emily	-14188
▁antonius	-14189
hsi	-14190
hub	-14191
tựa	-14192
yak	-14193
beau	-14194
gris	-14195
real	-14196
▁cis	-14197
▁cúi	-14198
▁gulf	-14199
golden	-14200
orchis	-14201
▁boong	-14202
▁ellen	-14203
▁paint	-14204
▁pavel	-14205
▁tamer	-14206
plement	-14207
▁instrum	-14208
▁asteraceae	-14209
cờ	-14210
ча	-14211
oit	-14212
sid	-14213
adan	-14214
atae	-14215
jang	-14216
obia	-14217
▁ler	-14218
▁mok	-14219
aburi	-14220
▁frag	-14221
▁krem	-14222
▁coral	-14223
▁glenn	-14224
▁sophia	-14225
▁brunswick	-14226
rê	-14227
▁ơ	-14228
bok	-14229
▁sỡ	-14230
▁tf	-14231
clin	-14232
icau	-14233
salix	-14234
▁coca	-14235
▁nhọc	-14236
▁nhức	-14237
rodium	-14238
▁petit	-14239
▁pratt	-14240
▁sting	-14241
▁wesley	-14242
▁malacca	-14243
▁routledge	-14244
▁wellington	-14245
bến	-14246
tdl	-14247
uco	-14248
arra	-14249
atan	-14250
shaw	-14251
trin	-14252
▁yor	-14253
▁lena	-14254
▁pell	-14255
▁them	-14256
▁trặc	-14257
▁vung	-14258
▁wide	-14259
▁destr	-14260
▁worth	-14261
otaceae	-14262
vriesea	-14263
acanthus	-14264
▁antigon	-14265
▁clayton	-14266
▁bordeaux	-14267
bỏ	-14268
phủ	-14269
▁sả	-14270
clus	-14271
take	-14272
▁cặn	-14273
▁ðại	-14274
borne	-14275
style	-14276
▁neum	-14277
inning	-14278
zyński	-14279
▁giồng	-14280
▁hawker	-14281
▁makoto	-14282
▁patric	-14283
▁soccer	-14284
aissance	-14285
▁sinensis	-14286
nephrodium	-14287
eya	-14288
sap	-14289
õng	-14290
сть	-14291
▁vf	-14292
ased	-14293
balt	-14294
bong	-14295
ecio	-14296
glob	-14297
ilin	-14298
▁mận	-14299
ament	-14300
ophyl	-14301
▁chói	-14302
▁fell	-14303
▁mail	-14304
▁ryuk	-14305
iferum	-14306
ocalyx	-14307
ussein	-14308
utions	-14309
▁barrett	-14310
▁brescovit	-14311
▁takahashi	-14312
▁enterprise	-14313
abl	-14314
jae	-14315
yer	-14316
люб	-14317
▁gờ	-14318
▁há	-14319
▁uc	-14320
glee	-14321
mazz	-14322
thật	-14323
▁tav	-14324
▁wad	-14325
▁find	-14326
▁maps	-14327
tropis	-14328
▁00.0.	-14329
▁alert	-14330
▁barca	-14331
▁giằng	-14332
▁jesus	-14333
▁percy	-14334
▁tesla	-14335
▁unter	-14336
▁00,0%.	-14337
▁00/000	-14338
▁cocker	-14339
▁eminem	-14340
▁mancha	-14341
▁strong	-14342
vertical	-14343
▁perform	-14344
▁cultural	-14345
washington	-14346
▁0-000000-00-0	-14347
äl	-14348
awk	-14349
twc	-14350
▁vế	-14351
lord	-14352
unya	-14353
kreis	-14354
otype	-14355
▁pant	-14356
▁thốc	-14357
calais	-14358
▁gates	-14359
▁indre	-14360
▁factory	-14361
▁congress	-14362
▁available	-14363
abd	-14364
dyn	-14365
ket	-14366
lop	-14367
ệch	-14368
aeth	-14369
asin	-14370
bart	-14371
cain	-14372
hero	-14373
iaca	-14374
▁nbc	-14375
▁piz	-14376
▁mord	-14377
▁edwin	-14378
▁giorg	-14379
▁megal	-14380
▁antoine	-14381
▁erebidae	-14382
00′	-14383
cúp	-14384
lâu	-14385
sài	-14386
acio	-14387
iểng	-14388
utin	-14389
▁alm	-14390
tokyo	-14391
▁airy	-14392
▁coon	-14393
▁maxi	-14394
▁nish	-14395
▁aleut	-14396
▁floyd	-14397
▁luông	-14398
▁nakai	-14399
▁byelor	-14400
▁fields	-14401
▁timber	-14402
▁mikoyan	-14403
▁ossetia	-14404
▁strabom	-14405
▁cromwell	-14406
▁dordogne	-14407
ocarpaceae	-14408
▁auf	-14409
▁nôi	-14410
chaet	-14411
▁chơn	-14412
▁wade	-14413
atsuma	-14414
▁jamie	-14415
▁jeffrey	-14416
▁rolling	-14417
amu	-14418
sak	-14419
tạo	-14420
▁cz	-14421
aech	-14422
ampa	-14423
fant	-14424
ilov	-14425
ogan	-14426
rana	-14427
tone	-14428
▁kov	-14429
▁lốc	-14430
aceum	-14431
megal	-14432
▁come	-14433
▁dipl	-14434
▁prey	-14435
▁marin	-14436
▁salic	-14437
▁stern	-14438
moselle	-14439
▁somers	-14440
▁desktop	-14441
▁spanish	-14442
▁heritage	-14443
▁hogwarts	-14444
▁isabella	-14445
▁tropical	-14446
trichomanes	-14447
sir	-14448
bara	-14449
eris	-14450
ilex	-14451
ived	-14452
yong	-14453
kyung	-14454
onium	-14455
prist	-14456
▁aver	-14457
▁chửa	-14458
▁diệc	-14459
▁phar	-14460
▁thal	-14461
▁tràm	-14462
▁weas	-14463
galium	-14464
▁egypt	-14465
▁gomez	-14466
opteryg	-14467
▁(00–00	-14468
▁lowell	-14469
▁magnus	-14470
▁lombard	-14471
▁auvergne	-14472
▁mindanao	-14473
leb	-14474
angi	-14475
vila	-14476
▁biz	-14477
▁jyp	-14478
▁kao	-14479
▁nah	-14480
▁kass	-14481
▁proc	-14482
micros	-14483
▁canal	-14484
▁lucia	-14485
▁resort	-14486
▁jungermann	-14487
▁hookeriaceae	-14488
mở	-14489
▁dé	-14490
nitz	-14491
riss	-14492
đoạn	-14493
▁nes	-14494
aille	-14495
platy	-14496
▁rank	-14497
▁succ	-14498
amanca	-14499
campyl	-14500
ulouse	-14501
▁celtic	-14502
▁hannah	-14503
▁lucius	-14504
▁pleist	-14505
▁spreng	-14506
▁thebes	-14507
▁kingston	-14508
▁medicine	-14509
▁protocol	-14510
▁commelinaceae	-14511
▁strabomantidae	-14512
eye	-14513
lap	-14514
nằm	-14515
asus	-14516
iron	-14517
tach	-14518
▁ses	-14519
terol	-14520
wings	-14521
▁goku	-14522
▁hast	-14523
▁carne	-14524
▁krish	-14525
▁verde	-14526
▁odessa	-14527
▁rainbow	-14528
▁stories	-14529
▁fabaceae	-14530
▁salzburg	-14531
▁havilland	-14532
ме	-14533
hof	-14534
hữu	-14535
mới	-14536
oor	-14537
▁rö	-14538
▁éd	-14539
00),	-14540
ayer	-14541
buri	-14542
disc	-14543
skii	-14544
▁cữu	-14545
▁fry	-14546
▁xâu	-14547
lương	-14548
▁gond	-14549
▁gong	-14550
▁hood	-14551
▁mast	-14552
▁saga	-14553
▁zach	-14554
▁learn	-14555
▁moses	-14556
▁trust	-14557
▁bureau	-14558
▁herman	-14559
angensis	-14560
▁firefox	-14561
▁olivier	-14562
california	-14563
eragrostis	-14564
tax	-14565
▁;:	-14566
côte	-14567
ibus	-14568
▁orb	-14569
ories	-14570
▁gièm	-14571
▁oxit	-14572
▁pien	-14573
▁obtus	-14574
-0/0000	-14575
phyllon	-14576
▁griseb	-14577
▁toment	-14578
oziaceae	-14579
▁bradley	-14580
▁detroit	-14581
▁fayette	-14582
sev	-14583
bapt	-14584
oscy	-14585
tiếp	-14586
▁ceo	-14587
essel	-14588
▁cebu	-14589
▁push	-14590
▁quầy	-14591
▁seed	-14592
▁globe	-14593
▁leigh	-14594
istance	-14595
▁teaser	-14596
▁foreign	-14597
▁polymer	-14598
philodendron	-14599
▁geometridae	-14600
"-	-14601
aff	-14602
cyr	-14603
kis	-14604
nhị	-14605
voy	-14606
▁dv	-14607
▁đờ	-14608
dios	-14609
hiza	-14610
iosa	-14611
velle	-14612
▁lact	-14613
▁savo	-14614
▁volt	-14615
elling	-14616
▁dutch	-14617
▁rhode	-14618
württemberg	-14619
acinodendron	-14620
hàm	-14621
▁hö	-14622
▁mt	-14623
cott	-14624
▁kud	-14625
▁rex	-14626
iphon	-14627
ospor	-14628
ogeton	-14629
▁bazan	-14630
▁thing	-14631
▁multip	-14632
eru	-14633
evi	-14634
▁pm	-14635
ción	-14636
▁exo	-14637
lastr	-14638
nberg	-14639
▁chav	-14640
▁deux	-14641
▁hain	-14642
▁happ	-14643
▁kron	-14644
▁plum	-14645
▁siam	-14646
▁trút	-14647
▁very	-14648
ension	-14649
▁prote	-14650
▁rolls	-14651
ophthal	-14652
philipp	-14653
unculus	-14654
▁splend	-14655
▁teodor	-14656
▁kampong	-14657
▁geoffrey	-14658
▁systemat	-14659
▁paramount	-14660
▁!	-14661
cta	-14662
oms	-14663
đun	-14664
▁hü	-14665
▁vồ	-14666
pack	-14667
atari	-14668
leigh	-14669
ffield	-14670
▁crown	-14671
▁giant	-14672
▁gland	-14673
▁musta	-14674
ostigma	-14675
▁000-00	-14676
▁vasily	-14677
ognathus	-14678
▁silesia	-14679
▁asteroid	-14680
sr	-14681
皇帝	-14682
(0)	-14683
eny	-14684
tyl	-14685
▁mú	-14686
▁ро	-14687
ifax	-14688
quis	-14689
▁bờm	-14690
...),	-14691
islav	-14692
matia	-14693
osius	-14694
thạch	-14695
▁pill	-14696
▁tern	-14697
aleuca	-14698
isbane	-14699
philod	-14700
▁croat	-14701
▁herac	-14702
▁quyện	-14703
▁total	-14704
▁letter	-14705
▁0.000,0	-14706
▁student	-14707
▁campaign	-14708
ịt	-14709
avi	-14710
jay	-14711
▁tớ	-14712
cium	-14713
▁gnu	-14714
▁farr	-14715
▁ivie	-14716
▁nina	-14717
▁nott	-14718
▁sett	-14719
▁triple	-14720
▁ardennes	-14721
psychotria	-14722
▁santalaceae	-14723
gm	-14724
sẽ	-14725
esk	-14726
ials	-14727
orca	-14728
walk	-14729
▁''-	-14730
▁dữu	-14731
▁hap	-14732
▁nog	-14733
▁syl	-14734
polyg	-14735
▁heli	-14736
▁kend	-14737
▁kunze	-14738
▁might	-14739
▁sheep	-14740
▁triện	-14741
▁shadow	-14742
stigmella	-14743
▁constantine	-14744
▁abe	-14745
▁mcd	-14746
▁html	-14747
▁kats	-14748
▁poss	-14749
▁said	-14750
ricane	-14751
▁ghita	-14752
▁synth	-14753
▁thorn	-14754
▁reeder	-14755
▁goldblatt	-14756
▁ae	-14757
▁bp	-14758
▁xù	-14759
anea	-14760
enic	-14761
khan	-14762
quar	-14763
force	-14764
indon	-14765
▁alto	-14766
▁gius	-14767
▁quer	-14768
▁wine	-14769
▁shepard	-14770
▁sulawesi	-14771
enterprise	-14772
▁mithridates	-14773
ха	-14774
duc	-14775
hòn	-14776
kra	-14777
▁-0	-14778
jane	-14779
▁eis	-14780
▁oil	-14781
▁pog	-14782
▁bran	-14783
powell	-14784
yellow	-14785
▁cheng	-14786
▁ville	-14787
▁motors	-14788
▁(000-000),	-14789
▁00.0.0000,	-14790
▁sỉ	-14791
acha	-14792
acht	-14793
aide	-14794
boro	-14795
wolf	-14796
▁mou	-14797
▁ult	-14798
▁xao	-14799
▁abys	-14800
▁ecol	-14801
▁elbe	-14802
▁megap	-14803
▁morph	-14804
▁follow	-14805
aginella	-14806
▁scientific	-14807
▁springfield	-14808
pn	-14809
bầu	-14810
eun	-14811
hầu	-14812
mov	-14813
odi	-14814
tot	-14815
upa	-14816
▁sj	-14817
aunt	-14818
ovia	-14819
▁hới	-14820
▁ide	-14821
▁nos	-14822
.000.	-14823
acker	-14824
amata	-14825
eltis	-14826
umble	-14827
▁wong	-14828
ischen	-14829
▁rugby	-14830
▁osprey	-14831
▁antonov	-14832
australia	-14833
▁schneider	-14834
vu	-14835
.".	-14836
kil	-14837
ahar	-14838
baby	-14839
erta	-14840
phia	-14841
russ	-14842
sign	-14843
xanh	-14844
▁bie	-14845
▁hít	-14846
aring	-14847
edral	-14848
▁bale	-14849
▁earl	-14850
▁emil	-14851
▁mour	-14852
▁shiz	-14853
▁tsun	-14854
▁wiki	-14855
▁ailen	-14856
▁blair	-14857
▁dacia	-14858
▁nexus	-14859
egovina	-14860
▁barack	-14861
▁pleiku	-14862
▁himmler	-14863
▁cornwall	-14864
ем	-14865
.):	-14866
ivi	-14867
phe	-14868
vân	-14869
zin	-14870
▁gt	-14871
-00-	-14872
tion	-14873
writ	-14874
▁adr	-14875
▁dĩa	-14876
human	-14877
nhiếp	-14878
▁chét	-14879
▁cưng	-14880
▁0,0%,	-14881
▁choles	-14882
▁shōnen	-14883
adiantum	-14884
calathea	-14885
▁synonym	-14886
▁scarlett	-14887
▁beethoven	-14888
▁pubescens	-14889
▁dreadnought	-14890
fai	-14891
ugo	-14892
xếp	-14893
▁rt	-14894
osse	-14895
ptis	-14896
polis	-14897
ympic	-14898
▁bard	-14899
▁bazơ	-14900
▁maha	-14901
▁micr	-14902
▁tank	-14903
▁anglo	-14904
▁being	-14905
icularis	-14906
▁september	-14907
▁supporting	-14908
xơ	-14909
vốn	-14910
acte	-14911
giới	-14912
ieng	-14913
▁api	-14914
▁gót	-14915
▁tah	-14916
▁vac	-14917
elach	-14918
mahon	-14919
olith	-14920
▁negr	-14921
▁phia	-14922
italia	-14923
landia	-14924
▁inoue	-14925
▁platy	-14926
▁emperor	-14927
▁freeman	-14928
▁hussein	-14929
új	-14930
olt	-14931
tùy	-14932
bata	-14933
nàng	-14934
stau	-14935
thất	-14936
▁hộc	-14937
oline	-14938
▁bors	-14939
▁duật	-14940
▁eden	-14941
obatra	-14942
▁riềng	-14943
ogaster	-14944
▁keynes	-14945
▁orlando	-14946
▁mohammad	-14947
▁schuster	-14948
▁literature	-14949
erl	-14950
phúc	-14951
▁bip	-14952
eting	-14953
metal	-14954
▁tart	-14955
▁xiếc	-14956
▁orbit	-14957
▁castell	-14958
▁pridgeon	-14959
sho	-14960
▁bü	-14961
clem	-14962
leyi	-14963
▁caf	-14964
▁pis	-14965
▁trơ	-14966
achia	-14967
lehem	-14968
tuyến	-14969
▁frey	-14970
▁myrt	-14971
▁thắn	-14972
verlag	-14973
▁level	-14974
▁pract	-14975
▁featur	-14976
▁format	-14977
▁(00,000	-14978
▁crimean	-14979
▁maximus	-14980
▁(000000)	-14981
▁miyazaki	-14982
▁byelorussia	-14983
▁polytrichaceae	-14984
▁大	-14985
liu	-14986
opp	-14987
phố	-14988
ées	-14989
agel	-14990
iley	-14991
▁ghe	-14992
▁yin	-14993
atica	-14994
▁adri	-14995
▁myst	-14996
▁nhờn	-14997
▁nike	-14998
▁oahu	-14999
▁poir	-15000
▁rend	-15001
▁vồng	-15002
osauria	-15003
ostylis	-15004
rhaphid	-15005
▁christie	-15006
▁flanders	-15007
▁toulouse	-15008
▁э	-15009
duy	-15010
hơn	-15011
▁bs	-15012
▁sg	-15013
mười	-15014
nard	-15015
orch	-15016
▁năn	-15017
onaut	-15018
▁cran	-15019
▁treb	-15020
▁unic	-15021
00'00"	-15022
▁bufon	-15023
▁rouge	-15024
▁bolton	-15025
▁canyon	-15026
▁hesper	-15027
▁thames	-15028
ianthera	-15029
▁lorenzo	-15030
▁romance	-15031
▁catalunya	-15032
▁photograph	-15033
urb	-15034
ная	-15035
ande	-15036
biệt	-15037
soni	-15038
tual	-15039
▁gps	-15040
▁lae	-15041
chống	-15042
▁hull	-15043
▁keys	-15044
▁ngửa	-15045
▁cuneo	-15046
▁minsk	-15047
▁thani	-15048
▁hubble	-15049
▁jeremy	-15050
▁monica	-15051
▁rabaul	-15052
▁rotund	-15053
▁schott	-15054
▁reading	-15055
▁emmanuel	-15056
▁lepidoptera	-15057
▁0000-00-00-00.	-15058
са	-15059
街道	-15060
▁zs	-15061
tral	-15062
đóng	-15063
▁thy	-15064
▁xia	-15065
ustus	-15066
▁elip	-15067
▁pete	-15068
flickr	-15069
otheca	-15070
▁drive	-15071
oniidae	-15072
▁calabria	-15073
▁greatest	-15074
ши	-15075
buc	-15076
dra	-15077
hoe	-15078
pag	-15079
amas	-15080
itum	-15081
litz	-15082
▁gis	-15083
agoya	-15084
icans	-15085
ocala	-15086
▁lượm	-15087
▁ming	-15088
▁sans	-15089
▁tango	-15090
▁amanda	-15091
▁hieron	-15092
▁grumman	-15093
▁mohammed	-15094
▁municipal	-15095
▁electronics	-15096
eke	-15097
rep	-15098
vạn	-15099
▁('	-15100
▁бе	-15101
coch	-15102
orea	-15103
rise	-15104
year	-15105
▁eye	-15106
▁rằm	-15107
▁cler	-15108
▁glad	-15109
ashion	-15110
▁local	-15111
▁shiva	-15112
▁andalus	-15113
bulbophyllum	-15114
mau	-15115
ová	-15116
thai	-15117
éric	-15118
▁tik	-15119
▁viz	-15120
ación	-15121
blake	-15122
falen	-15123
▁chỏm	-15124
▁patt	-15125
▁chiềng	-15126
▁ottawa	-15127
▁trafford	-15128
▁(00/0/0000	-15129
▁casablanca	-15130
▁broadcasting	-15131
0(	-15132
rö	-15133
sĩ	-15134
rhy	-15135
ния	-15136
▁hú	-15137
iffe	-15138
itsa	-15139
syst	-15140
tsin	-15141
▁ngc	-15142
▁wit	-15143
000-0	-15144
marne	-15145
▁groß	-15146
▁gött	-15147
▁laun	-15148
▁pots	-15149
ocaust	-15150
sonian	-15151
▁paolo	-15152
▁sanct	-15153
america	-15154
nheimer	-15155
▁emilia	-15156
▁policy	-15157
▁penguin	-15158
▁schelte	-15159
▁tamerlan	-15160
▁character	-15161
ikh	-15162
rud	-15163
.00.	-15164
mult	-15165
nhãn	-15166
▁gạc	-15167
▁rok	-15168
akami	-15169
▁acut	-15170
▁vari	-15171
estris	-15172
avarman	-15173
derabad	-15174
irostris	-15175
melaleuca	-15176
▁ethernet	-15177
▁cosmopter	-15178
ibe	-15179
mall	-15180
oten	-15181
page	-15182
▁cil	-15183
▁dod	-15184
▁jug	-15185
along	-15186
icula	-15187
ments	-15188
▁côte	-15189
▁pect	-15190
▁pinn	-15191
berlin	-15192
common	-15193
▁vinci	-15194
▁giuseppe	-15195
▁yokohama	-15196
▁occidentalis	-15197
-0:	-15198
mim	-15199
yun	-15200
éal	-15201
cand	-15202
sóng	-15203
▁quẻ	-15204
▁voc	-15205
okker	-15206
ption	-15207
▁emir	-15208
▁herb	-15209
▁hild	-15210
▁oval	-15211
▁thcs	-15212
embley	-15213
nhorst	-15214
▁:::''	-15215
▁pixar	-15216
▁things	-15217
enbergia	-15218
▁frances	-15219
▁dassault	-15220
▁thailand	-15221
delphinium	-15222
сти	-15223
▁vä	-15224
angu	-15225
conn	-15226
ngân	-15227
reed	-15228
▁any	-15229
piper	-15230
▁phyll	-15231
▁piper	-15232
▁quart	-15233
▁shine	-15234
titanic	-15235
▁euclid	-15236
▁newman	-15237
▁toyota	-15238
▁physics	-15239
▁elisabeth	-15240
▁*0000-0000	-15241
▁cosmopterigidae	-15242
arh	-15243
jou	-15244
pec	-15245
amaz	-15246
benn	-15247
dang	-15248
ebra	-15249
eous	-15250
▁akh	-15251
▁sứa	-15252
agnep	-15253
cript	-15254
estia	-15255
▁bark	-15256
▁emer	-15257
▁labr	-15258
▁mướn	-15259
▁tran	-15260
▁anast	-15261
▁sưởng	-15262
sengumi	-15263
▁gibson	-15264
▁morton	-15265
▁chapter	-15266
▁section	-15267
▁valentine	-15268
▁heavyweight	-15269
▁independent	-15270
bee	-15271
cải	-15272
vae	-15273
▁ns	-15274
▁vạ	-15275
ases	-15276
itel	-15277
kênh	-15278
undy	-15279
▁cội	-15280
▁tủa	-15281
calam	-15282
▁prae	-15283
▁behav	-15284
▁giăng	-15285
▁sedan	-15286
▁trade	-15287
▁champa	-15288
▁0/0000:	-15289
▁saladin	-15290
▁vicente	-15291
incinnati	-15292
cb	-15293
委員	-15294
kei	-15295
ngư	-15296
scy	-15297
utz	-15298
wag	-15299
ffin	-15300
intr	-15301
jong	-15302
opes	-15303
ovan	-15304
vàng	-15305
▁hạp	-15306
▁kry	-15307
▁yểu	-15308
asure	-15309
▁dioc	-15310
▁devil	-15311
papilio	-15312
▁gekkon	-15313
▁hornet	-15314
"(	-15315
лу	-15316
kie	-15317
oso	-15318
▁//	-15319
egia	-15320
▁0:0	-15321
▁jub	-15322
▁reh	-15323
▁vỉa	-15324
▁duẩn	-15325
▁evil	-15326
▁meng	-15327
▁plym	-15328
▁reef	-15329
▁seng	-15330
▁tuộc	-15331
dactyl	-15332
▁brooks	-15333
▁brisbane	-15334
▁progress	-15335
▁nashville	-15336
▁panchayat	-15337
plectranthus	-15338
▁0-00-000000-0.	-15339
/''	-15340
zac	-15341
barr	-15342
lady	-15343
rill	-15344
▁chớ	-15345
,...)	-15346
hesper	-15347
▁cargo	-15348
▁pasha	-15349
▁these	-15350
▁viêng	-15351
▁000.00	-15352
▁halifax	-15353
▁springer	-15354
▁bethlehem	-15355
▁gloucester	-15356
aji	-15357
ướu	-15358
▁ff	-15359
▁ml	-15360
imal	-15361
uatu	-15362
▁rna	-15363
boiss	-15364
buddh	-15365
▁caus	-15366
▁hick	-15367
empire	-15368
▁allan	-15369
▁kindb	-15370
pitcair	-15371
▁bishop	-15372
▁cephal	-15373
▁dreams	-15374
▁veneto	-15375
▁wester	-15376
▁justice	-15377
▁timothy	-15378
▁polynesia	-15379
▁ž	-15380
▁е	-15381
ogg	-15382
tốc	-15383
vez	-15384
garh	-15385
haus	-15386
muse	-15387
oran	-15388
phyr	-15389
room	-15390
thun	-15391
▁koz	-15392
▁rpg	-15393
▁río	-15394
attus	-15395
cheng	-15396
eline	-15397
ignano	-15398
▁0000(	-15399
▁entom	-15400
▁schul	-15401
ocephal	-15402
▁mehmed	-15403
▁console	-15404
▁editions	-15405
▁fabricius	-15406
▁flagstaff	-15407
dm	-15408
vệ	-15409
cip	-15410
zab	-15411
сто	-15412
ards	-15413
coin	-15414
-00),	-15415
ictus	-15416
pling	-15417
▁bras	-15418
▁kids	-15419
▁priv	-15420
▁rolf	-15421
▁hutch	-15422
stachys	-15423
▁basque	-15424
▁davall	-15425
▁dniepr	-15426
▁metall	-15427
▁potsdam	-15428
▁montreal	-15429
▁yamamoto	-15430
▁constantinople	-15431
.0.	-15432
pip	-15433
▁(#	-15434
).''	-15435
acta	-15436
ects	-15437
vere	-15438
vres	-15439
▁hót	-15440
▁nạt	-15441
▁tép	-15442
frull	-15443
nikov	-15444
rodes	-15445
round	-15446
▁pern	-15447
israel	-15448
▁watch	-15449
▁tanaka	-15450
▁carpenter	-15451
(0000-0000)	-15452
xo	-15453
uña	-15454
▁zy	-15455
pall	-15456
pris	-15457
▁ehr	-15458
▁nạo	-15459
-00).	-15460
leben	-15461
▁fiss	-15462
▁thát	-15463
anthum	-15464
▁sumer	-15465
▁nguyen	-15466
▁salamanca	-15467
éa	-15468
nel	-15469
rut	-15470
seg	-15471
hoon	-15472
wehr	-15473
▁thé	-15474
▁tấp	-15475
power	-15476
ruary	-15477
stock	-15478
▁yuki	-15479
▁damas	-15480
▁quýnh	-15481
▁snake	-15482
ictidae	-15483
▁carmen	-15484
▁hearts	-15485
▁tomato	-15486
▁curtiss	-15487
alexander	-15488
▁canberra	-15489
▁director	-15490
▁bufonidae	-15491
lại	-15492
▁rà	-15493
▁sō	-15494
bera	-15495
cổng	-15496
eden	-15497
gary	-15498
phen	-15499
prom	-15500
rell	-15501
rius	-15502
zhev	-15503
▁cub	-15504
▁lốp	-15505
="000	-15506
colle	-15507
▁hert	-15508
▁imax	-15509
▁ital	-15510
▁kish	-15511
▁wave	-15512
▁gwang	-15513
▁jorge	-15514
▁lamar	-15515
▁burser	-15516
▁economics	-15517
-''	-15518
hex	-15519
kap	-15520
örn	-15521
onen	-15522
scot	-15523
▁cổn	-15524
▁goi	-15525
adeus	-15526
plant	-15527
royce	-15528
▁quint	-15529
▁00/00,	-15530
▁ballet	-15531
▁triang	-15532
▁plymouth	-15533
▁gekkonidae	-15534
▁0000000000000	-15535
▁bd	-15536
▁nc	-15537
eury	-15538
ская	-15539
▁nguỵ	-15540
▁đuốc	-15541
▁đước	-15542
aeidae	-15543
cinium	-15544
odonta	-15545
▁amber	-15546
▁derek	-15547
▁adrian	-15548
▁monkey	-15549
odendrum	-15550
▁somerset	-15551
▁000.000.000	-15552
▁cholesterol	-15553
mf	-15554
elf	-15555
kul	-15556
ález	-15557
▁tie	-15558
▁aven	-15559
▁kheo	-15560
iforme	-15561
script	-15562
▁leslie	-15563
▁object	-15564
▁another	-15565
frullania	-15566
▁amblysteg	-15567
gió	-15568
nhe	-15569
đàn	-15570
▁rc	-15571
coel	-15572
colm	-15573
vern	-15574
etala	-15575
▁nghè	-15576
fthansa	-15577
▁0000.''	-15578
▁réunion	-15579
▁burseraceae	-15580
▁„	-15581
dat	-15582
lud	-15583
▁gm	-15584
委員會	-15585
colo	-15586
mind	-15587
neum	-15588
rừng	-15589
tống	-15590
▁bov	-15591
▁còi	-15592
▁sod	-15593
happy	-15594
▁kung	-15595
▁lass	-15596
▁javan	-15597
▁meuse	-15598
▁kuznet	-15599
▁tripoli	-15600
▁various	-15601
▁00-00-0000,	-15602
▁}	-15603
clo	-15604
mei	-15605
▁dü	-15606
guer	-15607
home	-15608
imov	-15609
▁dãi	-15610
▁kèo	-15611
▁nut	-15612
▁sậy	-15613
child	-15614
▁frut	-15615
▁giặt	-15616
▁khun	-15617
▁maru	-15618
albert	-15619
▁january	-15620
▁yeltsin	-15621
▁andersen	-15622
selaginella	-15623
▁population	-15624
gp	-15625
gà	-15626
eud	-15627
▁oc	-15628
▁đọ	-15629
anac	-15630
orov	-15631
trum	-15632
▁gum	-15633
imura	-15634
▁berk	-15635
▁dorn	-15636
▁ngõa	-15637
▁nigric	-15638
▁vienne	-15639
▁cornell	-15640
▁lorentz	-15641
starcraft	-15642
▁agricult	-15643
chtenstein	-15644
▁philosophy	-15645
▁amblystegiaceae	-15646
!".	-15647
-00:	-15648
cath	-15649
elat	-15650
mars	-15651
▁giu	-15652
▁méo	-15653
▁thố	-15654
ficus	-15655
palum	-15656
rotis	-15657
▁isid	-15658
▁lươn	-15659
▁teng	-15660
thymus	-15661
▁beauty	-15662
▁flickr	-15663
▁dynasty	-15664
▁honolulu	-15665
▁greenwood	-15666
▁mountains	-15667
▁johannesburg	-15668
aaa	-15669
▁ле	-15670
grad	-15671
graf	-15672
ugin	-15673
week	-15674
đứng	-15675
▁ans	-15676
▁dau	-15677
▁kes	-15678
▁lax	-15679
▁yển	-15680
atina	-15681
davis	-15682
owska	-15683
ropus	-15684
▁bates	-15685
aechmea	-15686
▁friend	-15687
▁göttingen	-15688
▁federation	-15689
inx	-15690
▁nỏ	-15691
▁xf	-15692
▁ôi	-15693
▁pem	-15694
▁xúi	-15695
ismus	-15696
stipa	-15697
▁leng	-15698
▁cache	-15699
issimum	-15700
▁factor	-15701
▁episode	-15702
▁caporiacco	-15703
bá	-15704
ql	-15705
aye	-15706
▁np	-15707
▁bẩy	-15708
▁upd	-15709
olata	-15710
▁scri	-15711
▁sims	-15712
iopsis	-15713
▁taira	-15714
▁reprint	-15715
▁falkland	-15716
pitcairnia	-15717
▁aristotle	-15718
bát	-15719
civ	-15720
irk	-15721
jah	-15722
mig	-15723
suz	-15724
wit	-15725
chic	-15726
cour	-15727
penn	-15728
wend	-15729
▁gập	-15730
▁kaf	-15731
acaly	-15732
▁igor	-15733
▁meur	-15734
▁role	-15735
▁seth	-15736
olkata	-15737
ophaga	-15738
▁schwe	-15739
▁suite	-15740
▁would	-15741
icaulis	-15742
mission	-15743
▁random	-15744
▁ubuntu	-15745
corhynchus	-15746
eriocaulon	-15747
▁hyderabad	-15748
edge	-15749
lamp	-15750
otov	-15751
ylie	-15752
▁cec	-15753
▁dad	-15754
inary	-15755
otham	-15756
▁rust	-15757
▁thẫm	-15758
▁cabin	-15759
▁humph	-15760
ophanes	-15761
▁apache	-15762
▁mccain	-15763
ostegium	-15764
▁defense	-15765
▁hormone	-15766
▁maguire	-15767
▁intellig	-15768
▁languages	-15769
aim	-15770
▁rệ	-15771
dist	-15772
▁gob	-15773
▁sug	-15774
aurea	-15775
clair	-15776
▁silv	-15777
▁webb	-15778
▁zomb	-15779
flight	-15780
▁fresh	-15781
▁gauss	-15782
▁honey	-15783
▁shang	-15784
▁spiel	-15785
▁steud	-15786
▁watts	-15787
ovision	-15788
▁hipper	-15789
▁ochyra	-15790
▁rostov	-15791
▁sonata	-15792
oscyphus	-15793
▁journey	-15794
▁wembley	-15795
ду	-15796
親王	-15797
cep	-15798
sheh	-15799
step	-15800
umba	-15801
wana	-15802
wild	-15803
▁lyr	-15804
▁dawn	-15805
▁dhar	-15806
▁fior	-15807
▁styl	-15808
▁xoan	-15809
▁hanja	-15810
▁darius	-15811
▁sasuke	-15812
▁gaddafi	-15813
▁gardner	-15814
osauridae	-15815
▁universe	-15816
nau	-15817
alam	-15818
cond	-15819
emek	-15820
▁cút	-15821
moths	-15822
▁diet	-15823
▁kont	-15824
▁mund	-15825
▁jesse	-15826
▁prime	-15827
▁virid	-15828
ardenne	-15829
pokémon	-15830
windows	-15831
▁caliber	-15832
▁november	-15833
▁ramesses	-15834
▁professional	-15835
joo	-15836
case	-15837
inde	-15838
oric	-15839
rard	-15840
rift	-15841
word	-15842
▁php	-15843
ambul	-15844
antia	-15845
sbury	-15846
scope	-15847
sider	-15848
▁00%;	-15849
▁beet	-15850
▁cược	-15851
▁dise	-15852
▁hydr	-15853
▁lars	-15854
▁pmax	-15855
▁thây	-15856
chuyên	-15857
paepal	-15858
▁chamb	-15859
▁ngoặc	-15860
▁tyson	-15861
jacques	-15862
lastrea	-15863
▁harbor	-15864
▁jeanne	-15865
▁milton	-15866
▁palais	-15867
othecium	-15868
paepalanthus	-15869
-0/	-15870
bag	-15871
got	-15872
ной	-15873
▁tq	-15874
comm	-15875
geor	-15876
▁bàu	-15877
▁gry	-15878
▁nir	-15879
▁ole	-15880
▁wur	-15881
thắng	-15882
terson	-15883
▁burke	-15884
▁ramos	-15885
▁blanch	-15886
plagioch	-15887
▁million	-15888
▁liliaceae	-15889
dep	-15890
▁:0	-15891
lund	-15892
ocom	-15893
▁hof	-15894
▁psy	-15895
albot	-15896
erule	-15897
final	-15898
▁jtwc	-15899
▁neur	-15900
▁rect	-15901
▁fleet	-15902
▁nishi	-15903
▁forces	-15904
▁strauss	-15905
▁reynolds	-15906
continental	-15907
mul	-15908
oyo	-15909
amba	-15910
unga	-15911
blood	-15912
▁cash	-15913
▁dahl	-15914
▁lynn	-15915
▁prat	-15916
▁tằng	-15917
itaria	-15918
warren	-15919
▁annie	-15920
oedemia	-15921
▁garcia	-15922
▁goethe	-15923
▁papers	-15924
▁manager	-15925
▁mikhael	-15926
▁mozilla	-15927
▁vanuatu	-15928
▁windsor	-15929
▁tiberius	-15930
▁angustifolia	-15931
tn	-15932
dog	-15933
sko	-15934
▁uv	-15935
▁sủa	-15936
culus	-15937
istes	-15938
▁cena	-15939
▁coss	-15940
agalus	-15941
▁caucas	-15942
▁fowler	-15943
▁lionel	-15944
▁concept	-15945
▁tonight	-15946
▁plagioch	-15947
▁molecular	-15948
buk	-15949
căn	-15950
▁mn	-15951
antz	-15952
apor	-15953
ecom	-15954
full	-15955
orig	-15956
rodr	-15957
▁eum	-15958
▁hấn	-15959
osome	-15960
▁kohl	-15961
▁brock	-15962
▁khuấy	-15963
▁linds	-15964
▁mômen	-15965
▁theme	-15966
▁berber	-15967
▁pietro	-15968
▁vaughan	-15969
▁claudius	-15970
▁gorbachev	-15971
▁davalliaceae	-15972
▁liechtenstein	-15973
alp	-15974
eze	-15975
idd	-15976
ilt	-15977
nhớ	-15978
zai	-15979
enze	-15980
escu	-15981
ngụy	-15982
serr	-15983
▁jah	-15984
▁kyu	-15985
▁zel	-15986
plate	-15987
▁dich	-15988
▁gett	-15989
▁liti	-15990
▁pras	-15991
▁sint	-15992
▁tito	-15993
▁vừng	-15994
▁forum	-15995
▁hecta	-15996
▁roads	-15997
▁antwer	-15998
▁hollow	-15999
▁spruce	-16000
▁october	-16001
▁satsuma	-16002
▁klotzsch	-16003
▁catalogue	-16004
▁polygalaceae	-16005
imet	-16006
▁###	-16007
ensky	-16008
hampe	-16009
▁araf	-16010
▁caes	-16011
▁jake	-16012
▁tril	-16013
▁wies	-16014
▁brass	-16015
▁sturm	-16016
▁rotten	-16017
▁(0/0000	-16018
▁captain	-16019
▁current	-16020
▁norwich	-16021
▁adventure	-16022
夫人	-16023
jal	-16024
lys	-16025
mix	-16026
yat	-16027
▁rơ	-16028
mare	-16029
▁0%.	-16030
▁mụn	-16031
berto	-16032
hoffm	-16033
▁luca	-16034
▁trig	-16035
-0.000	-16036
sburgh	-16037
▁cloud	-16038
▁khuya	-16039
ognatha	-16040
▁integr	-16041
alsophila	-16042
▁abdullah	-16043
▁catarina	-16044
▁handbook	-16045
▁herzegovina	-16046
▁pterophoridae	-16047
ebb	-16048
tap	-16049
▁0°	-16050
hsiu	-16051
imax	-16052
pill	-16053
tica	-16054
▁hub	-16055
▁laz	-16056
▁rầm	-16057
▁про	-16058
helic	-16059
immer	-16060
▁amor	-16061
▁trẫm	-16062
church	-16063
olaena	-16064
single	-16065
terdam	-16066
▁0,0%.	-16067
▁bosch	-16068
▁check	-16069
▁gastr	-16070
▁param	-16071
▁pleur	-16072
▁cinema	-16073
▁rivers	-16074
▁toledo	-16075
▁includes	-16076
acianthera	-16077
bò	-16078
со	-16079
編修	-16080
azu	-16081
flo	-16082
oha	-16083
trở	-16084
vig	-16085
haru	-16086
otic	-16087
robi	-16088
ívar	-16089
▁kib	-16090
▁phở	-16091
ipper	-16092
itive	-16093
rhein	-16094
▁aviv	-16095
▁baek	-16096
▁mead	-16097
▁vega	-16098
▁elena	-16099
▁jenny	-16100
▁lópez	-16101
▁moran	-16102
▁shink	-16103
▁table	-16104
▁nuclear	-16105
formation	-16106
▁lightning	-16107
phorbiaceae	-16108
▁plagiochilaceae	-16109
tả	-16110
▁kí	-16111
▁то	-16112
alta	-16113
ocia	-16114
trix	-16115
wide	-16116
▁chū	-16117
▁hòm	-16118
entia	-16119
issau	-16120
prinz	-16121
▁kure	-16122
▁mono	-16123
▁polo	-16124
▁thọc	-16125
▁toul	-16126
mobile	-16127
▁arrow	-16128
▁elvis	-16129
▁espir	-16130
▁kabul	-16131
▁khăng	-16132
▁dalton	-16133
▁flores	-16134
ceedings	-16135
astragalus	-16136
▁holocaust	-16137
hỗ	-16138
▁δ	-16139
bob	-16140
sad	-16141
▁kt	-16142
▁mí	-16143
▁nk	-16144
ingu	-16145
▁ref	-16146
▁ryū	-16147
fonso	-16148
▁nghé	-16149
▁ngần	-16150
▁thur	-16151
編修委員會	-16152
entice	-16153
▁cello	-16154
▁strasbourg	-16155
▁佛光大辭典編修委員會	-16156
▁programming	-16157
đỏ	-16158
dvd	-16159
lạc	-16160
▁lv	-16161
econ	-16162
lăng	-16163
▁ahn	-16164
▁era	-16165
▁ghẻ	-16166
▁yen	-16167
uyama	-16168
ughton	-16169
▁dante	-16170
▁faith	-16171
▁taekw	-16172
▁comedy	-16173
▁salmon	-16174
idiaceae	-16175
▁preston	-16176
▁borussia	-16177
myo	-16178
▁qf	-16179
glas	-16180
hawk	-16181
kaku	-16182
kook	-16183
olid	-16184
otho	-16185
▁sae	-16186
homal	-16187
▁gutt	-16188
▁birth	-16189
▁hampton	-16190
▁neckeraceae	-16191
▁0000-0000'',	-16192
bùi	-16193
eks	-16194
thì	-16195
ubo	-16196
icat	-16197
pole	-16198
tres	-16199
cover	-16200
essex	-16201
etter	-16202
imper	-16203
▁bore	-16204
▁farm	-16205
▁mens	-16206
▁vãng	-16207
thuyết	-16208
▁corps	-16209
▁while	-16210
begonia	-16211
▁actors	-16212
▁(0,00%)	-16213
▁tomatoes	-16214
▁meteoriaceae	-16215
loe	-16216
icea	-16217
phục	-16218
tree	-16219
ussa	-16220
đừng	-16221
▁kae	-16222
▁tec	-16223
▁đát	-16224
▁casc	-16225
▁grow	-16226
▁léon	-16227
▁shig	-16228
joseph	-16229
upiter	-16230
▁aichi	-16231
▁mills	-16232
▁randy	-16233
▁école	-16234
▁felder	-16235
▁marant	-16236
▁trojan	-16237
▁unidos	-16238
▁junkers	-16239
▁taekwondo	-16240
ffa	-16241
hyo	-16242
anem	-16243
glad	-16244
look	-16245
oiss	-16246
pand	-16247
▁gear	-16248
▁nhạo	-16249
▁sark	-16250
▁vera	-16251
▁ðông	-16252
▁bauer	-16253
▁heinz	-16254
ги	-16255
ced	-16256
ườm	-16257
▁dè	-16258
▁gü	-16259
arts	-16260
▁flu	-16261
▁hou	-16262
admir	-16263
dance	-16264
▁phon	-16265
▁subs	-16266
▁ellis	-16267
ocarpum	-16268
▁called	-16269
▁fuller	-16270
▁kerala	-16271
▁giorgio	-16272
▁medical	-16273
▁magellan	-16274
▁christine	-16275
ты	-16276
▁ø	-16277
ibu	-16278
quê	-16279
▁*(	-16280
thịt	-16281
▁bik	-16282
▁dạn	-16283
▁ech	-16284
▁miq	-16285
▁oth	-16286
ochloa	-16287
utiaux	-16288
▁tolst	-16289
amensis	-16290
velines	-16291
omitrium	-16292
▁fukuoka	-16293
▁nikolay	-16294
▁wheeler	-16295
▁00-00000	-16296
▁confeder	-16297
▁barbarossa	-16298
ayi	-16299
đọc	-16300
aura	-16301
flow	-16302
kawa	-16303
ohan	-16304
▁kyō	-16305
after	-16306
▁fear	-16307
▁room	-16308
▁swaz	-16309
▁xước	-16310
gerald	-16311
theast	-16312
▁campo	-16313
▁hécta	-16314
▁tetra	-16315
primula	-16316
▁fyodor	-16317
▁hector	-16318
▁kolkata	-16319
▁labrador	-16320
▁0000–0000''.	-16321
▁lindsaeaceae	-16322
aks	-16323
lào	-16324
ние	-16325
agor	-16326
enti	-16327
khúc	-16328
lyth	-16329
opia	-16330
symp	-16331
unge	-16332
actor	-16333
▁ches	-16334
▁nhứt	-16335
▁rash	-16336
▁tarr	-16337
▁tomb	-16338
▁''00''	-16339
▁manche	-16340
▁marino	-16341
▁baldwin	-16342
▁orchids	-16343
icomorpha	-16344
▁symphony	-16345
▁smithsonian	-16346
đỗ	-16347
atro	-16348
iken	-16349
omyr	-16350
ynia	-16351
▁bẹp	-16352
▁heg	-16353
▁rái	-16354
▁thà	-16355
▁zak	-16356
esian	-16357
giang	-16358
▁khoe	-16359
▁nhuế	-16360
▁nhấp	-16361
▁scop	-16362
bergia	-16363
caceae	-16364
gaster	-16365
▁chiba	-16366
▁piece	-16367
▁centur	-16368
▁grosso	-16369
▁hansen	-16370
▁nagoya	-16371
▁salerno	-16372
▁stadium	-16373
▁mcdonald	-16374
▁philippos	-16375
▁cincinnati	-16376
món	-16377
yne	-16378
atov	-16379
kent	-16380
turn	-16381
▁cộc	-16382
▁hyl	-16383
enner	-16384
urday	-16385
▁alta	-16386
▁benz	-16387
▁bord	-16388
▁cana	-16389
▁lamb	-16390
▁hello	-16391
actylus	-16392
▁hassan	-16393
▁memphis	-16394
▁ricardo	-16395
▁selagin	-16396
▁winchester	-16397
ŏn	-16398
ту	-16399
dựa	-16400
ayas	-16401
iche	-16402
ipur	-16403
korn	-16404
olep	-16405
sams	-16406
äger	-16407
distr	-16408
etime	-16409
▁este	-16410
▁evan	-16411
▁;0000	-16412
▁annam	-16413
▁trent	-16414
ensburg	-16415
shehbaz	-16416
▁dipter	-16417
▁göring	-16418
histoire	-16419
istoloch	-16420
▁affinis	-16421
ák	-16422
ær	-16423
xes	-16424
▁hō	-16425
▁ll	-16426
bant	-16427
laur	-16428
vịnh	-16429
▁ami	-16430
▁tơi	-16431
achal	-16432
giọng	-16433
▁moor	-16434
▁same	-16435
▁walk	-16436
ifraga	-16437
▁celeb	-16438
▁lazio	-16439
▁pérez	-16440
▁trees	-16441
oissiere	-16442
oleaceae	-16443
▁mohamed	-16444
vaccinium	-16445
▁nouvelle	-16446
university	-16447
▁0-000-00000-	-16448
▁descriptions	-16449
大学	-16450
ctv	-16451
▁бо	-16452
hidi	-16453
kiểm	-16454
opop	-16455
aphyl	-16456
didym	-16457
[...]
