<unk>	0
<s>	0
</s>	0
00	-0
0000	-1
▁*	-2
000	-3
an	-4
er	-5
''	-6
in	-7
▁0000	-8
on	-9
ar	-10
▁s	-11
en	-12
▁t	-13
(0000	-14
or	-15
),	-16
al	-17
。0000	-18
▁c	-19
at	-20
▁**	-21
▁:	-22
es	-23
is	-24
▁m	-25
he	-26
▁-	-27
le	-28
▁p	-29
ic	-30
▁f	-31
▁b	-32
it	-33
▁(	-34
▁#	-35
▁d	-36
▁0	-37
re	-38
▁a	-39
ro	-40
▁o	-41
▁*0000	-42
公司	-43
第一	-44
使用	-45
)。	-46
.0	-47
,0000	-48
中国	-49
香港	-50
us	-51
as	-52
日本	-53
政府	-54
am	-55
el	-56
ion	-57
可以	-58
▁00	-59
▁l	-60
un	-61
▁w	-62
and	-63
▁g	-64
ch	-65
ol	-66
的一	-67
▁''	-68
▁the	-69
▁h	-70
▁of	-71
il	-72
)、	-73
ing	-74
世界	-75
ed	-76
以及	-77
-00	-78
-0000	-79
研究	-80
▁n	-81
et	-82
ra	-83
一個	-84
一个	-85
包括	-86
自己	-87
st	-88
om	-89
ur	-90
第二	-91
部分	-92
-0	-93
▁in	-94
ac	-95
其他	-96
主要	-97
,000	-98
▁000	-99
美國	-100
因此	-101
id	-102
中國	-103
人民	-104
成為	-105
其中	-106
ent	-107
台灣	-108
:00	-109
.00	-110
中心	-111
大学	-112
工作	-113
▁《	-114
中的	-115
▁;	-116
開始	-117
im	-118
▁v	-119
」,	-120
大學	-121
zh	-122
他的	-123
ig	-124
()	-125
▁k	-126
ad	-127
▁在	-128
美国	-129
iv	-130
ut	-131
▁and	-132
因為	-133
不同	-134
代表	-135
電視	-136
可能	-137
▁e	-138
ag	-139
中央	-140
▁j	-141
之一	-142
沒有	-143
」。	-144
▁(0000	-145
成立	-146
文化	-147
ation	-148
是一	-149
ot	-150
um	-151
》(	-152
ia	-153
ir	-154
》,	-155
▁st	-156
進行	-157
os	-158
国家	-159
ul	-160
政治	-161
上的	-162
ow	-163
..	-164
的人	-165
他們	-166
pg	-167
表示	-168
ter	-169
}-	-170
所有	-171
ct	-172
人的	-173
em	-174
年的	-175
ile	-176
由於	-177
”。	-178
之後	-179
0.0	-180
op	-181
教育	-182
▁r	-183
管理	-184
大的	-185
开始	-186
jpg	-187
年代	-188
ay	-189
但是	-190
”,	-191
提供	-192
正式	-193
公里	-194
認為	-195
電影	-196
成为	-197
當時	-198
國家	-199
-{	-200
进行	-201
作品	-202
od	-203
th	-204
北京	-205
ap	-206
也是	-207
》、	-208
第三	-209
一些	-210
出版	-211
ers	-212
-000	-213
最後	-214
音樂	-215
工程	-216
地區	-217
):	-218
委员	-219
上海	-220
han	-221
國際	-222
他们	-223
没有	-224
同時	-225
▁re	-226
ie	-227
到了	-228
事件	-229
地区	-230
学院	-231
▁file	-232
方面	-233
系統	-234
共和	-235
ce	-236
時間	-237
支持	-238
委員	-239
系列	-240
》、《	-241
重要	-242
設計	-243
位於	-244
中華	-245
▁*《	-246
所以	-247
獲得	-248
就是	-249
——	-250
需要	-251
行政	-252
ab	-253
發展	-254
臺灣	-255
the	-256
ak	-257
通过	-258
城市	-259
英國	-260
og	-261
成功	-262
地方	-263
ip	-264
ist	-265
ov	-266
▁***	-267
加入	-268
自由	-269
生活	-270
一般	-271
最佳	-272
oc	-273
完成	-274
要求	-275
出現	-276
▁is	-277
最高	-278
發現	-279
後來	-280
受到	-281
稱為	-282
由于	-283
製作	-284
认为	-285
方式	-286
遊戲	-287
民國	-288
(0	-289
有一	-290
建立	-291
获得	-292
的大	-293
例如	-294
av	-295
目前	-296
ess	-297
▁飾	-298
(000	-299
位于	-300
」(	-301
▁ch	-302
是在	-303
存在	-304
航空	-305
'')	-306
擔任	-307
▁de	-308
all	-309
系统	-310
自己的	-311
作為	-312
為了	-313
art	-314
了一	-315
作为	-316
運動	-317
00.0	-318
社會	-319
▁y	-320
国际	-321
之后	-322
▁to	-323
的是	-324
這個	-325
ard	-326
,0	-327
控制	-328
造成	-329
ph	-330
然而	-331
學校	-332
if	-333
est	-334
人口	-335
提出	-336
bn	-337
另外	-338
非常	-339
有限	-340
ub	-341
铁路	-342
只有	-343
合作	-344
(''	-345
形成	-346
成員	-347
同年	-348
足球	-349
服務	-350
節目	-351
角色	-352
通常	-353
,00	-354
大利	-355
能力	-356
雖然	-357
學生	-358
ill	-359
斯特	-360
:“	-361
同时	-362
歌曲	-363
ang	-364
車站	-365
一直	-366
得到	-367
qu	-368
如果	-369
接受	-370
ell	-371
這些	-372
主席	-373
任何	-374
故事	-375
前往	-376
ine	-377
这个	-378
民主	-379
影響	-380
。”	-381
具有	-382
二十	-383
活動	-384
建筑	-385
除了	-386
取得	-387
發生	-388
发展	-389
学校	-390
。0	-391
00%	-392
/00	-393
经济	-394
許多	-395
因为	-396
组织	-397
印度	-398
都是	-399
專輯	-400
:「	-401
电影	-402
交通	-403
不是	-404
增加	-405
设计	-406
委员会	-407
▁(0000)	-408
期間	-409
一起	-410
社会	-411
0,000	-412
世纪	-413
之前	-414
▁for	-415
ian	-416
主义	-417
中共	-418
hk	-419
關係	-420
:0000	-421
革命	-422
ud	-423
这些	-424
名為	-425
名的	-426
發行	-427
英国	-428
当时	-429
、0000	-430
已經	-431
他在	-432
甚至	-433
冠軍	-434
版本	-435
se	-436
另一	-437
ity	-438
並且	-439
主教	-440
ii	-441
問題	-442
完全	-443
首次	-444
up	-445
ge	-446
不能	-447
出生	-448
ber	-449
、00	-450
历史	-451
學院	-452
ant	-453
擁有	-454
und	-455
不過	-456
全国	-457
bs	-458
時期	-459
ok	-460
ne	-461
▁th	-462
之間	-463
決定	-464
'',	-465
進入	-466
歷史	-467
时间	-468
游戏	-469
演出	-470
而且	-471
重新	-472
比賽	-473
▁"	-474
直接	-475
組織	-476
法院	-477
》。	-478
特別	-479
此外	-480
十二	-481
經濟	-482
參與	-483
▁on	-484
0.00	-485
利用	-486
也有	-487
委員會	-488
教授	-489
te	-490
國民	-491
▁ro	-492
性的	-493
大量	-494
有限公司	-495
下的	-496
第四	-497
附近	-498
主任	-499
pe	-500
技术	-501
,《	-502
igh	-503
▁::	-504
新的	-505
运动	-506
ri	-507
已经	-508
(00	-509
ong	-510
:《	-511
公路	-512
方法	-513
安全	-514
参加	-515
ord	-516
新聞	-517
」、	-518
民族	-519
無法	-520
中华	-521
希望	-522
主持	-523
生物	-524
世紀	-525
德国	-526
建築	-527
台北	-528
作曲	-529
宣布	-530
共同	-531
称为	-532
東京	-533
最終	-534
影响	-535
是由	-536
出的	-537
共和国	-538
主義	-539
舉行	-540
▁0000.	-541
的情	-542
位置	-543
0-0	-544
bo	-545
巴士	-546
中華民國	-547
战争	-548
出现	-549
方向	-550
电视	-551
演唱	-552
▁大	-553
平方	-554
對於	-555
年至	-556
ich	-557
分別	-558
这一	-559
ind	-560
美元	-561
▁第	-562
问题	-563
飾演	-564
发生	-565
ive	-566
動畫	-567
主角	-568
年度	-569
一次	-570
直到	-571
▁/	-572
基本	-573
ou	-574
克斯	-575
根據	-576
戰爭	-577
人物	-578
功能	-579
很多	-580
自然	-581
发现	-582
sh	-583
使得	-584
再次	-585
參加	-586
聯合	-587
ik	-588
▁–	-589
部的	-590
攻擊	-591
音乐	-592
之间	-593
兩個	-594
:0	-595
根据	-596
的女	-597
▁al	-598
时期	-599
age	-600
法国	-601
法律	-602
担任	-603
科学	-604
地球	-605
▁le	-606
時代	-607
通過	-608
包含	-609
。00	-610
定的	-611
后来	-612
政策	-613
ith	-614
ran	-615
man	-616
死亡	-617
▁isbn	-618
▁ar	-619
期间	-620
进入	-621
io	-622
總統	-623
法國	-624
行動	-625
▁un	-626
歐洲	-627
pl	-628
最终	-629
歌手	-630
hans	-631
、0	-632
▁ne	-633
两个	-634
部份	-635
屬於	-636
联合	-637
英文	-638
負責	-639
。」	-640
ate	-641
▁pro	-642
成的	-643
」、「	-644
形式	-645
中文	-646
ry	-647
德國	-648
)(	-649
仍然	-650
机车	-651
武器	-652
作用	-653
等人	-654
▁com	-655
唯一	-656
三年	-657
的地	-658
子的	-659
獨立	-660
许多	-661
父親	-662
▁se	-663
戰鬥	-664
不同的	-665
計劃	-666
西班	-667
她的	-668
機場	-669
路線	-670
來的	-671
西班牙	-672
太平	-673
tw	-674
產生	-675
或者	-676
地的	-677
计划	-678
书记	-679
相同	-680
博士	-681
司令	-682
最大	-683
技術	-684
活动	-685
;}-	-686
選舉	-687
end	-688
家庭	-689
》(0000	-690
全球	-691
原因	-692
▁con	-693
居民	-694
一年	-695
第一次	-696
科技	-697
基督	-698
▁an	-699
推出	-700
藝術	-701
解放	-702
)0	-703
官方	-704
ta	-705
▁pr	-706
的名	-707
速度	-708
(),	-709
相當	-710
ib	-711
模式	-712
來自	-713
結果	-714
▁zh	-715
会议	-716
的主	-717
大多	-718
oh	-719
博物	-720
科學	-721
ort	-722
者的	-723
球隊	-724
聯賽	-725
現在	-726
結束	-727
聯盟	-728
列车	-729
青年	-730
ast	-731
的新	-732
高速	-733
力量	-734
加拿	-735
開發	-736
會議	-737
ma	-738
学生	-739
個人	-740
人士	-741
西北	-742
物理	-743
早期	-744
▁sh	-745
名为	-746
自治	-747
our	-748
00000	-749
de	-750
ack	-751
cl	-752
電視台	-753
全部	-754
表演	-755
最后	-756
na	-757
單曲	-758
尼亚	-759
少年	-760
公共	-761
蒙古	-762
玩家	-763
ight	-764
的小	-765
平均	-766
繼續	-767
并且	-768
不久	-769
在此	-770
这种	-771
ver	-772
行的	-773
天文	-774
ies	-775
原本	-776
資料	-777
海軍	-778
服务	-779
集團	-780
ary	-781
00,000	-782
南部	-783
艺术	-784
sp	-785
十分	-786
有的	-787
人員	-788
决定	-789
斯坦	-790
道路	-791
ens	-792
ae	-793
導致	-794
为了	-795
南京	-796
▁&	-797
ck	-798
宗教	-799
▁be	-800
警察	-801
制度	-802
保护	-803
公園	-804
学家	-805
演員	-806
▁:*	-807
ob	-808
但在	-809
ass	-810
必須	-811
指出	-812
生產	-813
ory	-814
▁新	-815
改為	-816
最初	-817
鐵路	-818
拉斯	-819
女子	-820
00:00	-821
配音	-822
天津	-823
加上	-824
欧洲	-825
超過	-826
罗斯	-827
总统	-828
开发	-829
以上	-830
ial	-831
相關	-832
家族	-833
关系	-834
加拿大	-835
於是	-836
领导	-837
用于	-838
大陸	-839
知道	-840
少女	-841
ff	-842
的一个	-843
采用	-844
生产	-845
pr	-846
部隊	-847
多的	-848
身份	-849
畢業	-850
ly	-851
独立	-852
人類	-853
大部分	-854
播出	-855
採用	-856
尼亞	-857
這種	-858
透過	-859
皇帝	-860
引起	-861
年在	-862
列車	-863
rom	-864
”(	-865
,“	-866
處理	-867
第十	-868
其後	-869
回到	-870
、000	-871
不少	-872
唱片	-873
利亚	-874
計畫	-875
遭到	-876
▁*0	-877
▁as	-878
植物	-879
澳門	-880
▁「	-881
朋友	-882
比赛	-883
單位	-884
▁he	-885
iz	-886
兄弟	-887
立法	-888
著名	-889
结构	-890
土地	-891
有關	-892
改革	-893
經過	-894
只是	-895
小時	-896
帝國	-897
外交	-898
羅斯	-899
产生	-900
ug	-901
第五	-902
而在	-903
);	-904
ex	-905
高中	-906
女性	-907
▁0000,	-908
內容	-909
人民共和国	-910
(,	-911
作家	-912
臺北	-913
意大利	-914
一名	-915
信息	-916
先生	-917
它的	-918
傳統	-919
亞洲	-920
建设	-921
能夠	-922
son	-923
导致	-924
co	-925
目的	-926
精神	-927
工业	-928
ide	-929
保護	-930
ure	-931
型的	-932
com	-933
制作	-934
ish	-935
▁x	-936
語言	-937
左右	-938
阿拉	-939
顯示	-940
面积	-941
集团	-942
bc	-943
將軍	-944
導演	-945
描述	-946
成员	-947
日在	-948
的特	-949
普通	-950
里斯	-951
以下	-952
ice	-953
發表	-954
星期	-955
one	-956
ark	-957
並在	-958
ue	-959
la	-960
漫畫	-961
最早	-962
取代	-963
支援	-964
我們	-965
分析	-966
喜歡	-967
地下	-968
北部	-969
曾經	-970
部长	-971
出版社	-972
分别	-973
最大的	-974
好的	-975
ust	-976
国民	-977
西南	-978
共产	-979
調查	-980
電子	-981
作詞	-982
至今	-983
高雄	-984
▁im	-985
多次	-986
和平	-987
一樣	-988
基地	-989
▁at	-990
編曲	-991
第二次	-992
对于	-993
▁,	-994
中學	-995
保持	-996
面的	-997
學家	-998
三十	-999
ore	-1000
市場	-1001
per	-1002
組成	-1003
建造	-1004
出了	-1005
中华人民共和国	-1006
语言	-1007
共有	-1008
格蘭	-1009
越南	-1010
ivers	-1011
ond	-1012
選擇	-1013
之外	-1014
母親	-1015
團體	-1016
军事	-1017
執行	-1018
不會	-1019
四年	-1020
ah	-1021
,「	-1022
....	-1023
.000	-1024
動物	-1025
一位	-1026
紀錄	-1027
太陽	-1028
公開	-1029
全國	-1030
▁z	-1031
董事	-1032
数据	-1033
公尺	-1034
化的	-1035
ment	-1036
ical	-1037
小說	-1038
內的	-1039
研究所	-1040
ire	-1041
虽然	-1042
有些	-1043
。《	-1044
利亞	-1045
離開	-1046
魔法	-1047
力的	-1048
毫米	-1049
去世	-1050
色的	-1051
基金	-1052
環境	-1053
製造	-1054
00.00	-1055
拥有	-1056
▁ex	-1057
協會	-1058
▁by	-1059
限制	-1060
影片	-1061
中山	-1062
ace	-1063
銀行	-1064
韓國	-1065
交流	-1066
帝国	-1067
苏联	-1068
當地	-1069
0)	-1070
加坡	-1071
協助	-1072
不可	-1073
ix	-1074
舉辦	-1075
實際	-1076
議員	-1077
現代	-1078
後的	-1079
居住	-1080
分子	-1081
用的	-1082
—0000	-1083
男子	-1084
负责	-1085
▁pl	-1086
我们	-1087
表現	-1088
標準	-1089
一步	-1090
則是	-1091
因而	-1092
思想	-1093
联赛	-1094
時候	-1095
出任	-1096
重要的	-1097
紀念	-1098
罗马	-1099
工業	-1100
事務	-1101
生命	-1102
流行	-1103
賽事	-1104
int	-1105
人在	-1106
▁ed	-1107
樂團	-1108
▁cl	-1109
的主要	-1110
的高	-1111
年起	-1112
元年	-1113
排名	-1114
接近	-1115
计算	-1116
或是	-1117
的前	-1118
電腦	-1119
▁co	-1120
共和國	-1121
威廉	-1122
标准	-1123
ction	-1124
教堂	-1125
成了	-1126
过程	-1127
媒體	-1128
任命	-1129
程序	-1130
海军	-1131
是否	-1132
her	-1133
大陆	-1134
ite	-1135
四川	-1136
年前	-1137
快速	-1138
来自	-1139
方的	-1140
分布	-1141
引擎	-1142
範圍	-1143
▁0.	-1144
概念	-1145
机构	-1146
大型	-1147
军队	-1148
廣播	-1149
創作	-1150
▁ra	-1151
程度	-1152
ung	-1153
區域	-1154
羅馬	-1155
的第一	-1156
公主	-1157
▁bo	-1158
▁0.0	-1159
反對	-1160
為主	-1161
eng	-1162
失去	-1163
▁sc	-1164
中学	-1165
毕业	-1166
▁本	-1167
文件	-1168
球員	-1169
来的	-1170
國立	-1171
每年	-1172
参与	-1173
mer	-1174
行為	-1175
冠军	-1176
民国	-1177
uc	-1178
部队	-1179
醫院	-1180
还有	-1181
ke	-1182
br	-1183
ows	-1184
元素	-1185
关于	-1186
擊敗	-1187
......	-1188
cd	-1189
▁阿	-1190
机场	-1191
”、	-1192
的事	-1193
达到	-1194
天主教	-1195
▁i	-1196
五年	-1197
這是	-1198
西亞	-1199
訓練	-1200
人员	-1201
for	-1202
都有	-1203
集中	-1204
過程	-1205
be	-1206
分鐘	-1207
還有	-1208
px	-1209
只能	-1210
继续	-1211
新加坡	-1212
aw	-1213
文學	-1214
是一个	-1215
tv	-1216
太平洋	-1217
看到	-1218
...	-1219
▁ph	-1220
二年	-1221
(0000)	-1222
学习	-1223
當中	-1224
葡萄	-1225
巴黎	-1226
英雄	-1227
企業	-1228
妻子	-1229
朝鲜	-1230
軍事	-1231
核心	-1232
二世	-1233
有效	-1234
小时	-1235
▁new	-1236
现在	-1237
▁with	-1238
行星	-1239
使用的	-1240
大戰	-1241
超級	-1242
及其	-1243
停止	-1244
ork	-1245
設有	-1246
昭和	-1247
孩子	-1248
ba	-1249
兩人	-1250
斯的	-1251
指揮	-1252
交易	-1253
如此	-1254
任務	-1255
发行	-1256
结束	-1257
命名	-1258
理论	-1259
use	-1260
決賽	-1261
距離	-1262
反应	-1263
操作	-1264
超过	-1265
隨著	-1266
ina	-1267
网络	-1268
指挥	-1269
殖民	-1270
拍攝	-1271
属于	-1272
方案	-1273
而被	-1274
正在	-1275
的一個	-1276
一世	-1277
收錄	-1278
並不	-1279
初期	-1280
興建	-1281
大臣	-1282
飛機	-1283
美洲	-1284
反对	-1285
河南	-1286
▁te	-1287
商業	-1288
特别	-1289
不得	-1290
經常	-1291
现代	-1292
宇宙	-1293
sc	-1294
以前	-1295
命令	-1296
返回	-1297
體育	-1298
so	-1299
不再	-1300
▁*''	-1301
ational	-1302
名字	-1303
电子	-1304
分為	-1305
目標	-1306
自動	-1307
这样	-1308
▁or	-1309
浙江	-1310
皇家	-1311
公元	-1312
高等	-1313
的意	-1314
州市	-1315
单位	-1316
''.	-1317
公民	-1318
伊斯	-1319
联邦	-1320
投入	-1321
股份	-1322
播放	-1323
经过	-1324
經營	-1325
ft	-1326
機構	-1327
00.0%	-1328
類似	-1329
俄罗斯	-1330
ld	-1331
也被	-1332
约翰	-1333
並於	-1334
ps	-1335
湖南	-1336
投票	-1337
合併	-1338
基础	-1339
lo	-1340
ica	-1341
ys	-1342
過去	-1343
曾在	-1344
再度	-1345
国王	-1346
车站	-1347
东北	-1348
議會	-1349
项目	-1350
企业	-1351
ern	-1352
!!	-1353
land	-1354
地位	-1355
特殊	-1356
随后	-1357
是一個	-1358
▁0000)	-1359
提高	-1360
共产党	-1361
改變	-1362
球队	-1363
首都	-1364
用於	-1365
連續	-1366
感到	-1367
ai	-1368
它们	-1369
斯科	-1370
所在	-1371
ick	-1372
是以	-1373
”、“	-1374
設立	-1375
iss	-1376
第六	-1377
監督	-1378
▁col	-1379
提名	-1380
组成	-1381
:000	-1382
拉克	-1383
名稱	-1384
一同	-1385
公园	-1386
发布	-1387
隧道	-1388
高的	-1389
▁中	-1390
未能	-1391
各種	-1392
程式	-1393
軍隊	-1394
▁*00	-1395
不过	-1396
登場	-1397
ng	-1398
發動	-1399
網路	-1400
传统	-1401
dr	-1402
西方	-1403
pt	-1404
福建	-1405
az	-1406
佛教	-1407
結構	-1408
學習	-1409
保留	-1410
著名的	-1411
尤其	-1412
嚴重	-1413
主題	-1414
等等	-1415
内的	-1416
同意	-1417
indows	-1418
空間	-1419
外的	-1420
▁=	-1421
平台	-1422
文字	-1423
)-	-1424
银行	-1425
各地	-1426
纪念	-1427
日至	-1428
理論	-1429
這樣	-1430
主演	-1431
德里	-1432
面積	-1433
材料	-1434
取消	-1435
王朝	-1436
环境	-1437
▁mar	-1438
職業	-1439
日起	-1440
;0000	-1441
資訊	-1442
we	-1443
韩国	-1444
十年	-1445
▁univers	-1446
下午	-1447
实验	-1448
日的	-1449
ont	-1450
▁—	-1451
实际	-1452
无法	-1453
时候	-1454
医院	-1455
本身	-1456
▁李	-1457
容易	-1458
量的	-1459
持續	-1460
士兵	-1461
都市	-1462
0,	-1463
▁me	-1464
同一	-1465
其它	-1466
的方式	-1467
ho	-1468
时代	-1469
一度	-1470
重建	-1471
发表	-1472
伯特	-1473
逐漸	-1474
▁sp	-1475
之下	-1476
廣告	-1477
ence	-1478
收入	-1479
有人	-1480
的原	-1481
me	-1482
變成	-1483
雜誌	-1484
比較	-1485
批准	-1486
文物	-1487
处理	-1488
父亲	-1489
ohn	-1490
陸軍	-1491
并在	-1492
產品	-1493
都會	-1494
ove	-1495
才能	-1496
俄羅斯	-1497
注意	-1498
基督教	-1499
直至	-1500
结果	-1501
▁小	-1502
作者	-1503
飛行	-1504
月台	-1505
的研究	-1506
高度	-1507
蘇聯	-1508
西部	-1509
州的	-1510
大会	-1511
mar	-1512
得以	-1513
等地	-1514
機會	-1515
展開	-1516
制造	-1517
也在	-1518
节目	-1519
区域	-1520
举行	-1521
而是	-1522
避免	-1523
同樣	-1524
報告	-1525
-00:00	-1526
之中	-1527
这是	-1528
清朝	-1529
tern	-1530
酒店	-1531
市场	-1532
兒子	-1533
真正	-1534
选择	-1535
专业	-1536
大樓	-1537
實驗	-1538
的三	-1539
斯基	-1540
isbn	-1541
ign	-1542
tr	-1543
表面	-1544
ep	-1545
英語	-1546
作戰	-1547
go	-1548
家的	-1549
西亚	-1550
領導	-1551
bl	-1552
路易	-1553
任务	-1554
olog	-1555
年被	-1556
协会	-1557
将军	-1558
得知	-1559
金融	-1560
效果	-1561
文章	-1562
不足	-1563
新闻	-1564
阿尔	-1565
市民	-1566
娛樂	-1567
街道	-1568
▁。	-1569
消息	-1570
配合	-1571
某些	-1572
出口	-1573
000000	-1574
十字	-1575
森林	-1576
身體	-1577
文学	-1578
dv	-1579
統治	-1580
夫人	-1581
記者	-1582
十一	-1583
背景	-1584
。(	-1585
年間	-1586
皇后	-1587
提升	-1588
國王	-1589
演唱會	-1590
lin	-1591
的成	-1592
▁sch	-1593
执行	-1594
秘密	-1595
騎士	-1596
隨後	-1597
au	-1598
▁from	-1599
自行	-1600
紐約	-1601
阿拉伯	-1602
内容	-1603
联盟	-1604
熱帶	-1605
基礎	-1606
移民	-1607
小學	-1608
水平	-1609
中国人民	-1610
ton	-1611
九龍	-1612
广东	-1613
一定	-1614
风暴	-1615
▁br	-1616
ms	-1617
坦克	-1618
▁we	-1619
長的	-1620
以來	-1621
是指	-1622
有著	-1623
六年	-1624
小的	-1625
南方	-1626
情况	-1627
發售	-1628
动物	-1629
的外	-1630
改为	-1631
ier	-1632
發射	-1633
out	-1634
cn	-1635
幫助	-1636
ach	-1637
相关	-1638
著作	-1639
调查	-1640
化学	-1641
00-00	-1642
氧化	-1643
uk	-1644
東北	-1645
战斗	-1646
的首	-1647
).	-1648
相似	-1649
能量	-1650
yn	-1651
随着	-1652
建議	-1653
ve	-1654
ult	-1655
当地	-1656
亦有	-1657
倫敦	-1658
澳大利	-1659
公室	-1660
劇場	-1661
空间	-1662
未來	-1663
此后	-1664
達到	-1665
個月	-1666
的地方	-1667
海岸	-1668
能够	-1669
姆斯	-1670
時的	-1671
解放军	-1672
我的	-1673
必须	-1674
行动	-1675
一種	-1676
可能是	-1677
to	-1678
模型	-1679
參賽	-1680
小说	-1681
網站	-1682
工具	-1683
電視劇	-1684
圖書	-1685
ash	-1686
媒体	-1687
迅速	-1688
項目	-1689
je	-1690
山东	-1691
.,	-1692
fl	-1693
知名	-1694
ax	-1695
安排	-1696
细胞	-1697
广州	-1698
▁university	-1699
大會	-1700
心理	-1701
父母	-1702
明治	-1703
國民黨	-1704
澳洲	-1705
然後	-1706
組合	-1707
禁止	-1708
即使	-1709
之間的	-1710
赛季	-1711
统治	-1712
ics	-1713
专辑	-1714
普遍	-1715
行为	-1716
西藏	-1717
汽車	-1718
体育	-1719
球場	-1720
如何	-1721
范围	-1722
大道	-1723
十八	-1724
尼斯	-1725
逝世	-1726
蛋白	-1727
舞台	-1728
鐵道	-1729
設置	-1730
号线	-1731
ss	-1732
至少	-1733
宣佈	-1734
代理	-1735
非洲	-1736
ath	-1737
规模	-1738
相信	-1739
平方公里	-1740
乘客	-1741
健康	-1742
學者	-1743
ame	-1744
应用	-1745
公司的	-1746
整個	-1747
太空	-1748
▁man	-1749
实现	-1750
运行	-1751
簡稱	-1752
mm	-1753
狀態	-1754
--	-1755
生涯	-1756
are	-1757
有关	-1758
有所	-1759
規模	-1760
生的	-1761
完整	-1762
以後	-1763
月球	-1764
吸引	-1765
他們的	-1766
情況	-1767
南北	-1768
埃及	-1769
各种	-1770
严重	-1771
也不	-1772
瑞典	-1773
約翰	-1774
廣場	-1775
希臘	-1776
博物馆	-1777
0.	-1778
繼承	-1779
建成	-1780
斯卡	-1781
热带	-1782
个人	-1783
arl	-1784
步兵	-1785
cc	-1786
act	-1787
太子	-1788
分为	-1789
▁金	-1790
男性	-1791
old	-1792
▁bl	-1793
維持	-1794
曾任	-1795
視為	-1796
兒童	-1797
▁it	-1798
显示	-1799
電台	-1800
发动	-1801
▁香港	-1802
階段	-1803
西哥	-1804
▁comp	-1805
爆炸	-1806
ost	-1807
還是	-1808
飞机	-1809
更加	-1810
大使	-1811
食物	-1812
反應	-1813
ition	-1814
台湾	-1815
古代	-1816
朝鮮	-1817
年间	-1818
于是	-1819
人们	-1820
特的	-1821
他是	-1822
▁****	-1823
第七	-1824
設施	-1825
商业	-1826
hant	-1827
教會	-1828
类似	-1829
王子	-1830
聯邦	-1831
pro	-1832
公布	-1833
連接	-1834
巴西	-1835
破壞	-1836
理事	-1837
突然	-1838
产品	-1839
爆發	-1840
色列	-1841
運輸	-1842
先后	-1843
恢复	-1844
那些	-1845
更多	-1846
基因	-1847
广场	-1848
按照	-1849
貿易	-1850
並沒有	-1851
旅客	-1852
人类	-1853
開放	-1854
委会	-1855
帮助	-1856
投资	-1857
▁ser	-1858
创作	-1859
品牌	-1860
gr	-1861
设立	-1862
用户	-1863
="	-1864
的中	-1865
警方	-1866
海洋	-1867
很快	-1868
乾隆	-1869
sk	-1870
幾乎	-1871
月至	-1872
选举	-1873
之子	-1874
錦標	-1875
白色	-1876
墨西哥	-1877
區的	-1878
批評	-1879
/0	-1880
尽管	-1881
年輕	-1882
投資	-1883
找到	-1884
原子	-1885
營運	-1886
并不	-1887
正常	-1888
▁飾演	-1889
將會	-1890
不斷	-1891
orld	-1892
ese	-1893
規定	-1894
入侵	-1895
拒絕	-1896
》()	-1897
一家	-1898
比如	-1899
部長	-1900
國的	-1901
▁press	-1902
它們	-1903
信仰	-1904
英格蘭	-1905
ale	-1906
前的	-1907
其實	-1908
演员	-1909
▁wh	-1910
▁三	-1911
▁image	-1912
还是	-1913
格兰	-1914
逐渐	-1915
中有	-1916
设备	-1917
广播	-1918
太郎	-1919
天皇	-1920
臺中	-1921
缺乏	-1922
的情況	-1923
中共中央	-1924
以色列	-1925
北海	-1926
纽约	-1927
连接	-1928
也可以	-1929
拉丁	-1930
準備	-1931
火箭	-1932
西省	-1933
改善	-1934
▁“	-1935
報導	-1936
形象	-1937
對手	-1938
表现	-1939
最多	-1940
的重要	-1941
是一種	-1942
hel	-1943
后的	-1944
風格	-1945
西洋	-1946
俱乐	-1947
国务	-1948
應用	-1949
字母	-1950
一段	-1951
一种	-1952
十三	-1953
ata	-1954
所有的	-1955
▁的	-1956
被稱為	-1957
ubl	-1958
而言	-1959
ime	-1960
降低	-1961
▁高	-1962
河北	-1963
扮演	-1964
需求	-1965
ty	-1966
因素	-1967
mo	-1968
在大	-1969
歡迎	-1970
离开	-1971
ase	-1972
》(''	-1973
晚上	-1974
編號	-1975
菲律	-1976
彼得	-1977
入口	-1978
柏林	-1979
一样	-1980
儿子	-1981
ict	-1982
ain	-1983
报告	-1984
黑色	-1985
和其他	-1986
荷蘭	-1987
工人	-1988
–0000	-1989
市政府	-1990
整个	-1991
減少	-1992
的時候	-1993
七年	-1994
修改	-1995
飓风	-1996
選手	-1997
天使	-1998
windows	-1999
深圳	-2000
规定	-2001
的一部分	-2002
金屬	-2003
一切	-2004
000,000	-2005
觀眾	-2006
全面	-2007
關於	-2008
機械	-2009
移動	-2010
的工作	-2011
客運	-2012
只要	-2013
海外	-2014
變化	-2015
yl	-2016
助理	-2017
在這	-2018
被迫	-2019
希腊	-2020
con	-2021
年底	-2022
报道	-2023
同盟	-2024
設定	-2025
頒獎	-2026
照片	-2027
之间的	-2028
恐怖	-2029
地利	-2030
三個	-2031
記憶	-2032
风格	-2033
頻道	-2034
导演	-2035
度的	-2036
首先	-2037
業務	-2038
亨利	-2039
行政院	-2040
ium	-2041
兼任	-2042
软件	-2043
平方米	-2044
空軍	-2045
抗日	-2046
車輛	-2047
廣東	-2048
orn	-2049
應該	-2050
市的	-2051
混合	-2052
努力	-2053
解決	-2054
銷售	-2055
多年	-2056
建設	-2057
艦隊	-2058
進攻	-2059
af	-2060
駕駛	-2061
cy	-2062
战役	-2063
食品	-2064
的分	-2065
性格	-2066
cm	-2067
▁qu	-2068
然后	-2069
失敗	-2070
ock	-2071
▁和	-2072
司法	-2073
事業	-2074
出席	-2075
攝影	-2076
不到	-2077
東南	-2078
上映	-2079
山大	-2080
东南	-2081
天下	-2082
戰士	-2083
戰役	-2084
作出	-2085
住宅	-2086
邀請	-2087
人和	-2088
的作品	-2089
出身	-2090
)00	-2091
社区	-2092
amp	-2093
my	-2094
▁vol	-2095
軌道	-2096
str	-2097
馬來	-2098
爾斯	-2099
高速公路	-2100
颱風	-2101
恢復	-2102
犯罪	-2103
中国大陆	-2104
改造	-2105
留下	-2106
电力	-2107
比较	-2108
博物館	-2109
依然	-2110
也就是	-2111
病毒	-2112
史上	-2113
",	-2114
金曲	-2115
大約	-2116
而不	-2117
ree	-2118
又稱	-2119
比例	-2120
會在	-2121
▁王	-2122
部門	-2123
enter	-2124
固定	-2125
美術	-2126
起來	-2127
拍摄	-2128
三个	-2129
法案	-2130
▁一	-2131
九年	-2132
部门	-2133
中國大陸	-2134
攻击	-2135
轨道	-2136
他们的	-2137
牠們	-2138
ley	-2139
延伸	-2140
的故事	-2141
桃園	-2142
記載	-2143
自身	-2144
以来	-2145
了解	-2146
計算	-2147
群島	-2148
▁西	-2149
條件	-2150
阻止	-2151
展示	-2152
的同	-2153
▁#*	-2154
明朝	-2155
iel	-2156
江苏	-2157
俱乐部	-2158
空中	-2159
own	-2160
以外	-2161
葡萄牙	-2162
課程	-2163
挑戰	-2164
一帶	-2165
事故	-2166
ins	-2167
符合	-2168
在一	-2169
星的	-2170
爆发	-2171
現時	-2172
地理	-2173
出演	-2174
地震	-2175
总理	-2176
用來	-2177
專業	-2178
尔斯	-2179
投降	-2180
此時	-2181
部落	-2182
三角	-2183
(0000-0000	-2184
▁00,	-2185
重庆	-2186
进行了	-2187
的不	-2188
裝甲	-2189
細胞	-2190
現場	-2191
統一	-2192
十六	-2193
土耳	-2194
結婚	-2195
职业	-2196
order	-2197
条件	-2198
疾病	-2199
汽车	-2200
宣傳	-2201
成績	-2202
▁you	-2203
图书	-2204
土耳其	-2205
高級	-2206
期的	-2207
规划	-2208
天的	-2209
安德	-2210
《》	-2211
中部	-2212
ann	-2213
提到	-2214
線的	-2215
雙方	-2216
偶像	-2217
表明	-2218
enn	-2219
式的	-2220
农业	-2221
二人	-2222
人民政府	-2223
老師	-2224
ara	-2225
體的	-2226
col	-2227
也會	-2228
ts	-2229
了一个	-2230
被称为	-2231
圖書館	-2232
本人	-2233
球會	-2234
▁des	-2235
线路	-2236
瑞士	-2237
▁000-0	-2238
电视台	-2239
不明	-2240
湖北	-2241
總督	-2242
化石	-2243
▁la	-2244
red	-2245
北方	-2246
實施	-2247
ars	-2248
相對	-2249
开放	-2250
資格	-2251
上有	-2252
yst	-2253
英语	-2254
ations	-2255
傳說	-2256
相比	-2257
保存	-2258
十五	-2259
飞行	-2260
▁go	-2261
比利	-2262
民眾	-2263
▁ii	-2264
法官	-2265
▁ge	-2266
校長	-2267
價值	-2268
▁00.	-2269
年後	-2270
领域	-2271
du	-2272
地面	-2273
斯拉	-2274
记载	-2275
評論	-2276
年初	-2277
在日本	-2278
合成	-2279
股份有限公司	-2280
cr	-2281
爵士	-2282
统一	-2283
万人	-2284
主要是	-2285
贝尔	-2286
意外	-2287
贏得	-2288
比亚	-2289
以后	-2290
斯塔	-2291
十大	-2292
球季	-2293
案件	-2294
解釋	-2295
淘汰	-2296
usic	-2297
排行	-2298
状态	-2299
在其	-2300
获得了	-2301
dvd	-2302
弟弟	-2303
国内	-2304
▁南	-2305
尔德	-2306
討論	-2307
儘管	-2308
逮捕	-2309
▁tr	-2310
消失	-2311
一座	-2312
丈夫	-2313
大獎	-2314
犹太	-2315
打算	-2316
定义	-2317
資源	-2318
旅行	-2319
阿爾	-2320
出來	-2321
貝爾	-2322
持续	-2323
曾经	-2324
母亲	-2325
当选	-2326
议会	-2327
vel	-2328
学位	-2329
的海	-2330
设有	-2331
往往	-2332
政府的	-2333
指定	-2334
美軍	-2335
面對	-2336
重点	-2337
▁原	-2338
涉及	-2339
加盟	-2340
宣传	-2341
立即	-2342
ise	-2343
世界上	-2344
▁hist	-2345
ca	-2346
下降	-2347
夏季	-2348
的第	-2349
先後	-2350
目标	-2351
▁world	-2352
的神	-2353
三世	-2354
经常	-2355
是一种	-2356
治療	-2357
资源	-2358
–00	-2359
將其	-2360
秘书	-2361
在香港	-2362
綜合	-2363
ool	-2364
富士	-2365
王國	-2366
東西	-2367
人民共和國	-2368
第一個	-2369
合物	-2370
授予	-2371
的手	-2372
來說	-2373
这里	-2374
就讀	-2375
几乎	-2376
主持人	-2377
發出	-2378
马来	-2379
並非	-2380
发射	-2381
記錄	-2382
家人	-2383
ower	-2384
▁(0000).	-2385
国务院	-2386
現象	-2387
當選	-2388
▁ap	-2389
相互	-2390
-000-0000	-2391
中被	-2392
贸易	-2393
退出	-2394
委书记	-2395
總部	-2396
亦是	-2397
相当	-2398
演奏	-2399
申請	-2400
▁+	-2401
通道	-2402
距离	-2403
▁0000-0000	-2404
規劃	-2405
▁#:	-2406
小型	-2407
▁日本	-2408
ames	-2409
0.0%	-2410
:00:00	-2411
000.0	-2412
▁no	-2413
ere	-2414
國內	-2415
建于	-2416
是個	-2417
网站	-2418
有時	-2419
東方	-2420
合并	-2421
定義	-2422
学科	-2423
▁en	-2424
sa	-2425
相对	-2426
數量	-2427
函数	-2428
私人	-2429
pa	-2430
新疆	-2431
计算机	-2432
長期	-2433
iam	-2434
這一	-2435
克拉	-2436
可以在	-2437
的日	-2438
陆军	-2439
内部	-2440
▁tra	-2441
广泛	-2442
▁so	-2443
就會	-2444
藝人	-2445
勝利	-2446
bert	-2447
ym	-2448
創立	-2449
合唱	-2450
教練	-2451
布拉	-2452
占领	-2453
利益	-2454
综合	-2455
內部	-2456
康熙	-2457
为主	-2458
機器	-2459
物質	-2460
运输	-2461
波兰	-2462
重大	-2463
北海道	-2464
方言	-2465
att	-2466
中国共产党	-2467
尚未	-2468
奧運	-2469
次年	-2470
什麼	-2471
人數	-2472
月初	-2473
共產	-2474
君主	-2475
戰後	-2476
下令	-2477
运营	-2478
▁天	-2479
人大	-2480
似乎	-2481
▁ad	-2482
▁由於	-2483
法的	-2484
裝置	-2485
紅色	-2486
ward	-2487
eth	-2488
▁fl	-2489
变化	-2490
列表	-2491
~0000	-2492
no	-2493
派遣	-2494
加州	-2495
留在	-2496
性能	-2497
记录	-2498
當時的	-2499
的名字	-2500
▁饰	-2501
柴油	-2502
互相	-2503
出道	-2504
產業	-2505
太阳	-2506
針對	-2507
化學	-2508
大小	-2509
空军	-2510
第八	-2511
妹妹	-2512
月的	-2513
中国人民解放军	-2514
改变	-2515
路口	-2516
安徽	-2517
sm	-2518
給予	-2519
威尔	-2520
举办	-2521
旗下	-2522
武汉	-2523
准备	-2524
多个	-2525
玻璃	-2526
改編	-2527
ome	-2528
),0000	-2529
拒绝	-2530
派出	-2531
臨時	-2532
令人	-2533
体的	-2534
放棄	-2535
典禮	-2536
公爵	-2537
协议	-2538
ance	-2539
oci	-2540
明星	-2541
刺史	-2542
0、	-2543
台中	-2544
军区	-2545
解决	-2546
突破	-2547
)。0000	-2548
杂志	-2549
澳大利亚	-2550
上了	-2551
學會	-2552
奪得	-2553
▁am	-2554
勢力	-2555
朝廷	-2556
进攻	-2557
▁自	-2558
form	-2559
ake	-2560
主唱	-2561
日軍	-2562
的情况	-2563
原名	-2564
的水	-2565
正面	-2566
破坏	-2567
.)	-2568
設備	-2569
北京市	-2570
人們	-2571
unt	-2572
啟用	-2573
石油	-2574
ux	-2575
同样	-2576
海拔	-2577
女主角	-2578
測試	-2579
上述	-2580
大廈	-2581
年由	-2582
每个	-2583
佔領	-2584
修正	-2585
▁love	-2586
義大利	-2587
常常	-2588
十四	-2589
作战	-2590
秘書	-2591
伦敦	-2592
的时候	-2593
年時	-2594
領域	-2595
社區	-2596
政权	-2597
承認	-2598
各自	-2599
文明	-2600
房屋	-2601
身分	-2602
路段	-2603
主張	-2604
/0000	-2605
影像	-2606
機關	-2607
到達	-2608
感染	-2609
原住	-2610
fe	-2611
而成	-2612
明顯	-2613
起来	-2614
区的	-2615
国的	-2616
認為是	-2617
学者	-2618
idae	-2619
中華人民共和國	-2620
殖民地	-2621
實際上	-2622
器的	-2623
将其	-2624
▁car	-2625
每個	-2626
多個	-2627
附近的	-2628
新竹	-2629
巨大	-2630
最近	-2631
公安	-2632
一致	-2633
女王	-2634
00:00-00:00	-2635
ans	-2636
net	-2637
从而	-2638
大幅	-2639
退休	-2640
车辆	-2641
克里斯	-2642
台北市	-2643
主要的	-2644
發電	-2645
raph	-2646
上午	-2647
分钟	-2648
port	-2649
▁part	-2650
少數	-2651
基于	-2652
她在	-2653
基於	-2654
舞蹈	-2655
0%	-2656
隊長	-2657
錦標賽	-2658
多數	-2659
最低	-2660
克的	-2661
厘米	-2662
日期	-2663
無綫	-2664
ode	-2665
創造	-2666
平面	-2667
婚姻	-2668
司馬	-2669
ius	-2670
▁ho	-2671
▁0-0000	-2672
年到	-2673
萬人	-2674
下一	-2675
国会	-2676
数学	-2677
在他	-2678
而非	-2679
洛杉	-2680
狀況	-2681
ild	-2682
身為	-2683
本線	-2684
本土	-2685
克里	-2686
運作	-2687
制的	-2688
爭議	-2689
jr	-2690
隊的	-2691
允许	-2692
特色	-2693
廣泛	-2694
海上	-2695
重量	-2696
▁art	-2697
▁前	-2698
在一起	-2699
比亞	-2700
▁*:	-2701
意志	-2702
able	-2703
che	-2704
結合	-2705
是中国	-2706
00)	-2707
伊朗	-2708
▁陳	-2709
身上	-2710
的天	-2711
亚洲	-2712
措施	-2713
衝突	-2714
陷入	-2715
成本	-2716
吸收	-2717
毛泽	-2718
強烈	-2719
ene	-2720
臺南	-2721
理想	-2722
同性	-2723
引入	-2724
遇到	-2725
row	-2726
评论	-2727
ron	-2728
最後一	-2729
近年	-2730
為一	-2731
sch	-2732
好友	-2733
武装	-2734
云南	-2735
分配	-2736
不要	-2737
製作人	-2738
花園	-2739
動作	-2740
在那	-2741
上升	-2742
增长	-2743
▁u	-2744
确定	-2745
解散	-2746
ave	-2747
個性	-2748
方便	-2749
由此	-2750
更新	-2751
继承	-2752
fer	-2753
、、	-2754
並未	-2755
arch	-2756
接收	-2757
保守	-2758
机械	-2759
分裂	-2760
上市	-2761
公开	-2762
火山	-2763
事實	-2764
集合	-2765
創辦	-2766
原始	-2767
的影響	-2768
持有	-2769
商品	-2770
机关	-2771
終於	-2772
家中	-2773
irl	-2774
很大	-2775
连续	-2776
的角色	-2777
到达	-2778
嘉義	-2779
其中一	-2780
ology	-2781
移动	-2782
說法	-2783
國會	-2784
阶段	-2785
毛泽东	-2786
運動員	-2787
▁gu	-2788
廣州	-2789
日军	-2790
年齡	-2791
指示	-2792
尤其是	-2793
三人	-2794
▁-{	-2795
教師	-2796
進黨	-2797
生於	-2798
▁all	-2799
哥哥	-2800
用途	-2801
經驗	-2802
為止	-2803
自治区	-2804
得到了	-2805
第一个	-2806
ana	-2807
學系	-2808
已被	-2809
iew	-2810
▁ver	-2811
动画	-2812
建议	-2813
進一步	-2814
大阪	-2815
碼頭	-2816
來到	-2817
德的	-2818
上海市	-2819
第二次世界	-2820
女兒	-2821
推動	-2822
itt	-2823
km	-2824
▁0,	-2825
古典	-2826
mon	-2827
特定	-2828
ated	-2829
▁gr	-2830
年開始	-2831
理解	-2832
民間	-2833
大家	-2834
另一方面	-2835
顧問	-2836
ink	-2837
京都	-2838
▁spe	-2839
羽毛	-2840
let	-2841
河流	-2842
平原	-2843
中正	-2844
的方法	-2845
副主席	-2846
的支持	-2847
分類	-2848
在美國	-2849
▁pol	-2850
上陣	-2851
地区的	-2852
参谋	-2853
是一位	-2854
今日	-2855
動力	-2856
編輯	-2857
-000-00000-0	-2858
用作	-2859
工廠	-2860
密度	-2861
gl	-2862
暴力	-2863
管理局	-2864
觀察	-2865
改制	-2866
fr	-2867
xã	-2868
通信	-2869
會長	-2870
马克	-2871
但他	-2872
ger	-2873
环形	-2874
示威	-2875
副主任	-2876
的關係	-2877
上帝	-2878
大賽	-2879
保障	-2880
武裝	-2881
競爭	-2882
不断	-2883
兩種	-2884
000-000	-2885
议员	-2886
小組	-2887
經理	-2888
▁publ	-2889
知識	-2890
五十	-2891
制定	-2892
菲律賓	-2893
民進黨	-2894
波斯	-2895
大多数	-2896
想要	-2897
▁中国	-2898
地铁	-2899
國防	-2900
常見	-2901
受傷	-2902
air	-2903
大约	-2904
旅游	-2905
長官	-2906
uper	-2907
rist	-2908
▁此	-2909
hy	-2910
恆星	-2911
林匹	-2912
app	-2913
自动	-2914
境内	-2915
軟體	-2916
▁北	-2917
例子	-2918
公斤	-2919
張專輯	-2920
塞尔	-2921
理由	-2922
大战	-2923
接觸	-2924
官員	-2925
洛克	-2926
調整	-2927
▁per	-2928
對象	-2929
荷兰	-2930
图书馆	-2931
训练	-2932
對方	-2933
必要	-2934
利的	-2935
联合国	-2936
生存	-2937
服役	-2938
名称	-2939
愛情	-2940
公元前	-2941
詹姆斯	-2942
證明	-2943
其餘	-2944
捷運	-2945
風暴	-2946
對抗	-2947
生于	-2948
min	-2949
ater	-2950
而不是	-2951
八年	-2952
/000	-2953
数字	-2954
源自	-2955
每天	-2956
vol	-2957
日報	-2958
效力	-2959
聲音	-2960
的原因	-2961
成都	-2962
证明	-2963
西安	-2964
引發	-2965
協議	-2966
本地	-2967
使用者	-2968
天堂	-2969
gh	-2970
ald	-2971
莫斯科	-2972
什么	-2973
華人	-2974
戰隊	-2975
ystem	-2976
产业	-2977
宪法	-2978
州刺史	-2979
旅遊	-2980
建立了	-2981
▁)	-2982
ife	-2983
吉他	-2984
大致	-2985
地區的	-2986
司令部	-2987
從事	-2988
群岛	-2989
▁fe	-2990
他被	-2991
进一步	-2992
首相	-2993
認識	-2994
穩定	-2995
軍的	-2996
尼克	-2997
觀測	-2998
的能力	-2999
过程中	-3000
▁安	-3001
的世界	-3002
以此	-3003
警告	-3004
以上的	-3005
way	-3006
应该	-3007
防止	-3008
卫星	-3009
东西	-3010
來源	-3011
su	-3012
▁00.0	-3013
的影响	-3014
ste	-3015
ican	-3016
》)	-3017
校长	-3018
设置	-3019
ose	-3020
收集	-3021
)、《	-3022
联系	-3023
律師	-3024
▁00000000	-3025
play	-3026
高级	-3027
醫療	-3028
ka	-3029
變得	-3030
试图	-3031
▁my	-3032
電話	-3033
尋找	-3034
数量	-3035
▁(0	-3036
▁林	-3037
事务	-3038
今天	-3039
興趣	-3040
物质	-3041
▁us	-3042
金山	-3043
不滿	-3044
商店	-3045
▁→	-3046
西斯	-3047
周年	-3048
上下	-3049
劇情	-3050
》:	-3051
研究院	-3052
牵引	-3053
理工	-3054
修建	-3055
訪問	-3056
▁mo	-3057
简称	-3058
0000-0000	-3059
mat	-3060
小姐	-3061
提供了	-3062
中最	-3063
走向	-3064
感情	-3065
下了	-3066
师范	-3067
▁有	-3068
不会	-3069
能源	-3070
rans	-3071
後期	-3072
ings	-3073
戲劇	-3074
特里	-3075
步槍	-3076
les	-3077
退役	-3078
▁東	-3079
都在	-3080
黃金	-3081
用来	-3082
介紹	-3083
ga	-3084
每日	-3085
王国	-3086
ited	-3087
金属	-3088
殺死	-3089
位的	-3090
访问	-3091
频道	-3092
多人	-3093
▁et	-3094
▁:::	-3095
反映	-3096
考慮	-3097
。000	-3098
)(0000	-3099
含有	-3100
乔治	-3101
哈尔	-3102
的位置	-3103
氣象	-3104
壓力	-3105
如下	-3106
胜利	-3107
bur	-3108
武帝	-3109
以為	-3110
權力	-3111
教会	-3112
ade	-3113
官员	-3114
方面的	-3115
確定	-3116
乐队	-3117
ien	-3118
百萬	-3119
ual	-3120
决赛	-3121
-00)	-3122
市區	-3123
所屬	-3124
ner	-3125
已有	-3126
派的	-3127
加利	-3128
翻譯	-3129
幻想	-3130
農業	-3131
大量的	-3132
ha	-3133
的話	-3134
現今	-3135
批评	-3136
積極	-3137
半島	-3138
指導	-3139
ven	-3140
平衡	-3141
安裝	-3142
▁是	-3143
印尼	-3144
来说	-3145
da	-3146
這次	-3147
抵抗	-3148
▁全	-3149
00.	-3150
教育部	-3151
合約	-3152
结合	-3153
▁can	-3154
財政	-3155
临时	-3156
▁作詞	-3157
國語	-3158
▁stud	-3159
▁ac	-3160
舰队	-3161
年后	-3162
至於	-3163
日治	-3164
危機	-3165
纪录	-3166
新人	-3167
▁cr	-3168
相同的	-3169
法庭	-3170
源于	-3171
龍的	-3172
大多數	-3173
信號	-3174
團隊	-3175
减少	-3176
成为了	-3177
完工	-3178
政權	-3179
北美	-3180
自我	-3181
gen	-3182
▁john	-3183
女孩	-3184
愛爾	-3185
代的	-3186
物的	-3187
可是	-3188
劳动	-3189
意識	-3190
途中	-3191
历史上	-3192
會的	-3193
质量	-3194
金牌	-3195
於第	-3196
裝備	-3197
解释	-3198
收藏	-3199
加以	-3200
-0000-0	-3201
強調	-3202
購買	-3203
抵達	-3204
▁und	-3205
▁~	-3206
當年	-3207
喬治	-3208
放在	-3209
的政治	-3210
城堡	-3211
财政	-3212
達成	-3213
天文台	-3214
起义	-3215
醫生	-3216
質量	-3217
身高	-3218
通用	-3219
山西	-3220
界的	-3221
▁par	-3222
它是	-3223
馬來西亞	-3224
地點	-3225
臺北市	-3226
色彩	-3227
条约	-3228
▁gre	-3229
长的	-3230
卡拉	-3231
又名	-3232
數位	-3233
到的	-3234
患者	-3235
黑暗	-3236
▁that	-3237
表達	-3238
que	-3239
咖啡	-3240
試圖	-3241
此时	-3242
sv	-3243
挪威	-3244
教学	-3245
數據	-3246
威脅	-3247
命名為	-3248
敵人	-3249
原住民	-3250
里的	-3251
mv	-3252
公分	-3253
▁border	-3254
eter	-3255
▁are	-3256
儿童	-3257
政黨	-3258
org	-3259
優秀	-3260
在美国	-3261
wo	-3262
學園	-3263
信号	-3264
000-	-3265
學位	-3266
劇本	-3267
斯林	-3268
議院	-3269
办公室	-3270
▁pe	-3271
设施	-3272
早上	-3273
环形山	-3274
成為了	-3275
行政區	-3276
在中国	-3277
医学	-3278
中期	-3279
都被	-3280
ution	-3281
打擊	-3282
球员	-3283
召开	-3284
的一些	-3285
規則	-3286
ox	-3287
长期	-3288
维尔	-3289
機動	-3290
击败	-3291
學術	-3292
实施	-3293
停車	-3294
冬季	-3295
網絡	-3296
ll	-3297
做出	-3298
衛星	-3299
编辑	-3300
真實	-3301
其中包括	-3302
衛生	-3303
mbc	-3304
▁000-000	-3305
奥运	-3306
帶領	-3307
通車	-3308
yle	-3309
icro	-3310
jo	-3311
種族	-3312
主題曲	-3313
軍團	-3314
遗址	-3315
另一個	-3316
0(	-3317
就在	-3318
燃料	-3319
天然	-3320
不知	-3321
轟炸	-3322
隊伍	-3323
知识	-3324
起初	-3325
认为是	-3326
ogle	-3327
賽季	-3328
ze	-3329
此後	-3330
ternational	-3331
拆除	-3332
本作	-3333
国防	-3334
十九	-3335
稱呼	-3336
匈牙	-3337
醫學	-3338
▁白	-3339
之戰	-3340
港口	-3341
物種	-3342
簡單	-3343
▁not	-3344
代替	-3345
巨大的	-3346
的部分	-3347
威爾	-3348
两人	-3349
生日	-3350
石坑	-3351
一人	-3352
候選	-3353
總理	-3354
line	-3355
袭击	-3356
并没有	-3357
▁巴	-3358
以北	-3359
殺害	-3360
截至	-3361
愛爾蘭	-3362
根本	-3363
相反	-3364
▁fr	-3365
條約	-3366
。“	-3367
限定	-3368
像是	-3369
意味	-3370
棒球	-3371
出現在	-3372
00.00%	-3373
編劇	-3374
間的	-3375
新城	-3376
uss	-3377
接著	-3378
林匹克	-3379
打破	-3380
形容	-3381
第九	-3382
价值	-3383
常委	-3384
经营	-3385
ute	-3386
主力	-3387
kbs	-3388
手段	-3389
tra	-3390
00%,	-3391
小组	-3392
00-0	-3393
與其他	-3394
但因	-3395
uro	-3396
▁med	-3397
收費	-3398
並將	-3399
落成	-3400
。)	-3401
海域	-3402
''(	-3403
这次	-3404
襲擊	-3405
萬元	-3406
並以	-3407
列入	-3408
杭州	-3409
ham	-3410
利斯	-3411
加入了	-3412
國道	-3413
试验	-3414
受歡迎	-3415
国民党	-3416
亞歷	-3417
ank	-3418
tain	-3419
以南	-3420
出售	-3421
是不	-3422
粒子	-3423
▁该	-3424
sbs	-3425
波蘭	-3426
無線	-3427
商場	-3428
使其	-3429
led	-3430
ject	-3431
▁馬	-3432
芝加	-3433
通訊	-3434
同學	-3435
提及	-3436
调整	-3437
男人	-3438
裡的	-3439
領袖	-3440
祖父	-3441
首席	-3442
▁do	-3443
几个	-3444
by	-3445
成立的	-3446
年轻	-3447
并于	-3448
pc	-3449
社会主义	-3450
▁dr	-3451
业务	-3452
创办	-3453
芝加哥	-3454
▁伊	-3455
希特	-3456
失败	-3457
會有	-3458
票房	-3459
更多的	-3460
客运	-3461
▁comm	-3462
情報	-3463
選區	-3464
商人	-3465
的第二	-3466
▁el	-3467
星系	-3468
orth	-3469
单曲	-3470
john	-3471
估計	-3472
ral	-3473
聯合國	-3474
巡迴	-3475
過程中	-3476
粵語	-3477
量子	-3478
ya	-3479
卡尔	-3480
意思	-3481
名單	-3482
第一位	-3483
男主角	-3484
的反	-3485
台南	-3486
了他	-3487
排行榜	-3488
說明	-3489
率領	-3490
太后	-3491
ces	-3492
▁off	-3493
發起	-3494
戰車	-3495
人工	-3496
加拉	-3497
人生	-3498
小学	-3499
市長	-3500
▁mod	-3501
凌晨	-3502
靠近	-3503
▁history	-3504
經歷	-3505
大西洋	-3506
年世界	-3507
。「	-3508
承认	-3509
共產黨	-3510
愛的	-3511
▁eng	-3512
收購	-3513
死後	-3514
uch	-3515
年和	-3516
總站	-3517
智慧	-3518
唐朝	-3519
统计	-3520
他也	-3521
象徵	-3522
翻译	-3523
住在	-3524
生成	-3525
幸福	-3526
从事	-3527
▁gro	-3528
▁(''	-3529
▁與	-3530
现象	-3531
城的	-3532
市中心	-3533
▁0000:	-3534
此次	-3535
登上	-3536
记者	-3537
指令	-3538
▁one	-3539
格的	-3540
oph	-3541
登陸	-3542
超越	-3543
游泳	-3544
在中	-3545
五月	-3546
的最	-3547
▁colle	-3548
數字	-3549
港元	-3550
出生于	-3551
是香港	-3552
ford	-3553
配置	-3554
气旋	-3555
青岛	-3556
专家	-3557
原先	-3558
克林	-3559
(0)	-3560
本站	-3561
基隆	-3562
定居	-3563
over	-3564
塞爾	-3565
考古	-3566
ret	-3567
▁0,000	-3568
精靈	-3569
创建	-3570
參選	-3571
教學	-3572
融合	-3573
00,	-3574
科学院	-3575
考虑	-3576
角度	-3577
陸續	-3578
ism	-3579
avid	-3580
教宗	-3581
ds	-3582
女神	-3583
較為	-3584
四個	-3585
ensis	-3586
儀式	-3587
双方	-3588
藉由	-3589
的生活	-3590
特徵	-3591
亿元	-3592
▁inter	-3593
半岛	-3594
「」	-3595
新北	-3596
會員	-3597
0.00%	-3598
隨即	-3599
匈牙利	-3600
策略	-3601
▁ma	-3602
維亞	-3603
book	-3604
加速	-3605
掌握	-3606
东部	-3607
实行	-3608
憲法	-3609
類型	-3610
isc	-3611
▁fran	-3612
很少	-3613
古老	-3614
ream	-3615
另有	-3616
使用了	-3617
ital	-3618
gin	-3619
撤退	-3620
經典	-3621
长江	-3622
▁『	-3623
▁0000-00	-3624
明显	-3625
伯爵	-3626
改建	-3627
刑事	-3628
更是	-3629
保安	-3630
学会	-3631
劇集	-3632
御史	-3633
構成	-3634
▁sm	-3635
标志	-3636
–000	-3637
整合	-3638
首位	-3639
顏色	-3640
少数	-3641
特拉	-3642
冲突	-3643
▁於	-3644
治疗	-3645
实际上	-3646
專門	-3647
丹尼	-3648
''),	-3649
▁will	-3650
道的	-3651
教师	-3652
飛彈	-3653
▁*000	-3654
檔案	-3655
穆斯林	-3656
江西	-3657
連載	-3658
關注	-3659
阿里	-3660
广西	-3661
ane	-3662
是日本	-3663
抗議	-3664
▁gen	-3665
的多	-3666
0》	-3667
0:	-3668
▁up	-3669
ograph	-3670
))	-3671
泰國	-3672
赢得	-3673
更名为	-3674
消防	-3675
碩士	-3676
副书记	-3677
▁000,	-3678
銷量	-3679
差異	-3680
弗里	-3681
ino	-3682
car	-3683
民主黨	-3684
创造	-3685
此事	-3686
观察	-3687
為人	-3688
▁海	-3689
處於	-3690
與其	-3691
免費	-3692
的心	-3693
职务	-3694
基金會	-3695
最高的	-3696
改名	-3697
難以	-3698
装置	-3699
ific	-3700
國際機場	-3701
傳播	-3702
哲学	-3703
▁張	-3704
动力	-3705
近代	-3706
放送	-3707
即位	-3708
rad	-3709
▁system	-3710
統計	-3711
經由	-3712
▁由	-3713
法蘭	-3714
福利	-3715
▁ind	-3716
两种	-3717
大夫	-3718
德拉	-3719
局长	-3720
的有	-3721
复杂	-3722
守護	-3723
ott	-3724
陨石坑	-3725
的一種	-3726
▁山	-3727
當局	-3728
錄音	-3729
子女	-3730
首歌	-3731
inal	-3732
rop	-3733
十月	-3734
時任	-3735
時報	-3736
隸屬於	-3737
允許	-3738
四十	-3739
▁music	-3740
員工	-3741
族的	-3742
遭受	-3743
丁目	-3744
明的	-3745
mac	-3746
播映	-3747
▁美國	-3748
稳定	-3749
▁her	-3750
則為	-3751
处于	-3752
表达	-3753
長度	-3754
斯拉夫	-3755
功率	-3756
書院	-3757
▁school	-3758
合法	-3759
ull	-3760
00%。	-3761
院长	-3762
学术	-3763
议院	-3764
米的	-3765
查理	-3766
化合物	-3767
类型	-3768
高雄市	-3769
成熟	-3770
改名為	-3771
测试	-3772
援助	-3773
世界的	-3774
地上	-3775
市长	-3776
也因此	-3777
公眾	-3778
的問題	-3779
境內	-3780
年任	-3781
帶來	-3782
.00.00	-3783
出生於	-3784
▁live	-3785
班次	-3786
观众	-3787
ement	-3788
卫生	-3789
▁ag	-3790
▁amer	-3791
四大	-3792
yo	-3793
参加了	-3794
遭遇	-3795
首播	-3796
如同	-3797
平成	-3798
mb	-3799
▁air	-3800
中华民国	-3801
現任	-3802
new	-3803
依照	-3804
对象	-3805
▁(0)	-3806
運用	-3807
安娜	-3808
南非	-3809
iii	-3810
呈現	-3811
複雜	-3812
權利	-3813
依據	-3814
是一名	-3815
伊拉克	-3816
ily	-3817
成就	-3818
歲的	-3819
格式	-3820
简单	-3821
預計	-3822
沿海	-3823
研究生	-3824
斯克	-3825
马来西亚	-3826
救援	-3827
东方	-3828
淡水	-3829
外国	-3830
言人	-3831
历任	-3832
清楚	-3833
爾的	-3834
征服	-3835
运动员	-3836
▁cent	-3837
採取	-3838
市政	-3839
▁'	-3840
成立了	-3841
电视剧	-3842
格拉	-3843
日於	-3844
的時間	-3845
確認	-3846
結束後	-3847
研究中心	-3848
团体	-3849
自殺	-3850
入球	-3851
未有	-3852
ors	-3853
mp	-3854
溫度	-3855
──	-3856
參考	-3857
讨论	-3858
伊斯蘭	-3859
通知	-3860
强度	-3861
追求	-3862
十二年	-3863
布朗	-3864
结婚	-3865
电力机车	-3866
导弹	-3867
接下	-3868
歌唱	-3869
的一种	-3870
綠色	-3871
资料	-3872
vi	-3873
则是	-3874
平等	-3875
年开始	-3876
想法	-3877
管轄	-3878
的情況下	-3879
福音	-3880
雷斯	-3881
印刷	-3882
hz	-3883
支付	-3884
升格	-3885
日正式	-3886
的形式	-3887
目的是	-3888
兩岸	-3889
时的	-3890
態度	-3891
0"	-3892
馬克	-3893
ient	-3894
克蘭	-3895
但由於	-3896
院士	-3897
ris	-3898
▁0:00	-3899
▁黃	-3900
觀光	-3901
值得	-3902
驅逐	-3903
▁york	-3904
保羅	-3905
▁上	-3906
責任	-3907
有可能	-3908
分校	-3909
進步	-3910
奥斯	-3911
矛盾	-3912
▁*「	-3913
史密	-3914
工厂	-3915
公佈	-3916
其他的	-3917
0-	-3918
大眾	-3919
的上	-3920
气压	-3921
男女	-3922
道德	-3923
par	-3924
每一	-3925
地形	-3926
藍色	-3927
錯誤	-3928
周边	-3929
有时	-3930
来到	-3931
院長	-3932
转向	-3933
通往	-3934
吉林	-3935
防禦	-3936
琉球	-3937
聚集	-3938
親王	-3939
反而	-3940
造型	-3941
公交	-3942
组建	-3943
▁ass	-3944
》《	-3945
ama	-3946
永久	-3947
清水	-3948
港鐵	-3949
stit	-3950
他还	-3951
都不	-3952
▁min	-3953
过去	-3954
裁判	-3955
唯一的	-3956
污染	-3957
加強	-3958
危險	-3959
蘇格蘭	-3960
猶太	-3961
性質	-3962
前身	-3963
非法	-3964
消費	-3965
安装	-3966
江南	-3967
年号	-3968
內閣	-3969
早年	-3970
的重	-3971
▁bar	-3972
一郎	-3973
▁mon	-3974
激烈	-3975
行走	-3976
机会	-3977
機的	-3978
分成	-3979
領土	-3980
-000-0	-3981
理查	-3982
事情	-3983
眼睛	-3984
青春	-3985
路易斯	-3986
▁war	-3987
▁fo	-3988
參賽者	-3989
。。	-3990
冒險	-3991
蒙特	-3992
德軍	-3993
维奇	-3994
定期	-3995
成長	-3996
鈴木	-3997
普查	-3998
董事長	-3999
中原	-4000
va	-4001
改编	-4002
损失	-4003
回歸	-4004
轉換	-4005
系列的	-4006
意見	-4007
聲優	-4008
實力	-4009
歲時	-4010
评价	-4011
akb	-4012
维亚	-4013
inc	-4014
英格兰	-4015
po	-4016
那么	-4017
透露	-4018
辦公室	-4019
▁cell	-4020
采取	-4021
餐廳	-4022
观点	-4023
是因為	-4024
所謂	-4025
当时的	-4026
一部	-4027
▁:;	-4028
光緒	-4029
彰化	-4030
評價	-4031
▁mag	-4032
一百	-4033
大楼	-4034
有了	-4035
ike	-4036
▁di	-4037
▁神	-4038
多种	-4039
會被	-4040
lect	-4041
装备	-4042
局長	-4043
開設	-4044
校園	-4045
適合	-4046
四川省	-4047
效率	-4048
停靠	-4049
▁明	-4050
出来	-4051
关注	-4052
喜欢	-4053
销售	-4054
日後	-4055
作業	-4056
国立	-4057
()。	-4058
直升	-4059
在新	-4060
▁卡	-4061
ael	-4062
告訴	-4063
的人口	-4064
可見	-4065
十七	-4066
名義	-4067
火星	-4068
東部	-4069
权利	-4070
曾被	-4071
在北京	-4072
针对	-4073
:''	-4074
传说	-4075
▁ste	-4076
每次	-4077
分之一	-4078
在於	-4079
ument	-4080
四月	-4081
回應	-4082
供應	-4083
经历	-4084
四个	-4085
他人	-4086
ray	-4087
▁第一	-4088
了一個	-4089
用以	-4090
擅長	-4091
伊斯兰	-4092
展开	-4093
最早的	-4094
如今	-4095
物品	-4096
辽宁	-4097
俱樂	-4098
ari	-4099
大師	-4100
日本的	-4101
请求	-4102
▁作曲	-4103
体系	-4104
貢獻	-4105
的老	-4106
aster	-4107
傳媒	-4108
造成的	-4109
超级	-4110
自此	-4111
標誌	-4112
少将	-4113
聲明	-4114
▁根據	-4115
光绪	-4116
nd	-4117
原作	-4118
版的	-4119
大桥	-4120
地鐵	-4121
就可以	-4122
apan	-4123
0:0	-4124
规则	-4125
▁girl	-4126
▁team	-4127
獎項	-4128
省政府	-4129
不得不	-4130
▁以	-4131
片尾	-4132
除此	-4133
替代	-4134
都督	-4135
▁res	-4136
0。	-4137
延長	-4138
物种	-4139
)」	-4140
引发	-4141
存在的	-4142
="0"	-4143
仍有	-4144
印象	-4145
度使	-4146
證據	-4147
榮譽	-4148
青少年	-4149
-)	-4150
展覽	-4151
美术	-4152
的地位	-4153
idge	-4154
射擊	-4155
數學	-4156
.''	-4157
的歌曲	-4158
ates	-4159
人民法院	-4160
之女	-4161
根廷	-4162
办公	-4163
(《	-4164
ert	-4165
早在	-4166
演化	-4167
升任	-4168
考試	-4169
▁他	-4170
航班	-4171
公演	-4172
~00	-4173
尔特	-4174
分支	-4175
实验室	-4176
交流道	-4177
附加	-4178
▁pp	-4179
了他的	-4180
战略	-4181
貴族	-4182
的一座	-4183
嘗試	-4184
意义	-4185
一天	-4186
ple	-4187
開幕	-4188
漫画	-4189
卡斯	-4190
▁day	-4191
以便	-4192
同日	-4193
百科	-4194
ube	-4195
不但	-4196
組成的	-4197
▁har	-4198
慈善	-4199
收到	-4200
-00-0000	-4201
nba	-4202
电台	-4203
又称	-4204
』(	-4205
租界	-4206
直播	-4207
論文	-4208
德川	-4209
硕士	-4210
权力	-4211
组合	-4212
vis	-4213
oss	-4214
外交部	-4215
的信	-4216
叫做	-4217
行駛	-4218
优秀	-4219
有着	-4220
特征	-4221
保險	-4222
傑克	-4223
!」	-4224
搜索	-4225
侍郎	-4226
主管	-4227
召開	-4228
的所有	-4229
美麗	-4230
000.00	-4231
正是	-4232
教士	-4233
頒獎典禮	-4234
工商	-4235
沙田	-4236
▁was	-4237
理念	-4238
平民	-4239
證實	-4240
指控	-4241
贡献	-4242
起源	-4243
长沙	-4244
真正的	-4245
形的	-4246
感覺	-4247
▁cor	-4248
已知	-4249
布鲁	-4250
百年	-4251
覆盖	-4252
鄰近	-4253
高校	-4254
所在地	-4255
、《	-4256
波音	-4257
看見	-4258
总部	-4259
百姓	-4260
克兰	-4261
困難	-4262
空氣	-4263
逐步	-4264
級的	-4265
爾德	-4266
序列	-4267
alk	-4268
真的	-4269
立法院	-4270
▁der	-4271
八月	-4272
對此	-4273
神秘	-4274
一條	-4275
▁gl	-4276
▁第二	-4277
了一些	-4278
爭取	-4279
死刑	-4280
族群	-4281
航空公司	-4282
传播	-4283
指导	-4284
士尼	-4285
哲學	-4286
發佈	-4287
有一個	-4288
主場	-4289
蘋果	-4290
nhk	-4291
釋放	-4292
iver	-4293
身亡	-4294
尔的	-4295
配音員	-4296
月在	-4297
▁年	-4298
三大	-4299
假面	-4300
的发展	-4301
他和	-4302
▁ant	-4303
-{}-	-4304
神社	-4305
弗雷	-4306
彼此	-4307
朝日	-4308
大街	-4309
成绩	-4310
氣旋	-4311
▁台灣	-4312
南海	-4313
研發	-4314
玛丽	-4315
屯門	-4316
排列	-4317
曹操	-4318
航天	-4319
▁*(	-4320
」)	-4321
这样的	-4322
构成	-4323
▁cont	-4324
配角	-4325
迪士尼	-4326
gu	-4327
多数	-4328
登陆	-4329
新界	-4330
致力	-4331
海峽	-4332
事实	-4333
億元	-4334
送到	-4335
委任	-4336
弗朗	-4337
沈阳	-4338
運動會	-4339
领袖	-4340
osa	-4341
站的	-4342
ason	-4343
▁sol	-4344
翌年	-4345
道光	-4346
立方	-4347
意義	-4348
work	-4349
尚书	-4350
私立	-4351
高達	-4352
行人	-4353
成人	-4354
公里的	-4355
常见	-4356
农民	-4357
▁national	-4358
▁**《	-4359
波特	-4360
手中	-4361
▁sec	-4362
恐龍	-4363
埃尔	-4364
面上	-4365
主题	-4366
順利	-4367
攻打	-4368
▁book	-4369
戰鬥機	-4370
会在	-4371
布魯	-4372
月起	-4373
率领	-4374
早期的	-4375
购买	-4376
劇場版	-4377
大正	-4378
損失	-4379
奥地利	-4380
代表大会	-4381
福州	-4382
運行	-4383
▁str	-4384
覺得	-4385
成年	-4386
雅典	-4387
ml	-4388
任教	-4389
anc	-4390
日文	-4391
春秋	-4392
强烈	-4393
推行	-4394
增加了	-4395
千米	-4396
说法	-4397
now	-4398
職棒	-4399
责任	-4400
的成員	-4401
▁而	-4402
▁rec	-4403
▁马	-4404
山的	-4405
男孩	-4406
整體	-4407
▁ab	-4408
gro	-4409
威胁	-4410
▁international	-4411
aut	-4412
大部份	-4413
并入	-4414
日报	-4415
更名為	-4416
任期	-4417
候選人	-4418
专门	-4419
七月	-4420
ther	-4421
條例	-4422
超人	-4423
▁mac	-4424
刺激	-4425
irst	-4426
▁0000000000	-4427
不仅	-4428
rich	-4429
▁由于	-4430
類的	-4431
發布	-4432
職務	-4433
戰場	-4434
巡洋	-4435
從此	-4436
0、0	-4437
另一个	-4438
宁波	-4439
名人	-4440
后者	-4441
流浪	-4442
的概念	-4443
深入	-4444
」;	-4445
即可	-4446
嘉賓	-4447
局的	-4448
搖滾	-4449
現實	-4450
浙江省	-4451
发起	-4452
主辦	-4453
亚历	-4454
姊妹	-4455
回合	-4456
ondon	-4457
/00/00	-4458
万美元	-4459
有三	-4460
▁**0000	-4461
干部	-4462
红色	-4463
争议	-4464
耶稣	-4465
课程	-4466
俄国	-4467
积极	-4468
萨克	-4469
洛斯	-4470
更為	-4471
請求	-4472
view	-4473
華盛	-4474
下半	-4475
▁二	-4476
ura	-4477
女人	-4478
東京都	-4479
多名	-4480
oll	-4481
下辖	-4482
管制	-4483
加利福	-4484
station	-4485
aa	-4486
俱樂部	-4487
佐藤	-4488
分佈	-4489
等待	-4490
提出了	-4491
总督	-4492
邀请	-4493
▁中國	-4494
分之	-4495
wh	-4496
也可	-4497
满足	-4498
單元	-4499
無論	-4500
”)	-4501
欢迎	-4502
▁美国	-4503
▁pa	-4504
全世界	-4505
阿根廷	-4506
放弃	-4507
年他	-4508
解除	-4509
田中	-4510
新建	-4511
google	-4512
原來	-4513
未来	-4514
擴大	-4515
▁pre	-4516
照顧	-4517
很大的	-4518
▁chan	-4519
在西	-4520
大同	-4521
城区	-4522
營業	-4523
ena	-4524
的意思	-4525
成功的	-4526
兵力	-4527
部部长	-4528
技巧	-4529
控股	-4530
號的	-4531
提出的	-4532
則在	-4533
ja	-4534
首度	-4535
广告	-4536
中间	-4537
兩者	-4538
總會	-4539
大革命	-4540
人才	-4541
广东省	-4542
質疑	-4543
重播	-4544
障礙	-4545
亞歷山大	-4546
穿越	-4547
華盛頓	-4548
▁0-000-00000-0	-4549
撤销	-4550
清代	-4551
技能	-4552
完美	-4553
是最	-4554
殺人	-4555
的光	-4556
宿舍	-4557
復活	-4558
dna	-4559
比赛中	-4560
▁mat	-4561
▁trans	-4562
錄影	-4563
企圖	-4564
反抗	-4565
接替	-4566
銀河	-4567
交換	-4568
她們	-4569
推翻	-4570
德意志	-4571
有一个	-4572
布里	-4573
弟子	-4574
米尔	-4575
被捕	-4576
的存在	-4577
亞軍	-4578
後者	-4579
國民政府	-4580
親自	-4581
▁du	-4582
回答	-4583
用戶	-4584
ular	-4585
之上	-4586
無綫電視	-4587
主人	-4588
姐姐	-4589
這樣的	-4590
型態	-4591
面前	-4592
发动机	-4593
兩位	-4594
包圍	-4595
法兰	-4596
特性	-4597
错误	-4598
▁##	-4599
ille	-4600
原型	-4601
之地	-4602
》(0000)	-4603
得名	-4604
pm	-4605
評審	-4606
领导人	-4607
的發展	-4608
民主党	-4609
舉行的	-4610
慕容	-4611
ec	-4612
ック	-4613
幹線	-4614
在北	-4615
会的	-4616
尔兰	-4617
ст	-4618
外國	-4619
江戶	-4620
宜蘭	-4621
box	-4622
竞争	-4623
▁er	-4624
ous	-4625
ety	-4626
及其他	-4627
專家	-4628
心的	-4629
日常	-4630
介绍	-4631
li	-4632
克尔	-4633
勝出	-4634
進士	-4635
▁del	-4636
帶著	-4637
肯定	-4638
检查	-4639
戀愛	-4640
▁愛	-4641
》,0000	-4642
史蒂	-4643
模特	-4644
復興	-4645
鼓勵	-4646
在南	-4647
實行	-4648
專用	-4649
選為	-4650
尚書	-4651
▁!!	-4652
科學家	-4653
周围	-4654
add	-4655
oo	-4656
轉移	-4657
▁*#	-4658
扩大	-4659
哥伦	-4660
機車	-4661
主流	-4662
性质	-4663
慕尼	-4664
工作室	-4665
實現	-4666
基斯坦	-4667
並與	-4668
和大	-4669
的代表	-4670
的後	-4671
铁道	-4672
▁spec	-4673
对外	-4674
天后	-4675
三月	-4676
意识	-4677
包括了	-4678
现场	-4679
的力量	-4680
宣告	-4681
00、	-4682
同步	-4683
▁當	-4684
價格	-4685
undam	-4686
施工	-4687
病逝	-4688
豐富	-4689
icon	-4690
手槍	-4691
nh	-4692
ira	-4693
公車	-4694
列為	-4695
四世	-4696
架構	-4697
拯救	-4698
在台灣	-4699
”。0000	-4700
暫時	-4701
終點	-4702
充滿	-4703
原則	-4704
年中	-4705
▁、	-4706
是有	-4707
垂直	-4708
▁life	-4709
▁class	-4710
監製	-4711
ella	-4712
並無	-4713
wan	-4714
奧地利	-4715
提琴	-4716
▁;0000	-4717
但是在	-4718
日下午	-4719
原理	-4720
不僅	-4721
促進	-4722
手機	-4723
一部分	-4724
(0000-0000)	-4725
▁雖然	-4726
建築物	-4727
chn	-4728
以往	-4729
开展	-4730
any	-4731
ht	-4732
改良	-4733
改制為	-4734
大公	-4735
万元	-4736
卫视	-4737
屏東	-4738
執導	-4739
军的	-4740
分类	-4741
格林	-4742
宣言	-4743
用了	-4744
封面	-4745
堅持	-4746
所需	-4747
正確	-4748
探索	-4749
阶级	-4750
经理	-4751
歷史上	-4752
懷疑	-4753
做為	-4754
神經	-4755
形態	-4756
立法委員	-4757
接任	-4758
资金	-4759
文物保护	-4760
防守	-4761
電力	-4762
▁award	-4763
杀死	-4764
华盛	-4765
的音樂	-4766
修道	-4767
福特	-4768
)/	-4769
▁ye	-4770
berg	-4771
一旦	-4772
cp	-4773
關鍵	-4774
ichael	-4775
永遠	-4776
▁美	-4777
事业	-4778
分的	-4779
西里	-4780
日發行	-4781
在第	-4782
大批	-4783
河南省	-4784
是一部	-4785
》0000	-4786
机器	-4787
瑪麗	-4788
umb	-4789
接触	-4790
:)	-4791
合同	-4792
事實上	-4793
湖南省	-4794
集的	-4795
侵略	-4796
顾问	-4797
幾個	-4798
月底	-4799
视频	-4800
絕對	-4801
中間	-4802
大橋	-4803
總裁	-4804
密切	-4805
的父親	-4806
定位	-4807
华盛顿	-4808
完成了	-4809
羽毛球	-4810
優勢	-4811
慕尼黑	-4812
za	-4813
ora	-4814
加工	-4815
涉嫌	-4816
王位	-4817
機器人	-4818
校区	-4819
騎兵	-4820
號線	-4821
har	-4822
也能	-4823
毕业于	-4824
十二月	-4825
張單曲	-4826
後被	-4827
的美	-4828
off	-4829
黑人	-4830
日發售	-4831
古巴	-4832
德斯	-4833
樂隊	-4834
重的	-4835
的情况下	-4836
波士	-4837
笼草	-4838
被視為	-4839
兩次	-4840
即是	-4841
車道	-4842
在他的	-4843
對應	-4844
衍生	-4845
猪笼草	-4846
soft	-4847
东京	-4848
动车	-4849
突出	-4850
的設計	-4851
的公	-4852
基本上	-4853
推廣	-4854
麥克	-4855
▁不	-4856
介石	-4857
惡魔	-4858
民众	-4859
穿著	-4860
洛杉磯	-4861
客串	-4862
哈利	-4863
觀點	-4864
便是	-4865
批判	-4866
格里	-4867
▁日	-4868
sd	-4869
年號	-4870
併入	-4871
迷你	-4872
機槍	-4873
東海	-4874
,''	-4875
獎最佳	-4876
信徒	-4877
容量	-4878
上面	-4879
人数	-4880
erson	-4881
螺旋	-4882
就有	-4883
布尔	-4884
連結	-4885
從而	-4886
ions	-4887
海南	-4888
瑟夫	-4889
贵族	-4890
med	-4891
▁op	-4892
廢除	-4893
被認為是	-4894
第二次世界大戰	-4895
立法會	-4896
福德	-4897
緊急	-4898
時段	-4899
0000-00	-4900
ember	-4901
江苏省	-4902
卡爾	-4903
:00-00:00	-4904
花园	-4905
gn	-4906
svg	-4907
時期的	-4908
正義	-4909
沿岸	-4910
形成的	-4911
变得	-4912
▁park	-4913
二月	-4914
六月	-4915
met	-4916
ative	-4917
监督	-4918
内蒙古	-4919
兩名	-4920
勞工	-4921
声称	-4922
经验	-4923
开通	-4924
新北市	-4925
事務所	-4926
gre	-4927
各國	-4928
以西	-4929
女儿	-4930
最有	-4931
遊行	-4932
国民政府	-4933
会上	-4934
▁從	-4935
對外	-4936
戏剧	-4937
花蓮	-4938
爱尔兰	-4939
▁bu	-4940
电脑	-4941
参谋长	-4942
丰富	-4943
政治部	-4944
畫面	-4945
月刊	-4946
▁style	-4947
任職	-4948
ric	-4949
リー	-4950
模仿	-4951
算法	-4952
重視	-4953
重返	-4954
簽署	-4955
作曲家	-4956
年出版	-4957
代码	-4958
畢業後	-4959
出自	-4960
維爾	-4961
系统的	-4962
▁艾	-4963
仪式	-4964
戰術	-4965
真相	-4966
中國國民黨	-4967
ram	-4968
發明	-4969
抵达	-4970
▁ke	-4971
太守	-4972
部署	-4973
山市	-4974
靈魂	-4975
省道	-4976
ield	-4977
fc	-4978
演藝	-4979
结束后	-4980
追溯	-4981
但卻	-4982
願意	-4983
麦克	-4984
成果	-4985
神经	-4986
選出	-4987
測量	-4988
上一	-4989
大帝	-4990
格雷	-4991
形成了	-4992
检察	-4993
下來	-4994
斯洛	-4995
秘书长	-4996
▁lang	-4997
价格	-4998
国家的	-4999
年出生	-5000
說是	-5001
九月	-5002
学名	-5003
正月	-5004
耶穌	-5005
任天堂	-5006
之名	-5007
祖先	-5008
出现在	-5009
傳奇	-5010
仍在	-5011
做法	-5012
打敗	-5013
一至	-5014
脫離	-5015
取得了	-5016
系統的	-5017
可在	-5018
▁ber	-5019
回家	-5020
曾是	-5021
等的	-5022
這項	-5023
因此在	-5024
管辖	-5025
跑道	-5026
nal	-5027
推出的	-5028
图像	-5029
两次	-5030
do	-5031
希特勒	-5032
戰略	-5033
簽訂	-5034
方程	-5035
ko	-5036
▁从	-5037
」(0000	-5038
新增	-5039
史密斯	-5040
创立	-5041
消滅	-5042
转移	-5043
無人	-5044
特别是	-5045
▁high	-5046
的女性	-5047
二次	-5048
眾多	-5049
律师	-5050
認同	-5051
kg	-5052
年以	-5053
活躍	-5054
就被	-5055
防空	-5056
的山	-5057
金剛	-5058
发电	-5059
子彈	-5060
文藝	-5061
服裝	-5062
贵州	-5063
签署	-5064
織田	-5065
委副书记	-5066
本科	-5067
出發	-5068
当年	-5069
稱作	-5070
娱乐	-5071
幕府	-5072
黃色	-5073
对此	-5074
時空	-5075
迫使	-5076
當天	-5077
的阿	-5078
ally	-5079
奧斯	-5080
婦女	-5081
▁黑	-5082
都可以	-5083
平安	-5084
獲得了	-5085
ler	-5086
在前	-5087
地圖	-5088
領隊	-5089
國中	-5090
無限	-5091
▁fil	-5092
加斯	-5093
就任	-5094
论文	-5095
bar	-5096
良好	-5097
▁00000	-5098
習慣	-5099
民间	-5100
天王	-5101
▁po	-5102
科夫	-5103
女士	-5104
現在的	-5105
的事情	-5106
末期	-5107
bi	-5108
气候	-5109
公會	-5110
加强	-5111
人死亡	-5112
資金	-5113
德華	-5114
可能會	-5115
及後	-5116
坐落	-5117
▁為	-5118
印第	-5119
释放	-5120
▁周	-5121
压力	-5122
任中共	-5123
陕西	-5124
hi	-5125
是為	-5126
▁水	-5127
勒斯	-5128
摄影	-5129
人氣	-5130
得主	-5131
ser	-5132
的國家	-5133
▁sa	-5134
作的	-5135
生態	-5136
ience	-5137
增強	-5138
最多的	-5139
夢想	-5140
玫瑰	-5141
urn	-5142
空气	-5143
智能	-5144
勞動	-5145
的全	-5146
维持	-5147
-00-000000-0	-5148
个月	-5149
布斯	-5150
▁reg	-5151
签订	-5152
si	-5153
具体	-5154
组成的	-5155
之意	-5156
三次	-5157
北平	-5158
召集	-5159
▁kong	-5160
sw	-5161
甘肃	-5162
休息	-5163
傷害	-5164
队的	-5165
龙江	-5166
命名为	-5167
循環	-5168
一生	-5169
领土	-5170
一支	-5171
能在	-5172
''。	-5173
著的	-5174
關閉	-5175
叙利亚	-5176
▁act	-5177
出來的	-5178
但不	-5179
受害	-5180
(,),	-5181
占地	-5182
▁time	-5183
ny	-5184
學士	-5185
工作的	-5186
文物保护单位	-5187
▁city	-5188
一路	-5189
自稱	-5190
▁--	-5191
给了	-5192
资格	-5193
▁#《	-5194
除此之外	-5195
執政	-5196
媽媽	-5197
州立	-5198
巴基斯坦	-5199
向北	-5200
投手	-5201
總監	-5202
的電影	-5203
收視	-5204
場比賽	-5205
的法	-5206
一系列	-5207
漢字	-5208
众多	-5209
又在	-5210
國軍	-5211
文獻	-5212
▁{	-5213
势力	-5214
扩展	-5215
立刻	-5216
起了	-5217
主打	-5218
富汗	-5219
球迷	-5220
人所	-5221
原有	-5222
在該	-5223
英軍	-5224
隊員	-5225
face	-5226
並由	-5227
电话	-5228
包含了	-5229
第三次	-5230
▁edition	-5231
▁羅	-5232
▁play	-5233
保证	-5234
的四	-5235
的西	-5236
書店	-5237
產生的	-5238
▁000-0-0000	-5239
入了	-5240
增設	-5241
清华	-5242
為其	-5243
0:00	-5244
ster	-5245
特別是	-5246
的金	-5247
保罗	-5248
數碼	-5249
选手	-5250
视为	-5251
分別是	-5252
带有	-5253
拿破	-5254
曲目	-5255
菲利	-5256
饰演	-5257
吸血	-5258
分別為	-5259
樂園	-5260
米爾	-5261
語的	-5262
停車場	-5263
巴斯	-5264
印第安	-5265
水利	-5266
接管	-5267
考察	-5268
ior	-5269
英里	-5270
尺寸	-5271
▁00:00:00	-5272
里克	-5273
首個	-5274
違反	-5275
黄金	-5276
orge	-5277
angel	-5278
常务	-5279
政协	-5280
提供的	-5281
离子	-5282
億美元	-5283
檢查	-5284
階級	-5285
等級	-5286
на	-5287
籃球	-5288
多種	-5289
办事	-5290
回憶	-5291
▁×	-5292
之處	-5293
兩年	-5294
區間	-5295
合理	-5296
神的	-5297
的女兒	-5298
教區	-5299
格拉斯	-5300
片尾曲	-5301
公告	-5302
▁instit	-5303
rag	-5304
變身	-5305
不受	-5306
因其	-5307
熱帶氣旋	-5308
人權	-5309
ki	-5310
跟隨	-5311
波罗	-5312
妇女	-5313
出場	-5314
▁長	-5315
文艺	-5316
觀塘	-5317
向南	-5318
衛隊	-5319
主權	-5320
之為	-5321
主動	-5322
市立	-5323
下方	-5324
人文	-5325
啟動	-5326
覆蓋	-5327
任命为	-5328
宣稱	-5329
死去	-5330
png	-5331
性和	-5332
申请	-5333
带来	-5334
▁(000	-5335
氣候	-5336
中心的	-5337
司马	-5338
在这	-5339
▁※	-5340
歌詞	-5341
uth	-5342
曾於	-5343
杰克	-5344
立場	-5345
罕默	-5346
保加	-5347
天空	-5348
本片	-5349
鋼琴	-5350
德克	-5351
教徒	-5352
天津市	-5353
升級	-5354
性別	-5355
时任	-5356
称作	-5357
对应	-5358
武士	-5359
▁bro	-5360
入選	-5361
坚持	-5362
上方	-5363
王的	-5364
不在	-5365
開業	-5366
都会	-5367
古屋	-5368
即將	-5369
amer	-5370
驱逐	-5371
村民	-5372
資本	-5373
得分	-5374
0.000	-5375
警報	-5376
mr	-5377
奥尔	-5378
聲稱	-5379
ody	-5380
大学的	-5381
交界	-5382
估计	-5383
变成	-5384
小孩	-5385
抑制	-5386
秩序	-5387
马尔	-5388
促进	-5389
航空母	-5390
則有	-5391
()、	-5392
win	-5393
世代	-5394
fa	-5395
une	-5396
深度	-5397
的最高	-5398
▁station	-5399
全长	-5400
告诉	-5401
温度	-5402
莎白	-5403
更为	-5404
輸入	-5405
山東	-5406
搭配	-5407
星光	-5408
炸彈	-5409
▁聖	-5410
同名	-5411
在上海	-5412
联合会	-5413
真实	-5414
荃灣	-5415
首任	-5416
傾向	-5417
中国的	-5418
任意	-5419
对手	-5420
培养	-5421
山區	-5422
▁劉	-5423
巴拉	-5424
入境	-5425
sl	-5426
政治委员	-5427
长度	-5428
医生	-5429
山口	-5430
呼吸	-5431
客家	-5432
骑士	-5433
予以	-5434
ci	-5435
岁的	-5436
翡翠	-5437
ett	-5438
duction	-5439
候选	-5440
资产	-5441
同志	-5442
委託	-5443
监狱	-5444
的人物	-5445
的大型	-5446
ico	-5447
马里	-5448
客车	-5449
val	-5450
▁sk	-5451
ator	-5452
三國	-5453
校舍	-5454
贊助	-5455
生长	-5456
▁inform	-5457
議題	-5458
▁int	-5459
公署	-5460
ール	-5461
信任	-5462
剧院	-5463
就像	-5464
布萊	-5465
血液	-5466
rit	-5467
fin	-5468
.0000	-5469
最高法院	-5470
降落	-5471
當日	-5472
象征	-5473
輻射	-5474
軍官	-5475
▁jo	-5476
亿美元	-5477
帶有	-5478
版本的	-5479
三位	-5480
太原	-5481
00°	-5482
大规模	-5483
面向	-5484
情况下	-5485
整理	-5486
电气	-5487
–0	-5488
▁該	-5489
内战	-5490
▁石	-5491
新一	-5492
gb	-5493
▁che	-5494
年春	-5495
引用	-5496
ugh	-5497
樂壇	-5498
發揮	-5499
周恩	-5500
型號	-5501
完整的	-5502
年成立	-5503
教室	-5504
受到了	-5505
德华	-5506
系的	-5507
穆罕默	-5508
公社	-5509
受伤	-5510
por	-5511
文献	-5512
被判	-5513
國家的	-5514
短篇	-5515
ova	-5516
授權	-5517
網球	-5518
出场	-5519
端的	-5520
發動機	-5521
▁0.00	-5522
较为	-5523
uck	-5524
物語	-5525
0-00	-5526
super	-5527
▁arch	-5528
周圍	-5529
望遠	-5530
lap	-5531
山脈	-5532
本名	-5533
克萊	-5534
告知	-5535
兩國	-5536
cal	-5537
ons	-5538
:(	-5539
沙漠	-5540
夏天	-5541
现实	-5542
簽約	-5543
至此	-5544
的日本	-5545
第一屆	-5546
數目	-5547
大衛	-5548
的家	-5549
说明	-5550
▁多	-5551
手術	-5552
▁吉	-5553
以外的	-5554
但仍	-5555
mi	-5556
种族	-5557
福建省	-5558
star	-5559
克莱	-5560
der	-5561
首歌曲	-5562
▁london	-5563
交往	-5564
▁soci	-5565
伊利	-5566
身体	-5567
委會	-5568
書籍	-5569
種子	-5570
聖經	-5571
主张	-5572
各个	-5573
升级	-5574
本部	-5575
逃亡	-5576
”,“	-5577
vo	-5578
晉級	-5579
失去了	-5580
▁vers	-5581
路线	-5582
政治局	-5583
ни	-5584
依靠	-5585
交易所	-5586
添加	-5587
競賽	-5588
卡特	-5589
大和	-5590
泰勒	-5591
輸出	-5592
,),	-5593
its	-5594
▁bi	-5595
同時也	-5596
优势	-5597
若干	-5598
届全国	-5599
ony	-5600
漸漸	-5601
并未	-5602
一条	-5603
司令员	-5604
注册	-5605
訊息	-5606
基础上	-5607
交給	-5608
其余	-5609
浪漫	-5610
突厥	-5611
一带	-5612
红军	-5613
联网	-5614
分離	-5615
忍者	-5616
公众	-5617
片段	-5618
▁work	-5619
拿下	-5620
被认为是	-5621
ek	-5622
出土	-5623
巴勒	-5624
大規模	-5625
锦标	-5626
▁but	-5627
就能	-5628
经典	-5629
ター	-5630
入圍	-5631
附属	-5632
增强	-5633
~0	-5634
偵探	-5635
大埔	-5636
斗争	-5637
输入	-5638
ini	-5639
喜劇	-5640
地名	-5641
尊重	-5642
校友	-5643
香港的	-5644
九州	-5645
ional	-5646
內地	-5647
oth	-5648
直径	-5649
ida	-5650
總是	-5651
gar	-5652
▁:#	-5653
▁根据	-5654
平定	-5655
ula	-5656
向西	-5657
vent	-5658
当局	-5659
陨坑	-5660
形狀	-5661
大地	-5662
本來	-5663
事後	-5664
佛罗	-5665
區內	-5666
声明	-5667
轉乘	-5668
醫師	-5669
青山	-5670
外界	-5671
邊的	-5672
思考	-5673
和他的	-5674
▁this	-5675
練習	-5676
ocal	-5677
原創	-5678
fran	-5679
td	-5680
次日	-5681
放射	-5682
▁inc	-5683
富士電視台	-5684
料理	-5685
文庫	-5686
一場	-5687
人都	-5688
ournal	-5689
配備	-5690
地中	-5691
press	-5692
他曾	-5693
作畫	-5694
電車	-5695
▁目前	-5696
▁var	-5697
▁tour	-5698
+0	-5699
所谓	-5700
立委	-5701
望遠鏡	-5702
eral	-5703
岁时	-5704
斯托	-5705
你的	-5706
東亞	-5707
長達	-5708
工程师	-5709
热带风暴	-5710
前者	-5711
崇拜	-5712
師範	-5713
▁()	-5714
資產	-5715
0-000-0	-5716
▁這	-5717
人是	-5718
阿富汗	-5719
一级	-5720
两侧	-5721
歐盟	-5722
藥物	-5723
ops	-5724
德尔	-5725
格勒	-5726
會議員	-5727
行政長官	-5728
useum	-5729
▁0000000000000	-5730
院校	-5731
中國的	-5732
來往	-5733
登記	-5734
自主	-5735
装甲	-5736
足夠	-5737
名古屋	-5738
一共	-5739
移居	-5740
出现了	-5741
是美國	-5742
戰艦	-5743
監察	-5744
讓他	-5745
ipt	-5746
但其	-5747
又被	-5748
出入口	-5749
合併為	-5750
防御	-5751
提前	-5752
改进	-5753
协助	-5754
第二季	-5755
马斯	-5756
綜藝	-5757
团队	-5758
食用	-5759
萬美元	-5760
不可能	-5761
使他	-5762
左翼	-5763
千人	-5764
澳大利亞	-5765
以其	-5766
庄村	-5767
中所	-5768
死后	-5769
大字	-5770
第一次世界	-5771
▁古	-5772
強化	-5773
竣工	-5774
锦标赛	-5775
低气压	-5776
單一	-5777
山东省	-5778
tbs	-5779
島嶼	-5780
蝙蝠	-5781
過的	-5782
地在	-5783
证据	-5784
分享	-5785
)''	-5786
抗议	-5787
道具	-5788
也曾	-5789
多元	-5790
機制	-5791
視覺	-5792
▁star	-5793
资本	-5794
基督徒	-5795
余人	-5796
政党	-5797
祭祀	-5798
股票	-5799
設於	-5800
荣誉	-5801
最重要的	-5802
人民币	-5803
ages	-5804
不多	-5805
之前的	-5806
icrosoft	-5807
!(	-5808
下去	-5809
戰中	-5810
给予	-5811
测量	-5812
ye	-5813
困难	-5814
日語	-5815
為此	-5816
喇嘛	-5817
河北省	-5818
長子	-5819
均有	-5820
▁cal	-5821
▁may	-5822
因應	-5823
取自	-5824
▁group	-5825
王室	-5826
站台	-5827
的學生	-5828
不及	-5829
相应	-5830
丹麥	-5831
审判	-5832
符號	-5833
線上	-5834
▁歌	-5835
五世	-5836
口徑	-5837
▁*****	-5838
ross	-5839
乌克兰	-5840
▁christ	-5841
布雷	-5842
时期的	-5843
使者	-5844
劇中	-5845
又有	-5846
拉的	-5847
參謀	-5848
防衛	-5849
氣壓	-5850
后期	-5851
来源	-5852
驾驶	-5853
分割	-5854
岩石	-5855
居住在	-5856
铁路局	-5857
▁0-0	-5858
观测	-5859
註冊	-5860
国军	-5861
巨人	-5862
座位	-5863
提交	-5864
法人	-5865
普及	-5866
的身份	-5867
▁out	-5868
▁(0000),	-5869
太宗	-5870
新生	-5871
改稱	-5872
西蘭	-5873
tvb	-5874
次子	-5875
队伍	-5876
雕塑	-5877
分布于	-5878
▁bus	-5879
发现了	-5880
射入	-5881
夏威	-5882
第一部	-5883
病人	-5884
職員	-5885
▁serv	-5886
南昌	-5887
爸爸	-5888
假面騎士	-5889
▁我	-5890
遗产	-5891
关闭	-5892
乌斯	-5893
哥伦比亚	-5894
名叫	-5895
之父	-5896
談判	-5897
会长	-5898
撞击	-5899
、000、000	-5900
xt	-5901
地址	-5902
hd	-5903
之際	-5904
亲王	-5905
之路	-5906
輔助	-5907
逻辑	-5908
各個	-5909
ural	-5910
will	-5911
一份	-5912
天地	-5913
神父	-5914
ters	-5915
考试	-5916
苏格兰	-5917
动机	-5918
明确	-5919
流亡	-5920
社長	-5921
西元	-5922
道夫	-5923
市区	-5924
农村	-5925
年代初	-5926
)0000	-5927
競選	-5928
人口普查	-5929
山脉	-5930
atus	-5931
列为	-5932
的正	-5933
標本	-5934
▁enter	-5935
但由于	-5936
副部长	-5937
▁his	-5938
撰寫	-5939
更改	-5940
確保	-5941
邊界	-5942
的城市	-5943
▁(00	-5944
撞擊	-5945
龍科	-5946
▁mark	-5947
》-	-5948
看法	-5949
一詞	-5950
學的	-5951
can	-5952
兴建	-5953
姐妹	-5954
捷克	-5955
苗栗	-5956
社團	-5957
ala	-5958
dc	-5959
分离	-5960
ij	-5961
已於	-5962
時常	-5963
株式	-5964
當作	-5965
情报	-5966
▁然而	-5967
医疗	-5968
内阁	-5969
試驗	-5970
衣服	-5971
哥倫	-5972
期刊	-5973
神話	-5974
修道院	-5975
的功能	-5976
供奉	-5977
剧本	-5978
城镇	-5979
asa	-5980
女歌手	-5981
危机	-5982
推薦	-5983
地点	-5984
布莱	-5985
平行	-5986
有許多	-5987
▁最	-5988
部下	-5989
只好	-5990
的问题	-5991
強的	-5992
行政区	-5993
次郎	-5994
也会	-5995
就会	-5996
公寓	-5997
通常是	-5998
穆罕默德	-5999
大林	-6000
當地的	-6001
法令	-6002
终于	-6003
體重	-6004
的好	-6005
边界	-6006
spe	-6007
夏威夷	-6008
并将	-6009
教区	-6010
洪水	-6011
团长	-6012
推進	-6013
▁最佳	-6014
處理器	-6015
加勒	-6016
其后	-6017
文的	-6018
orm	-6019
▁ter	-6020
火力	-6021
兴趣	-6022
大连	-6023
芬蘭	-6024
ump	-6025
复兴	-6026
的可	-6027
gy	-6028
分解	-6029
古拉	-6030
的南	-6031
縮寫	-6032
维护	-6033
做了	-6034
場地	-6035
再加上	-6036
生态	-6037
ize	-6038
关键	-6039
年才	-6040
寻找	-6041
无线	-6042
哈尔滨	-6043
▁光	-6044
▁除了	-6045
的下	-6046
)→	-6047
評估	-6048
▁best	-6049
交换	-6050
ble	-6051
奧林匹克	-6052
playstation	-6053
萨尔	-6054
出戰	-6055
存的	-6056
夫斯基	-6057
打击	-6058
辦法	-6059
并非	-6060
的一次	-6061
▁back	-6062
外表	-6063
北魏	-6064
高架	-6065
▁road	-6066
通车	-6067
維護	-6068
抗日战争	-6069
席位	-6070
政委	-6071
▁house	-6072
、00、00	-6073
免疫	-6074
山西省	-6075
节度使	-6076
地图	-6077
室內	-6078
通行	-6079
回国	-6080
斯顿	-6081
青海	-6082
頭部	-6083
相關的	-6084
居委会	-6085
言論	-6086
背面	-6087
預算	-6088
建於	-6089
公平	-6090
模擬	-6091
頻率	-6092
将会	-6093
馬拉	-6094
这部	-6095
ра	-6096
part	-6097
▁je	-6098
沖繩	-6099
线的	-6100
ita	-6101
一職	-6102
互联网	-6103
交響	-6104
充分	-6105
檢察	-6106
省的	-6107
货币	-6108
黑龙江	-6109
打造	-6110
差距	-6111
聯絡	-6112
的消息	-6113
擔心	-6114
維多	-6115
ures	-6116
不如	-6117
高原	-6118
各大	-6119
辦事	-6120
立陶	-6121
从此	-6122
器官	-6123
伯格	-6124
制片	-6125
白人	-6126
日上午	-6127
說話	-6128
足以	-6129
国际机场	-6130
发明	-6131
老人	-6132
突擊	-6133
安妮	-6134
一日	-6135
▁japan	-6136
动作	-6137
罗伯特	-6138
▁windows	-6139
地帶	-6140
的国家	-6141
上半	-6142
獅子	-6143
里程	-6144
ava	-6145
的母親	-6146
dp	-6147
乘坐	-6148
片頭	-6149
實驗室	-6150
中以	-6151
支持者	-6152
流量	-6153
高峰	-6154
車隊	-6155
其中一個	-6156
兵团	-6157
短期	-6158
要塞	-6159
outh	-6160
的要求	-6161
暫停	-6162
放置	-6163
yd	-6164
獎金	-6165
一開始	-6166
cher	-6167
享有	-6168
颜色	-6169
族人	-6170
▁est	-6171
符号	-6172
大大	-6173
網頁	-6174
定理	-6175
南路	-6176
声音	-6177
主播	-6178
路德	-6179
故障	-6180
設計的	-6181
reet	-6182
▁福	-6183
编剧	-6184
▁sub	-6185
一千	-6186
▁nat	-6187
▁sur	-6188
四人	-6189
旋轉	-6190
▁tv	-6191
徒刑	-6192
烏克蘭	-6193
▁〜	-6194
晚期	-6195
认识	-6196
谈判	-6197
大學的	-6198
日本人	-6199
犹太人	-6200
▁rad	-6201
保险	-6202
對話	-6203
而死	-6204
元朝	-6205
科学家	-6206
▁gra	-6207
0/0	-6208
移植	-6209
mc	-6210
發音	-6211
ctor	-6212
丹麦	-6213
可達	-6214
等级	-6215
装饰	-6216
雍正	-6217
情人	-6218
ange	-6219
发出	-6220
數的	-6221
政治家	-6222
客户	-6223
極為	-6224
費用	-6225
▁.	-6226
yr	-6227
月中	-6228
教科	-6229
辦理	-6230
立陶宛	-6231
他與	-6232
姓氏	-6233
劇團	-6234
主義者	-6235
施行	-6236
時會	-6237
的中心	-6238
克利	-6239
只在	-6240
地质	-6241
垃圾	-6242
南下	-6243
次的	-6244
訊號	-6245
周期	-6246
變為	-6247
ada	-6248
ning	-6249
日治時期	-6250
▁000.0	-6251
所得	-6252
ideo	-6253
香港政府	-6254
害怕	-6255
真人	-6256
格斯	-6257
樂器	-6258
洛阳	-6259
成立后	-6260
成分	-6261
聖誕	-6262
開辦	-6263
成立于	-6264
sg	-6265
▁*『	-6266
詳細	-6267
路上	-6268
尼亚州	-6269
华人	-6270
整体	-6271
十一月	-6272
▁00,000	-6273
國小	-6274
ney	-6275
的前身	-6276
唱片公司	-6277
喜愛	-6278
流域	-6279
英尺	-6280
生理	-6281
奴隶	-6282
强调	-6283
可能性	-6284
始人	-6285
苏州	-6286
在中國	-6287
子公司	-6288
队长	-6289
人口的	-6290
典型的	-6291
嘉靖	-6292
決議	-6293
狙擊	-6294
▁first	-6295
車廂	-6296
ero	-6297
氣體	-6298
西路	-6299
原因是	-6300
是一座	-6301
的名稱	-6302
台幣	-6303
她是	-6304
丁堡	-6305
产生的	-6306
繁殖	-6307
▁techn	-6308
上校	-6309
快樂	-6310
交叉	-6311
先前	-6312
財產	-6313
在位	-6314
效應	-6315
日被	-6316
vin	-6317
毕业后	-6318
但被	-6319
型机车	-6320
第一名	-6321
初步	-6322
召喚	-6323
omas	-6324
文化大革命	-6325
的历史	-6326
意为	-6327
的北	-6328
干涉	-6329
奥运会	-6330
上游	-6331
初回	-6332
判決	-6333
风景	-6334
的作用	-6335
▁q	-6336
don	-6337
前後	-6338
启动	-6339
tt	-6340
ola	-6341
▁pres	-6342
一等	-6343
便利	-6344
溝通	-6345
mark	-6346
越来	-6347
▁bas	-6348
中環	-6349
慶祝	-6350
認定	-6351
拉德	-6352
有多	-6353
▁mem	-6354
lapse	-6355
为此	-6356
約為	-6357
相當於	-6358
但因為	-6359
道歉	-6360
助手	-6361
即時	-6362
明確	-6363
民政	-6364
臺中市	-6365
ua	-6366
品質	-6367
初年	-6368
其中的	-6369
秘書長	-6370
總經理	-6371
座堂	-6372
药物	-6373
認證	-6374
res	-6375
▁bbc	-6376
轟炸機	-6377
军委	-6378
赛事	-6379
越來	-6380
军官	-6381
明代	-6382
科幻	-6383
引進	-6384
直徑	-6385
的那	-6386
-0000)	-6387
洛夫	-6388
環保	-6389
istr	-6390
▁val	-6391
元朗	-6392
ios	-6393
成立於	-6394
▁cap	-6395
▁另外	-6396
週刊	-6397
畢業於	-6398
全程	-6399
勋章	-6400
命運	-6401
挑战	-6402
內政	-6403
周刊	-6404
比賽中	-6405
勳章	-6406
越来越	-6407
▁sing	-6408
年龄	-6409
之年號	-6410
是美国	-6411
发售	-6412
聯繫	-6413
间的	-6414
▁00/00	-6415
;0	-6416
玩具	-6417
下游	-6418
購物	-6419
旗下的	-6420
频率	-6421
哈佛	-6422
案的	-6423
榮獲	-6424
對其	-6425
山本	-6426
df	-6427
深刻	-6428
收录	-6429
監獄	-6430
▁show	-6431
pp	-6432
办事处	-6433
型电力机车	-6434
特區	-6435
是被	-6436
称号	-6437
貨物	-6438
附屬	-6439
▁音樂	-6440
魔女	-6441
▁es	-6442
uz	-6443
去了	-6444
气象	-6445
这场	-6446
ume	-6447
委员会委员	-6448
地獄	-6449
排除	-6450
消耗	-6451
自杀	-6452
芬兰	-6453
記憶體	-6454
的使用	-6455
ident	-6456
上任	-6457
▁sim	-6458
隸屬	-6459
故此	-6460
面对	-6461
改裝	-6462
納粹	-6463
采访	-6464
不幸	-6465
對戰	-6466
月份	-6467
期望	-6468
越來越	-6469
頒獎禮	-6470
一半	-6471
太祖	-6472
日晚	-6473
心臟	-6474
東區	-6475
國務	-6476
連任	-6477
的第三	-6478
改名为	-6479
它在	-6480
工會	-6481
模拟	-6482
武力	-6483
年夏季	-6484
克羅	-6485
全線	-6486
威尼斯	-6487
定律	-6488
各地的	-6489
日開始	-6490
amily	-6491
指揮官	-6492
更換	-6493
沿用	-6494
0000/00	-6495
fo	-6496
肌肉	-6497
▁li	-6498
的兩	-6499
推进	-6500
状况	-6501
水量	-6502
展現	-6503
社群	-6504
事件的	-6505
先进	-6506
夥伴	-6507
—000	-6508
宰相	-6509
維斯	-6510
esearch	-6511
大理	-6512
將領	-6513
馬力	-6514
era	-6515
出兵	-6516
有線	-6517
更有	-6518
諮詢	-6519
開通	-6520
良好的	-6521
信長	-6522
方程式	-6523
亲自	-6524
封印	-6525
"(	-6526
小平	-6527
人稱	-6528
▁lin	-6529
降雨	-6530
約有	-6531
就读	-6532
达尔	-6533
水的	-6534
▁af	-6535
▁lo	-6536
薩斯	-6537
亚历山大	-6538
▁langu	-6539
利安	-6540
牛津	-6541
發現了	-6542
彩虹	-6543
不良	-6544
累積	-6545
那麼	-6546
模特兒	-6547
互動	-6548
亦可	-6549
参赛	-6550
反射	-6551
飯店	-6552
清真	-6553
站在	-6554
蒸汽	-6555
阳县	-6556
决议	-6557
运用	-6558
增長	-6559
文帝	-6560
▁朱	-6561
短暫	-6562
昆明	-6563
▁cam	-6564
預測	-6565
最初的	-6566
年香港	-6567
▁society	-6568
企劃	-6569
喜剧	-6570
擴展	-6571
進而	-6572
華語	-6573
▁os	-6574
幼稚	-6575
搭乘	-6576
▁hall	-6577
珍珠	-6578
風險	-6579
硬币	-6580
製作的	-6581
▁唐	-6582
在于	-6583
故意	-6584
镜头	-6585
吸血鬼	-6586
政治人物	-6587
▁american	-6588
縣道	-6589
▁松	-6590
unic	-6591
知的	-6592
cle	-6593
▁00-00	-6594
不满	-6595
和小	-6596
園區	-6597
弗拉	-6598
風雲	-6599
rew	-6600
▁end	-6601
光明	-6602
收购	-6603
週年	-6604
東尼	-6605
任职	-6606
耶律	-6607
▁編曲	-6608
名单	-6609
▁phil	-6610
常被	-6611
文化的	-6612
有一些	-6613
零售	-6614
最后一	-6615
▁与	-6616
後方	-6617
教的	-6618
辭職	-6619
爾特	-6620
年加入	-6621
審查	-6622
老闆	-6623
也沒有	-6624
的機會	-6625
▁其	-6626
定为	-6627
層的	-6628
下来	-6629
促使	-6630
環球	-6631
秀吉	-6632
而來	-6633
▁van	-6634
刊登	-6635
000,	-6636
外觀	-6637
级联赛	-6638
出色	-6639
周邊	-6640
ery	-6641
▁加	-6642
兵器	-6643
▁met	-6644
經紀	-6645
十一年	-6646
outube	-6647
sky	-6648
獲勝	-6649
cis	-6650
爱德华	-6651
群众	-6652
英寸	-6653
日益	-6654
溫泉	-6655
公子	-6656
並不是	-6657
眾人	-6658
影展	-6659
薩克	-6660
hr	-6661
夫婦	-6662
斯和	-6663
英超	-6664
電池	-6665
更大的	-6666
引力	-6667
编码	-6668
边境	-6669
特定的	-6670
'')。	-6671
▁|	-6672
藤原	-6673
区别	-6674
地域	-6675
外圍	-6676
航空母艦	-6677
▁米	-6678
三国	-6679
雷達	-6680
党组	-6681
密的	-6682
開啟	-6683
尋求	-6684
百貨	-6685
空調	-6686
sn	-6687
指數	-6688
▁pat	-6689
向量	-6690
汉语	-6691
带领	-6692
同時也是	-6693
▁张	-6694
最好的	-6695
」「	-6696
还在	-6697
的速度	-6698
格尔	-6699
之時	-6700
元的	-6701
千葉	-6702
纳粹	-6703
▁中央	-6704
有很多	-6705
文革	-6706
死者	-6707
确认	-6708
湖北省	-6709
商务	-6710
已在	-6711
辐射	-6712
天氣	-6713
賽車	-6714
形态	-6715
職位	-6716
財務	-6717
首的	-6718
電視節目	-6719
出一	-6720
生效	-6721
田村	-6722
难以	-6723
在内的	-6724
▁sw	-6725
▁mil	-6726
時代的	-6727
美少女	-6728
野生	-6729
片的	-6730
維修	-6731
驱动	-6732
sam	-6733
享年	-6734
但也	-6735
土壤	-6736
bit	-6737
痛苦	-6738
維奇	-6739
水库	-6740
五個	-6741
▁吳	-6742
尝试	-6743
长春	-6744
搭載	-6745
摧毀	-6746
星球	-6747
接受了	-6748
物浦	-6749
網上	-6750
面臨	-6751
inter	-6752
誕生	-6753
不列	-6754
百合	-6755
頒發	-6756
侵犯	-6757
字符	-6758
萨斯	-6759
香港配音	-6760
服务器	-6761
ival	-6762
▁dis	-6763
卡罗	-6764
原畫	-6765
記者會	-6766
gundam	-6767
事物	-6768
妖怪	-6769
bra	-6770
!”	-6771
以至	-6772
任內	-6773
变为	-6774
稱號	-6775
xx	-6776
原為	-6777
不知道	-6778
工艺	-6779
通讯	-6780
改称	-6781
,)	-6782
交匯	-6783
招生	-6784
斯頓	-6785
博士学位	-6786
久的	-6787
alt	-6788
▁coun	-6789
编号	-6790
mann	-6791
設計師	-6792
在该	-6793
王后	-6794
美的	-6795
年代的	-6796
跨越	-6797
中視	-6798
埔寨	-6799
攻入	-6800
》。0000	-6801
数的	-6802
rol	-6803
▁rel	-6804
僅有	-6805
▁ep	-6806
▁0-0000-0000-0	-6807
其子	-6808
巴特	-6809
週期	-6810
▁此外	-6811
典型	-6812
日由	-6813
volution	-6814
”;	-6815
报纸	-6816
起點	-6817
合金	-6818
眼鏡	-6819
pol	-6820
洛杉矶	-6821
最为	-6822
航行	-6823
前進	-6824
離子	-6825
世界盃	-6826
轉向	-6827
首府	-6828
工程師	-6829
柴油机车	-6830
維多利亞	-6831
索尼	-6832
▁拉	-6833
开工	-6834
機體	-6835
柬埔寨	-6836
介入	-6837
都能	-6838
一方面	-6839
▁william	-6840
推动	-6841
利物浦	-6842
報道	-6843
▁king	-6844
济南	-6845
為香港	-6846
在本	-6847
農民	-6848
電視動畫	-6849
場的	-6850
業者	-6851
illa	-6852
linux	-6853
手下	-6854
雕像	-6855
引起了	-6856
公務	-6857
採訪	-6858
規範	-6859
強大的	-6860
第一季	-6861
▁哈	-6862
則由	-6863
灣仔	-6864
馬爾	-6865
of	-6866
建國	-6867
有意	-6868
伍德	-6869
勁歌	-6870
選拔	-6871
均为	-6872
建制	-6873
mag	-6874
有利	-6875
行业	-6876
一角	-6877
方形	-6878
翰林	-6879
经济学	-6880
live	-6881
一般的	-6882
▁net	-6883
一事	-6884
消除	-6885
诗人	-6886
年球季	-6887
之內	-6888
台視	-6889
框架	-6890
?”	-6891
日凌晨	-6892
▁lim	-6893
最具	-6894
スト	-6895
海底	-6896
局部	-6897
島的	-6898
怪物	-6899
拜占	-6900
胡同	-6901
美國的	-6902
考入	-6903
英鎊	-6904
世的	-6905
血管	-6906
轰炸	-6907
消费	-6908
達爾	-6909
十三年	-6910
」。0000	-6911
閱讀	-6912
▁over	-6913
書記	-6914
爭奪	-6915
原有的	-6916
教练	-6917
转换	-6918
▁正	-6919
血型	-6920
ington	-6921
症狀	-6922
生長	-6923
的基本	-6924
–0000)	-6925
滿足	-6926
上空	-6927
插入	-6928
金鐘	-6929
旋律	-6930
周恩来	-6931
女演員	-6932
主义者	-6933
是為了	-6934
月任	-6935
敏感	-6936
▁research	-6937
入选	-6938
完善	-6939
貨幣	-6940
mod	-6941
▁下	-6942
用在	-6943
ben	-6944
將軍澳	-6945
),00	-6946
定了	-6947
年獲	-6948
都要	-6949
射手	-6950
緬甸	-6951
被告	-6952
长子	-6953
澎湖	-6954
▁с	-6955
書中	-6956
升格為	-6957
▁八	-6958
剩下	-6959
莉亞	-6960
討伐	-6961
為基礎	-6962
ball	-6963
〉、	-6964
效应	-6965
泰国	-6966
英九	-6967
ット	-6968
的不同	-6969
rib	-6970
中和	-6971
區議會	-6972
love	-6973
衝擊	-6974
迫害	-6975
中文版	-6976
向前	-6977
大氣	-6978
擴張	-6979
染色	-6980
旨在	-6981
流通	-6982
00/00	-6983
分散	-6984
,(	-6985
代號	-6986
體育館	-6987
中等	-6988
或其他	-6989
水扁	-6990
不利	-6991
ship	-6992
人事	-6993
具備	-6994
参考	-6995
承諾	-6996
授权	-6997
時刻	-6998
邊緣	-6999
高橋	-7000
得票	-7001
背鰭	-7002
褐色	-7003
▁record	-7004
▁version	-7005
假設	-7006
此一	-7007
短片	-7008
車身	-7009
體系	-7010
第十二	-7011
北路	-7012
免费	-7013
想到	-7014
}-、	-7015
哥倫比亞	-7016
金像	-7017
的妻子	-7018
上是	-7019
他又	-7020
交通部	-7021
▁法	-7022
力学	-7023
地產	-7024
不需要	-7025
以为	-7026
对其	-7027
命名的	-7028
年於	-7029
意见	-7030
的时间	-7031
itz	-7032
ander	-7033
▁武	-7034
沃尔	-7035
后被	-7036
车厢	-7037
知名的	-7038
展览	-7039
年秋	-7040
ats	-7041
hed	-7042
比利時	-7043
熟悉	-7044
般的	-7045
当天	-7046
生意	-7047
轉為	-7048
金斯	-7049
ved	-7050
台灣的	-7051
北京大学	-7052
缅甸	-7053
傑出	-7054
相当于	-7055
▁von	-7056
国家级	-7057
0,000,000	-7058
修复	-7059
可靠	-7060
存储	-7061
这时	-7062
arth	-7063
▁museum	-7064
生活在	-7065
top	-7066
北伐	-7067
同治	-7068
▁月	-7069
军团	-7070
出現的	-7071
草案	-7072
医学院	-7073
奥斯卡	-7074
名列	-7075
处长	-7076
手法	-7077
边缘	-7078
手机	-7079
普森	-7080
資助	-7081
讲述	-7082
▁東京	-7083
一直到	-7084
▁青	-7085
俗稱	-7086
內戰	-7087
审查	-7088
函數	-7089
牙齒	-7090
ко	-7091
地中海	-7092
場景	-7093
绿色	-7094
大奖	-7095
建立的	-7096
党的	-7097
科研	-7098
首批	-7099
年與	-7100
講述	-7101
)》	-7102
东风	-7103
光的	-7104
身邊	-7105
▁但	-7106
假日	-7107
九巴	-7108
槍管	-7109
儲存	-7110
其中有	-7111
▁曾	-7112
安东	-7113
國家隊	-7114
▁四	-7115
人被	-7116
預定	-7117
支部	-7118
走廊	-7119
▁ak	-7120
彗星	-7121
urus	-7122
大力	-7123
无论	-7124
mel	-7125
▁特	-7126
山区	-7127
榴彈	-7128
金門	-7129
最為	-7130
ele	-7131
其父	-7132
各国	-7133
的其他	-7134
▁00:00	-7135
之星	-7136
安徽省	-7137
一級	-7138
波羅	-7139
新台幣	-7140
往來	-7141
時被	-7142
为中国	-7143
魔術	-7144
他們在	-7145
gra	-7146
政務	-7147
的模式	-7148
对抗	-7149
辞职	-7150
舉辦的	-7151
巴勒斯坦	-7152
arles	-7153
造船	-7154
▁永	-7155
出去	-7156
回來	-7157
強制	-7158
過於	-7159
巴塞	-7160
的后	-7161
位在	-7162
山田	-7163
是他	-7164
一架	-7165
全身	-7166
▁何	-7167
為由	-7168
協調	-7169
艺术家	-7170
chen	-7171
見到	-7172
cess	-7173
▁mov	-7174
阿姆	-7175
圓形	-7176
操控	-7177
inn	-7178
分鏡	-7179
的土地	-7180
的長	-7181
而已	-7182
bridge	-7183
契約	-7184
此地	-7185
出局	-7186
強度	-7187
大厦	-7188
洛伊	-7189
潜艇	-7190
率先	-7191
盟軍	-7192
推理	-7193
▁sl	-7194
大聯盟	-7195
盆地	-7196
重修	-7197
菲律宾	-7198
wa	-7199
两国	-7200
流傳	-7201
▁associ	-7202
男友	-7203
不了	-7204
失蹤	-7205
罪名	-7206
第十一	-7207
和新	-7208
片中	-7209
戰國	-7210
創意	-7211
年第	-7212
00。	-7213
ano	-7214
▁da	-7215
電氣	-7216
分局	-7217
水中	-7218
美军	-7219
▁your	-7220
学士	-7221
▁david	-7222
觀音	-7223
rd	-7224
书院	-7225
繁忙	-7226
驅動	-7227
創辦人	-7228
州府	-7229
斯大林	-7230
國防部	-7231
著有	-7232
的兒子	-7233
次於	-7234
的先	-7235
举行的	-7236
▁清	-7237
文本	-7238
▁island	-7239
是從	-7240
共享	-7241
協定	-7242
候选人	-7243
;}-(	-7244
優惠	-7245
獨自	-7246
危险	-7247
摩托	-7248
處的	-7249
▁mor	-7250
悉尼	-7251
财产	-7252
遊客	-7253
播出的	-7254
古老的	-7255
該公司	-7256
耶路	-7257
▁【	-7258
享受	-7259
造成了	-7260
▁night	-7261
證券	-7262
夫妻	-7263
撒冷	-7264
意味着	-7265
music	-7266
重慶	-7267
000/000	-7268
軍人	-7269
比利时	-7270
▁public	-7271
名詞	-7272
中途	-7273
普林	-7274
不敢	-7275
日記	-7276
畫家	-7277
透明	-7278
勁爆	-7279
死於	-7280
▁ox	-7281
〉,	-7282
友好	-7283
種類	-7284
ipp	-7285
常見的	-7286
不佳	-7287
县城	-7288
吉尔	-7289
推出了	-7290
▁德	-7291
可惜	-7292
巴赫	-7293
戰機	-7294
連續劇	-7295
直流	-7296
真理	-7297
▁long	-7298
arm	-7299
▁college	-7300
?」	-7301
房間	-7302
ング	-7303
南宋	-7304
會社	-7305
被人	-7306
那里	-7307
阳市	-7308
雲林	-7309
▁cd	-7310
三名	-7311
仅仅	-7312
会员	-7313
mix	-7314
▁hong	-7315
cer	-7316
fs	-7317
道教	-7318
族自治	-7319
提倡	-7320
约为	-7321
,0000)	-7322
最新	-7323
的歷史	-7324
▁center	-7325
寫作	-7326
的二	-7327
皇室	-7328
微軟	-7329
精英	-7330
▁第三	-7331
稱之為	-7332
情況下	-7333
期徒刑	-7334
bin	-7335
迪斯	-7336
马拉	-7337
背叛	-7338
▁publish	-7339
主導	-7340
ison	-7341
原则	-7342
魔王	-7343
▁club	-7344
之战	-7345
而後	-7346
較低	-7347
▁em	-7348
也很	-7349
意為	-7350
的话	-7351
航海	-7352
的设计	-7353
取了	-7354
推荐	-7355
武昌	-7356
雕刻	-7357
夺得	-7358
東南亞	-7359
attle	-7360
廠商	-7361
房子	-7362
科技大學	-7363
巴尔	-7364
的歌	-7365
安置	-7366
▁sup	-7367
校园	-7368
深受	-7369
步行	-7370
的两	-7371
urch	-7372
長大	-7373
指的是	-7374
水上	-7375
水晶	-7376
呼籲	-7377
▁江	-7378
讀者	-7379
ied	-7380
交付	-7381
可能会	-7382
▁tim	-7383
耶路撒冷	-7384
颁发	-7385
循环	-7386
次列车	-7387
音樂會	-7388
吉爾	-7389
ady	-7390
cent	-7391
|0000	-7392
詩人	-7393
觉得	-7394
骑兵	-7395
▁port	-7396
为一	-7397
苏丹	-7398
回忆	-7399
威力	-7400
动车组	-7401
▁pal	-7402
全美	-7403
微博	-7404
长安	-7405
省道台	-7406
▁mart	-7407
慢慢	-7408
这座	-7409
▁星	-7410
外部	-7411
探測	-7412
杀害	-7413
的主題	-7414
癌症	-7415
是位於	-7416
▁street	-7417
▁雷	-7418
》/	-7419
不用	-7420
司徒	-7421
航線	-7422
之一的	-7423
▁fre	-7424
五百	-7425
早已	-7426
▁china	-7427
菩薩	-7428
其在	-7429
北宋	-7430
北洋	-7431
政府在	-7432
fm	-7433
作客	-7434
前來	-7435
拉特	-7436
不論	-7437
可以用	-7438
山地	-7439
離婚	-7440
产生了	-7441
iana	-7442
研制	-7443
ious	-7444
▁對	-7445
支配	-7446
哈德	-7447
▁世界	-7448
osh	-7449
拼音	-7450
討厭	-7451
同性戀	-7452
進行了	-7453
▁0000-00-00	-7454
場所	-7455
攜帶	-7456
南斯拉夫	-7457
《0000	-7458
瀑布	-7459
領地	-7460
cap	-7461
下載	-7462
鳳凰	-7463
剧情	-7464
原来	-7465
啤酒	-7466
延續	-7467
是大	-7468
培養	-7469
改由	-7470
錄影帶	-7471
乐团	-7472
混亂	-7473
每週	-7474
路的	-7475
诺贝尔	-7476
普鲁	-7477
uel	-7478
島上	-7479
該校	-7480
女友	-7481
延安	-7482
遇上	-7483
▁song	-7484
前方	-7485
殺手	-7486
等於	-7487
ei	-7488
俄國	-7489
改用	-7490
演技	-7491
彻底	-7492
錄製	-7493
的版本	-7494
中將	-7495
的非	-7496
知縣	-7497
公開賽	-7498
而成的	-7499
洪武	-7500
甲組	-7501
美國人	-7502
財團	-7503
總督府	-7504
亮相	-7505
此前	-7506
sol	-7507
三郎	-7508
給了	-7509
足球聯賽	-7510
达成	-7511
velop	-7512
審判	-7513
公立	-7514
松山	-7515
為何	-7516
社交	-7517
移交	-7518
巴哈	-7519
摩斯	-7520
gram	-7521
人之	-7522
完結	-7523
▁mc	-7524
回收	-7525
陳水扁	-7526
物體	-7527
裝飾	-7528
支流	-7529
港澳	-7530
史料	-7531
里亞	-7532
0/	-7533
ui	-7534
曾有	-7535
key	-7536
因子	-7537
斯蒂	-7538
火车站	-7539
制服	-7540
強大	-7541
公益	-7542
這時	-7543
隱藏	-7544
送往	-7545
▁ty	-7546
火炮	-7547
▁真	-7548
▁lib	-7549
天才	-7550
瑞克	-7551
足够	-7552
其他人	-7553
tainment	-7554
▁人	-7555
▁文	-7556
唐代	-7557
裡面	-7558
▁under	-7559
不敵	-7560
ani	-7561
▁{|	-7562
anth	-7563
熱帶風暴	-7564
ライ	-7565
二戰	-7566
件事	-7567
千年	-7568
高山	-7569
▁project	-7570
创新	-7571
客戶	-7572
飲食	-7573
白金	-7574
過世	-7575
全數	-7576
进步	-7577
小行星	-7578
圣经	-7579
活性	-7580
發電廠	-7581
夫的	-7582
▁black	-7583
衛視	-7584
di	-7585
事宜	-7586
联络	-7587
出現了	-7588
城鎮	-7589
外星	-7590
暴露	-7591
gi	-7592
长达	-7593
strument	-7594
sr	-7595
元件	-7596
克雷	-7597
並被	-7598
化工	-7599
標題	-7600
而有	-7601
不起	-7602
培训	-7603
馬英九	-7604
封為	-7605
論壇	-7606
部曲	-7607
學名	-7608
暗示	-7609
橫濱	-7610
伐克	-7611
菲利普	-7612
船隻	-7613
東日本	-7614
▁cat	-7615
▁tex	-7616
聽到	-7617
第二次世界大战	-7618
▁布	-7619
並且在	-7620
开设	-7621
毀滅	-7622
差异	-7623
的自	-7624
-000)	-7625
屠杀	-7626
散文	-7627
智利	-7628
初次	-7629
港島	-7630
精選	-7631
二百	-7632
作物	-7633
蜘蛛	-7634
和西	-7635
▁power	-7636
基金会	-7637
单独	-7638
亦為	-7639
清真寺	-7640
▁:0000	-7641
相近	-7642
▁ta	-7643
電信	-7644
▁super	-7645
商務	-7646
cv	-7647
物理学	-7648
士坦	-7649
情感	-7650
伺服	-7651
战士	-7652
00(	-7653
bre	-7654
的事件	-7655
team	-7656
为止	-7657
▁胡	-7658
ground	-7659
分行	-7660
游击	-7661
等职	-7662
风险	-7663
ope	-7664
報紙	-7665
roid	-7666
哈里	-7667
情形	-7668
公式	-7669
皆為	-7670
閩南	-7671
youtube	-7672
往返	-7673
溶液	-7674
▁五	-7675
則會	-7676
翡翠台	-7677
▁state	-7678
尔顿	-7679
才是	-7680
美國海軍	-7681
二战	-7682
群眾	-7683
以致	-7684
解析	-7685
wood	-7686
协调	-7687
厦门	-7688
修復	-7689
年末	-7690
袁世	-7691
▁ger	-7692
哈特	-7693
属的	-7694
max	-7695
插曲	-7696
特殊的	-7697
一號	-7698
六十	-7699
發行的	-7700
探测	-7701
南投	-7702
摧毁	-7703
瞄準	-7704
规范	-7705
镇压	-7706
ury	-7707
印度尼	-7708
將於	-7709
更高	-7710
遵守	-7711
(,)	-7712
治理	-7713
▁花	-7714
big	-7715
勇士	-7716
攻占	-7717
随即	-7718
ji	-7719
單獨	-7720
這裡	-7721
▁無	-7722
中将	-7723
則以	-7724
銅鑼	-7725
▁ca	-7726
aker	-7727
▁science	-7728
之为	-7729
体制	-7730
現為	-7731
一方	-7732
西北部	-7733
敘述	-7734
繪畫	-7735
领事	-7736
也没有	-7737
▁law	-7738
▁feat	-7739
三百	-7740
和阿	-7741
换乘	-7742
灰色	-7743
官至	-7744
對他	-7745
孟加拉	-7746
伊藤	-7747
股東	-7748
做的	-7749
证实	-7750
eta	-7751
拜占庭	-7752
北上	-7753
态度	-7754
部電影	-7755
".	-7756
兩側	-7757
股權	-7758
預備	-7759
高宗	-7760
局面	-7761
钢琴	-7762
(00)	-7763
經費	-7764
ato	-7765
城墙	-7766
和一	-7767
拉多	-7768
的本	-7769
複製	-7770
▁north	-7771
資深	-7772
委員會委員	-7773
犧牲	-7774
内地	-7775
iph	-7776
ones	-7777
幼稚園	-7778
在今	-7779
女生	-7780
特別行政區	-7781
不太	-7782
寶石	-7783
时速	-7784
在外	-7785
陕西省	-7786
▁紅	-7787
再生	-7788
占据	-7789
大賞	-7790
ude	-7791
的結果	-7792
志愿	-7793
宋朝	-7794
炮兵	-7795
仍是	-7796
寶貝	-7797
人為	-7798
哈拉	-7799
法语	-7800
常委会	-7801
托马斯	-7802
lor	-7803
▁offic	-7804
东侧	-7805
二等	-7806
譯為	-7807
right	-7808
毫無	-7809
燃燒	-7810
ird	-7811
治安	-7812
的愛	-7813
men	-7814
▁0:00:00	-7815
終止	-7816
总面积	-7817
写的	-7818
寺院	-7819
生活的	-7820
华东	-7821
西侧	-7822
lish	-7823
很有	-7824
口的	-7825
家康	-7826
高地	-7827
全長	-7828
场所	-7829
敌人	-7830
這段	-7831
遺產	-7832
委常委	-7833
中立	-7834
火焰	-7835
天體	-7836
日本電視台	-7837
君士坦	-7838
小林	-7839
可以被	-7840
升為	-7841
更名	-7842
edia	-7843
之旅	-7844
含量	-7845
會計	-7846
勇者	-7847
草原	-7848
的成績	-7849
与其	-7850
承担	-7851
哺乳	-7852
形状	-7853
典礼	-7854
尼泊	-7855
迈克尔	-7856
當初	-7857
▁鄭	-7858
德勒	-7859
斯在	-7860
发生了	-7861
rh	-7862
途經	-7863
公所	-7864
华北	-7865
流放	-7866
皮膚	-7867
维埃	-7868
竞选	-7869
第一代	-7870
生素	-7871
▁right	-7872
"。	-7873
出发	-7874
扩建	-7875
他為	-7876
一片	-7877
他於	-7878
始終	-7879
街頭	-7880
音響	-7881
年度最佳	-7882
david	-7883
相遇	-7884
紛紛	-7885
迄今	-7886
特点	-7887
倫多	-7888
打開	-7889
凤凰	-7890
月號	-7891
蘇丹	-7892
關東	-7893
×00	-7894
ón	-7895
年份	-7896
的大部分	-7897
zo	-7898
种植	-7899
重傷	-7900
mad	-7901
在當時	-7902
領導人	-7903
彈藥	-7904
手的	-7905
瓦尔	-7906
与此	-7907
構造	-7908
可前往	-7909
公頃	-7910
未被	-7911
▁如果	-7912
旺角	-7913
樣的	-7914
派人	-7915
适应	-7916
里达	-7917
共产主义	-7918
可以通过	-7919
科尔	-7920
姓名	-7921
收回	-7922
▁楊	-7923
▁mix	-7924
井上	-7925
八十	-7926
常用	-7927
這場	-7928
分店	-7929
蝴蝶	-7930
▁heart	-7931
▁因	-7932
加勒比	-7933
書寫	-7934
數個	-7935
紧急	-7936
inese	-7937
出品	-7938
酒吧	-7939
在世界	-7940
化為	-7941
建有	-7942
和中	-7943
直通	-7944
觀念	-7945
還要	-7946
ider	-7947
最後的	-7948
交由	-7949
判斷	-7950
於此	-7951
生育	-7952
独立的	-7953
生前	-7954
只有一	-7955
後來在	-7956
藝術家	-7957
賽馬	-7958
承受	-7959
gal	-7960
oto	-7961
克斯坦	-7962
vd	-7963
发挥	-7964
異常	-7965
重力	-7966
卡通	-7967
縣長	-7968
標示	-7969
解放軍	-7970
师范大学	-7971
神话	-7972
▁bra	-7973
社會主義	-7974
mg	-7975
例外	-7976
清晰	-7977
混凝	-7978
tom	-7979
:00.0	-7980
供应	-7981
劇院	-7982
在高	-7983
傳統的	-7984
ough	-7985
inger	-7986
海峡	-7987
分别是	-7988
ides	-7989
父子	-7990
城市的	-7991
输出	-7992
▁0)	-7993
遺址	-7994
叛亂	-7995
屍體	-7996
bas	-7997
马克思	-7998
當代	-7999
的行為	-8000
▁boy	-8001
大王	-8002
童軍	-8003
里亚	-8004
份子	-8005
奖项	-8006
展出	-8007
注入	-8008
pos	-8009
驅逐艦	-8010
多位	-8011
兩條	-8012
大選	-8013
新宿	-8014
邊境	-8015
▁mer	-8016
中國共產黨	-8017
多少	-8018
组织的	-8019
季後	-8020
來自於	-8021
美国的	-8022
可以使用	-8023
告示	-8024
宇航	-8025
被認為	-8026
一點	-8027
提案	-8028
ago	-8029
年代末	-8030
▁圣	-8031
▁journal	-8032
:,	-8033
als	-8034
▁don	-8035
▁entertainment	-8036
一群	-8037
ker	-8038
法定	-8039
篮球	-8040
了自己的	-8041
不合	-8042
假期	-8043
提議	-8044
次數	-8045
死于	-8046
bor	-8047
vs	-8048
』,	-8049
移至	-8050
歸類	-8051
珊瑚	-8052
莉絲	-8053
录音	-8054
黄河	-8055
最终幻想	-8056
传动	-8057
三千	-8058
改成	-8059
本書	-8060
机的	-8061
別人	-8062
副总	-8063
州长	-8064
觀看	-8065
辅助	-8066
▁company	-8067
攻勢	-8068
福岡	-8069
颱風警報	-8070
怀疑	-8071
米蘭	-8072
分别为	-8073
紐西蘭	-8074
奧斯卡	-8075
的儿子	-8076
投入服務	-8077
少將	-8078
检测	-8079
画家	-8080
當然	-8081
收錄於	-8082
混凝土	-8083
的行	-8084
外科	-8085
机制	-8086
結局	-8087
▁mal	-8088
人力	-8089
適應	-8090
在一个	-8091
写作	-8092
执政	-8093
直升機	-8094
ро	-8095
萬張	-8096
領先	-8097
ティ	-8098
之事	-8099
改進	-8100
物業	-8101
足總	-8102
」()	-8103
滅絕	-8104
赫尔	-8105
;00	-8106
十五年	-8107
rown	-8108
▁bel	-8109
."	-8110
gan	-8111
土木	-8112
徹底	-8113
製片	-8114
深夜	-8115
逃走	-8116
▁form	-8117
留学	-8118
的石	-8119
iet	-8120
ittle	-8121
清廷	-8122
近似	-8123
步枪	-8124
大卫	-8125
藉此	-8126
曼聯	-8127
▁元	-8128
并被	-8129
被發現	-8130
復仇	-8131
戰敗	-8132
臺南市	-8133
各有	-8134
武田	-8135
爱情	-8136
爾夫	-8137
肯尼	-8138
中午	-8139
理查德	-8140
▁rich	-8141
化成	-8142
吉祥	-8143
000)	-8144
▁su	-8145
在英國	-8146
一的	-8147
孔子	-8148
亞美	-8149
出租	-8150
分手	-8151
▁top	-8152
▁当	-8153
全民	-8154
感觉	-8155
出版的	-8156
板橋	-8157
於同年	-8158
辦事處	-8159
升为	-8160
扩张	-8161
级别	-8162
致命	-8163
足協	-8164
中日	-8165
传输	-8166
的一位	-8167
兵部	-8168
我是	-8169
挖掘	-8170
脂肪	-8171
马丁	-8172
▁華	-8173
納入	-8174
即為	-8175
每月	-8176
美食	-8177
▁sam	-8178
罗马帝国	-8179
不變	-8180
他以	-8181
枢纽	-8182
郵政	-8183
人間	-8184
漢語	-8185
鏡頭	-8186
民意	-8187
▁wo	-8188
多年的	-8189
創新	-8190
蛋白质	-8191
尾巴	-8192
其实	-8193
正确	-8194
火车	-8195
▁被	-8196
臺灣省	-8197
轨道交通	-8198
原址	-8199
年因	-8200
货运	-8201
pal	-8202
▁製作	-8203
國民小學	-8204
班機	-8205
埃德	-8206
旧址	-8207
首爾	-8208
▁徐	-8209
推广	-8210
lex	-8211
满洲	-8212
速率	-8213
重點	-8214
ets	-8215
人民代表大会	-8216
▁梁	-8217
他为	-8218
伙伴	-8219
斯里	-8220
翻唱	-8221
題材	-8222
▁line	-8223
分組	-8224
學科	-8225
空降	-8226
bbc	-8227
预计	-8228
信用	-8229
教導	-8230
江湖	-8231
在上	-8232
bus	-8233
书中	-8234
雅各	-8235
最快	-8236
流的	-8237
蒋介石	-8238
和南	-8239
比起	-8240
認可	-8241
传统的	-8242
奥斯曼	-8243
排名第	-8244
不想	-8245
編入	-8246
許可	-8247
過度	-8248
uan	-8249
作品的	-8250
夜間	-8251
宣称	-8252
尼爾	-8253
籌備	-8254
线性	-8255
十八年	-8256
▁sum	-8257
bb	-8258
ef	-8259
千瓦	-8260
的頭	-8261
els	-8262
的道路	-8263
支線	-8264
者在	-8265
該國	-8266
一班	-8267
之用	-8268
少量	-8269
各界	-8270
情緒	-8271
意圖	-8272
▁syn	-8273
的字	-8274
vir	-8275
柯南	-8276
後因	-8277
灰蝶	-8278
她们	-8279
欧盟	-8280
依据	-8281
各項	-8282
运河	-8283
保證	-8284
全力	-8285
火車	-8286
▁〈	-8287
的女儿	-8288
两位	-8289
构造	-8290
ever	-8291
ents	-8292
vers	-8293
▁ann	-8294
维也	-8295
他与	-8296
加藤	-8297
潛艇	-8298
地下鐵	-8299
建築師	-8300
的情形	-8301
-(	-8302
塔基	-8303
海面	-8304
制动	-8305
維基	-8306
och	-8307
第二代	-8308
元音	-8309
▁disc	-8310
之初	-8311
岛屿	-8312
廢止	-8313
據點	-8314
部副部长	-8315
诗歌	-8316
▁map	-8317
采用了	-8318
▁red	-8319
前任	-8320
卻被	-8321
和他	-8322
該庄	-8323
证券	-8324
較高	-8325
▁fri	-8326
美人	-8327
於香港	-8328
▁san	-8329
部位	-8330
pat	-8331
攻陷	-8332
的電	-8333
的中国	-8334
元首	-8335
右翼	-8336
icle	-8337
集团军	-8338
▁hol	-8339
培育	-8340
大堂	-8341
最小	-8342
起義	-8343
▁institute	-8344
▁外	-8345
新型	-8346
自己是	-8347
主教座堂	-8348
同期	-8349
▁vir	-8350
00.0%,	-8351
聯賽冠軍	-8352
者和	-8353
野战	-8354
专区	-8355
在家	-8356
苹果	-8357
体育场	-8358
翌日	-8359
站至	-8360
要在	-8361
五大	-8362
全市	-8363
包围	-8364
原料	-8365
逢星期	-8366
▁aust	-8367
的總	-8368
绝对	-8369
▁land	-8370
獵人	-8371
现有	-8372
了在	-8373
前去	-8374
米兰	-8375
佛羅	-8376
提议	-8377
▁因為	-8378
▁abo	-8379
时报	-8380
法拉	-8381
den	-8382
程度上	-8383
桥梁	-8384
粉絲	-8385
ショ	-8386
憤怒	-8387
▁west	-8388
操縱	-8389
行本	-8390
遊戲中	-8391
对方	-8392
强制	-8393
的花	-8394
作品中	-8395
暗殺	-8396
的特殊	-8397
安定	-8398
有机	-8399
聯軍	-8400
射击	-8401
新村	-8402
體型	-8403
cat	-8404
hal	-8405
從未	-8406
最少	-8407
ima	-8408
天文學家	-8409
匈奴	-8410
民黨	-8411
化身	-8412
祖母	-8413
适合	-8414
陽光	-8415
所使用的	-8416
最受歡迎	-8417
▁develop	-8418
獨立的	-8419
發生在	-8420
adem	-8421
流動	-8422
清华大学	-8423
嚴格	-8424
德语	-8425
各式	-8426
算是	-8427
约瑟夫	-8428
較少	-8429
▁who	-8430
碎片	-8431
厚的	-8432
文中	-8433
▁series	-8434
遷至	-8435
的控制	-8436
司机	-8437
本劇	-8438
後於	-8439
管道	-8440
他認為	-8441
集中在	-8442
bu	-8443
售票	-8444
壘打	-8445
廣島	-8446
亦會	-8447
數十	-8448
優先	-8449
巴嫩	-8450
進口	-8451
书籍	-8452
桂林	-8453
物件	-8454
itch	-8455
▁000–000	-8456
dj	-8457
担当	-8458
路军	-8459
低於	-8460
元帅	-8461
工会	-8462
用品	-8463
当选为	-8464
議席	-8465
back	-8466
▁::*	-8467
▁0000–0000	-8468
六世	-8469
行使	-8470
选为	-8471
美術館	-8472
任命為	-8473
十四年	-8474
前后	-8475
機組	-8476
发生在	-8477
▁夏	-8478
定為	-8479
之後的	-8480
▁girls	-8481
未知	-8482
五个	-8483
運算	-8484
郡王	-8485
电动机	-8486
黎巴嫩	-8487
角川	-8488
以下的	-8489
的最大	-8490
經濟學	-8491
▁dem	-8492
▁video	-8493
总体	-8494
很好	-8495
球的	-8496
cor	-8497
广州市	-8498
影视	-8499
二十年	-8500
上訴	-8501
陆续	-8502
张专辑	-8503
羅德	-8504
山縣	-8505
巨星	-8506
粮食	-8507
隊友	-8508
亦被	-8509
公投	-8510
pre	-8511
▁平	-8512
河道	-8513
控制的	-8514
▁bre	-8515
ュー	-8516
董事长	-8517
修訂	-8518
這類	-8519
集結	-8520
eration	-8521
缺陷	-8522
参议院	-8523
列斯	-8524
陸上	-8525
初中	-8526
泉州	-8527
黎明	-8528
勁歌金曲	-8529
年代中期	-8530
▁陈	-8531
密西	-8532
ely	-8533
屬性	-8534
清晨	-8535
原本的	-8536
推測	-8537
讓人	-8538
▁kn	-8539
歌舞	-8540
牧師	-8541
的比	-8542
▁iii	-8543
▁0.0000	-8544
中西	-8545
訴訟	-8546
▁000.	-8547
学堂	-8548
磷酸	-8549
运动会	-8550
▁information	-8551
ule	-8552
▁two	-8553
中村	-8554
容納	-8555
車手	-8556
封为	-8557
大火	-8558
官兵	-8559
sen	-8560
设计的	-8561
▁she	-8562
大部分的	-8563
規格	-8564
軍方	-8565
古斯	-8566
遊樂	-8567
▁英國	-8568
主義的	-8569
战胜	-8570
販賣	-8571
事实上	-8572
ission	-8573
▁online	-8574
坐标	-8575
巴爾	-8576
雲南	-8577
ography	-8578
江蘇	-8579
相繼	-8580
高清	-8581
飛行員	-8582
才會	-8583
普魯	-8584
▁paul	-8585
描寫	-8586
▁special	-8587
奉命	-8588
終結	-8589
职位	-8590
bro	-8591
佛罗里达	-8592
人群	-8593
士的	-8594
积分	-8595
里昂	-8596
aby	-8597
亦在	-8598
順序	-8599
facebook	-8600
每小时	-8601
一所	-8602
升降	-8603
特蘭	-8604
碰撞	-8605
地質	-8606
培訓	-8607
從小	-8608
台的	-8609
▁pap	-8610
總共	-8611
▁how	-8612
0000,	-8613
前夕	-8614
就此	-8615
集体	-8616
催化	-8617
叛乱	-8618
在天	-8619
流星	-8620
起飛	-8621
▁亞	-8622
▁梅	-8623
之人	-8624
處長	-8625
想像	-8626
苏维埃	-8627
这也是	-8628
共識	-8629
ni	-8630
ディ	-8631
傳送	-8632
省级	-8633
對付	-8634
总局	-8635
僅次於	-8636
恐懼	-8637
放大	-8638
新星	-8639
pk	-8640
接手	-8641
蒙德	-8642
许可	-8643
的朋友	-8644
陸戰隊	-8645
位居	-8646
加油	-8647
气温	-8648
威爾斯	-8649
▁rock	-8650
william	-8651
▁more	-8652
号的	-8653
武術	-8654
microsoft	-8655
现任	-8656
mas	-8657
三種	-8658
之心	-8659
维也纳	-8660
其為	-8661
的口	-8662
▁為了	-8663
isa	-8664
等人的	-8665
的黑	-8666
蒂安	-8667
販售	-8668
圖案	-8669
增至	-8670
奪取	-8671
屠殺	-8672
pent	-8673
毛利	-8674
渡邊	-8675
▁wil	-8676
的雙	-8677
鋼鐵	-8678
機動戰士	-8679
林肯	-8680
始建于	-8681
刊物	-8682
直轄	-8683
此劇	-8684
作畫監督	-8685
變更	-8686
▁soc	-8687
opter	-8688
▁prof	-8689
一面	-8690
当中	-8691
吾尔	-8692
選民	-8693
主教练	-8694
可供	-8695
積分	-8696
或者是	-8697
車的	-8698
游客	-8699
▁**0	-8700
麵包	-8701
uf	-8702
大师	-8703
奥林匹克	-8704
流行音樂	-8705
人均	-8706
法兰克	-8707
木星	-8708
联军	-8709
孙中山	-8710
依赖	-8711
偵察	-8712
分區	-8713
決戰	-8714
童年	-8715
策劃	-8716
連同	-8717
国旗	-8718
▁about	-8719
否則	-8720
富有	-8721
答應	-8722
世纪初	-8723
最後在	-8724
的內容	-8725
的大小	-8726
.00%	-8727
連串	-8728
ling	-8729
对称	-8730
的副	-8731
俄亥	-8732
全年	-8733
回应	-8734
競技	-8735
而出	-8736
把他	-8737
民生	-8738
準決賽	-8739
西南部	-8740
進步黨	-8741
動詞	-8742
度假	-8743
手持	-8744
等同	-8745
編碼	-8746
进程	-8747
俄亥俄	-8748
irect	-8749
上將	-8750
西兰	-8751
奧運會	-8752
''):	-8753
▁dream	-8754
變形	-8755
电路	-8756
dom	-8757
▁adv	-8758
塞爾維亞	-8759
▁超	-8760
警務	-8761
辦公	-8762
第一批	-8763
彩色	-8764
恩斯	-8765
大軍	-8766
接到	-8767
月下	-8768
公司在	-8769
亚军	-8770
案例	-8771
前作	-8772
縣政府	-8773
部分的	-8774
▁刘	-8775
吏部	-8776
将领	-8777
码头	-8778
发达	-8779
用地	-8780
▁story	-8781
偶然	-8782
他所	-8783
更大	-8784
起兵	-8785
部件	-8786
黄色	-8787
方向的	-8788
▁has	-8789
传媒	-8790
打倒	-8791
服装	-8792
ti	-8793
不管	-8794
存活	-8795
先進	-8796
期待	-8797
之所以	-8798
以及在	-8799
加里	-8800
相继	-8801
購入	-8802
不大	-8803
鑽石	-8804
▁科	-8805
尖沙	-8806
編組	-8807
色情	-8808
落敗	-8809
▁die	-8810
木村	-8811
民兵	-8812
石器	-8813
▁ir	-8814
▁brit	-8815
体现	-8816
重複	-8817
工部	-8818
幹部	-8819
義務	-8820
搬到	-8821
重組	-8822
二氧化	-8823
同时也	-8824
大隊	-8825
▁sal	-8826
一词	-8827
在內	-8828
時尚	-8829
北部的	-8830
other	-8831
伺服器	-8832
war	-8833
片頭曲	-8834
uman	-8835
感受	-8836
曝光	-8837
中也	-8838
工作者	-8839
纤维	-8840
并不是	-8841
几何	-8842
格鲁	-8843
人大常委会	-8844
倾向	-8845
巴克	-8846
维吾尔	-8847
▁manag	-8848
可用	-8849
致使	-8850
號碼	-8851
有效的	-8852
well	-8853
人权	-8854
elf	-8855
示威者	-8856
▁news	-8857
李克	-8858
修正案	-8859
三星	-8860
夫妇	-8861
明白	-8862
確實	-8863
車型	-8864
三重	-8865
当代	-8866
馬路	-8867
了許多	-8868
mk	-8869
客機	-8870
路徑	-8871
銅鑼灣	-8872
保育	-8873
高句	-8874
idea	-8875
迎接	-8876
鎮壓	-8877
大使館	-8878
▁宋	-8879
元帥	-8880
区间	-8881
軍艦	-8882
是台灣	-8883
uring	-8884
配樂	-8885
以及其他	-8886
其頓	-8887
气体	-8888
的精神	-8889
托勒	-8890
種植	-8891
▁bur	-8892
维克	-8893
队员	-8894
当地的	-8895
▁000-0000	-8896
▁0-00000-000-0	-8897
相較	-8898
轉會	-8899
较大	-8900
》;	-8901
师长	-8902
校區	-8903
相機	-8904
必殺	-8905
河畔	-8906
源於	-8907
党员	-8908
在那里	-8909
ки	-8910
▁п	-8911
之歌	-8912
全體	-8913
賽的	-8914
鋼彈	-8915
van	-8916
为其	-8917
年美國	-8918
cs	-8919
幫忙	-8920
废除	-8921
個體	-8922
螢幕	-8923
甲基	-8924
▁acc	-8925
阿斯	-8926
检察院	-8927
相连	-8928
''(''	-8929
巴伐	-8930
game	-8931
可见	-8932
圆形	-8933
百万	-8934
亞洲電視	-8935
▁euro	-8936
拉姆	-8937
▁sun	-8938
富豪	-8939
改任	-8940
与其他	-8941
尼亞州	-8942
publ	-8943
關心	-8944
▁gold	-8945
strumental	-8946
北面	-8947
布政	-8948
否認	-8949
爾頓	-8950
遷往	-8951
风速	-8952
擔當	-8953
救出	-8954
省长	-8955
yal	-8956
ives	-8957
準確	-8958
(;	-8959
,"	-8960
滅亡	-8961
主义的	-8962
克拉克	-8963
▁stand	-8964
全体	-8965
弗吉	-8966
警察局	-8967
會以	-8968
dd	-8969
對決	-8970
鼓励	-8971
hu	-8972
sy	-8973
交匯處	-8974
转向架	-8975
一期	-8976
理事長	-8977
维斯	-8978
集體	-8979
sec	-8980
在地	-8981
可能的	-8982
沒有任何	-8983
年正式	-8984
第一任	-8985
oria	-8986
氨酸	-8987
节点	-8988
見面	-8989
走了	-8990
遗传	-8991
uct	-8992
▁fire	-8993
辽宁省	-8994
▁which	-8995
到底	-8996
建国	-8997
缩写	-8998
场景	-8999
明日	-9000
每小時	-9001
卓越	-9002
行車	-9003
障碍	-9004
本屆	-9005
龍類	-9006
field	-9007
应当	-9008
战争中	-9009
司機	-9010
補充	-9011
除非	-9012
體內	-9013
的和	-9014
▁на	-9015
cha	-9016
范围内	-9017
古蹟	-9018
研究的	-9019
塔尔	-9020
珠海	-9021
合體	-9022
埼玉	-9023
带着	-9024
混血	-9025
脱离	-9026
cil	-9027
是因为	-9028
多項	-9029
形式的	-9030
全食	-9031
後在	-9032
ization	-9033
年幼	-9034
微软	-9035
车队	-9036
pi	-9037
感應	-9038
遊戲的	-9039
放映	-9040
日和	-9041
船只	-9042
吉他手	-9043
▁nov	-9044
▁char	-9045
▁0:	-9046
负责人	-9047
イン	-9048
亞視	-9049
iff	-9050
▁vis	-9051
中国科学院	-9052
製成	-9053
起的	-9054
不等	-9055
婚禮	-9056
子和	-9057
旋转	-9058
考量	-9059
高达	-9060
市鎮	-9061
讀書	-9062
以東	-9063
注重	-9064
▁association	-9065
體制	-9066
▁動畫	-9067
分区	-9068
迁至	-9069
高層	-9070
紀錄片	-9071
oseph	-9072
將在	-9073
蓝色	-9074
受欢迎	-9075
丘陵	-9076
兰州	-9077
得獎	-9078
的白	-9079
邏輯	-9080
ague	-9081
北美洲	-9082
padd	-9083
▁初	-9084
充满	-9085
明尼	-9086
得到的	-9087
▁good	-9088
首領	-9089
▁hy	-9090
king	-9091
写道	-9092
接着	-9093
陣營	-9094
除外	-9095
的自由	-9096
iki	-9097
▁北京	-9098
ince	-9099
命中	-9100
univers	-9101
的电影	-9102
可汗	-9103
圖像	-9104
两年	-9105
烈士	-9106
战后	-9107
}-,	-9108
专科	-9109
即在	-9110
宮崎	-9111
弗兰	-9112
河口	-9113
米亞	-9114
评为	-9115
▁smith	-9116
卻是	-9117
压缩	-9118
壓縮	-9119
▁vo	-9120
他们在	-9121
專案	-9122
轉投	-9123
查尔斯	-9124
ns	-9125
並有	-9126
晚間	-9127
薩爾	-9128
上演	-9129
山县	-9130
海水	-9131
uary	-9132
开始了	-9133
不被	-9134
很高	-9135
軟件	-9136
写了	-9137
舞曲	-9138
補給	-9139
低氣壓	-9140
發現的	-9141
black	-9142
问题的	-9143
美国国家	-9144
前期	-9145
ister	-9146
办法	-9147
城际	-9148
爱国	-9149
保护区	-9150
受害者	-9151
burg	-9152
paul	-9153
ities	-9154
位元	-9155
打入	-9156
晶片	-9157
车体	-9158
lam	-9159
一個人	-9160
特烈	-9161
隔年	-9162
一代	-9163
個別	-9164
这项	-9165
旅客鐵道	-9166
中華民國政府	-9167
回復	-9168
种类	-9169
與他	-9170
死了	-9171
農曆	-9172
cra	-9173
足球俱乐部	-9174
ffe	-9175
南部的	-9176
▁dig	-9177
下列	-9178
中毒	-9179
全新	-9180
巡撫	-9181
▁上海	-9182
追溯到	-9183
▁或	-9184
大队	-9185
引进	-9186
輔導	-9187
小提琴	-9188
相关的	-9189
一隻	-9190
丞相	-9191
耶和	-9192
虛擬	-9193
搜尋	-9194
称之为	-9195
操作系统	-9196
待遇	-9197
落的	-9198
预测	-9199
建筑面积	-9200
分歧	-9201
接口	-9202
是其	-9203
江西省	-9204
的核心	-9205
小心	-9206
節奏	-9207
是中國	-9208
ople	-9209
ility	-9210
sun	-9211
主要由	-9212
民主進步黨	-9213
在阿	-9214
愛你	-9215
演講	-9216
研发	-9217
網友	-9218
人心	-9219
巡演	-9220
新区	-9221
的关系	-9222
▁found	-9223
奴隸	-9224
間接	-9225
朝日電視台	-9226
終極	-9227
iter	-9228
iction	-9229
姊姊	-9230
據說	-9231
嚴重的	-9232
這也是	-9233
五人	-9234
夕法	-9235
嬰兒	-9236
年及	-9237
忽略	-9238
罪行	-9239
克罗	-9240
战场	-9241
0000000	-9242
演讲	-9243
iso	-9244
一間	-9245
協力	-9246
參見	-9247
馬其頓	-9248
久保	-9249
山上	-9250
赤道	-9251
華視	-9252
腓特烈	-9253
共计	-9254
創建	-9255
货物	-9256
▁its	-9257
同為	-9258
延长	-9259
歧視	-9260
的音	-9261
之家	-9262
吉斯	-9263
是用	-9264
▁英	-9265
山下	-9266
▁have	-9267
00-	-9268
utc	-9269
之后的	-9270
ating	-9271
▁orig	-9272
河的	-9273
进士	-9274
移除	-9275
有一定	-9276
來看	-9277
便會	-9278
團長	-9279
cel	-9280
舊金山	-9281
導師	-9282
領事	-9283
▁民國	-9284
嫌疑	-9285
海姆	-9286
编组	-9287
的政策	-9288
世宗	-9289
參觀	-9290
天气	-9291
实践	-9292
希伯	-9293
月被	-9294
▁engine	-9295
图案	-9296
威斯	-9297
看台	-9298
瞬間	-9299
登堡	-9300
法蘭克	-9301
巴比	-9302
的代	-9303
pid	-9304
之王	-9305
交戰	-9306
影評	-9307
▁hot	-9308
對稱	-9309
決心	-9310
頭髮	-9311
足球隊	-9312
好者	-9313
的一切	-9314
以东	-9315
好評	-9316
记忆	-9317
michael	-9318
區分	-9319
day	-9320
分布在	-9321
▁pop	-9322
监察	-9323
裁定	-9324
ift	-9325
家族的	-9326
德里希	-9327
巴布	-9328
平日	-9329
ista	-9330
自称	-9331
pan	-9332
atic	-9333
球场	-9334
人類的	-9335
万吨	-9336
均為	-9337
德爾	-9338
瘋狂	-9339
郑州	-9340
年左右	-9341
依賴	-9342
情的	-9343
招募	-9344
深水	-9345
亮的	-9346
生下	-9347
尖沙咀	-9348
▁oxford	-9349
創下	-9350
发行的	-9351
▁webs	-9352
?)	-9353
正好	-9354
幼年	-9355
活佛	-9356
size	-9357
padding	-9358
為大	-9359
web	-9360
го	-9361
主体	-9362
們的	-9363
太多	-9364
末年	-9365
神奇	-9366
;"	-9367
動工	-9368
租借	-9369
自立	-9370
巡洋舰	-9371
进行的	-9372
集成	-9373
▁green	-9374
pop	-9375
▁名	-9376
划归	-9377
cept	-9378
史蒂芬	-9379
翻新	-9380
事件中	-9381
巨蛋	-9382
行程	-9383
關西	-9384
電磁	-9385
最著名的	-9386
麥可	-9387
並成為	-9388
諾貝爾	-9389
----	-9390
官方網站	-9391
是为	-9392
熱門	-9393
延伸至	-9394
國立臺灣	-9395
界面	-9396
德里克	-9397
▁*0000:	-9398
▁robert	-9399
▁至	-9400
中书	-9401
绘画	-9402
oma	-9403
但後來	-9404
ense	-9405
▁波	-9406
分數	-9407
奇幻	-9408
的弟弟	-9409
外線	-9410
战列	-9411
七十	-9412
像素	-9413
權益	-9414
确保	-9415
都城	-9416
棲息	-9417
理性	-9418
胞胎	-9419
戰死	-9420
捐款	-9421
在一次	-9422
應用程式	-9423
▁东	-9424
戲院	-9425
ices	-9426
▁bet	-9427
停留	-9428
善良	-9429
颁布	-9430
not	-9431
意思是	-9432
)※	-9433
南越	-9434
活跃	-9435
歷任	-9436
段的	-9437
mal	-9438
创始人	-9439
指南	-9440
曾為	-9441
混淆	-9442
员工	-9443
金錢	-9444
中止	-9445
单元	-9446
抗战	-9447
皆有	-9448
立方米	-9449
動員	-9450
学的	-9451
▁tre	-9452
▁龍	-9453
在與	-9454
拓跋	-9455
000%	-9456
博覽	-9457
将在	-9458
庆祝	-9459
這兩	-9460
中子	-9461
封建	-9462
暗中	-9463
ren	-9464
▁ent	-9465
▁ltd	-9466
封閉	-9467
曼谷	-9468
纵队	-9469
製的	-9470
零件	-9471
失望	-9472
知府	-9473
後才	-9474
必然	-9475
完成的	-9476
巡洋艦	-9477
戰爭中	-9478
严格	-9479
最好	-9480
都沒有	-9481
照明	-9482
颶風	-9483
00.0%。	-9484
oricon	-9485
世界杯	-9486
高等法院	-9487
具體	-9488
县的	-9489
排放	-9490
追加	-9491
重型	-9492
長約	-9493
另一位	-9494
的演出	-9495
株式會社	-9496
高等教育	-9497
傷亡	-9498
加密	-9499
始终	-9500
聖母	-9501
部和	-9502
局局長	-9503
在线	-9504
描繪	-9505
水道	-9506
者為	-9507
的美國	-9508
zy	-9509
游行	-9510
uld	-9511
here	-9512
團結	-9513
埃爾	-9514
專利	-9515
欣賞	-9516
氏的	-9517
縣的	-9518
▁hel	-9519
實體	-9520
將他	-9521
二级	-9522
後續	-9523
▁:00	-9524
地方法院	-9525
修行	-9526
描绘	-9527
星座	-9528
$0.0	-9529
四位	-9530
鄉村	-9531
bon	-9532
很容易	-9533
▁film	-9534
协商	-9535
物体	-9536
空襲	-9537
級別	-9538
美女	-9539
愛德華	-9540
場合	-9541
山村	-9542
生死	-9543
收錄了	-9544
希望能	-9545
拿到	-9546
攻克	-9547
地球的	-9548
選舉中	-9549
▁00%	-9550
▁奥	-9551
两名	-9552
口岸	-9553
和解	-9554
sim	-9555
為期	-9556
縣立	-9557
撞击坑	-9558
!》	-9559
robert	-9560
▁media	-9561
判决	-9562
牡丹	-9563
賽中	-9564
在任	-9565
")	-9566
fi	-9567
卡片	-9568
法語	-9569
湖泊	-9570
編寫	-9571
怎麼	-9572
集會	-9573
ota	-9574
的法律	-9575
一套	-9576
注射	-9577
诺夫	-9578
使命	-9579
入學	-9580
與大	-9581
月開始	-9582
體驗	-9583
fred	-9584
▁james	-9585
哥華	-9586
在海	-9587
指责	-9588
三角形	-9589
共和党	-9590
azine	-9591
流传	-9592
get	-9593
cycl	-9594
瀏覽	-9595
為名	-9596
格鬥	-9597
▁books	-9598
同事	-9599
本次	-9600
札幌	-9601
詹姆	-9602
▁sil	-9603
0000.	-9604
凭借	-9605
影視	-9606
補助	-9607
巡迴演唱會	-9608
仍未	-9609
此舉	-9610
追擊	-9611
尼古拉	-9612
nt	-9613
но	-9614
▁可	-9615
▁黄	-9616
約克	-9617
ville	-9618
▁design	-9619
停车	-9620
年获	-9621
并与	-9622
德利	-9623
▁dec	-9624
▁other	-9625
前进	-9626
向上	-9627
水域	-9628
普鲁士	-9629
(0):	-9630
中興	-9631
四周	-9632
执导	-9633
監視	-9634
ken	-9635
show	-9636
填詞	-9637
海的	-9638
見的	-9639
〉、〈	-9640
国有	-9641
首張	-9642
在一個	-9643
綜藝節目	-9644
会被	-9645
姑娘	-9646
額外	-9647
後來的	-9648
愿意	-9649
繼任	-9650
角逐	-9651
跟随	-9652
aya	-9653
die	-9654
之亂	-9655
日向	-9656
:),	-9657
天橋	-9658
conom	-9659
和其	-9660
摇滚	-9661
民營	-9662
高於	-9663
代表隊	-9664
合作的	-9665
截止	-9666
珍妮	-9667
awa	-9668
限定盤	-9669
位于中国	-9670
也可能	-9671
仅有	-9672
大众	-9673
面临	-9674
建筑师	-9675
程度的	-9676
▁solid	-9677
旁白	-9678
映射	-9679
显著	-9680
釣魚	-9681
露出	-9682
徐州	-9683
缺少	-9684
▁south	-9685
在校	-9686
▁great	-9687
不願	-9688
副教授	-9689
▁website	-9690
日以	-9691
有助	-9692
ami	-9693
圣母	-9694
找到了	-9695
內有	-9696
分辨	-9697
奏曲	-9698
接待	-9699
老虎	-9700
學生會	-9701
天水	-9702
数码	-9703
只得	-9704
大选	-9705
资助	-9706
面具	-9707
的一部份	-9708
主编	-9709
硬件	-9710
▁cour	-9711
▁libr	-9712
专攻	-9713
大概	-9714
時裝	-9715
永康	-9716
逃到	-9717
隔离	-9718
日晚上	-9719
type	-9720
區別	-9721
之神	-9722
或稱	-9723
spac	-9724
万历	-9725
先鋒	-9726
担心	-9727
搜查	-9728
暴雨	-9729
instrumental	-9730
▁田	-9731
內政部	-9732
▁alb	-9733
▁game	-9734
拘捕	-9735
泰山	-9736
蔣中正	-9737
ales	-9738
出入	-9739
限於	-9740
nes	-9741
▁其他	-9742
出色的	-9743
来源于	-9744
之处	-9745
了其	-9746
团结	-9747
水泥	-9748
▁lab	-9749
力和	-9750
身材	-9751
▁km	-9752
生產的	-9753
设在	-9754
幕後	-9755
▁臺灣	-9756
正式的	-9757
總統府	-9758
新华	-9759
登山	-9760
安德烈	-9761
少数民族	-9762
ather	-9763
▁у	-9764
一時	-9765
摩根	-9766
聞名	-9767
▁使用	-9768
年級	-9769
球衣	-9770
维多	-9771
數值	-9772
站房	-9773
較大	-9774
其實是	-9775
所謂的	-9776
▁aut	-9777
摩尔	-9778
聚落	-9779
歡樂	-9780
▁na	-9781
乃至	-9782
掌管	-9783
南韓	-9784
專科	-9785
拉萨	-9786
的說法	-9787
阿姆斯特	-9788
模糊	-9789
耳曼	-9790
图形	-9791
福爾	-9792
▁way	-9793
▁mill	-9794
五代	-9795
干擾	-9796
潮州	-9797
消費者	-9798
的資料	-9799
的高度	-9800
ological	-9801
一張	-9802
现存	-9803
ines	-9804
臺東	-9805
领导的	-9806
▁这	-9807
保健	-9808
喪失	-9809
新幹線	-9810
工黨	-9811
抽象	-9812
出于	-9813
城县	-9814
戰事	-9815
论坛	-9816
识别	-9817
介面	-9818
寵物	-9819
河谷	-9820
hol	-9821
的地區	-9822
部作品	-9823
纳德	-9824
发表了	-9825
得出	-9826
貨運	-9827
因此被	-9828
督察	-9829
自從	-9830
負擔	-9831
ful	-9832
▁一般	-9833
小時候	-9834
各省	-9835
alex	-9836
enry	-9837
民用	-9838
的文章	-9839
▁max	-9840
ел	-9841
聯會	-9842
警員	-9843
這兩個	-9844
世纪的	-9845
』。	-9846
佔據	-9847
和高	-9848
嘉慶	-9849
布什	-9850
森堡	-9851
還在	-9852
james	-9853
▁в	-9854
南朝	-9855
地带	-9856
每周	-9857
世紀的	-9858
▁tur	-9859
屏幕	-9860
權的	-9861
脊椎	-9862
長安	-9863
看起來	-9864
中文大學	-9865
人與	-9866
晶体	-9867
chi	-9868
▁apr	-9869
中央电视台	-9870
原文	-9871
國鐵	-9872
档案	-9873
的機	-9874
overn	-9875
热带低气压	-9876
信義	-9877
紫色	-9878
设定	-9879
財經	-9880
▁杜	-9881
射程	-9882
质疑	-9883
会议上	-9884
不同的是	-9885
低于	-9886
單純	-9887
年來	-9888
留守	-9889
遺傳	-9890
传教士	-9891
取代了	-9892
第二個	-9893
保卫	-9894
国共	-9895
攻佔	-9896
電動	-9897
赢得了	-9898
罗马尼亚	-9899
旅程	-9900
民航	-9901
立的	-9902
跟著	-9903
每一個	-9904
电影节	-9905
▁mus	-9906
有期徒刑	-9907
被殺	-9908
馬達	-9909
的目的	-9910
▁their	-9911
一场	-9912
五千	-9913
地表	-9914
教皇	-9915
注意到	-9916
甲板	-9917
ros	-9918
削弱	-9919
数据库	-9920
是个	-9921
▁camp	-9922
▁若	-9923
的活動	-9924
噴射	-9925
多為	-9926
逃離	-9927
金額	-9928
工藝	-9929
斯图	-9930
未婚	-9931
''、	-9932
流行的	-9933
的名称	-9934
羅馬帝國	-9935
iness	-9936
他對	-9937
南華	-9938
季節	-9939
政變	-9940
高級中學	-9941
怪獸	-9942
老师	-9943
千代	-9944
水面	-9945
逃往	-9946
閃電	-9947
领地	-9948
危害	-9949
ips	-9950
▁jul	-9951
▁build	-9952
依法	-9953
列宁	-9954
囚禁	-9955
▁open	-9956
封鎖	-9957
使徒	-9958
就要	-9959
樹林	-9960
法師	-9961
足利	-9962
▁cur	-9963
右手	-9964
斯理	-9965
国家队	-9966
拿破仑	-9967
波士頓	-9968
物理学家	-9969
▁🔗	-9970
平常	-9971
lu	-9972
大略	-9973
家長	-9974
標記	-9975
霸王	-9976
▁anal	-9977
諸葛	-9978
》,《	-9979
中国国民党	-9980
参数	-9981
掉了	-9982
火車站	-9983
▁...	-9984
唱歌	-9985
处的	-9986
政变	-9987
日及	-9988
销量	-9989
醫學院	-9990
國籍	-9991
團的	-9992
gt	-9993
ür	-9994
初始	-9995
氨基	-9996
农场	-9997
即将	-9998
吐蕃	-9999
”),	-10000
瓦爾	-10001
轉變	-10002
全壘打	-10003
cast	-10004
▁tem	-10005
(,0000	-10006
▁史	-10007
▁總	-10008
大法官	-10009
andy	-10010
xbox	-10011
万平方米	-10012
克力	-10013
影響力	-10014
rock	-10015
▁蔡	-10016
的人士	-10017
先行	-10018
德州	-10019
leg	-10020
合共	-10021
认可	-10022
过的	-10023
魚雷	-10024
哈爾	-10025
宇文	-10026
布局	-10027
通勤	-10028
之稱	-10029
原著	-10030
崛起	-10031
aga	-10032
出版了	-10033
00、00	-10034
(0000),	-10035
松本	-10036
概率	-10037
重视	-10038
電影節	-10039
▁jan	-10040
通过了	-10041
硕士学位	-10042
分開	-10043
廣西	-10044
美金	-10045
那样	-10046
混乱	-10047
sport	-10048
撤銷	-10049
被俘	-10050
000°	-10051
▁collection	-10052
习惯	-10053
卡羅	-10054
传递	-10055
是一家	-10056
的遊戲	-10057
三等	-10058
ibm	-10059
在這個	-10060
和的	-10061
字的	-10062
止於	-10063
》(),	-10064
、0000、0000	-10065
實質	-10066
患有	-10067
多倫多	-10068
他对	-10069
多夫	-10070
末端	-10071
高鐵	-10072
▁fun	-10073
协定	-10074
終身	-10075
obe	-10076
▁郭	-10077
普拉	-10078
阮福	-10079
人體	-10080
家村	-10081
過後	-10082
為台灣	-10083
▁review	-10084
依次	-10085
懷孕	-10086
拉尔	-10087
更换	-10088
cus	-10089
mid	-10090
一直在	-10091
严重的	-10092
主动	-10093
▁after	-10094
幽默	-10095
低地	-10096
綁架	-10097
▁jun	-10098
擊退	-10099
斯德	-10100
未來的	-10101
▁count	-10102
改組	-10103
ten	-10104
导致了	-10105
桃園市	-10106
找出	-10107
开始在	-10108
战队	-10109
它们的	-10110
ique	-10111
ments	-10112
人次	-10113
最後被	-10114
岛上	-10115
原來的	-10116
更好的	-10117
▁michael	-10118
分泌	-10119
環繞	-10120
航站	-10121
详细	-10122
-0)	-10123
(),00	-10124
▁united	-10125
不詳	-10126
借用	-10127
希尔	-10128
特種	-10129
神聖	-10130
语的	-10131
而得名	-10132
英國的	-10133
ness	-10134
▁language	-10135
安那	-10136
阿布	-10137
馬斯	-10138
▁gard	-10139
▁white	-10140
南面	-10141
急行	-10142
組長	-10143
說出	-10144
十六年	-10145
原本是	-10146
~000-	-10147
0;	-10148
多家	-10149
指挥官	-10150
▁down	-10151
只會	-10152
單行本	-10153
昔日	-10154
助攻	-10155
常務	-10156
王朝的	-10157
▁official	-10158
全省	-10159
评估	-10160
▁ha	-10161
敘利亞	-10162
▁sport	-10163
▁後	-10164
曲的	-10165
適當	-10166
》——	-10167
主要有	-10168
-00-00	-10169
米亚	-10170
類別	-10171
以一	-10172
受损	-10173
该校	-10174
邪惡	-10175
出家	-10176
志願	-10177
歐陽	-10178
縣市	-10179
获取	-10180
馬丁	-10181
佔地	-10182
拆卸	-10183
村落	-10184
背後	-10185
christ	-10186
大人	-10187
▁gun	-10188
▁000-000.	-10189
省份	-10190
中使用	-10191
告示牌	-10192
發生的	-10193
▁沙	-10194
平時	-10195
流程	-10196
語音	-10197
音速	-10198
产物	-10199
吉田	-10200
星際	-10201
巴士總站	-10202
羅馬尼亞	-10203
國旗	-10204
奇怪	-10205
▁cellpadding	-10206
正規	-10207
德語	-10208
ona	-10209
式月台	-10210
▁fest	-10211
爵位	-10212
魔鬼	-10213
點的	-10214
开发区	-10215
搭檔	-10216
緊張	-10217
行李	-10218
▁town	-10219
加尔	-10220
、「	-10221
其次	-10222
冲击	-10223
故居	-10224
月到	-10225
olf	-10226
ート	-10227
共用	-10228
化为	-10229
應付	-10230
發言	-10231
竟然	-10232
在一些	-10233
信心	-10234
木材	-10235
謀殺	-10236
的香港	-10237
00.000	-10238
具备	-10239
小巴	-10240
書房	-10241
的效果	-10242
矩阵	-10243
說服	-10244
而成為	-10245
兼容	-10246
科学技术	-10247
▁view	-10248
全线	-10249
武功	-10250
物資	-10251
頭的	-10252
(0.0	-10253
udio	-10254
▁states	-10255
mt	-10256
宗旨	-10257
宦官	-10258
川縣	-10259
补充	-10260
过渡	-10261
鬥爭	-10262
月中旬	-10263
獨特的	-10264
▁service	-10265
辯論	-10266
参议员	-10267
實踐	-10268
罗德	-10269
溫哥華	-10270
邓小平	-10271
▁奧	-10272
擊中	-10273
擴建	-10274
陰謀	-10275
漫畫家	-10276
▁京	-10277
呼吁	-10278
希爾	-10279
答案	-10280
ias	-10281
pet	-10282
丽莎白	-10283
参与了	-10284
▁*-{	-10285
被任命为	-10286
。(0000	-10287
一邊	-10288
也就	-10289
的的	-10290
精確	-10291
有不少	-10292
菲尔德	-10293
晚年	-10294
违反	-10295
」),	-10296
bill	-10297
保加利亚	-10298
地方政府	-10299
兄長	-10300
军在	-10301
前田	-10302
與此	-10303
▁church	-10304
并以	-10305
激光	-10306
游戏的	-10307
肯塔基	-10308
日本政府	-10309
加爾	-10310
的学生	-10311
▁ve	-10312
公安局	-10313
py	-10314
容器	-10315
纷纷	-10316
目的地	-10317
攻下	-10318
效能	-10319
次于	-10320
一族	-10321
古城	-10322
單車	-10323
共計	-10324
变量	-10325
安打	-10326
減弱	-10327
預告	-10328
及香港	-10329
准确	-10330
底部	-10331
者是	-10332
费用	-10333
的日子	-10334
的需求	-10335
西蒙	-10336
然而在	-10337
第二天	-10338
▁cre	-10339
与此同时	-10340
東路	-10341
▁network	-10342
ky	-10343
國有	-10344
帽子	-10345
ка	-10346
首领	-10347
现在的	-10348
光之	-10349
疫苗	-10350
读书	-10351
組織的	-10352
一台	-10353
假设	-10354
dan	-10355
道格拉斯	-10356
under	-10357
企图	-10358
動態	-10359
臀鰭	-10360
遇見	-10361
高丽	-10362
飞行员	-10363
位列	-10364
在三	-10365
當成	-10366
星期六	-10367
發言人	-10368
中央政府	-10369
广播电台	-10370
回归	-10371
代表作	-10372
000(	-10373
拜仁	-10374
男歌手	-10375
點是	-10376
phil	-10377
自動車道	-10378
列出	-10379
艾爾	-10380
lag	-10381
反对派	-10382
▁cult	-10383
下有	-10384
大名	-10385
男爵	-10386
aka	-10387
的表現	-10388
家臣	-10389
市镇	-10390
窗口	-10391
酒精	-10392
一一	-10393
極限	-10394
艺人	-10395
開發的	-10396
中华人民共和国成立后	-10397
否定	-10398
左派	-10399
顺序	-10400
進行的	-10401
~(	-10402
傳遞	-10403
vid	-10404
▁party	-10405
今年	-10406
录制	-10407
打开	-10408
▁新华	-10409
女性的	-10410
所在的	-10411
水庫	-10412
这两	-10413
元老	-10414
契丹	-10415
蔬菜	-10416
要素	-10417
▁tom	-10418
國家公園	-10419
公顷	-10420
日子	-10421
曾與	-10422
'':	-10423
的文化	-10424
知名度	-10425
▁gal	-10426
尼日	-10427
的行为	-10428
▁program	-10429
軟條	-10430
舞台劇	-10431
▁squ	-10432
)、「	-10433
pha	-10434
gdp	-10435
-《	-10436
内有	-10437
彈匣	-10438
建筑物	-10439
辖区	-10440
▁0000).	-10441
后又	-10442
就業	-10443
數百	-10444
留學	-10445
铸币	-10446
魅力	-10447
云南省	-10448
原定	-10449
的总	-10450
▁自由	-10451
▁虽然	-10452
派出所	-10453
的特性	-10454
hell	-10455
ston	-10456
▁0000–00	-10457
光譜	-10458
全日	-10459
中的一	-10460
类似于	-10461
aceae	-10462
▁histor	-10463
传奇	-10464
條款	-10465
浏览	-10466
00:	-10467
open	-10468
港台	-10469
kh	-10470
加索	-10471
西州	-10472
都很	-10473
十七年	-10474
相互作用	-10475
不好	-10476
兵團	-10477
則被	-10478
巴拿	-10479
言论	-10480
peg	-10481
半球	-10482
摩爾	-10483
數為	-10484
歇尔	-10485
護照	-10486
仍然是	-10487
群体	-10488
遺跡	-10489
發展的	-10490
的结果	-10491
馬德里	-10492
則於	-10493
景觀	-10494
美国人	-10495
▁expl	-10496
光學	-10497
布蘭	-10498
沿線	-10499
鎮區	-10500
千里	-10501
客量	-10502
小野	-10503
某个	-10504
特急	-10505
辛亥	-10506
加快	-10507
激素	-10508
穿过	-10509
西德	-10510
新任	-10511
称呼	-10512
虛構	-10513
西比	-10514
首映	-10515
廣東省	-10516
▁phys	-10517
多尔	-10518
衛門	-10519
逃跑	-10520
的妹妹	-10521
▁aug	-10522
某一	-10523
短暂	-10524
這麼	-10525
總司令	-10526
是从	-10527
河西	-10528
年期間	-10529
第二名	-10530
之久	-10531
剧场	-10532
在被	-10533
相机	-10534
++	-10535
悬挂	-10536
栽培	-10537
猶太人	-10538
克爾	-10539
幸運	-10540
車廠	-10541
了许多	-10542
的内容	-10543
托勒密	-10544
北韓	-10545
神戶	-10546
rna	-10547
ey	-10548
巴马	-10549
某种	-10550
ush	-10551
代表团	-10552
人造	-10553
发送	-10554
法学	-10555
生殖	-10556
诞生	-10557
範圍內	-10558
卡西	-10559
iro	-10560
处理器	-10561
就算	-10562
米高	-10563
偵測	-10564
增援	-10565
民俗	-10566
賠償	-10567
賦予	-10568
伤亡	-10569
电池	-10570
san	-10571
葡萄酒	-10572
ер	-10573
四方	-10574
海盜	-10575
这两个	-10576
collapse	-10577
向东	-10578
集第	-10579
福克斯	-10580
反擊	-10581
歌迷	-10582
电车	-10583
電流	-10584
▁radio	-10585
清除	-10586
大将军	-10587
▁0-00-000000-0	-10588
不過在	-10589
山路	-10590
无锡	-10591
港府	-10592
科的	-10593
途径	-10594
▁位於	-10595
▁mel	-10596
儀器	-10597
專屬	-10598
接駁	-10599
發達	-10600
起草	-10601
正式成立	-10602
ference	-10603
刻意	-10604
卸任	-10605
宣誓	-10606
拓展	-10607
消灭	-10608
意味著	-10609
trie	-10610
▁莫	-10611
年紀	-10612
系主任	-10613
cript	-10614
同月	-10615
纪念碑	-10616
ks	-10617
0,0	-10618
蛺蝶	-10619
常用的	-10620
▁oper	-10621
▁elect	-10622
据说	-10623
近年來	-10624
▁hand	-10625
中路	-10626
型号	-10627
時速	-10628
現有	-10629
護衛	-10630
mor	-10631
大學生	-10632
的形象	-10633
▁蘇	-10634
乡村	-10635
log	-10636
▁——	-10637
ester	-10638
服飾	-10639
講談	-10640
關卡	-10641
霍夫	-10642
死的	-10643
。(0	-10644
甚至是	-10645
▁fin	-10646
世界各地	-10647
–000)	-10648
流入	-10649
获奖	-10650
phen	-10651
型柴油机车	-10652
毒品	-10653
民事	-10654
里尼	-10655
年逝世	-10656
友人	-10657
呈现	-10658
日圓	-10659
孫中山	-10660
▁again	-10661
力學	-10662
王星	-10663
职工	-10664
但也有	-10665
来自于	-10666
出賽	-10667
合肥	-10668
強迫	-10669
ila	-10670
勇敢	-10671
受損	-10672
塔克	-10673
ban	-10674
常见的	-10675
包裝	-10676
各类	-10677
毗邻	-10678
ito	-10679
sum	-10680
tor	-10681
itter	-10682
▁罗	-10683
揭露	-10684
曼哈	-10685
賽事中	-10686
博士學位	-10687
吉隆	-10688
看出	-10689
中央军委	-10690
回國	-10691
▁only	-10692
三立	-10693
公正	-10694
又以	-10695
山城	-10696
的開	-10697
直属	-10698
办公厅	-10699
▁pet	-10700
▁conc	-10701
前鋒	-10702
启用	-10703
招收	-10704
金馬	-10705
nel	-10706
特尔	-10707
而其	-10708
阅读	-10709
出生在	-10710
维多利亚	-10711
當晚	-10712
顯著	-10713
的公司	-10714
其为	-10715
軍在	-10716
随机	-10717
馬里	-10718
另一種	-10719
物理學	-10720
,,	-10721
棋子	-10722
cos	-10723
適用於	-10724
五位	-10725
太太	-10726
接壤	-10727
携带	-10728
波尔	-10729
cho	-10730
〉)	-10731
生物学	-10732
感謝	-10733
營養	-10734
預期	-10735
最強	-10736
视觉	-10737
▁ham	-10738
历史学家	-10739
不一	-10740
事变	-10741
兩大	-10742
六個	-10743
对话	-10744
维基	-10745
所使用	-10746
ible	-10747
▁jack	-10748
航线	-10749
魔力	-10750
pu	-10751
北區	-10752
台語	-10753
天子	-10754
无人	-10755
差點	-10756
民視	-10757
給他	-10758
長沙	-10759
在內的	-10760
ジャ	-10761
全家	-10762
fri	-10763
我們的	-10764
▁equ	-10765
之後在	-10766
▁cambridge	-10767
屋頂	-10768
月亮	-10769
細菌	-10770
jack	-10771
識別	-10772
认证	-10773
通稱	-10774
因斯坦	-10775
夜晚	-10776
手指	-10777
居於	-10778
手术	-10779
sir	-10780
改編自	-10781
上杉	-10782
争取	-10783
称赞	-10784
纖維	-10785
ラン	-10786
平坦	-10787
派系	-10788
筆記	-10789
衝鋒	-10790
那個	-10791
陣亡	-10792
des	-10793
▁0000/00	-10794
遠東	-10795
青梅	-10796
▁games	-10797
全台	-10798
切尔	-10799
刑部	-10800
容許	-10801
斯巴	-10802
流动	-10803
登基	-10804
移到	-10805
办理	-10806
同伴	-10807
巡回	-10808
清理	-10809
家庄	-10810
的行動	-10811
乒乓	-10812
和第	-10813
影集	-10814
真空	-10815
▁anim	-10816
▁theory	-10817
发掘	-10818
▁id	-10819
講談社	-10820
撤回	-10821
渦輪	-10822
行業	-10823
▁yo	-10824
吉林省	-10825
羅伯特	-10826
应用程序	-10827
▁blue	-10828
尸体	-10829
收益	-10830
福克	-10831
▁spr	-10832
▁等	-10833
主的	-10834
也要	-10835
亚美	-10836
公会	-10837
尼尔	-10838
差別	-10839
科目	-10840
莎拉	-10841
赛中	-10842
▁que	-10843
傳輸	-10844
進軍	-10845
魁北	-10846
能力的	-10847
革命军	-10848
格爾	-10849
隶属	-10850
▁jr	-10851
不停	-10852
比爾	-10853
體積	-10854
less	-10855
ished	-10856
骨骼	-10857
不存在	-10858
年前的	-10859
的安全	-10860
▁lee	-10861
▁fa	-10862
分公司	-10863
一艘	-10864
不相	-10865
女皇	-10866
排球	-10867
前線	-10868
aki	-10869
東北部	-10870
團員	-10871
小學校	-10872
香港電台	-10873
倒塌	-10874
圍繞	-10875
長老	-10876
▁web	-10877
和在	-10878
腓力	-10879
司司	-10880
宋代	-10881
與小	-10882
金星	-10883
(#	-10884
頭角	-10885
了很多	-10886
開始在	-10887
堡的	-10888
心中	-10889
為主題	-10890
之役	-10891
撤出	-10892
大地震	-10893
委托	-10894
密碼	-10895
探討	-10896
的王	-10897
邮政	-10898
了三	-10899
立场	-10900
動畫版	-10901
必殺技	-10902
盛行	-10903
的女孩	-10904
的表	-10905
起訴	-10906
ev	-10907
南站	-10908
較多	-10909
第三季	-10910
蔡英文	-10911
交给	-10912
升至	-10913
卻在	-10914
周末	-10915
也因為	-10916
high	-10917
第一次世界大戰	-10918
進化	-10919
翰林院	-10920
卫队	-10921
盟友	-10922
重复	-10923
潮流	-10924
美子	-10925
率的	-10926
奖最佳	-10927
演唱会	-10928
長崎	-10929
鳥類	-10930
一直是	-10931
引起的	-10932
已故	-10933
看作	-10934
罪犯	-10935
聯手	-10936
量產	-10937
后来的	-10938
相對於	-10939
ants	-10940
不易	-10941
强的	-10942
在这个	-10943
溫柔	-10944
的教	-10945
選秀	-10946
▁ever	-10947
实力	-10948
层的	-10949
普利	-10950
最先	-10951
遇难	-10952
今天的	-10953
衛斯理	-10954
南洋	-10955
客人	-10956
心靈	-10957
電梯	-10958
青衣	-10959
bel	-10960
重庆市	-10961
0000.0	-10962
供电	-10963
填海	-10964
打出	-10965
巴士路線	-10966
決策	-10967
mot	-10968
日耳曼	-10969
北侧	-10970
寻求	-10971
納爾	-10972
詢問	-10973
rick	-10974
依舊	-10975
内存	-10976
指向	-10977
某種	-10978
病的	-10979
奈良	-10980
有趣	-10981
del	-10982
他认为	-10983
pres	-10984
一中	-10985
好感	-10986
行銷	-10987
郡的	-10988
陶瓷	-10989
的命令	-10990
亦於	-10991
冷却	-10992
提示	-10993
永远	-10994
全新的	-10995
天文学	-10996
全港	-10997
spacing	-10998
交响	-10999
櫻花	-11000
▁七	-11001
張學	-11002
洛陽	-11003
尼克斯	-11004
达到了	-11005
▁dan	-11006
▁peter	-11007
瓦拉	-11008
類型的	-11009
uh	-11010
区分	-11011
味道	-11012
在第一	-11013
的女人	-11014
▁font	-11015
于此	-11016
点的	-11017
数学家	-11018
▁ele	-11019
國民大會	-11020
:『	-11021
异常	-11022
獲獎	-11023
四面	-11024
意指	-11025
水果	-11026
三十年	-11027
人口为	-11028
000、	-11029
uter	-11030
埃塞	-11031
派往	-11032
ids	-11033
後來被	-11034
force	-11035
琳娜	-11036
追蹤	-11037
')	-11038
交涉	-11039
以免	-11040
地亚	-11041
室内	-11042
招待	-11043
被认为	-11044
▁00.00	-11045
亚种	-11046
使之	-11047
南端	-11048
时刻	-11049
▁國際	-11050
强大的	-11051
日舉行	-11052
作業系統	-11053
签约	-11054
为基础	-11055
▁sign	-11056
asy	-11057
杰克逊	-11058
伊丽莎白	-11059
人格	-11060
姿態	-11061
抓住	-11062
投影	-11063
無效	-11064
鼓手	-11065
獨特	-11066
高手	-11067
tre	-11068
一道	-11069
公約	-11070
坐在	-11071
涵蓋	-11072
▁及	-11073
人称	-11074
是对	-11075
达赖	-11076
隕石	-11077
-00,	-11078
衰退	-11079
雄性	-11080
台中市	-11081
元璋	-11082
紅磡	-11083
西伯	-11084
運送	-11085
颁奖	-11086
之妻	-11087
和田	-11088
围绕	-11089
的秘密	-11090
熱帶低氣壓	-11091
焦點	-11092
肖像	-11093
让他	-11094
android	-11095
hp	-11096
八大	-11097
公使	-11098
剩餘	-11099
戰時	-11100
紧张	-11101
mil	-11102
第十三	-11103
刻有	-11104
无线电	-11105
月下旬	-11106
內心	-11107
安提	-11108
db	-11109
分院	-11110
融入	-11111
▁tran	-11112
手上	-11113
會上	-11114
西貢	-11115
魯斯	-11116
文化中心	-11117
縮短	-11118
继任	-11119
轉型	-11120
在英国	-11121
▁richard	-11122
其间	-11123
地处	-11124
外型	-11125
耶夫	-11126
之夜	-11127
六四	-11128
沿途	-11129
莱茵	-11130
都以	-11131
電壓	-11132
億港元	-11133
年完成	-11134
的一段	-11135
类似的	-11136
inus	-11137
不安	-11138
中南	-11139
二級	-11140
其所	-11141
更好	-11142
筹备	-11143
留下的	-11144
▁records	-11145
足协	-11146
蛋白質	-11147
设计师	-11148
▁limited	-11149
首个	-11150
美国总统	-11151
網民	-11152
▁dvd	-11153
中方	-11154
向他	-11155
志明	-11156
剩下的	-11157
临床	-11158
協商	-11159
參與了	-11160
沉默	-11161
緣故	-11162
迪亞	-11163
cu	-11164
获胜	-11165
▁river	-11166
▁academ	-11167
ファ	-11168
亦曾	-11169
党委	-11170
捕捉	-11171
清末	-11172
hot	-11173
弗里德里希	-11174
弱的	-11175
症状	-11176
組的	-11177
金色	-11178
闻名	-11179
▁free	-11180
原聲	-11181
摔角	-11182
猛烈	-11183
率軍	-11184
位於香港	-11185
▁cellspacing	-11186
擴充	-11187
数十	-11188
村的	-11189
風景	-11190
相似的	-11191
名誉	-11192
ragon	-11193
▁(0000–0000)	-11194
年又	-11195
迪南	-11196
安东尼	-11197
标记	-11198
琉璃	-11199
ない	-11200
低音	-11201
虚拟	-11202
《-{	-11203
致力于	-11204
▁为	-11205
一批	-11206
友誼	-11207
成名	-11208
公務員	-11209
需要的	-11210
▁**000	-11211
晋级	-11212
炮塔	-11213
緩慢	-11214
診斷	-11215
防線	-11216
鸟类	-11217
ateg	-11218
▁light	-11219
也因	-11220
便宜	-11221
提醒	-11222
画面	-11223
▁second	-11224
指責	-11225
司令官	-11226
工程系	-11227
ming	-11228
▁北海道	-11229
▁than	-11230
军长	-11231
星雲	-11232
糧食	-11233
()(	-11234
预算	-11235
帶來的	-11236
ette	-11237
▁方	-11238
品種	-11239
在小	-11240
一定的	-11241
▁tri	-11242
冒险	-11243
电压	-11244
保留了	-11245
直升机	-11246
▁year	-11247
▁princ	-11248
两岸	-11249
密集	-11250
的古	-11251
讓她	-11252
黑白	-11253
業餘	-11254
比尔	-11255
皇子	-11256
護理	-11257
電訊	-11258
0~0	-11259
peter	-11260
▁library	-11261
低的	-11262
精确	-11263
ション	-11264
一個月	-11265
unes	-11266
▁女	-11267
米勒	-11268
原来的	-11269
有一座	-11270
負責人	-11271
aven	-11272
world	-11273
簽證	-11274
老鼠	-11275
▁其中	-11276
國外	-11277
春日	-11278
曲线	-11279
機身	-11280
的半	-11281
策划	-11282
高出	-11283
las	-11284
人民幣	-11285
牵引电动机	-11286
中斷	-11287
产量	-11288
军人	-11289
子弟	-11290
燃烧	-11291
控制器	-11292
▁george	-11293
幾何	-11294
uki	-11295
的音乐	-11296
第三代	-11297
野战军	-11298
▁泰	-11299
主办	-11300
代数	-11301
的想法	-11302
上将	-11303
台大	-11304
指標	-11305
牺牲	-11306
率兵	-11307
發射器	-11308
▁新华网	-11309
▁(000–000)	-11310
他說	-11311
富裕	-11312
抵制	-11313
有兩	-11314
歷代	-11315
恒星	-11316
暂时	-11317
混音	-11318
男生	-11319
众议院	-11320
目前的	-11321
ternet	-11322
national	-11323
景點	-11324
跳舞	-11325
特区	-11326
观看	-11327
的食物	-11328
上班	-11329
休閒	-11330
巡航	-11331
後備	-11332
瑞拉	-11333
車體	-11334
nat	-11335
辛普森	-11336
魁北克	-11337
卡的	-11338
清政府	-11339
降雨量	-11340
近平	-11341
預言	-11342
參加了	-11343
appy	-11344
你們	-11345
自身的	-11346
分隊	-11347
長者	-11348
▁以下	-11349
下载	-11350
之力	-11351
复制	-11352
腹部	-11353
虐待	-11354
贝克	-11355
制作人	-11356
副總統	-11357
是位于	-11358
▁(00)	-11359
高于	-11360
版權	-11361
柴油机	-11362
▁office	-11363
磁場	-11364
每一个	-11365
類似的	-11366
time	-11367
交互	-11368
小隊	-11369
有點	-11370
▁paris	-11371
失利	-11372
無敵	-11373
豐臣	-11374
裔美國人	-11375
▁server	-11376
▁利	-11377
中是	-11378
小子	-11379
sal	-11380
▁iv	-11381
年日本	-11382
游擊	-11383
現已	-11384
與日本	-11385
的第一个	-11386
了对	-11387
克勞	-11388
国外	-11389
墓地	-11390
某個	-11391
前身為	-11392
彰化縣	-11393
的態度	-11394
土著	-11395
認知	-11396
向西北	-11397
第十四	-11398
亞美尼亞	-11399
aking	-11400
信奉	-11401
破裂	-11402
神奈	-11403
站前	-11404
綽號	-11405
落入	-11406
金曲獎	-11407
、00:00	-11408
中隊	-11409
專欄	-11410
德甲	-11411
成一	-11412
kin	-11413
ju	-11414
主編	-11415
里面	-11416
隨之	-11417
音效	-11418
hist	-11419
▁english	-11420
不像	-11421
张家	-11422
檢測	-11423
▁同年	-11424
遇到了	-11425
▁到	-11426
仙奴	-11427
湯姆	-11428
率部	-11429
瓦解	-11430
諷刺	-11431
中華職棒	-11432
世家	-11433
山谷	-11434
研究室	-11435
第二位	-11436
▁0000),	-11437
貝斯	-11438
逼近	-11439
麗絲	-11440
的東西	-11441
總計	-11442
▁model	-11443
布兰	-11444
西式	-11445
总经理	-11446
是世界上	-11447
、000-	-11448
▁angel	-11449
了大	-11450
二段	-11451
娃娃	-11452
每秒	-11453
很快就	-11454
钢铁	-11455
zer	-11456
所以在	-11457
伊斯兰教	-11458
房间	-11459
合唱團	-11460
的管理	-11461
大敗	-11462
家和	-11463
射线	-11464
萬曆	-11465
▁康	-11466
反攻	-11467
死神	-11468
戰的	-11469
进球	-11470
也開始	-11471
代言人	-11472
发展的	-11473
的家庭	-11474
登记	-11475
神學	-11476
萨克森	-11477
omen	-11478
▁report	-11479
公信	-11480
原为	-11481
在的	-11482
講師	-11483
trieved	-11484
减弱	-11485
意的	-11486
出现的	-11487
無線電	-11488
-00/00	-11489
廈門	-11490
nam	-11491
他说	-11492
北大	-11493
廁所	-11494
流感	-11495
纺织	-11496
男配角	-11497
▁text	-11498
城中	-11499
將之	-11500
座椅	-11501
消化	-11502
聯隊	-11503
”)。	-11504
百分之	-11505
铁道部	-11506
▁div	-11507
▁god	-11508
向外	-11509
性别	-11510
ole	-11511
代表的	-11512
日早上	-11513
南極	-11514
目录	-11515
連線	-11516
陪同	-11517
▁data	-11518
三號	-11519
奧爾	-11520
寄生	-11521
支队	-11522
統籌	-11523
遵循	-11524
把它	-11525
種種	-11526
馬上	-11527
檢察官	-11528
美丽	-11529
隨機	-11530
fox	-11531
第三名	-11532
印度尼西亚	-11533
▁0000.00.00	-11534
來了	-11535
困境	-11536
滿洲	-11537
群的	-11538
院的	-11539
長時間	-11540
全書	-11541
名譽	-11542
长官	-11543
oney	-11544
obile	-11545
专利	-11546
始于	-11547
结论	-11548
農場	-11549
間諜	-11550
放射性	-11551
劉備	-11552
實習	-11553
指数	-11554
是要	-11555
索引	-11556
政治部主任	-11557
冬天	-11558
可愛	-11559
殺了	-11560
眾議院	-11561
號班機	-11562
中央研究院	-11563
延续	-11564
血統	-11565
隋朝	-11566
二十四	-11567
共和黨	-11568
十字架	-11569
▁野	-11570
屋苑	-11571
檢驗	-11572
gs	-11573
」:	-11574
南區	-11575
尊敬	-11576
神圣	-11577
在同一	-11578
house	-11579
中断	-11580
书法	-11581
回族	-11582
欧元	-11583
示范	-11584
精神病	-11585
comm	-11586
bat	-11587
威尔士	-11588
斯特拉	-11589
arct	-11590
年版	-11591
渤海	-11592
;}-,	-11593
0000)	-11594
▁family	-11595
▁chinese	-11596
▁studies	-11597
里奇	-11598
名稱為	-11599
局局长	-11600
率军	-11601
女配角	-11602
廣播劇	-11603
(0,000	-11604
奉天	-11605
幽靈	-11606
▁austral	-11607
中壢	-11608
檢討	-11609
變速	-11610
前面	-11611
看守	-11612
00/	-11613
总书记	-11614
第一期	-11615
后在	-11616
西站	-11617
该物种	-11618
▁america	-11619
必需	-11620
武藏	-11621
發生了	-11622
世俗	-11623
布置	-11624
延至	-11625
印度洋	-11626
的父亲	-11627
中央人民政府	-11628
名义	-11629
巡邏	-11630
產生了	-11631
季軍	-11632
難民	-11633
為主的	-11634
雷达	-11635
▁但是	-11636
基本法	-11637
朱元璋	-11638
▁appl	-11639
懸掛	-11640
編制	-11641
成功地	-11642
仁宗	-11643
烏斯	-11644
線路	-11645
本书	-11646
細節	-11647
出来的	-11648
立法會議員	-11649
hs	-11650
北站	-11651
大赛	-11652
水準	-11653
炸弹	-11654
興起	-11655
▁(:	-11656
▁mm	-11657
售賣	-11658
有四	-11659
疑似	-11660
▁魔法	-11661
stein	-11662
dition	-11663
坑壁	-11664
权的	-11665
细菌	-11666
年以前	-11667
聯合會	-11668
变换	-11669
直隶	-11670
電路	-11671
emi	-11672
和日本	-11673
▁guide	-11674
茨基	-11675
更高的	-11676
三菱	-11677
主事	-11678
報復	-11679
歷經	-11680
▁澳門	-11681
參議院	-11682
年首次	-11683
氣象局	-11684
角色的	-11685
power	-11686
▁役	-11687
安县	-11688
很難	-11689
▁league	-11690
儒家	-11691
樞機	-11692
祖籍	-11693
運轉	-11694
建造的	-11695
▁bank	-11696
一律	-11697
住戶	-11698
财务	-11699
在这里	-11700
,00%	-11701
~000	-11702
▁econom	-11703
半年	-11704
首部	-11705
牠們的	-11706
作了	-11707
由來	-11708
该党	-11709
公共交通	-11710
▁centre	-11711
傀儡	-11712
年所	-11713
摩擦	-11714
吉隆坡	-11715
生产的	-11716
争夺	-11717
春天	-11718
的特徵	-11719
自由的	-11720
▁hill	-11721
▁home	-11722
三段	-11723
上行	-11724
稍後	-11725
rey	-11726
品种	-11727
底盤	-11728
承诺	-11729
講座	-11730
这类	-11731
這位	-11732
亚美尼亚	-11733
權威	-11734
▁gar	-11735
umber	-11736
佐佐	-11737
打工	-11738
釋出	-11739
▁cy	-11740
香港大學	-11741
主场	-11742
但她	-11743
布爾	-11744
掌控	-11745
迪克	-11746
的一面	-11747
运动的	-11748
▁mot	-11749
高等學校	-11750
▁成	-11751
伤害	-11752
对阵	-11753
探險	-11754
''0	-11755
本的	-11756
杰出	-11757
海賊	-11758
mic	-11759
▁美術	-11760
▁let	-11761
▁east	-11762
對立	-11763
川崎	-11764
也成為	-11765
波士顿	-11766
東京電視台	-11767
▁#0000	-11768
ysis	-11769
有個	-11770
沿著	-11771
町村	-11772
中国大陆的	-11773
新店	-11774
比特	-11775
安東尼	-11776
的基礎	-11777
▁just	-11778
上台	-11779
生母	-11780
顯得	-11781
又稱為	-11782
stra	-11783
注意的是	-11784
南侧	-11785
咨询	-11786
囚犯	-11787
少林	-11788
kar	-11789
世紀初	-11790
法学院	-11791
一書	-11792
叔叔	-11793
密码	-11794
建的	-11795
影子	-11796
扬州	-11797
故鄉	-11798
早晨	-11799
社的	-11800
船舶	-11801
调任	-11802
阿克	-11803
▁cast	-11804
マン	-11805
既有	-11806
「」(	-11807
查爾斯	-11808
west	-11809
位素	-11810
数百	-11811
努斯	-11812
帕克	-11813
ika	-11814
吸引了	-11815
是为了	-11816
德堡	-11817
男演員	-11818
自己在	-11819
itor	-11820
没有任何	-11821
一項	-11822
先發	-11823
▁九	-11824
文書	-11825
雌性	-11826
人口密度	-11827
▁埃	-11828
化妝	-11829
总裁	-11830
登场	-11831
總長	-11832
cam	-11833
的一部	-11834
的紀錄	-11835
▁ben	-11836
开行	-11837
该国	-11838
调节	-11839
過往	-11840
适用于	-11841
回去	-11842
專注	-11843
洛特	-11844
王家	-11845
穿過	-11846
華麗	-11847
被指	-11848
趨勢	-11849
▁av	-11850
是一款	-11851
外形	-11852
校方	-11853
只有在	-11854
國務院	-11855
的女子	-11856
人民检察院	-11857
▁polit	-11858
優異	-11859
宫殿	-11860
有機	-11861
灭亡	-11862
lar	-11863
不出	-11864
德军	-11865
▁六	-11866
牧师	-11867
轄區	-11868
回到了	-11869
布拉格	-11870
收視率	-11871
加的	-11872
新教	-11873
落後	-11874
豪華	-11875
」,「	-11876
党委书记	-11877
):0000	-11878
底下	-11879
硬棘	-11880
而與	-11881
地球上	-11882
响应	-11883
开幕	-11884
ati	-11885
號月台	-11886
▁incl	-11887
幹事	-11888
至尊	-11889
船上	-11890
逃出	-11891
過來	-11892
銀牌	-11893
器材	-11894
常规	-11895
昆蟲	-11896
預防	-11897
黨員	-11898
外圍賽	-11899
anna	-11900
得多	-11901
會合	-11902
约有	-11903
道中	-11904
▁pc	-11905
巧克力	-11906
澳门	-11907
ges	-11908
第四次	-11909
大河	-11910
导师	-11911
新聞台	-11912
00~00	-11913
kt	-11914
郎中	-11915
ays	-11916
必要的	-11917
ao	-11918
台東	-11919
年时	-11920
改以	-11921
生化	-11922
竞技	-11923
英军	-11924
進修	-11925
同性恋	-11926
正選	-11927
细节	-11928
运作	-11929
仅次于	-11930
▁000,000	-11931
从未	-11932
代之	-11933
侦察	-11934
器和	-11935
沙特	-11936
,-{	-11937
aria	-11938
▁tai	-11939
不動	-11940
士官	-11941
落實	-11942
薩拉	-11943
所需的	-11944
▁people	-11945
反派	-11946
多部	-11947
奇蹟	-11948
災難	-11949
總署	-11950
轉播	-11951
錄得	-11952
南美洲	-11953
暴風	-11954
確立	-11955
编译	-11956
明顯的	-11957
東南部	-11958
的居民	-11959
开办	-11960
配套	-11961
肯尼迪	-11962
▁alex	-11963
現存	-11964
結論	-11965
輕易	-11966
可以是	-11967
失踪	-11968
州和	-11969
cpu	-11970
只需	-11971
甚麼	-11972
(“	-11973
下行	-11974
壮族	-11975
餘人	-11976
與美國	-11977
黑龙江省	-11978
=0	-11979
克服	-11980
副都	-11981
半部	-11982
汽油	-11983
陣容	-11984
深圳市	-11985
ering	-11986
會將	-11987
妖精	-11988
月号	-11989
水手	-11990
約定	-11991
诉讼	-11992
電機	-11993
廣播公司	-11994
专线	-11995
師團	-11996
署長	-11997
發現於	-11998
感動	-11999
馬場	-12000
巴伐利亚	-12001
所属	-12002
水源	-12003
rel	-12004
两者	-12005
珠江	-12006
看似	-12007
經國	-12008
编程	-12009
这段	-12010
▁season	-12011
值的	-12012
分隔	-12013
導彈	-12014
披露	-12015
搞笑	-12016
收取	-12017
而他	-12018
貸款	-12019
进口	-12020
best	-12021
初代	-12022
哥特	-12023
国道	-12024
塑料	-12025
左手	-12026
獎章	-12027
貝克	-12028
core	-12029
媽祖	-12030
日出	-12031
明清	-12032
警官	-12033
音的	-12034
物流	-12035
為中心	-12036
的特色	-12037
惡化	-12038
路面	-12039
热带气旋	-12040
东路	-12041
拘留	-12042
物资	-12043
袁世凯	-12044
▁中華民國	-12045
干线	-12046
聚居	-12047
議長	-12048
cts	-12049
在全球	-12050
傳承	-12051
向東	-12052
▁tw	-12053
george	-12054
二期	-12055
但有	-12056
多项	-12057
德罗	-12058
转会	-12059
顺利	-12060
oro	-12061
了一座	-12062
人民的	-12063
较大的	-12064
esis	-12065
▁pan	-12066
▁雙	-12067
▁ur	-12068
还包括	-12069
cell	-12070
县级	-12071
收看	-12072
▁故事	-12073
河流域	-12074
三日	-12075
各方	-12076
正當	-12077
華納	-12078
ced	-12079
)《	-12080
一下	-12081
为人	-12082
尚有	-12083
百分	-12084
日改為	-12085
尼的	-12086
造的	-12087
爆发后	-12088
隶属于	-12089
客車	-12090
情节	-12091
澄清	-12092
譴責	-12093
開心	-12094
蝙蝠俠	-12095
共青	-12096
德文	-12097
池田	-12098
erv	-12099
和美国	-12100
会计	-12101
修订	-12102
在她	-12103
失控	-12104
发现的	-12105
▁govern	-12106
告白	-12107
接力	-12108
詞彙	-12109
fire	-12110
▁technology	-12111
為他	-12112
▁development	-12113
日前	-12114
薩摩	-12115
曾多次	-12116
第二大	-12117
這首歌	-12118
シャ	-12119
入獄	-12120
步道	-12121
級聯賽	-12122
kn	-12123
假名	-12124
探险	-12125
李宗	-12126
為新	-12127
营养	-12128
顱骨	-12129
就读于	-12130
的成绩	-12131
提早	-12132
極大	-12133
氯化	-12134
路由	-12135
工程学院	-12136
▁were	-12137
煤炭	-12138
后勤	-12139
》00	-12140
下面	-12141
修理	-12142
反叛	-12143
塞拜	-12144
大中	-12145
帕拉	-12146
读者	-12147
)——	-12148
不同於	-12149
年毕业于	-12150
倫斯	-12151
奠基	-12152
林的	-12153
秋元	-12154
金刚	-12155
研究员	-12156
因在	-12157
永安	-12158
工作人员	-12159
旁的	-12160
玄宗	-12161
顧客	-12162
已经被	-12163
理事会	-12164
作为一个	-12165
光碟	-12166
java	-12167
情節	-12168
硫酸	-12169
管弦	-12170
▁fer	-12171
二八	-12172
ード	-12173
海关	-12174
祭司	-12175
體育場	-12176
▁普	-12177
克劳	-12178
场比赛	-12179
都是由	-12180
了一系列	-12181
▁site	-12182
▁transl	-12183
京城	-12184
他還	-12185
动态	-12186
帝王	-12187
石頭	-12188
西側	-12189
駐守	-12190
魚類	-12191
發生於	-12192
西區	-12193
有一定的	-12194
轉運	-12195
▁mid	-12196
和社会	-12197
年輕的	-12198
的可能性	-12199
第一次世界大战	-12200
七世	-12201
判断	-12202
战术	-12203
汉字	-12204
鬥士	-12205
▁also	-12206
委员会主席	-12207
偶爾	-12208
提起	-12209
年中国	-12210
東側	-12211
體長	-12212
时代的	-12213
约翰逊	-12214
ouis	-12215
始祖	-12216
谴责	-12217
落在	-12218
陝西	-12219
城巴	-12220
引導	-12221
tim	-12222
pv	-12223
▁斯	-12224
汉族	-12225
嘉義縣	-12226
band	-12227
冰川	-12228
总是	-12229
環狀	-12230
omo	-12231
布政使	-12232
alth	-12233
comp	-12234
hard	-12235
全书	-12236
卜杜	-12237
和尚	-12238
四季	-12239
年歐洲	-12240
车次	-12241
边的	-12242
▁vi	-12243
▁fact	-12244
那个	-12245
▁gall	-12246
之母	-12247
寺庙	-12248
昏迷	-12249
▁0–0	-12250
外观	-12251
願望	-12252
hemat	-12253
▁page	-12254
四军	-12255
戰勝	-12256
法規	-12257
生子	-12258
繼位	-12259
詹姆士	-12260
dream	-12261
相隔	-12262
上野	-12263
也以	-12264
战国	-12265
的五	-12266
给他	-12267
主人公	-12268
▁vocal	-12269
▁festival	-12270
”“	-12271
大於	-12272
將來	-12273
發掘	-12274
的熱	-12275
遠征	-12276
阿密	-12277
▁russ	-12278
所作	-12279
渴望	-12280
拿破崙	-12281
简单的	-12282
驱逐舰	-12283
日到	-12284
极端	-12285
相傳	-12286
續集	-12287
置於	-12288
西山	-12289
黑洞	-12290
主要以	-12291
事變	-12292
保定	-12293
金陵	-12294
▁plan	-12295
▁đ	-12296
上尉	-12297
代碼	-12298
戀人	-12299
漢人	-12300
王府	-12301
世纪末	-12302
二千	-12303
摩洛	-12304
者之一	-12305
▁nav	-12306
テレ	-12307
上限	-12308
喜爱	-12309
新秀	-12310
相連	-12311
但最後	-12312
是唯一	-12313
的地下	-12314
第一届	-12315
都是在	-12316
ql	-12317
电站	-12318
八路军	-12319
▁00–00	-12320
▁据	-12321
出境	-12322
当前	-12323
纳斯	-12324
而来	-12325
-0,	-12326
一枚	-12327
大海	-12328
性命	-12329
暢銷	-12330
清華	-12331
瑟琳	-12332
这位	-12333
在某些	-12334
的成员	-12335
iano	-12336
▁mhz	-12337
▁对	-12338
抗戰	-12339
特和	-12340
譽為	-12341
reg	-12342
▁ng	-12343
个国家	-12344
控制了	-12345
都没有	-12346
obal	-12347
加利福尼亚州	-12348
寫真	-12349
現身	-12350
警備	-12351
rpm	-12352
light	-12353
住房	-12354
因病	-12355
星际	-12356
氣氛	-12357
爭論	-12358
预备	-12359
的教育	-12360
亮度	-12361
而這	-12362
駕駛員	-12363
有線電視	-12364
▁同	-12365
代言	-12366
專員	-12367
電鐵	-12368
大將軍	-12369
医药	-12370
ado	-12371
哆啦	-12372
的超	-12373
群體	-12374
觀賞	-12375
词汇	-12376
年獲得	-12377
是非常	-12378
uble	-12379
中级	-12380
亞太	-12381
兵衛	-12382
再見	-12383
参见	-12384
头衔	-12385
雙打	-12386
航站楼	-12387
uction	-12388
俗称	-12389
圖片	-12390
花費	-12391
較大的	-12392
iger	-12393
0000/0000	-12394
的親	-12395
ories	-12396
主機	-12397
总监	-12398
李世	-12399
配备	-12400
簡單的	-12401
占地面积	-12402
美國總統	-12403
▁april	-12404
地产	-12405
汉口	-12406
沙皇	-12407
淮南	-12408
cul	-12409
《》,	-12410
節目中	-12411
yu	-12412
等于	-12413
▁ze	-12414
▁europe	-12415
则在	-12416
過了	-12417
伴奏	-12418
多樣	-12419
小田	-12420
波多	-12421
相應	-12422
變換	-12423
進駐	-12424
的经济	-12425
夺取	-12426
▁band	-12427
壽命	-12428
山頂	-12429
號為	-12430
的方向	-12431
(?	-12432
出面	-12433
樣子	-12434
火災	-12435
的孩子	-12436
蔣介石	-12437
▁grand	-12438
▁retrieved	-12439
▁publishing	-12440
始於	-12441
被杀	-12442
那裡	-12443
曾一度	-12444
iphone	-12445
▁distr	-12446
大碟	-12447
孤立	-12448
無關	-12449
階層	-12450
穩定的	-12451
▁now	-12452
全境	-12453
出於	-12454
现为	-12455
西門	-12456
出現於	-12457
季後賽	-12458
天文学家	-12459
他将	-12460
公约	-12461
取消了	-12462
工作人員	-12463
法軍	-12464
tem	-12465
战斗机	-12466
▁leg	-12467
聯合颱風警報	-12468
(「	-12469
單打	-12470
愛國	-12471
藩主	-12472
osp	-12473
的同時	-12474
全国重点	-12475
所知	-12476
整修	-12477
靈感	-12478
lim	-12479
战列舰	-12480
年世界盃	-12481
▁(0000-0000)	-12482
報章	-12483
履行	-12484
健身	-12485
机务	-12486
派對	-12487
”()	-12488
▁hd	-12489
带来的	-12490
▁social	-12491
他就	-12492
田徑	-12493
病患	-12494
▁big	-12495
▁太	-12496
備受	-12497
消散	-12498
聖地	-12499
的地区	-12500
才有	-12501
的成功	-12502
fore	-12503
明治三十	-12504
望远	-12505
目睹	-12506
私有	-12507
維克	-12508
you	-12509
▁lam	-12510
共振	-12511
參演	-12512
塔的	-12513
平息	-12514
灌溉	-12515
近期	-12516
▁電影	-12517
古斯塔	-12518
徹斯特	-12519
後便	-12520
江市	-12521
缓慢	-12522
缺席	-12523
翅膀	-12524
号机车	-12525
的照片	-12526
高句丽	-12527
▁educ	-12528
▁martin	-12529
加入中国共产党	-12530
tp	-12531
不分	-12532
判定	-12533
外籍	-12534
终点	-12535
一提	-12536
争论	-12537
聯合颱風警報中心	-12538
0+	-12539
和北	-12540
之时	-12541
亚特	-12542
类型的	-12543
椎名	-12544
特快	-12545
mit	-12546
固定的	-12547
的社會	-12548
資料庫	-12549
巨型	-12550
日开始	-12551
▁dom	-12552
▁rail	-12553
炮台	-12554
禮物	-12555
萬港元	-12556
一本	-12557
果實	-12558
財富	-12559
防護	-12560
和一个	-12561
奧林匹克運動會	-12562
疏散	-12563
長江	-12564
「-{	-12565
保加利亞	-12566
▁木	-12567
事先	-12568
诸多	-12569
ddr	-12570
去世后	-12571
足總盃	-12572
家屬	-12573
旗艦	-12574
開播	-12575
同一個	-12576
加冕	-12577
大門	-12578
大雄	-12579
橋樑	-12580
皇太后	-12581
blue	-12582
▁000–000.	-12583
很难	-12584
敵軍	-12585
的子	-12586
题材	-12587
弗雷德	-12588
不肯	-12589
人有	-12590
牌照	-12591
現金	-12592
英皇	-12593
领先	-12594
马力	-12595
▁第四	-12596
▁magazine	-12597
決鬥	-12598
遺體	-12599
半徑	-12600
期限	-12601
▁background	-12602
並為	-12603
守備	-12604
羅賓	-12605
过于	-12606
拉丁美洲	-12607
博客	-12608
四郎	-12609
回了	-12610
宁夏	-12611
纳尔	-12612
▁pra	-12613
▁studio	-12614
光束	-12615
刪除	-12616
所生	-12617
格魯	-12618
南港	-12619
星星	-12620
歌剧	-12621
mos	-12622
伊斯蘭教	-12623
ント	-12624
士林	-12625
按察	-12626
特曼	-12627
的一条	-12628
粵語配音	-12629
但這	-12630
印地	-12631
斯堡	-12632
来看	-12633
▁一些	-12634
在歐洲	-12635
接下来	-12636
的戰鬥	-12637
自行车	-12638
hong	-12639
也称	-12640
維拉	-12641
该市	-12642
▁den	-12643
▁log	-12644
一九	-12645
發展出	-12646
功夫	-12647
大將	-12648
好像	-12649
繁荣	-12650
自幼	-12651
蘇軍	-12652
頭銜	-12653
ctv	-12654
塞克斯	-12655
的目標	-12656
▁cir	-12657
廟宇	-12658
语音	-12659
送至	-12660
girl	-12661
)”	-12662
同情	-12663
封闭	-12664
對待	-12665
icus	-12666
▁men	-12667
军政	-12668
媒介	-12669
机组	-12670
了一段	-12671
第二个	-12672
的重要性	-12673
加大	-12674
短的	-12675
fly	-12676
採用了	-12677
intel	-12678
年与	-12679
日元	-12680
背部	-12681
、-{	-12682
愛上	-12683
打败	-12684
提督	-12685
mus	-12686
再一次	-12687
的能量	-12688
bd	-12689
假如	-12690
号为	-12691
难民	-12692
的名義	-12693
的模式产	-12694
西域	-12695
较高	-12696
還會	-12697
製品	-12698
教材	-12699
維也	-12700
贝格	-12701
路斯	-12702
sil	-12703
▁0、	-12704
研究者	-12705
就已	-12706
拉夫	-12707
格局	-12708
营业	-12709
辭去	-12710
尼克松	-12711
的另一	-12712
的狀態	-12713
,〈	-12714
修斯	-12715
的空	-12716
▁隨著	-12717
phal	-12718
▁thomas	-12719
一大	-12720
寫成	-12721
幼兒	-12722
朝阳	-12723
莉莉	-12724
▁mr	-12725
印度的	-12726
望远镜	-12727
四名	-12728
誉为	-12729
▁modern	-12730
▁聲	-12731
一顆	-12732
城邦	-12733
分子的	-12734
帝國的	-12735
▁nor	-12736
的一系列	-12737
在内	-12738
大都	-12739
形势	-12740
牛奶	-12741
饭店	-12742
侵入	-12743
划分	-12744
这条	-12745
鄉道	-12746
關聯	-12747
阵亡	-12748
了一份	-12749
制作的	-12750
不見	-12751
你们	-12752
壁画	-12753
詛咒	-12754
的技術	-12755
side	-12756
不变	-12757
前来	-12758
展现	-12759
聚合	-12760
trans	-12761
▁post	-12762
▁champ	-12763
投訴	-12764
投靠	-12765
野心	-12766
-0.	-12767
與中國	-12768
來賓	-12769
承包	-12770
政务	-12771
竞赛	-12772
自願	-12773
cial	-12774
人及	-12775
密歇	-12776
更在	-12777
替换	-12778
條目	-12779
立體	-12780
萨拉	-12781
分別在	-12782
旧金山	-12783
為日本	-12784
自行車	-12785
高中生	-12786
down	-12787
ques	-12788
奶奶	-12789
核武器	-12790
的比賽	-12791
ource	-12792
▁general	-12793
.(	-12794
▁富	-12795
並向	-12796
心脏	-12797
旅館	-12798
蒂斯	-12799
豐原	-12800
赛车	-12801
▁remix	-12802
環節	-12803
引爆	-12804
安大略	-12805
的主力	-12806
阿仙奴	-12807
也都	-12808
學校的	-12809
ader	-12810
中尉	-12811
比斯	-12812
编写	-12813
▁原作	-12814
密歇根	-12815
▁劇場版	-12816
▁days	-12817
君士坦丁堡	-12818
▁management	-12819
懲罰	-12820
戈尔	-12821
才被	-12822
玉山	-12823
组长	-12824
尼泊尔	-12825
』(0000	-12826
dy	-12827
土星	-12828
聘請	-12829
谋杀	-12830
斯科特	-12831
大气	-12832
chan	-12833
专用	-12834
尺度	-12835
极为	-12836
為第	-12837
產物	-12838
jan	-12839
三部曲	-12840
-00.	-12841
richard	-12842
ен	-12843
中外	-12844
村庄	-12845
歌劇	-12846
萬英鎊	-12847
文森	-12848
並獲得	-12849
▁there	-12850
一首	-12851
侍中	-12852
悠久	-12853
是非	-12854
维修	-12855
以前的	-12856
就已經	-12857
香港電影	-12858
景区	-12859
诸如	-12860
▁ba	-12861
年上映	-12862
american	-12863
厅长	-12864
所說	-12865
日間	-12866
有名	-12867
李登	-12868
正值	-12869
门外	-12870
塞尔维亚	-12871
電視廣播	-12872
▁趙	-12873
崩潰	-12874
鞍山	-12875
)」。	-12876
mhz	-12877
辛亥革命	-12878
刑警	-12879
夢幻	-12880
术语	-12881
覺醒	-12882
最終在	-12883
致力於	-12884
该物种的模式产	-12885
▁杨	-12886
一對	-12887
僅僅	-12888
国公	-12889
家鄉	-12890
飲料	-12891
yes	-12892
所屬的	-12893
足球甲	-12894
▁doc	-12895
在中国大陆	-12896
只剩下	-12897
革命軍	-12898
不錯	-12899
同学	-12900
二號	-12901
类的	-12902
調節	-12903
▁volume	-12904
上去	-12905
城縣	-12906
多样	-12907
lear	-12908
台鐵	-12909
的車	-12910
石川	-12911
年推出	-12912
最後一次	-12913
亞科	-12914
右派	-12915
太保	-12916
簡化	-12917
時間內	-12918
有兩個	-12919
stand	-12920
▁last	-12921
亞當	-12922
的他	-12923
福田	-12924
紀元	-12925
例如在	-12926
研究員	-12927
两条	-12928
人为	-12929
mtv	-12930
時間為	-12931
為主要	-12932
人道	-12933
實業	-12934
射線	-12935
本集	-12936
raw	-12937
在其他	-12938
封锁	-12939
芭蕾	-12940
藝員	-12941
下台	-12942
不堪	-12943
嫁給	-12944
時光	-12945
波的	-12946
玉米	-12947
精度	-12948
誤會	-12949
連鎖	-12950
jor	-12951
年成为	-12952
社會的	-12953
▁wat	-12954
五郎	-12955
否決	-12956
活塞	-12957
立花	-12958
並開始	-12959
等到	-12960
銅牌	-12961
拉丁文	-12962
伯克	-12963
财经	-12964
躲避	-12965
里達	-12966
▁sn	-12967
年以来	-12968
米特里	-12969
ring	-12970
商標	-12971
岡山	-12972
▁gi	-12973
在臺灣	-12974
很好的	-12975
的同时	-12976
▁real	-12977
俘虜	-12978
明珠	-12979
现今	-12980
法兰西	-12981
維也納	-12982
会有	-12983
打進	-12984
會面	-12985
禮拜	-12986
精通	-12987
ión	-12988
▁ol	-12989
中學校	-12990
篇文章	-12991
下轄	-12992
地主	-12993
棉花	-12994
私下	-12995
的数据	-12996
,0000-0000	-12997
▁魔	-12998
亞目	-12999
无限	-13000
网友	-13001
退伍	-13002
atory	-13003
之助	-13004
叱咤	-13005
平壤	-13006
新興	-13007
衛冕	-13008
卡洛斯	-13009
可使用	-13010
大教堂	-13011
保衛	-13012
大殿	-13013
宗室	-13014
电信	-13015
诸侯	-13016
日宣布	-13017
中島	-13018
失效	-13019
皮肤	-13020
輿論	-13021
霹靂	-13022
中国政府	-13023
与之	-13024
会社	-13025
科隆	-13026
的過程	-13027
margin	-13028
加特	-13029
又譯	-13030
街的	-13031
jul	-13032
於日本	-13033
佛像	-13034
合一	-13035
帶到	-13036
干扰	-13037
敵方	-13038
理学	-13039
abc	-13040
▁饰演	-13041
),0	-13042
有一天	-13043
的攻擊	-13044
▁asia	-13045
iy	-13046
▁主	-13047
啟德	-13048
用法	-13049
——《	-13050
的最佳	-13051
rome	-13052
的基础上	-13053
▁systems	-13054
困擾	-13055
結業	-13056
」)。	-13057
ision	-13058
「0000	-13059
塔斯	-13060
巴里	-13061
程車	-13062
詮釋	-13063
she	-13064
博物院	-13065
独特的	-13066
▁戴	-13067
利桑	-13068
在下	-13069
逃避	-13070
哲学家	-13071
东亚	-13072
追捕	-13073
陰陽	-13074
的信息	-13075
统治者	-13076
▁sound	-13077
樓高	-13078
認真	-13079
路站	-13080
asc	-13081
委員會主席	-13082
光子	-13083
是自	-13084
美式	-13085
free	-13086
理工学院	-13087
▁movie	-13088
▁百	-13089
和海	-13090
▁times	-13091
刺客	-13092
参观	-13093
排序	-13094
滑雪	-13095
立面	-13096
習俗	-13097
运算	-13098
加勒比海	-13099
▁digital	-13100
大成	-13101
放入	-13102
电流	-13103
新西兰	-13104
的人類	-13105
否认	-13106
帆船	-13107
所长	-13108
獎勵	-13109
白石	-13110
羅門	-13111
赫爾	-13112
黨的	-13113
mes	-13114
年获得	-13115
耶和華	-13116
博览	-13117
图片	-13118
大厅	-13119
方位	-13120
金字	-13121
ped	-13122
东汉	-13123
保有	-13124
公理	-13125
文教	-13126
暴動	-13127
rix	-13128
▁==	-13129
的一名	-13130
的美国	-13131
一輛	-13132
促成	-13133
圣诞	-13134
損害	-13135
槍械	-13136
洋基	-13137
这也	-13138
一心	-13139
他不	-13140
艾莉	-13141
南京市	-13142
mw	-13143
亦即	-13144
伊尔	-13145
商标	-13146
城門	-13147
惡劣	-13148
晤士	-13149
考生	-13150
適用	-13151
sub	-13152
▁尽管	-13153
vest	-13154
▁into	-13155
ification	-13156
化和	-13157
纳入	-13158
tee	-13159
製造的	-13160
四國	-13161
多为	-13162
產量	-13163
衰落	-13164
▁vs	-13165
強烈的	-13166
eric	-13167
▁據	-13168
卡普	-13169
圖形	-13170
西雅	-13171
陈列	-13172
urs	-13173
統治者	-13174
▁express	-13175
之内	-13176
旗帜	-13177
认定	-13178
豐田	-13179
貧窮	-13180
運河	-13181
▁ka	-13182
发布了	-13183
年在位	-13184
住所	-13185
使人	-13186
家乡	-13187
少校	-13188
电磁	-13189
纳州	-13190
遠的	-13191
jam	-13192
三角洲	-13193
东南亚	-13194
lood	-13195
二氧化碳	-13196
ellow	-13197
▁老	-13198
受邀	-13199
扭曲	-13200
輕鬆	-13201
随之	-13202
由香港	-13203
多半	-13204
微笑	-13205
战中	-13206
条例	-13207
繪製	-13208
网上	-13209
▁awards	-13210
人也	-13211
四強	-13212
書局	-13213
▁ev	-13214
▁赤	-13215
不含	-13216
林斯	-13217
汉堡	-13218
腐败	-13219
西湖	-13220
該地	-13221
除去	-13222
平方呎	-13223
有许多	-13224
同时也是	-13225
北極	-13226
公信榜	-13227
法西斯	-13228
向的	-13229
支出	-13230
onder	-13231
二郎	-13232
支那	-13233
政法	-13234
究竟	-13235
谢尔	-13236
的一家	-13237
洋行	-13238
费尔	-13239
omy	-13240
board	-13241
业余	-13242
光学	-13243
剩余	-13244
合格	-13245
名胜	-13246
收视	-13247
鱼雷	-13248
▁葉	-13249
尼拉	-13250
華僑	-13251
一至五	-13252
ench	-13253
▁list	-13254
接納	-13255
深的	-13256
簡易	-13257
西夏	-13258
濃度	-13259
总司令	-13260
的平均	-13261
之道	-13262
历代	-13263
命运	-13264
完畢	-13265
招式	-13266
遠離	-13267
乒乓球	-13268
很可能	-13269
▁ret	-13270
▁some	-13271
cyclop	-13272
效忠	-13273
敗給	-13274
港的	-13275
範疇	-13276
譯名	-13277
邮件	-13278
00′	-13279
任何人	-13280
在当时	-13281
阿尔巴	-13282
tc	-13283
噪音	-13284
極端	-13285
差不多	-13286
游戏中	-13287
的對象	-13288
▁ill	-13289
▁mad	-13290
安息	-13291
暱稱	-13292
桃花	-13293
樓宇	-13294
高祖	-13295
主打歌	-13296
太陽系	-13297
得票率	-13298
加裝	-13299
市內	-13300
种子	-13301
青铜	-13302
八達	-13303
权威	-13304
还原	-13305
是世界	-13306
製造商	-13307
指引	-13308
标本	-13309
流派	-13310
ea	-13311
一周	-13312
年為	-13313
金正	-13314
降至	-13315
世紀末	-13316
▁wid	-13317
推力	-13318
服用	-13319
不久後	-13320
史上最	-13321
總冠軍	-13322
蘋果日報	-13323
住了	-13324
圣殿	-13325
月時	-13326
鍵盤	-13327
铁路的	-13328
師範大學	-13329
▁洪	-13330
一向	-13331
並把	-13332
海口	-13333
聯網	-13334
高潮	-13335
今日的	-13336
0000》	-13337
三級	-13338
不便	-13339
主权	-13340
寺的	-13341
巡抚	-13342
护照	-13343
汤姆	-13344
通商	-13345
dor	-13346
▁mach	-13347
停泊	-13348
奪冠	-13349
科长	-13350
辩论	-13351
陳慧	-13352
的思想	-13353
仙台	-13354
午夜	-13355
字形	-13356
屋顶	-13357
行列	-13358
送給	-13359
兩人的	-13360
心理学	-13361
摩洛哥	-13362
青梅竹	-13363
友谊	-13364
極度	-13365
臨床	-13366
频繁	-13367
举行了	-13368
长时间	-13369
電影的	-13370
也將	-13371
山水	-13372
一开始	-13373
等方面	-13374
國土	-13375
專訪	-13376
属性	-13377
後再	-13378
滨海	-13379
龐大	-13380
una	-13381
爺爺	-13382
环球	-13383
功能的	-13384
錄音室	-13385
财富	-13386
▁uk	-13387
現代化	-13388
三种	-13389
分部	-13390
夫特	-13391
模块	-13392
毫无	-13393
附設	-13394
sar	-13395
則認為	-13396
←→	-13397
偏西	-13398
優勝	-13399
摩天	-13400
攻破	-13401
波爾	-13402
警戒	-13403
》:“	-13404
和政治	-13405
是目前	-13406
繼承人	-13407
ườ	-13408
同行	-13409
提取	-13410
護士	-13411
讲话	-13412
首長	-13413
的中國	-13414
評論家	-13415
但未	-13416
施政	-13417
早於	-13418
石碑	-13419
离婚	-13420
陷阱	-13421
的聲音	-13422
山顶	-13423
帕特	-13424
東映	-13425
ues	-13426
▁000-0000000000	-13427
季的	-13428
rap	-13429
并且在	-13430
的少女	-13431
head	-13432
伯明	-13433
北條	-13434
年夏	-13435
特律	-13436
了一次	-13437
以示	-13438
有功	-13439
睡眠	-13440
藉著	-13441
負面	-13442
鳳山	-13443
sur	-13444
存在于	-13445
較高的	-13446
書法	-13447
存在於	-13448
彼得堡	-13449
▁def	-13450
▁run	-13451
六个	-13452
宫廷	-13453
系教授	-13454
几年	-13455
失業	-13456
身心	-13457
验证	-13458
luc	-13459
皇太子	-13460
▁萬	-13461
ちゃ	-13462
屋邨	-13463
晶體	-13464
肿瘤	-13465
荣获	-13466
。''	-13467
是英國	-13468
岸的	-13469
村上	-13470
来了	-13471
米德	-13472
cia	-13473
音樂劇	-13474
精彩	-13475
納德	-13476
的主题	-13477
聚合物	-13478
该公司	-13479
▁hor	-13480
center	-13481
强化	-13482
文斯	-13483
李氏	-13484
▁克	-13485
不死	-13486
作词	-13487
八卦	-13488
处决	-13489
对比	-13490
日與	-13491
樓梯	-13492
行性	-13493
雷射	-13494
首次在	-13495
▁м	-13496
執法	-13497
此種	-13498
變動	-13499
non	-13500
pend	-13501
候補	-13502
奉行	-13503
殭屍	-13504
草地	-13505
▁麥	-13506
布里斯	-13507
微生物	-13508
有關的	-13509
相应的	-13510
傾斜	-13511
本来	-13512
菲尔	-13513
紀念碑	-13514
▁stat	-13515
▁analysis	-13516
gm	-13517
她和	-13518
正統	-13519
諾斯	-13520
public	-13521
一行	-13522
延遲	-13523
成像	-13524
指的	-13525
聰明	-13526
須賀	-13527
顺治	-13528
▁一个	-13529
vision	-13530
世子	-13531
其間	-13532
当然	-13533
街市	-13534
大将	-13535
董事會	-13536
(00.0	-13537
▁**00	-13538
修女	-13539
徽章	-13540
ftw	-13541
不列颠	-13542
可能有	-13543
表面上	-13544
亚当	-13545
全能	-13546
西日本	-13547
▁little	-13548
▁風	-13549
并由	-13550
绍兴	-13551
菲爾	-13552
降水	-13553
制片人	-13554
▁bir	-13555
即便	-13556
森的	-13557
機能	-13558
观念	-13559
变成了	-13560
夸克	-13561
建安	-13562
.),	-13563
aaa	-13564
oon	-13565
ots	-13566
年成為	-13567
生平	-13568
ror	-13569
第二任	-13570
cont	-13571
东海	-13572
南至	-13573
橄欖	-13574
科斯	-13575
里希	-13576
tur	-13577
wii	-13578
包括在	-13579
遭到了	-13580
▁lar	-13581
▁dist	-13582
▁vict	-13583
又是	-13584
的風	-13585
表彰	-13586
▁о	-13587
刑法	-13588
太極	-13589
安平	-13590
派兵	-13591
湿地	-13592
裝有	-13593
月正式	-13594
第二屆	-13595
馬克思	-13596
bell	-13597
與此同時	-13598
▁german	-13599
而上	-13600
賽後	-13601
光年	-13602
安葬	-13603
空调	-13604
():	-13605
年夏天	-13606
本身的	-13607
▁afr	-13608
组成部分	-13609
▁human	-13610
瑪莉	-13611
ief	-13612
▁mur	-13613
乌鲁	-13614
內亞	-13615
官僚	-13616
清洗	-13617
但沒有	-13618
with	-13619
事中	-13620
伯拉	-13621
安琪	-13622
後又	-13623
支撐	-13624
清军	-13625
莱坞	-13626
▁少将	-13627
红十字	-13628
▁:''	-13629
信託	-13630
哈根	-13631
對比	-13632
新莊	-13633
角的	-13634
身穿	-13635
▁新城	-13636
-00、00	-13637
中大	-13638
体积	-13639
先锋	-13640
反之	-13641
局勢	-13642
开封	-13643
条款	-13644
見證	-13645
发生的	-13646
三天	-13647
之弟	-13648
伯恩	-13649
景观	-13650
氏族	-13651
餐厅	-13652
不足以	-13653
打破了	-13654
角色扮演	-13655
倫理	-13656
刚刚	-13657
末日	-13658
祝福	-13659
过了	-13660
的唯一	-13661
▁phot	-13662
亦不	-13663
實用	-13664
一定要	-13665
叔父	-13666
新設	-13667
瞭解	-13668
讨伐	-13669
霍尔	-13670
lan	-13671
进入了	-13672
“”	-13673
發放	-13674
网页	-13675
膨脹	-13676
して	-13677
会馆	-13678
传教	-13679
剑桥	-13680
相差	-13681
身的	-13682
雲林縣	-13683
wr	-13684
可达	-13685
应对	-13686
若是	-13687
大学生	-13688
令其	-13689
結尾	-13690
隨時	-13691
活動的	-13692
md	-13693
》:「	-13694
所組成	-13695
有所不同	-13696
令他	-13697
文档	-13698
用水	-13699
艾倫	-13700
辛格	-13701
bol	-13702
不列顛	-13703
古希臘	-13704
屏東縣	-13705
▁brown	-13706
编制	-13707
iga	-13708
運動的	-13709
描写	-13710
此類	-13711
轉到	-13712
轉而	-13713
年以來	-13714
ache	-13715
原唱	-13716
後與	-13717
鸚鵡	-13718
多媒體	-13719
甘肃省	-13720
kw	-13721
它被	-13722
死前	-13723
可分為	-13724
euro	-13725
州立大学	-13726
▁force	-13727
东站	-13728
和中国	-13729
奥斯曼帝国	-13730
劍橋	-13731
境界	-13732
级的	-13733
ves	-13734
▁lu	-13735
交響曲	-13736
描述了	-13737
的大量	-13738
▁intro	-13739
集会	-13740
rat	-13741
▁00:	-13742
▁长	-13743
比率	-13744
高麗	-13745
▁if	-13746
学校的	-13747
畢業生	-13748
加拿大的	-13749
fu	-13750
hl	-13751
不和	-13752
公墓	-13753
分出	-13754
托夫	-13755
沿着	-13756
溶解	-13757
了一种	-13758
开发的	-13759
傳達	-13760
拍摄的	-13761
:0.0	-13762
▁sky	-13763
▁比	-13764
卡洛	-13765
原创	-13766
yer	-13767
很多人	-13768
的一所	-13769
▁mit	-13770
作法	-13771
兇手	-13772
和水	-13773
确立	-13774
跳躍	-13775
年平均	-13776
▁years	-13777
一是	-13778
之首	-13779
傳出	-13780
大甲	-13781
撤離	-13782
硬體	-13783
該處	-13784
普通話	-13785
-0.0	-13786
▁antarct	-13787
成长	-13788
液体	-13789
章程	-13790
胡安	-13791
▁系列	-13792
了不少	-13793
国家公园	-13794
▁tele	-13795
傍晚	-13796
天神	-13797
0%,	-13798
rough	-13799
charles	-13800
切割	-13801
日月	-13802
東漢	-13803
穿着	-13804
iforn	-13805
剛好	-13806
工农	-13807
師長	-13808
引致	-13809
性地	-13810
的低	-13811
輕型	-13812
roll	-13813
行政區劃	-13814
丧生	-13815
中式	-13816
時為	-13817
著手	-13818
tok	-13819
▁0(	-13820
教育的	-13821
新世界	-13822
anda	-13823
德克萨斯	-13824
▁young	-13825
停播	-13826
充足	-13827
後世	-13828
月面	-13829
票數	-13830
▁ob	-13831
本地區	-13832
特色的	-13833
mart	-13834
改設	-13835
毫不	-13836
疼痛	-13837
陸地	-13838
纪录片	-13839
imax	-13840
isode	-13841
大于	-13842
郵件	-13843
開出	-13844
▁对于	-13845
埃塞俄	-13846
arly	-13847
ường	-13848
的第一個	-13849
tu	-13850
塑造	-13851
增多	-13852
届中央	-13853
英国的	-13854
0.00%。	-13855
▁塔	-13856
▁尼	-13857
操纵	-13858
旗幟	-13859
月后	-13860
貪污	-13861
fel	-13862
jct	-13863
ski	-13864
uto	-13865
伟大的	-13866
''、''	-13867
他將	-13868
強行	-13869
指派	-13870
鲁斯	-13871
rie	-13872
кра	-13873
氣象廳	-13874
▁pict	-13875
▁д	-13876
威特	-13877
安南	-13878
東涌	-13879
礼拜	-13880
貫穿	-13881
問題的	-13882
變成了	-13883
sing	-13884
旅客列车	-13885
最佳女主角	-13886
上水	-13887
中場	-13888
内外	-13889
捷克斯	-13890
紐約市	-13891
unter	-13892
▁ア	-13893
擊落	-13894
标题	-13895
浦东	-13896
特有	-13897
行省	-13898
共青团	-13899
十九年	-13900
一号	-13901
决策	-13902
洞穴	-13903
開展	-13904
科學院	-13905
itan	-13906
▁sym	-13907
必定	-13908
素的	-13909
轉任	-13910
阿卜杜	-13911
▁分	-13912
大安	-13913
车手	-13914
ema	-13915
▁作为	-13916
阿拉斯	-13917
法制	-13918
諸多	-13919
奧斯曼	-13920
的官方	-13921
大门	-13922
德在	-13923
樂曲	-13924
esh	-13925
▁一個	-13926
女演员	-13927
',	-13928
▁随着	-13929
▁bul	-13930
▁organ	-13931
▁water	-13932
買賣	-13933
節度使	-13934
一段時間	-13935
专员	-13936
主导	-13937
俄语	-13938
区和	-13939
春季	-13940
王朱	-13941
线索	-13942
麻煩	-13943
運動場	-13944
交通大学	-13945
义务	-13946
婚礼	-13947
孤兒	-13948
已是	-13949
映像	-13950
野村	-13951
太空船	-13952
日上映	-13953
被视为	-13954
▁00)	-13955
之际	-13956
及第	-13957
寫的	-13958
豪斯	-13959
▁dev	-13960
mu	-13961
天正	-13962
太和	-13963
有其	-13964
累計	-13965
▁基	-13966
升班	-13967
國泰	-13968
情绪	-13969
星等	-13970
秋田	-13971
进军	-13972
過去的	-13973
▁bay	-13974
新娘	-13975
村莊	-13976
體操	-13977
纪念馆	-13978
密西西比	-13979
和美	-13980
外傳	-13981
導體	-13982
性感	-13983
橫跨	-13984
灵魂	-13985
还要	-13986
那不	-13987
▁dat	-13988
▁******	-13989
出走	-13990
学部	-13991
構想	-13992
贷款	-13993
char	-13994
財團法人	-13995
主體	-13996
事的	-13997
复合	-13998
天水圍	-13999
科大学	-14000
▁old	-14001
▁stage	-14002
▁凱	-14003
▁塞	-14004
关押	-14005
取名	-14006
史克	-14007
在水	-14008
平凡	-14009
研討	-14010
▁漢	-14011
-),	-14012
ili	-14013
個國家	-14014
委员会主任	-14015
个体	-14016
奪回	-14017
後為	-14018
捷克斯洛	-14019
▁wall	-14020
tl	-14021
伊達	-14022
制裁	-14023
微分	-14024
氣溫	-14025
流失	-14026
減輕	-14027
熔岩	-14028
▁为了	-14029
利桑那	-14030
新人獎	-14031
项目的	-14032
elle	-14033
▁崔	-14034
中美	-14035
模組	-14036
省委	-14037
輪椅	-14038
食性	-14039
教育局	-14040
父親的	-14041
菲爾德	-14042
▁miss	-14043
下水	-14044
两座	-14045
复活	-14046
战区	-14047
戰績	-14048
排斥	-14049
.00)	-14050
京师	-14051
其主要	-14052
支持的	-14053
發表了	-14054
iving	-14055
▁garden	-14056
▁é	-14057
▁謝	-14058
出使	-14059
將近	-14060
山坡	-14061
獲取	-14062
露天	-14063
ria	-14064
和文化	-14065
普魯士	-14066
▁ang	-14067
抗爭	-14068
撤离	-14069
收费	-14070
數次	-14071
特工	-14072
獎牌	-14073
王李	-14074
瓦斯	-14075
纳米	-14076
過渡	-14077
bal	-14078
發行了	-14079
高加索	-14080
▁oct	-14081
新城勁爆	-14082
count	-14083
句話	-14084
她與	-14085
滿貫	-14086
犯人	-14087
真菌	-14088
稍微	-14089
隔離	-14090
境内的	-14091
星期日	-14092
▁roman	-14093
仪器	-14094
伊勢	-14095
牛肉	-14096
环绕	-14097
編譯	-14098
▁導演	-14099
安全的	-14100
sony	-14101
ender	-14102
之城	-14103
西的	-14104
因為在	-14105
工業區	-14106
投入使用	-14107
勝負	-14108
天主	-14109
教派	-14110
明帝	-14111
没能	-14112
煤矿	-14113
ams	-14114
作出了	-14115
副局长	-14116
於美國	-14117
表面的	-14118
制式	-14119
功臣	-14120
所長	-14121
温带	-14122
運載	-14123
国民革命军	-14124
他把	-14125
僧人	-14126
华侨	-14127
新年	-14128
・00	-14129
曾經在	-14130
电气化	-14131
pect	-14132
▁**''	-14133
燃油	-14134
驻扎	-14135
第二期	-14136
▁space	-14137
嵌入	-14138
版中	-14139
話中	-14140
魔戒	-14141
的建筑	-14142
歷史學家	-14143
方针	-14144
的开	-14145
▁*0000《	-14146
四處	-14147
松江	-14148
陷害	-14149
▁:「	-14150
並止於	-14151
我们的	-14152
和三	-14153
天生	-14154
机枪	-14155
火炬	-14156
做出了	-14157
編號為	-14158
萬年前	-14159
斯洛伐克	-14160
佔有	-14161
及時	-14162
太大	-14163
附有	-14164
▁akb	-14165
法兰克福	-14166
▁cross	-14167
▁dance	-14168
不應	-14169
副使	-14170
明德	-14171
費城	-14172
遗迹	-14173
電源	-14174
丹尼士	-14175
年去世	-14176
▁four	-14177
▁saint	-14178
▁building	-14179
廣義	-14180
車禍	-14181
他也是	-14182
广泛的	-14183
無線電視	-14184
可夢	-14185
寒冷	-14186
恩的	-14187
監禁	-14188
組別	-14189
起诉	-14190
大使馆	-14191
壟斷	-14192
滑冰	-14193
紅軍	-14194
頻繁	-14195
香山	-14196
是他的	-14197
的特点	-14198
ogen	-14199
理工學院	-14200
oe	-14201
▁相	-14202
战败	-14203
會館	-14204
浓度	-14205
長野	-14206
開拓	-14207
wik	-14208
最小的	-14209
為一個	-14210
的限制	-14211
▁win	-14212
阿姆斯特丹	-14213
▁scient	-14214
特雷	-14215
有機會	-14216
第一座	-14217
之作	-14218
天花	-14219
脚本	-14220
藝名	-14221
迁往	-14222
心理學	-14223
游泳池	-14224
just	-14225
life	-14226
孫權	-14227
萊塢	-14228
证书	-14229
軍用	-14230
進展	-14231
东南部	-14232
香港人	-14233
商船	-14234
普罗	-14235
途徑	-14236
有些人	-14237
▁wal	-14238
主委	-14239
品的	-14240
白天	-14241
赞助	-14242
起飞	-14243
nor	-14244
oda	-14245
各自的	-14246
底特律	-14247
更容易	-14248
现代化	-14249
的事物	-14250
▁les	-14251
iffer	-14252
岛的	-14253
金的	-14254
它們的	-14255
影响力	-14256
很高的	-14257
年中華民國	-14258
喜好	-14259
干預	-14260
話題	-14261
配有	-14262
iva	-14263
保守黨	-14264
第十八	-14265
不住	-14266
去年	-14267
快乐	-14268
▁:0	-14269
东北部	-14270
中世纪	-14271
遊樂場	-14272
apple	-14273
▁cons	-14274
__	-14275
年輕人	-14276
民主派	-14277
復出	-14278
歐元	-14279
的基	-14280
テレビ	-14281
所取代	-14282
asia	-14283
▁had	-14284
则为	-14285
台风	-14286
少的	-14287
电机	-14288
訴求	-14289
象棋	-14290
年代初期	-14291
ân	-14292
中英	-14293
吉亚	-14294
就以	-14295
澤東	-14296
白堊	-14297
百老	-14298
禮儀	-14299
膨胀	-14300
转变	-14301
ober	-14302
▁格	-14303
下属	-14304
对流	-14305
捐贈	-14306
會中	-14307
里奥	-14308
馬利	-14309
立法局	-14310
上場	-14311
各州	-14312
在不	-14313
老年	-14314
阿勒	-14315
高音	-14316
成為一個	-14317
▁type	-14318
佩斯	-14319
入場	-14320
採購	-14321
維新	-14322
複合	-14323
麻省	-14324
了中国	-14325
劃分	-14326
受命	-14327
均由	-14328
桌面	-14329
航母	-14330
評為	-14331
的小型	-14332
▁obs	-14333
電視廣告	-14334
▁秦	-14335
中東	-14336
大怒	-14337
天府	-14338
得的	-14339
毒性	-14340
政府军	-14341
有名的	-14342
李登輝	-14343
▁chem	-14344
▁they	-14345
,0000,	-14346
▁control	-14347
做到	-14348
关联	-14349
字幕	-14350
终止	-14351
指定的	-14352
seud	-14353
人民出版社	-14354
不惜	-14355
槍托	-14356
说服	-14357
时间内	-14358
000。	-14359
佛羅里達	-14360
thomas	-14361
共演	-14362
教官	-14363
有大	-14364
购物	-14365
继承人	-14366
十大中文	-14367
▁你	-14368
乐器	-14369
北端	-14370
影音	-14371
教廷	-14372
秋季	-14373
若望	-14374
也不能	-14375
该物种的模式产地在	-14376
▁博	-14377
飼養	-14378
了大量	-14379
他表示	-14380
▁mult	-14381
▁google	-14382
fx	-14383
不必	-14384
宗的	-14385
官吏	-14386
是將	-14387
特在	-14388
管治	-14389
首尔	-14390
多年來	-14391
战役中	-14392
西部的	-14393
▁近	-14394
之海	-14395
撰写	-14396
暑假	-14397
狩獵	-14398
該年	-14399
佐佐木	-14400
的人生	-14401
▁mont	-14402
于第	-14403
控告	-14404
集被	-14405
的一半	-14406
約瑟夫	-14407
近年来	-14408
dren	-14409
fort	-14410
天主教徒	-14411
绝大多数	-14412
俘虏	-14413
專題	-14414
效益	-14415
见到	-14416
意识到	-14417
有两个	-14418
0.0%。	-14419
、“	-14420
唯有	-14421
正如	-14422
金球	-14423
可以指	-14424
的比例	-14425
在此之前	-14426
园区	-14427
廢棄	-14428
會與	-14429
的例子	-14430
miss	-14431
朝鲜半岛	-14432
是一所	-14433
新成立的	-14434
gp	-14435
九十	-14436
債務	-14437
发音	-14438
容纳	-14439
爪哇	-14440
有一次	-14441
第一家	-14442
並對	-14443
建構	-14444
是對	-14445
演習	-14446
盟军	-14447
bow	-14448
fun	-14449
二十五	-14450
而無法	-14451
这使得	-14452
▁chap	-14453
從來	-14454
拍賣	-14455
福島	-14456
自達	-14457
響應	-14458
omb	-14459
工学院	-14460
▁like	-14461
international	-14462
强大	-14463
處女	-14464
塞拜疆	-14465
年出任	-14466
影評人	-14467
是否有	-14468
傳聞	-14469
又译	-14470
学员	-14471
怎么	-14472
贫困	-14473
後不久	-14474
的性格	-14475
▁link	-14476
咸豐	-14477
德曼	-14478
ftware	-14479
兒島	-14480
▁tor	-14481
▁final	-14482
ня	-14483
▁心	-14484
仙人	-14485
挑選	-14486
橋本	-14487
演繹	-14488
目錄	-14489
阻礙	-14490
雷克	-14491
另一种	-14492
單曲榜	-14493
在這裡	-14494
good	-14495
機上	-14496
毁灭	-14497
海豚	-14498
解剖	-14499
在不同	-14500
年人口普查	-14501
▁00000000.	-14502
án	-14503
友情	-14504
多以	-14505
整流	-14506
模樣	-14507
歌謠	-14508
自信	-14509
貴州	-14510
重组	-14511
寶可夢	-14512
第二部	-14513
▁august	-14514
wi	-14515
無意	-14516
长城	-14517
▁lat	-14518
▁許	-14519
創業	-14520
厚度	-14521
举办的	-14522
战争的	-14523
提高了	-14524
的環境	-14525
不定	-14526
总长	-14527
政事	-14528
老大	-14529
西面	-14530
utt	-14531
宾夕法	-14532
jean	-14533
orial	-14534
family	-14535
刺殺	-14536
激進	-14537
臺幣	-14538
▁far	-14539
住院	-14540
取景	-14541
含义	-14542
存放	-14543
的聖	-14544
門的	-14545
關節	-14546
▁本作	-14547
这首歌	-14548
▁taiwan	-14549
fn	-14550
去除	-14551
及大	-14552
奖章	-14553
字体	-14554
對陣	-14555
每位	-14556
▁不過	-14557
▁includ	-14558
傳入	-14559
寫道	-14560
揭發	-14561
校址	-14562
穿上	-14563
阻擋	-14564
限于	-14565
出版物	-14566
优先	-14567
保密	-14568
雅克	-14569
它可以	-14570
毛澤東	-14571
理事會	-14572
▁mass	-14573
較小	-14574
首演	-14575
000+	-14576
▁works	-14577
區議員	-14578
理工大学	-14579
职业生涯	-14580
人体	-14581
咸丰	-14582
托尔	-14583
新浪	-14584
监管	-14585
▁sd	-14586
▁主要	-14587
▁march	-14588
下落	-14589
天安	-14590
诊断	-14591
这么	-14592
收錄在	-14593
深水埗	-14594
表現出	-14595
身上的	-14596
經紀公司	-14597
孔雀	-14598
幾年	-14599
班的	-14600
由美	-14601
sat	-14602
各類	-14603
悟空	-14604
架构	-14605
王牌	-14606
蛋糕	-14607
同位素	-14608
銷售量	-14609
維基百科	-14610
▁pass	-14611
プロ	-14612
北側	-14613
售出	-14614
會談	-14615
英吋	-14616
▁;0	-14617
▁後來	-14618
在欧洲	-14619
步兵第	-14620
之大	-14621
冷靜	-14622
名词	-14623
数值	-14624
歌词	-14625
王建	-14626
致敬	-14627
號在	-14628
車路	-14629
yan	-14630
一樣的	-14631
獲得第	-14632
四次	-14633
島津	-14634
週末	-14635
偉大的	-14636
生命的	-14637
的中央	-14638
的意見	-14639
最後一個	-14640
出血	-14641
前线	-14642
未曾	-14643
繁榮	-14644
處分	-14645
台灣省	-14646
上也	-14647
为他	-14648
候补	-14649
力士	-14650
听到	-14651
存取	-14652
川村	-14653
开辟	-14654
文武	-14655
时空	-14656
釜山	-14657
▁tro	-14658
借助	-14659
判处	-14660
城内	-14661
多芬	-14662
帶回	-14663
張國	-14664
揭幕	-14665
那时	-14666
一些人	-14667
总公司	-14668
佛罗里达州	-14669
中都	-14670
之位	-14671
他于	-14672
大為	-14673
总管	-14674
ali	-14675
ils	-14676
▁對於	-14677
古希腊	-14678
japan	-14679
乌尔	-14680
所述	-14681
時在	-14682
din	-14683
fre	-14684
年之前	-14685
故事的	-14686
白色的	-14687
但却	-14688
大仙	-14689
梅花	-14690
泡沫	-14691
王公	-14692
罷工	-14693
孩子的	-14694
▁summer	-14695
zi	-14696
▁她	-14697
放出	-14698
直辖	-14699
論述	-14700
完成後	-14701
客户端	-14702
▁foot	-14703
って	-14704
二的	-14705
光復	-14706
oke	-14707
▁son	-14708
中国国家	-14709
全国重点文物保护单位	-14710
一项	-14711
振英	-14712
施加	-14713
普選	-14714
榜首	-14715
▁moon	-14716
幸存	-14717
struction	-14718
商會	-14719
獨裁	-14720
農村	-14721
雷霆	-14722
指挥部	-14723
蔣經國	-14724
师范学校	-14725
、00:00-00:00	-14726
八強	-14727
多瓦	-14728
大勝	-14729
清軍	-14730
钓鱼	-14731
南北朝	-14732
0.0%,	-14733
幼儿	-14734
行事	-14735
執行長	-14736
中信	-14737
塑膠	-14738
增大	-14739
手臂	-14740
提拔	-14741
永和	-14742
玄武	-14743
▁hu	-14744
和一些	-14745
的说法	-14746
パー	-14747
后于	-14748
尼基	-14749
投身	-14750
致死	-14751
與李	-14752
里士	-14753
ape	-14754
ックス	-14755
▁兩	-14756
〉。	-14757
伦斯	-14758
法规	-14759
的死	-14760
蓮花	-14761
讽刺	-14762
0–0	-14763
tai	-14764
党组书记	-14765
▁sant	-14766
最佳男主角	-14767
optera	-14768
一夜	-14769
和多	-14770
郊区	-14771
每年的	-14772
ians	-14773
▁charles	-14774
武德	-14775
病情	-14776
科索	-14777
lab	-14778
嘉義市	-14779
▁hal	-14780
可以看到	-14781
常規	-14782
所致	-14783
拉圭	-14784
正教	-14785
稱讚	-14786
节奏	-14787
分布於	-14788
歲以下	-14789
毕业生	-14790
至今仍	-14791
不服	-14792
巴巴	-14793
日食	-14794
福斯	-14795
ela	-14796
最后的	-14797
二十一年	-14798
中型	-14799
在野	-14800
奖励	-14801
巴德	-14802
視野	-14803
基本的	-14804
north	-14805
▁°	-14806
偏北	-14807
創刊	-14808
往後	-14809
英美	-14810
這部	-14811
德国的	-14812
▁sat	-14813
了她	-14814
付費	-14815
围攻	-14816
日后	-14817
有史	-14818
终身	-14819
dig	-14820
▁之後	-14821
大獎賽	-14822
的一員	-14823
這張專輯	-14824
▁佐	-14825
交出	-14826
市内	-14827
机动	-14828
会议员	-14829
已經被	-14830
▁帕	-14831
ロー	-14832
動漫	-14833
安的	-14834
擴散	-14835
日语	-14836
不夠	-14837
删除	-14838
波德	-14839
是使用	-14840
anger	-14841
偏向	-14842
克洛	-14843
攔截	-14844
收容	-14845
的現象	-14846
兩地	-14847
安迪	-14848
意即	-14849
歇爾	-14850
汉朝	-14851
经由	-14852
may	-14853
主要為	-14854
的作者	-14855
file	-14856
迷你專輯	-14857
伴侶	-14858
召回	-14859
左側	-14860
馬匹	-14861
bot	-14862
感受到	-14863
有一位	-14864
から	-14865
使出	-14866
劳工	-14867
原是	-14868
工事	-14869
糖尿	-14870
近海	-14871
奠定了	-14872
甚至在	-14873
相較於	-14874
inae	-14875
▁test	-14876
pn	-14877
交代	-14878
伽利	-14879
奈奈	-14880
松井	-14881
索瓦	-14882
西门	-14883
逆轉	-14884
部族	-14885
aco	-14886
eds	-14887
city	-14888
▁cup	-14889
▁master	-14890
先知	-14891
差别	-14892
▁雪	-14893
做好	-14894
我愛	-14895
是次	-14896
河內	-14897
狮子	-14898
花了	-14899
行經	-14900
▁印度	-14901
方面军	-14902
星期五	-14903
年为	-14904
日方	-14905
经费	-14906
聚会	-14907
藏在	-14908
run	-14909
八達通	-14910
制度的	-14911
的名义	-14912
塔爾	-14913
養子	-14914
amd	-14915
▁威廉	-14916
阿波罗	-14917
倉庫	-14918
災害	-14919
突击	-14920
有不同	-14921
的表演	-14922
科学与	-14923
▁commun	-14924
學員	-14925
極大的	-14926
还没有	-14927
中校	-14928
偏食	-14929
工場	-14930
不包括	-14931
增加到	-14932
所有人	-14933
管理的	-14934
ocket	-14935
▁*(0000	-14936
了的	-14937
以大	-14938
如來	-14939
rain	-14940
特派	-14941
石灰	-14942
语法	-14943
輕鐵	-14944
在那裡	-14945
在此期间	-14946
▁fall	-14947
和黑	-14948
坂本	-14949
集團軍	-14950
▁pen	-14951
ildren	-14952
三代	-14953
千萬	-14954
救助	-14955
相邻	-14956
破產	-14957
dis	-14958
电影的	-14959
▁皮	-14960
下滑	-14961
之手	-14962
波利	-14963
中扮演	-14964
大事	-14965
文人	-14966
是很	-14967
民建	-14968
翼龍	-14969
見於	-14970
后不久	-14971
明显的	-14972
白堊紀	-14973
white	-14974
ws	-14975
▁藍	-14976
不已	-14977
史稱	-14978
城隍	-14979
比分	-14980
英镑	-14981
▁遊戲	-14982
外交官	-14983
但實際上	-14984
▁most	-14985
丹佛	-14986
封信	-14987
皇冠	-14988
标志着	-14989
重大的	-14990
青梅竹馬	-14991
。......	-14992
否则	-14993
救護	-14994
晋升	-14995
有如	-14996
相等	-14997
艾伦	-14998
艾美	-14999
台南市	-15000
交會	-15001
時所	-15002
被打	-15003
離去	-15004
驻地	-15005
年轻的	-15006
政府和	-15007
教科文	-15008
龐大的	-15009
一番	-15010
櫻井	-15011
火灾	-15012
起始	-15013
}-(	-15014
为一个	-15015
ifornia	-15016
一小	-15017
審議	-15018
未經	-15019
河水	-15020
石田	-15021
設在	-15022
的元素	-15023
yg	-15024
了新	-15025
家用	-15026
師的	-15027
業主	-15028
自由黨	-15029
itary	-15030
▁person	-15031
)、0	-15032
以避免	-15033
利比亚	-15034
活动的	-15035
▁article	-15036
察覺	-15037
巴馬	-15038
民的	-15039
重心	-15040
陆地	-15041
jim	-15042
乾隆帝	-15043
第五次	-15044
▁album	-15045
外貌	-15046
忘記	-15047
換取	-15048
活力	-15049
相處	-15050
被害	-15051
過關	-15052
違法	-15053
阿基	-15054
▁british	-15055
三级	-15056
山中	-15057
座的	-15058
投奔	-15059
改组	-15060
約會	-15061
蒂娜	-15062
德國的	-15063
的小說	-15064
聯賽盃	-15065
職業生涯	-15066
偷偷	-15067
师团	-15068
彈劾	-15069
月光	-15070
确实	-15071
hor	-15072
▁central	-15073
华南	-15074
獲頒	-15075
评选	-15076
但最終	-15077
的標準	-15078
江戶時代	-15079
一把	-15080
排水	-15081
曲線	-15082
渲染	-15083
耳朵	-15084
▁county	-15085
lc	-15086
耕地	-15087
諸侯	-15088
▁国际	-15089
副市长	-15090
▁000000.	-15091
光度	-15092
南开	-15093
承擔	-15094
槍機	-15095
碳酸	-15096
苏里	-15097
裝上	-15098
鎮守	-15099
条件下	-15100
直轄市	-15101
兩座	-15102
六甲	-15103
后因	-15104
想起	-15105
攻略	-15106
核准	-15107
齋藤	-15108
事件後	-15109
odon	-15110
最古老的	-15111
其顿	-15112
占有	-15113
維吉	-15114
而使	-15115
風力	-15116
的原始	-15117
平方千米	-15118
▁corpor	-15119
南側	-15120
好评	-15121
當場	-15122
難度	-15123
魔神	-15124
)」,	-15125
好莱坞	-15126
戰爭的	-15127
ress	-15128
▁train	-15129
how	-15130
內部的	-15131
active	-15132
十大中文金曲	-15133
▁*0000-0000	-15134
學業	-15135
德和	-15136
開創	-15137
首屆	-15138
sta	-15139
張學友	-15140
ript	-15141
▁wind	-15142
:0,000	-15143
亞的	-15144
强迫	-15145
泰坦	-15146
清潔	-15147
澀谷	-15148
维希	-15149
迪亚	-15150
三省	-15151
右側	-15152
塔拉	-15153
并对	-15154
影業	-15155
日记	-15156
武漢	-15157
番台	-15158
舉動	-15159
广播公司	-15160
心情	-15161
歧视	-15162
鐵綫	-15163
將此	-15164
进展	-15165
達斯	-15166
阿卡	-15167
fan	-15168
尼西亞	-15169
代價	-15170
永乐	-15171
諾夫	-15172
赔偿	-15173
靈頓	-15174
为什么	-15175
复杂的	-15176
王國的	-15177
部部長	-15178
▁education	-15179
天後	-15180
浮雕	-15181
處死	-15182
▁ow	-15183
第十五	-15184
通常會	-15185
金像獎	-15186
oman	-15187
▁土	-15188
和式	-15189
明天	-15190
斯德哥	-15191
▁card	-15192
不下	-15193
化物	-15194
卻因	-15195
大洋	-15196
打印	-15197
文法	-15198
是全	-15199
特爾	-15200
一行人	-15201
机器人	-15202
(0.00	-15203
阿尔巴尼亚	-15204
master	-15205
▁內	-15206
偏南	-15207
海關	-15208
被毁	-15209
zen	-15210
召集人	-15211
激烈的	-15212
ンド	-15213
军舰	-15214
勇氣	-15215
帶動	-15216
意图	-15217
拉格	-15218
极其	-15219
業界	-15220
网球	-15221
辞去	-15222
iee	-15223
包括有	-15224
的國際	-15225
超新星	-15226
廣播電台	-15227
▁·	-15228
国土	-15229
慈禧	-15230
指标	-15231
無力	-15232
社团	-15233
這也	-15234
限量	-15235
▁mathemat	-15236
**	-15237
预言	-15238
反映了	-15239
在巴黎	-15240
弗拉基	-15241
生活中	-15242
肯塔基州	-15243
▁place	-15244
「0	-15245
嘉庆	-15246
比安	-15247
燈光	-15248
線性	-15249
路径	-15250
在这一	-15251
氧化物	-15252
面積約	-15253
音樂錄影帶	-15254
办学	-15255
喀什	-15256
园林	-15257
布羅	-15258
月由	-15259
李光	-15260
詩歌	-15261
赋予	-15262
远征	-15263
鑰匙	-15264
马萨	-15265
set	-15266
就已经	-15267
总人口	-15268
是來自	-15269
▁process	-15270
一球	-15271
度量	-15272
徵收	-15273
西汉	-15274
dem	-15275
的做法	-15276
總決賽	-15277
文集	-15278
突襲	-15279
分組賽	-15280
大城市	-15281
中小	-15282
便可	-15283
山崎	-15284
戒指	-15285
日時	-15286
純粹	-15287
▁這個	-15288
西西里	-15289
host	-15290
リア	-15291
不高	-15292
发育	-15293
巴利	-15294
战俘	-15295
支撑	-15296
梅尔	-15297
科特	-15298
让人	-15299
連勝	-15300
▁本魚	-15301
与中国	-15302
足球队	-15303
超級聯賽	-15304
▁銀	-15305
場面	-15306
革新	-15307
黃昏	-15308
帮助下	-15309
玛丽亚	-15310
的狀況	-15311
第二輪	-15312
aman	-15313
html	-15314
名次	-15315
向下	-15316
城南	-15317
壓制	-15318
套件	-15319
局势	-15320
本季	-15321
「00	-15322
最近的	-15323
▁code	-15324
▁study	-15325
》0	-15326
亞種	-15327
将他	-15328
杀人	-15329
河川	-15330
車款	-15331
和香港	-15332
雖然在	-15333
▁point	-15334
,000,000	-15335
▁火	-15336
交战	-15337
但它	-15338
慢性	-15339
深深	-15340
而去	-15341
配件	-15342
青森	-15343
的經濟	-15344
賽冠軍	-15345
uture	-15346
冷卻	-15347
大英	-15348
始皇	-15349
神像	-15350
重創	-15351
ske	-15352
的意義	-15353
omet	-15354
琼斯	-15355
雙層	-15356
也有人	-15357
每平方公里	-15358
▁friend	-15359
學金	-15360
收復	-15361
胸部	-15362
aro	-15363
追溯至	-15364
通常在	-15365
alan	-15366
mill	-15367
▁千	-15368
夜间	-15369
新潟	-15370
普斯	-15371
溫和	-15372
童話	-15373
诺斯	-15374
趋势	-15375
結盟	-15376
終點站	-15377
bang	-15378
卑斯	-15379
婆婆	-15380
检验	-15381
紡織	-15382
cop	-15383
▁*;	-15384
▁约翰	-15385
政策的	-15386
第十六	-15387
〜(	-15388
四百	-15389
层次	-15390
更快	-15391
年年底	-15392
法蘭西	-15393
▁head	-15394
反复	-15395
埋葬	-15396
大佐	-15397
愤怒	-15398
最長	-15399
林彪	-15400
版权	-15401
王妃	-15402
精密	-15403
发行了	-15404
在全国	-15405
利奥	-15406
商圈	-15407
稻田	-15408
選票	-15409
atp	-15410
igo	-15411
▁),	-15412
性行為	-15413
战斗中	-15414
flag	-15415
電視公司	-15416
海軍陸戰隊	-15417
中级人民法院	-15418
▁香	-15419
之死	-15420
南极	-15421
豐富的	-15422
);0.	-15423
▁standard	-15424
世祖	-15425
包裹	-15426
在同	-15427
曾以	-15428
樹木	-15429
滋病	-15430
葵涌	-15431
的哥哥	-15432
ivil	-15433
▁韓	-15434
南山	-15435
转入	-15436
日推出	-15437
▁non	-15438
上課	-15439
務局	-15440
塔利	-15441
外出	-15442
或許	-15443
神宗	-15444
该寺	-15445
飞船	-15446
他自己	-15447
普通的	-15448
羅斯福	-15449
イト	-15450
小於	-15451
戶外	-15452
百度	-15453
年十二月	-15454
上被	-15455
吉姆	-15456
多重	-15457
是與	-15458
雨量	-15459
是臺灣	-15460
由日本	-15461
高速铁路	-15462
ulation	-15463
他有	-15464
党校	-15465
奕迅	-15466
學部	-15467
山站	-15468
昆士	-15469
给出	-15470
譯本	-15471
间谍	-15472
▁音響	-15473
elli	-15474
▁council	-15475
三條	-15476
交替	-15477
建交	-15478
红旗	-15479
长大	-15480
目前已	-15481
稳定的	-15482
▁well	-15483
南美	-15484
可由	-15485
多爾	-15486
引导	-15487
斯通	-15488
菩提	-15489
補償	-15490
足联	-15491
追殺	-15492
選中	-15493
主要在	-15494
美國國家	-15495
体验	-15496
前一	-15497
大明	-15498
大清	-15499
忠孝	-15500
时尚	-15501
樣本	-15502
ote	-15503
不一定	-15504
了自己	-15505
的著作	-15506
捷克斯洛伐克	-15507
oy	-15508
光線	-15509
嶺南	-15510
巴登	-15511
超出	-15512
轉動	-15513
參謀長	-15514
織田信長	-15515
逃离	-15516
cla	-15517
▁:《	-15518
加斯加	-15519
國家盃	-15520
安德森	-15521
〉(	-15522
人中	-15523
制成	-15524
正义	-15525
起降	-15526
齿轮	-15527
太陽的	-15528
女學生	-15529
路易斯安那	-15530
三分	-15531
伯里	-15532
關懷	-15533
acy	-15534
系统中	-15535
;《	-15536
恐慌	-15537
所殺	-15538
显然	-15539
面體	-15540
黨籍	-15541
▁國	-15542
反共	-15543
懂得	-15544
护卫	-15545
田径	-15546
雙手	-15547
浏览器	-15548
鹿兒島	-15549
車頭	-15550
)、(	-15551
紅外線	-15552
而來的	-15553
▁宮	-15554
他任	-15555
恆星的	-15556
▁00000,	-15557
▁飛	-15558
的內	-15559
石化	-15560
萊斯	-15561
哲學家	-15562
新竹縣	-15563
的合作	-15564
苗栗縣	-15565
音樂家	-15566
bour	-15567
▁att	-15568
有限责任	-15569
ature	-15570
▁earth	-15571
兩度	-15572
摄政	-15573
每人	-15574
求婚	-15575
该片	-15576
陽明	-15577
其中以	-15578
博覽會	-15579
升高	-15580
天体	-15581
灭绝	-15582
的真	-15583
破解	-15584
▁國立	-15585
南投縣	-15586
大型的	-15587
年代起	-15588
▁bon	-15589
上層	-15590
介於	-15591
仙女	-15592
大本	-15593
後藤	-15594
掩護	-15595
語文	-15596
umi	-15597
為什麼	-15598
第四季	-15599
aris	-15600
краї	-15601
中國人民	-15602
battle	-15603
0000.00	-15604
▁森	-15605
▁瓦	-15606
人馬	-15607
報名	-15608
年入	-15609
石刻	-15610
uen	-15611
在同年	-15612
上层	-15613
交汇	-15614
匹配	-15615
巴林	-15616
廣大	-15617
选举中	-15618
開始了	-15619
ween	-15620
)、0000	-15621
中共中央政治局	-15622
一职	-15623
事項	-15624
基的	-15625
棕色	-15626
鞏固	-15627
vey	-15628
地方的	-15629
acter	-15630
)—	-15631
均衡	-15632
大島	-15633
演變	-15634
組件	-15635
ynam	-15636
istry	-15637
行驶	-15638
「」,	-15639
才得以	-15640
需要在	-15641
kb	-15642
バー	-15643
拓扑	-15644
更被	-15645
現址	-15646
術語	-15647
诺伊	-15648
代表團	-15649
戰役中	-15650
留下了	-15651
領導的	-15652
值得一提	-15653
craft	-15654
urity	-15655
二者	-15656
北角	-15657
嚴厲	-15658
室的	-15659
師傅	-15660
插畫	-15661
直隸	-15662
網際	-15663
bet	-15664
cry	-15665
年建成	-15666
的计划	-15667
的支持者	-15668
▁exper	-15669
坑底	-15670
官邸	-15671
情歌	-15672
副院长	-15673
職人員	-15674
至少有	-15675
賽馬會	-15676
▁nac	-15677
代表大會	-15678
▁霍	-15679
制品	-15680
參戰	-15681
希拉	-15682
庇護	-15683
戶部	-15684
起点	-15685
卡斯特	-15686
年擔任	-15687
ists	-15688
▁tok	-15689
专科学校	-15690
在各	-15691
旁邊	-15692
神明	-15693
管家	-15694
最新的	-15695
最重要	-15696
父親是	-15697
的任務	-15698
及时	-15699
场合	-15700
墜毀	-15701
外借	-15702
环保	-15703
▁#"	-15704
▁kh	-15705
基隆市	-15706
的區域	-15707
orig	-15708
▁front	-15709
下跌	-15710
中全	-15711
二层	-15712
再以	-15713
家裡	-15714
小于	-15715
後衛	-15716
拋棄	-15717
漢堡	-15718
的李	-15719
短缺	-15720
砲兵	-15721
簽名	-15722
米尼	-15723
號召	-15724
该剧	-15725
風速	-15726
▁到了	-15727
▁當時	-15728
動物園	-15729
大学教授	-15730
▁ball	-15731
▁朴	-15732
不上	-15733
亞運	-15734
學界	-15735
戰線	-15736
接連	-15737
调用	-15738
特有的	-15739
离开了	-15740
该组织	-15741
reek	-15742
▁collapse	-15743
中位	-15744
北越	-15745
口径	-15746
在台	-15747
她也	-15748
老挝	-15749
阴谋	-15750
宜蘭縣	-15751
▁rain	-15752
▁categ	-15753
乙烯	-15754
圍攻	-15755
塑像	-15756
安理	-15757
後面	-15758
拜訪	-15759
晚會	-15760
海濱	-15761
漢文	-15762
罹患	-15763
順治	-15764
列克	-15765
弹药	-15766
录像	-15767
急救	-15768
的内	-15769
荔枝	-15770
麥當	-15771
建立起	-15772
class	-15773
是新	-15774
武林	-15775
減低	-15776
納斯	-15777
长征	-15778
ori	-15779
wal	-15780
日出生	-15781
的地理	-15782
ieee	-15783
三子	-15784
停办	-15785
兄妹	-15786
继位	-15787
行者	-15788
一連串	-15789
梁振英	-15790
便在	-15791
前提	-15792
啟發	-15793
戴著	-15794
树木	-15795
環食	-15796
有不同的	-15797
拳擊	-15798
支柱	-15799
編成	-15800
lov	-15801
sin	-15802
gold	-15803
为由	-15804
书写	-15805
原生	-15806
完颜	-15807
站名	-15808
米拉	-15809
诺曼	-15810
文學獎	-15811
fect	-15812
mary	-15813
action	-15814
▁sports	-15815
两台	-15816
橡胶	-15817
贊成	-15818
重回	-15819
usa	-15820
中山路	-15821
有一段	-15822
閩南語	-15823
三分之一	-15824
::	-15825
再由	-15826
加热	-15827
可怕	-15828
类别	-15829
▁月球	-15830
年電影	-15831
机务段	-15832
歐美	-15833
焊接	-15834
爭執	-15835
新竹市	-15836
第十七	-15837
成員之一	-15838
空調巴士	-15839
(000)	-15840
▁century	-15841
孩童	-15842
弗莱	-15843
手枪	-15844
為例	-15845
制造商	-15846
外星人	-15847
總教練	-15848
格拉斯哥	-15849
军事委员会	-15850
estern	-15851
和李	-15852
嘉定	-15853
會場	-15854
橄榄	-15855
都由	-15856
▁lov	-15857
株式会社	-15858
color	-15859
▁bridge	-15860
均被	-15861
崇禎	-15862
格莱	-15863
英法	-15864
補習	-15865
連者	-15866
遣使	-15867
反坦克	-15868
民營化	-15869
當中的	-15870
董事会	-15871
社会科学	-15872
==	-15873
好好	-15874
廉政	-15875
是於	-15876
會所	-15877
梅爾	-15878
长约	-15879
面貌	-15880
的宗教	-15881
漏洞	-15882
狹窄	-15883
缺點	-15884
邊形	-15885
靜岡	-15886
麒麟	-15887
為目標	-15888
▁西班牙	-15889
最主要的	-15890
音乐学院	-15891
克里斯蒂安	-15892
▁evolution	-15893
結識	-15894
航道	-15895
雪山	-15896
優良	-15897
勳爵	-15898
哈密	-15899
急性	-15900
支线	-15901
矮星	-15902
花费	-15903
遷移	-15904
阳光	-15905
二十四年	-15906
▁market	-15907
三家	-15908
合力	-15909
固体	-15910
实体	-15911
峽谷	-15912
巴格	-15913
极大	-15914
處決	-15915
讚賞	-15916
重用	-15917
阿瑟	-15918
''-	-15919
而受到	-15920
▁sem	-15921
国共内战	-15922
▁::::	-15923
升上	-15924
嘉宾	-15925
城门	-15926
武將	-15927
是一些	-15928
▁台	-15929
▁沈	-15930
史提	-15931
推测	-15932
法輪	-15933
漂亮	-15934
熊本	-15935
留言	-15936
而以	-15937
近的	-15938
等地的	-15939
英文名	-15940
还可以	-15941
weet	-15942
▁production	-15943
开除	-15944
雙重	-15945
霰彈	-15946
铸币局	-15947
ée	-15948
一組	-15949
五名	-15950
八一	-15951
君子	-15952
帶走	-15953
相接	-15954
英宗	-15955
萬名	-15956
輪流	-15957
丹尼爾	-15958
这就是	-15959
unix	-15960
(、	-15961
之日	-15962
刚果	-15963
剥夺	-15964
口號	-15965
多斯	-15966
著重	-15967
kan	-15968
革命党	-15969
▁中华人民共和国	-15970
乘車	-15971
人性	-15972
倖存	-15973
兴起	-15974
半径	-15975
特斯	-15976
美容	-15977
送回	-15978
配偶	-15979
银河	-15980
▁000000	-15981
▁藤	-15982
付出	-15983
取材	-15984
吉思	-15985
執照	-15986
我要	-15987
节日	-15988
rac	-15989
ites	-15990
▁age	-15991
繁忙時間	-15992
晉身	-15993
海戰	-15994
表情	-15995
諾曼	-15996
故事中	-15997
發表的	-15998
被併入	-15999
内蒙古自治区	-16000
university	-16001
可被	-16002
布罗	-16003
打扮	-16004
時有	-16005
玻利	-16006
莎士	-16007
西村	-16008
自衛隊	-16009
都會區	-16010
vict	-16011
ische	-16012
キャ	-16013
以求	-16014
华中	-16015
塞拉	-16016
当作	-16017
樂章	-16018
萬里	-16019
西岸	-16020
该书	-16021
或以上	-16022
所谓的	-16023
人大代表	-16024
當中包括	-16025
日本氣象廳	-16026
八世	-16027
南宁	-16028
年僅	-16029
沃克	-16030
船員	-16031
远东	-16032
元素的	-16033
▁今	-16034
▁市	-16035
女郎	-16036
损害	-16037
比克	-16038
自小	-16039
补给	-16040
高铁	-16041
贵州省	-16042
▁bat	-16043
▁sho	-16044
ctions	-16045
▁украї	-16046
▁government	-16047
▁曹	-16048
信件	-16049
变形	-16050
山姆	-16051
穿梭	-16052
累计	-16053
長久	-16054
石家庄	-16055
騎士團	-16056
七個	-16057
大典	-16058
常住	-16059
开启	-16060
滿意	-16061
重疊	-16062
雷諾	-16063
▁儘管	-16064
居住的	-16065
的程度	-16066
成为一个	-16067
乘搭	-16068
平反	-16069
arc	-16070
罗斯福	-16071
▁kar	-16072
▁say	-16073
▁如	-16074
动员	-16075
厭惡	-16076
吉拉	-16077
同胞	-16078
塗裝	-16079
而將	-16080
是通过	-16081
年世界杯	-16082
文化遗产	-16083
不當	-16084
希德	-16085
救了	-16086
菩萨	-16087
蔓延	-16088
jun	-16089
▁位于	-16090
中唯一	-16091
參議員	-16092
只能在	-16093
有時會	-16094
的節目	-16095
離開了	-16096
lant	-16097
▁川	-16098
一点	-16099
奇妙	-16100
奇異	-16101
标识	-16102
汗国	-16103
编曲	-16104
ental	-16105
ittee	-16106
貨車	-16107
队在	-16108
▁英国	-16109
中國人	-16110
real	-16111
▁level	-16112
rt	-16113
病例	-16114
電玩	-16115
iko	-16116
的身分	-16117
▁explor	-16118
名額	-16119
的建議	-16120
这一点	-16121
副司令员	-16122
玩家可以	-16123
▁main	-16124
▁吴	-16125
丧失	-16126
營造	-16127
與之	-16128
必須要	-16129
的游戏	-16130
▁francis	-16131
取决	-16132
多摩	-16133
宮廷	-16134
总结	-16135
特技	-16136
硝酸	-16137
罕见	-16138
英屬	-16139
pap	-16140
▁台北	-16141
正確的	-16142
的球員	-16143
看起来	-16144
马其顿	-16145
森林公园	-16146
×0	-16147
溫暖	-16148
等候	-16149
談話	-16150
有一種	-16151
的傳統	-16152
德川家康	-16153
//	-16154
情侶	-16155
捲入	-16156
文昌	-16157
海因	-16158
但没有	-16159
根据地	-16160
▁bell	-16161
一只	-16162
导体	-16163
此曲	-16164
港督	-16165
看见	-16166
线上	-16167
车道	-16168
发言人	-16169
同樣的	-16170
应用于	-16171
的自然	-16172
金字塔	-16173
rent	-16174
▁plant	-16175
孫女	-16176
握把	-16177
迷宮	-16178
pot	-16179
urt	-16180
好萊塢	-16181
馬自達	-16182
克特	-16183
出手	-16184
寂寞	-16185
熱愛	-16186
人受傷	-16187
曾擔任	-16188
市委书记	-16189
上都	-16190
切斷	-16191
壓倒	-16192
就业	-16193
并无	-16194
方針	-16195
煙花	-16196
盛典	-16197
落地	-16198
▁hk	-16199
00000000	-16200
ashington	-16201
ictionary	-16202
受体	-16203
對上	-16204
王者	-16205
uma	-16206
的手段	-16207
▁three	-16208
▁battle	-16209
さん	-16210
池袋	-16211
馬祖	-16212
}-。	-16213
中提到	-16214
泰晤士	-16215
aver	-16216
▁our	-16217
▁†	-16218
前列	-16219
域名	-16220
工资	-16221
急速	-16222
总会	-16223
陪伴	-16224
骨頭	-16225
委员长	-16226
的生命	-16227
最后一个	-16228
grand	-16229
▁call	-16230
西藏自治区	-16231
住宿	-16232
敵對	-16233
文史	-16234
機率	-16235
這條	-16236
古斯特	-16237
那不勒斯	-16238
下車	-16239
侯爵	-16240
剧团	-16241
引人	-16242
由紀	-16243
解體	-16244
link	-16245
太尉	-16246
日内	-16247
雷特	-16248
tar	-16249
的过程	-16250
之門	-16251
玩笑	-16252
約在	-16253
认同	-16254
開槍	-16255
高壓	-16256
後成為	-16257
的原型	-16258
被淘汰	-16259
▁software	-16260
▁于	-16261
之乱	-16262
那時	-16263
都尉	-16264
的生物	-16265
贏得了	-16266
0-0,	-16267
▁box	-16268
acific	-16269
▁order	-16270
托爾	-16271
显得	-16272
水力	-16273
进化	-16274
》),	-16275
创造了	-16276
带来了	-16277
法國的	-16278
スタ	-16279
中天	-16280
人質	-16281
实业	-16282
廚房	-16283
無雙	-16284
的木	-16285
罢工	-16286
該片	-16287
降级	-16288
黨魁	-16289
icy	-16290
的一條	-16291
的武器	-16292
▁set	-16293
▁soul	-16294
ographic	-16295
唐人	-16296
常侍	-16297
年青	-16298
木齐	-16299
特點	-16300
神之	-16301
途经	-16302
鄰居	-16303
黨部	-16304
個人的	-16305
▁anth	-16306
lv	-16307
建康	-16308
強力	-16309
總局	-16310
茉莉	-16311
走到	-16312
还会	-16313
金城	-16314
hes	-16315
hip	-16316
未成年	-16317
而代之	-16318
領事館	-16319
客运专线	-16320
努尔	-16321
很小	-16322
无关	-16323
月上	-16324
紅白	-16325
终结	-16326
艦長	-16327
二十八	-16328
feat	-16329
有限责任公司	-16330
ла	-16331
▁柳	-16332
天上	-16333
渠道	-16334
舆论	-16335
成立後	-16336
twitter	-16337
党派	-16338
和歌	-16339
對她	-16340
德羅	-16341
斷層	-16342
楚国	-16343
水位	-16344
粉碎	-16345
糟糕	-16346
軍中	-16347
二十廳	-16348
蒙特利	-16349
该地区	-16350
处罚	-16351
居留	-16352
布袋	-16353
瑞斯	-16354
mem	-16355
text	-16356
魔法少女	-16357
▁inde	-16358
▁side	-16359
偵查	-16360
吉士	-16361
在与	-16362
塞琉	-16363
實在	-16364
時至	-16365
橙色	-16366
的长	-16367
艾米	-16368
化学家	-16369
在當地	-16370
延長至	-16371
的主人	-16372
互动	-16373
全名	-16374
多有	-16375
會於	-16376
歲月	-16377
飛往	-16378
伯明翰	-16379
的交通	-16380
的同名	-16381
left	-16382
风景名胜	-16383
北投	-16384
航程	-16385
鯉魚	-16386
0%。	-16387
〉,《	-16388
伯斯	-16389
当晚	-16390
甘肅	-16391
蒙哥	-16392
高压	-16393
埃里克	-16394
作画	-16395
子弹	-16396
本質	-16397
番茄	-16398
石的	-16399
运载	-16400
在法国	-16401
年落成	-16402
警務處	-16403
起源于	-16404
體長可達	-16405
川市	-16406
街上	-16407
安達	-16408
现已	-16409
相容	-16410
防火	-16411
初登場	-16412
十二碼	-16413
▁00/00-00/00	-16414
元和	-16415
尼德	-16416
朝向	-16417
東華	-16418
遷入	-16419
經營的	-16420
考虑到	-16421
チャ	-16422
基爾	-16423
微波	-16424
普羅	-16425
暗戀	-16426
架空	-16427
禁令	-16428
飛馬	-16429
天然气	-16430
ор	-16431
動機	-16432
百人	-16433
站和	-16434
精品	-16435
成为中国	-16436
▁hard	-16437
▁walk	-16438
在全	-16439
夏侯	-16440
奥利	-16441
并为	-16442
改装	-16443
負於	-16444
lee	-16445
《》(	-16446
分別於	-16447
就讀於	-16448
紀念館	-16449
乌鲁木齐	-16450
地被	-16451
新民	-16452
沟通	-16453
為首	-16454
詞曲	-16455
只需要	-16456
愛麗絲	-16457
日清晨	-16458
月开始	-16459
电子游戏	-16460
▁meth	-16461
▁width	-16462
▁support	-16463
後裔	-16464
数目	-16465
西至	-16466
辽东	-16467
逃脫	-16468
▁tak	-16469
▁加拿大	-16470
的主題曲	-16471
▁track	-16472
▁0000/00/00	-16473
一书	-16474
政局	-16475
0	-16476
▁	-16477
,	-16478
的	-16479
。	-16480
e	-16481
a	-16482
i	-16483
*	-16484
年	-16485
n	-16486
、	-16487
o	-16488
r	-16489
t	-16490
)	-16491
(	-16492
s	-16493
在	-16494
一	-16495
l	-16496
中	-16497
:	-16498
c	-16499
是	-16500
人	-16501
大	-16502
h	-16503
d	-16504
有	-16505
m	-16506
-	-16507
'	-16508
u	-16509
月	-16510
日	-16511
和	-16512
為	-16513
p	-16514
g	-16515
以	-16516
.	-16517
了	-16518
不	-16519
成	-16520
b	-16521
國	-16522
上	-16523
国	-16524
出	-16525
之	-16526
》	-16527
《	-16528
地	-16529
他	-16530
f	-16531
行	-16532
作	-16533
於	-16534
为	-16535
第	-16536
部	-16537
生	-16538
公	-16539
主	-16540
斯	-16541
y	-16542
到	-16543
後	-16544
而	-16545
用	-16546
時	-16547
其	-16548
」	-16549
「	-16550
分	-16551
名	-16552
家	-16553
k	-16554
被	-16555
會	-16556
及	-16557
子	-16558
本	-16559
·	-16560
法	-16561
v	-16562
民	-16563
同	-16564
自	-16565
方	-16566
由	-16567
;	-16568
與	-16569
西	-16570
下	-16571
學	-16572
最	-16573
文	-16574
新	-16575
多	-16576
w	-16577
学	-16578
可	-16579
高	-16580
于	-16581
政	-16582
所	-16583
特	-16584
前	-16585
任	-16586
因	-16587
也	-16588
南	-16589
美	-16590
三	-16591
加	-16592
北	-16593
市	-16594
位	-16595
能	-16596
道	-16597
后	-16598
得	-16599
代	-16600
此	-16601
“	-16602
事	-16603
”	-16604
小	-16605
個	-16606
要	-16607
德	-16608
等	-16609
海	-16610
發	-16611
利	-16612
立	-16613
台	-16614
克	-16615
路	-16616
天	-16617
理	-16618
入	-16619
但	-16620
合	-16621
二	-16622
至	-16623
世	-16624
教	-16625
建	-16626
外	-16627
山	-16628
使	-16629
个	-16630
者	-16631
工	-16632
定	-16633
力	-16634
时	-16635
物	-16636
会	-16637
次	-16638
全	-16639
期	-16640
里	-16641
面	-16642
度	-16643
來	-16644
通	-16645
十	-16646
化	-16647
重	-16648
表	-16649
並	-16650
王	-16651
原	-16652
球	-16653
軍	-16654
都	-16655
對	-16656
拉	-16657
長	-16658
式	-16659
動	-16660
士	-16661
性	-16662
平	-16663
院	-16664
金	-16665
安	-16666
相	-16667
演	-16668
電	-16669
開	-16670
正	-16671
女	-16672
明	-16673
j	-16674
发	-16675
尔	-16676
司	-16677
共	-16678
這	-16679
區	-16680
系	-16681
英	-16682
军	-16683
員	-16684
基	-16685
比	-16686
科	-16687
心	-16688
戰	-16689
制	-16690
影	-16691
这	-16692
港	-16693
州	-16694
起	-16695
如	-16696
機	-16697
城	-16698
手	-16699
當	-16700
現	-16701
元	-16702
水	-16703
格	-16704
過	-16705
四	-16706
站	-16707
与	-16708
z	-16709
或	-16710
提	-16711
就	-16712
場	-16713
車	-16714
改	-16715
間	-16716
東	-16717
經	-16718
常	-16719
#	-16720
然	-16721
目	-16722
音	-16723
长	-16724
集	-16725
区	-16726
x	-16727
对	-16728
向	-16729
/	-16730
將	-16731
府	-16732
量	-16733
爾	-16734
首	-16735
布	-16736
治	-16737
林	-16738
曲	-16739
進	-16740
型	-16741
接	-16742
色	-16743
来	-16744
界	-16745
巴	-16746
受	-16747
意	-16748
列	-16749
并	-16750
體	-16751
社	-16752
香	-16753
內	-16754
尼	-16755
星	-16756
程	-16757
阿	-16758
身	-16759
开	-16760
交	-16761
隊	-16762
始	-16763
線	-16764
空	-16765
亞	-16766
保	-16767
賽	-16768
校	-16769
直	-16770
口	-16771
委	-16772
太	-16773
已	-16774
米	-16775
动	-16776
机	-16777
神	-16778
業	-16779
著	-16780
形	-16781
回	-16782
些	-16783
史	-16784
包	-16785
东	-16786
馬	-16787
更	-16788
版	-16789
曾	-16790
指	-16791
灣	-16792
品	-16793
情	-16794
稱	-16795
持	-16796
設	-16797
兩	-16798
五	-16799
展	-16800
流	-16801
员	-16802
少	-16803
光	-16804
经	-16805
过	-16806
内	-16807
管	-16808
號	-16809
进	-16810
电	-16811
—	-16812
卡	-16813
反	-16814
信	-16815
造	-16816
數	-16817
京	-16818
各	-16819
樂	-16820
省	-16821
命	-16822
取	-16823
车	-16824
只	-16825
亚	-16826
無	-16827
古	-16828
華	-16829
局	-16830
視	-16831
字	-16832
關	-16833
间	-16834
官	-16835
歌	-16836
现	-16837
将	-16838
選	-16839
活	-16840
石	-16841
战	-16842
武	-16843
種	-16844
田	-16845
件	-16846
角	-16847
示	-16848
器	-16849
總	-16850
夫	-16851
研	-16852
解	-16853
聯	-16854
支	-16855
片	-16856
運	-16857
她	-16858
"	-16859
河	-16860
李	-16861
計	-16862
放	-16863
江	-16864
村	-16865
非	-16866
達	-16867
体	-16868
組	-16869
族	-16870
近	-16871
統	-16872
业	-16873
商	-16874
們	-16875
先	-16876
去	-16877
朝	-16878
收	-16879
白	-16880
則	-16881
马	-16882
清	-16883
当	-16884
約	-16885
即	-16886
往	-16887
再	-16888
洲	-16889
知	-16890
又	-16891
羅	-16892
数	-16893
實	-16894
我	-16895
波	-16896
兵	-16897
果	-16898
称	-16899
務	-16900
队	-16901
它	-16902
打	-16903
語	-16904
且	-16905
未	-16906
初	-16907
究	-16908
死	-16909
從	-16910
好	-16911
设	-16912
說	-16913
完	-16914
團	-16915
联	-16916
門	-16917
罗	-16918
很	-16919
福	-16920
服	-16921
种	-16922
結	-16923
普	-16924
議	-16925
令	-16926
伊	-16927
帝	-16928
每	-16929
己	-16930
花	-16931
两	-16932
派	-16933
蘭	-16934
引	-16935
義	-16936
播	-16937
段	-16938
六	-16939
速	-16940
场	-16941
言	-16942
該	-16943
龍	-16944
超	-16945
傳	-16946
括	-16947
们	-16948
总	-16949
書	-16950
亦	-16951
统	-16952
擊	-16953
客	-16954
除	-16955
从	-16956
威	-16957
功	-16958
育	-16959
八	-16960
今	-16961
产	-16962
号	-16963
达	-16964
產	-16965
组	-16966
愛	-16967
修	-16968
宗	-16969
劇	-16970
師	-16971
根	-16972
周	-16973
認	-16974
張	-16975
真	-16976
助	-16977
火	-16978
導	-16979
參	-16980
技	-16981
臺	-16982
希	-16983
座	-16984
攻	-16985
书	-16986
單	-16987
土	-16988
季	-16989
變	-16990
存	-16991
关	-16992
案	-16993
线	-16994
居	-16995
华	-16996
畫	-16997
縣	-16998
置	-16999
投	-17000
處	-17001
求	-17002
島	-17003
运	-17004
另	-17005
青	-17006
具	-17007
推	-17008
计	-17009
廣	-17010
頭	-17011
失	-17012
故	-17013
別	-17014
九	-17015
航	-17016
该	-17017
製	-17018
類	-17019
風	-17020
吉	-17021
赛	-17022
獲	-17023
資	-17024
班	-17025
宣	-17026
級	-17027
足	-17028
男	-17029
百	-17030
那	-17031
皇	-17032
母	-17033
川	-17034
點	-17035
供	-17036
應	-17037
县	-17038
想	-17039
实	-17040
專	-17041
報	-17042
配	-17043
告	-17044
黑	-17045
查	-17046
像	-17047
屬	-17048
率	-17049
源	-17050
增	-17051
飾	-17052
份	-17053
老	-17054
萬	-17055
塔	-17056
博	-17057
沒	-17058
容	-17059
%	-17060
约	-17061
連	-17062
限	-17063
編	-17064
獎	-17065
副	-17066
感	-17067
木	-17068
雷	-17069
例	-17070
!	-17071
領	-17072
致	-17073
唱	-17074
整	-17075
室	-17076
兰	-17077
伯	-17078
早	-17079
模	-17080
射	-17081
语	-17082
術	-17083
帶	-17084
务	-17085
父	-17086
才	-17087
密	-17088
还	-17089
广	-17090
何	-17091
強	-17092
七	-17093
紀	-17094
越	-17095
哈	-17096
舉	-17097
節	-17098
步	-17099
说	-17100
氣	-17101
轉	-17102
堂	-17103
登	-17104
印	-17105
黨	-17106
易	-17107
決	-17108
警	-17109
志	-17110
看	-17111
鐵	-17112
洛	-17113
需	-17114
維	-17115
半	-17116
落	-17117
议	-17118
親	-17119
權	-17120
便	-17121
沙	-17122
際	-17123
排	-17124
义	-17125
把	-17126
象	-17127
友	-17128
级	-17129
防	-17130
森	-17131
園	-17132
传	-17133
裝	-17134
党	-17135
央	-17136
記	-17137
处	-17138
還	-17139
論	-17140
万	-17141
仍	-17142
升	-17143
结	-17144
参	-17145
导	-17146
深	-17147
门	-17148
留	-17149
街	-17150
境	-17151
千	-17152
群	-17153
域	-17154
見	-17155
席	-17156
无	-17157
野	-17158
遊	-17159
维	-17160
哥	-17161
住	-17162
奇	-17163
考	-17164
食	-17165
团	-17166
游	-17167
止	-17168
应	-17169
选	-17170
乐	-17171
低	-17172
標	-17173
圖	-17174
均	-17175
施	-17176
料	-17177
风	-17178
陳	-17179
|	-17180
领	-17181
点	-17182
盟	-17183
離	-17184
創	-17185
律	-17186
病	-17187
景	-17188
精	-17189
冠	-17190
典	-17191
湖	-17192
术	-17193
师	-17194
获	-17195
康	-17196
勒	-17197
佳	-17198
條	-17199
消	-17200
察	-17201
督	-17202
移	-17203
效	-17204
{	-17205
題	-17206
觀	-17207
控	-17208
續	-17209
铁	-17210
素	-17211
洋	-17212
认	-17213
望	-17214
图	-17215
降	-17216
念	-17217
做	-17218
許	-17219
着	-17220
錄	-17221
話	-17222
守	-17223
思	-17224
承	-17225
}	-17226
记	-17227
陸	-17228
飛	-17229
調	-17230
塞	-17231
網	-17232
黃	-17233
職	-17234
氏	-17235
甲	-17236
票	-17237
算	-17238
类	-17239
报	-17240
据	-17241
較	-17242
恩	-17243
兒	-17244
照	-17245
姆	-17246
变	-17247
快	-17248
停	-17249
曼	-17250
佛	-17251
富	-17252
給	-17253
纪	-17254
苏	-17255
张	-17256
视	-17257
雄	-17258
奥	-17259
革	-17260
營	-17261
店	-17262
章	-17263
属	-17264
破	-17265
魔	-17266
戲	-17267
依	-17268
瓦	-17269
館	-17270
終	-17271
永	-17272
托	-17273
樣	-17274
據	-17275
没	-17276
房	-17277
则	-17278
殺	-17279
牌	-17280
批	-17281
藏	-17282
協	-17283
迪	-17284
左	-17285
泰	-17286
附	-17287
爭	-17288
奧	-17289
论	-17290
q	-17291
历	-17292
授	-17293
問	-17294
辦	-17295
抗	-17296
讓	-17297
走	-17298
夏	-17299
聖	-17300
底	-17301
际	-17302
专	-17303
必	-17304
聲	-17305
候	-17306
单	-17307
瑞	-17308
久	-17309
权	-17310
封	-17311
船	-17312
藝	-17313
質	-17314
歷	-17315
纳	-17316
衛	-17317
–	-17318
气	-17319
隨	-17320
歐	-17321
退	-17322
带	-17323
春	-17324
别	-17325
興	-17326
納	-17327
索	-17328
击	-17329
突	-17330
旅	-17331
般	-17332
護	-17333
俄	-17334
澳	-17335
蒙	-17336
眾	-17337
亡	-17338
嘉	-17339
拿	-17340
詞	-17341
備	-17342
弟	-17343
喜	-17344
紅	-17345
述	-17346
似	-17347
牙	-17348
节	-17349
资	-17350
架	-17351
歲	-17352
環	-17353
值	-17354
丁	-17355
右	-17356
汉	-17357
~	-17358
标	-17359
蘇	-17360
强	-17361
松	-17362
雙	-17363
秀	-17364
艾	-17365
核	-17366
丹	-17367
决	-17368
阳	-17369
祖	-17370
岛	-17371
規	-17372
陽	-17373
条	-17374
擔	-17375
隆	-17376
网	-17377
唐	-17378
复	-17379
含	-17380
寺	-17381
息	-17382
售	-17383
卻	-17384
送	-17385
坦	-17386
准	-17387
勝	-17388
遭	-17389
・	-17390
调	-17391
彈	-17392
构	-17393
醫	-17394
剧	-17395
極	-17396
装	-17397
血	-17398
埃	-17399
延	-17400
繼	-17401
油	-17402
争	-17403
獨	-17404
暴	-17405
敗	-17406
雅	-17407
判	-17408
转	-17409
良	-17410
漢	-17411
梅	-17412
費	-17413
輯	-17414
郎	-17415
镇	-17416
注	-17417
切	-17418
创	-17419
ー	-17420
邊	-17421
邦	-17422
構	-17423
評	-17424
裡	-17425
尾	-17426
酒	-17427
策	-17428
監	-17429
圍	-17430
给	-17431
項	-17432
倫	-17433
你	-17434
头	-17435
若	-17436
堡	-17437
办	-17438
樓	-17439
響	-17440
济	-17441
復	-17442
劃	-17443
役	-17444
股	-17445
短	-17446
编	-17447
随	-17448
宮	-17449
舞	-17450
规	-17451
兼	-17452
职	-17453
草	-17454
郡	-17455
连	-17456
端	-17457
救	-17458
离	-17459
题	-17460
举	-17461
熱	-17462
占	-17463
爆	-17464
问	-17465
晚	-17466
害	-17467
样	-17468
善	-17469
艦	-17470
岸	-17471
逐	-17472
署	-17473
庭	-17474
质	-17475
雖	-17476
津	-17477
束	-17478
划	-17479
假	-17480
摩	-17481
甚	-17482
寫	-17483
菲	-17484
谷	-17485
尚	-17486
许	-17487
陆	-17488
奖	-17489
婚	-17490
卫	-17491
朗	-17492
夜	-17493
莫	-17494
毛	-17495
證	-17496
乘	-17497
序	-17498
皮	-17499
槍	-17500
仁	-17501
劉	-17502
馆	-17503
智	-17504
屆	-17505
層	-17506
準	-17507
追	-17508
玉	-17509
协	-17510
遠	-17511
观	-17512
萨	-17513
橋	-17514
態	-17515
狀	-17516
略	-17517
優	-17518
旗	-17519
环	-17520
微	-17521
圣	-17522
免	-17523
终	-17524
差	-17525
企	-17526
負	-17527
弗	-17528
背	-17529
試	-17530
黄	-17531
屋	-17532
园	-17533
宋	-17534
眼	-17535
介	-17536
烈	-17537
蒂	-17538
援	-17539
寶	-17540
銀	-17541
臣	-17542
戏	-17543
亲	-17544
拍	-17545
散	-17546
織	-17547
罪	-17548
款	-17549
筑	-17550
?	-17551
顯	-17552
护	-17553
濟	-17554
麗	-17555
末	-17556
胡	-17557
鲁	-17558
备	-17559
頓	-17560
朱	-17561
=	-17562
欧	-17563
范	-17564
爱	-17565
跟	-17566
靈	-17567
龙	-17568
君	-17569
采	-17570
板	-17571
干	-17572
載	-17573
預	-17574
聞	-17575
续	-17576
红	-17577
营	-17578
伦	-17579
予	-17580
雲	-17581
秘	-17582
』	-17583
项	-17584
『	-17585
画	-17586
盛	-17587
巨	-17588
請	-17589
井	-17590
玩	-17591
鎮	-17592
鬥	-17593
滿	-17594
医	-17595
童	-17596
宇	-17597
諾	-17598
禮	-17599
の	-17600
測	-17601
边	-17602
執	-17603
鄉	-17604
ン	-17605
织	-17606
葉	-17607
傷	-17608
赫	-17609
戶	-17610
責	-17611
见	-17612
勢	-17613
係	-17614
採	-17615
莉	-17616
较	-17617
黎	-17618
佐	-17619
透	-17620
互	-17621
宁	-17622
魯	-17623
儿	-17624
距	-17625
薩	-17626
征	-17627
耶	-17628
遇	-17629
溫	-17630
梁	-17631
魚	-17632
篇	-17633
媒	-17634
莱	-17635
+	-17636
找	-17637
飞	-17638
積	-17639
艺	-17640
韓	-17641
映	-17642
证	-17643
雪	-17644
声	-17645
写	-17646
難	-17647
擁	-17648
貝	-17649
價	-17650
植	-17651
昌	-17652
藤	-17653
町	-17654
僅	-17655
娜	-17656
異	-17657
录	-17658
牛	-17659
徒	-17660
兴	-17661
識	-17662
幾	-17663
担	-17664
籍	-17665
众	-17666
探	-17667
诺	-17668
独	-17669
禁	-17670
露	-17671
刻	-17672
桥	-17673
陈	-17674
积	-17675
刊	-17676
什	-17677
材	-17678
確	-17679
继	-17680
訊	-17681
孩	-17682
吸	-17683
某	-17684
几	-17685
讀	-17686
旋	-17687
试	-17688
漫	-17689
余	-17690
壓	-17691
斷	-17692
操	-17693
响	-17694
评	-17695
逃	-17696
輪	-17697
杀	-17698
毒	-17699
杜	-17700
途	-17701
刘	-17702
益	-17703
惠	-17704
农	-17705
須	-17706
廷	-17707
習	-17708
歡	-17709
輕	-17710
爵	-17711
幕	-17712
层	-17713
敦	-17714
秋	-17715
健	-17716
穿	-17717
荷	-17718
热	-17719
妹	-17720
按	-17721
帕	-17722
乎	-17723
沿	-17724
巡	-17725
拜	-17726
簡	-17727
練	-17728
卷	-17729
私	-17730
竹	-17731
忠	-17732
庄	-17733
奈	-17734
楼	-17735
廠	-17736
絕	-17737
混	-17738
雨	-17739
犯	-17740
充	-17741
驗	-17742
佈	-17743
否	-17744
築	-17745
峰	-17746
翰	-17747
双	-17748
妻	-17749
斗	-17750
待	-17751
极	-17752
刺	-17753
话	-17754
萊	-17755
唯	-17756
激	-17757
洪	-17758
&	-17759
围	-17760
況	-17761
替	-17762
吳	-17763
休	-17764
召	-17765
刑	-17766
贝	-17767
舊	-17768
炮	-17769
榮	-17770
攝	-17771
顿	-17772
兄	-17773
衣	-17774
樹	-17775
炸	-17776
午	-17777
農	-17778
麥	-17779
骨	-17780
固	-17781
返	-17782
急	-17783
庫	-17784
云	-17785
殿	-17786
捕	-17787
仅	-17788
缺	-17789
皆	-17790
彩	-17791
溪	-17792
換	-17793
週	-17794
迫	-17795
酸	-17796
符	-17797
靠	-17798
费	-17799
尺	-17800
嚴	-17801
坡	-17802
呼	-17803
乡	-17804
傑	-17805
描	-17806
柏	-17807
昭	-17808
細	-17809
测	-17810
範	-17811
址	-17812
廳	-17813
迷	-17814
戴	-17815
确	-17816
翻	-17817
奏	-17818
啟	-17819
徐	-17820
〉	-17821
验	-17822
〈	-17823
压	-17824
佔	-17825
聚	-17826
远	-17827
暗	-17828
温	-17829
榜	-17830
汽	-17831
陣	-17832
坑	-17833
侵	-17834
户	-17835
状	-17836
抵	-17837
显	-17838
餘	-17839
舰	-17840
藍	-17841
泉	-17842
疑	-17843
董	-17844
让	-17845
岩	-17846
撤	-17847
慶	-17848
奉	-17849
岁	-17850
沃	-17851
敵	-17852
词	-17853
池	-17854
豐	-17855
楊	-17856
碼	-17857
尤	-17858
瑪	-17859
譯	-17860
→	-17861
责	-17862
耳	-17863
翼	-17864
银	-17865
冷	-17866
届	-17867
库	-17868
渡	-17869
虎	-17870
亮	-17871
申	-17872
迎	-17873
孫	-17874
招	-17875
霍	-17876
歸	-17877
麻	-17878
态	-17879
冰	-17880
满	-17881
融	-17882
財	-17883
畢	-17884
载	-17885
哲	-17886
順	-17887
肯	-17888
奪	-17889
危	-17890
胞	-17891
避	-17892
購	-17893
丽	-17894
銷	-17895
价	-17896
穆	-17897
階	-17898
輸	-17899
鐘	-17900
庆	-17901
倒	-17902
裁	-17903
杰	-17904
琴	-17905
覺	-17906
珠	-17907
恐	-17908
側	-17909
阻	-17910
潮	-17911
培	-17912
臨	-17913
付	-17914
澤	-17915
減	-17916
叫	-17917
毫	-17918
负	-17919
套	-17920
幸	-17921
芬	-17922
仙	-17923
詩	-17924
宫	-17925
胜	-17926
賓	-17927
雜	-17928
腦	-17929
夢	-17930
尊	-17931
豪	-17932
弹	-17933
羽	-17934
養	-17935
訓	-17936
御	-17937
劍	-17938
乌	-17939
宜	-17940
饰	-17941
侧	-17942
夠	-17943
习	-17944
韩	-17945
染	-17946
補	-17947
鄭	-17948
姐	-17949
难	-17950
漸	-17951
姓	-17952
宝	-17953
鬼	-17954
辛	-17955
震	-17956
烏	-17957
监	-17958
圈	-17959
圓	-17960
乃	-17961
断	-17962
佩	-17963
陵	-17964
騎	-17965
味	-17966
幼	-17967
鏡	-17968
坐	-17969
涉	-17970
討	-17971
廉	-17972
惡	-17973
併	-17974
貴	-17975
魏	-17976
絲	-17977
凱	-17978
隔	-17979
險	-17980
偏	-17981
执	-17982
厂	-17983
ス	-17984
儀	-17985
_	-17986
败	-17987
泛	-17988
幫	-17989
细	-17990
况	-17991
概	-17992
億	-17993
勇	-17994
墨	-17995
默	-17996
析	-17997
藥	-17998
審	-17999
偶	-18000
请	-18001
临	-18002
孔	-18003
舍	-18004
秦	-18005
勞	-18006
課	-18007
硬	-18008
浪	-18009
肉	-18010
掌	-18011
徵	-18012
遺	-18013
辑	-18014
努	-18015
严	-18016
釋	-18017
预	-18018
莎	-18019
呈	-18020
弱	-18021
岡	-18022
孙	-18023
识	-18024
殖	-18025
杨	-18026
頂	-18027
怪	-18028
é	-18029
伍	-18030
敏	-18031
崎	-18032
乾	-18033
蔡	-18034
洞	-18035
振	-18036
刀	-18037
鼓	-18038
郭	-18039
赤	-18040
幻	-18041
盤	-18042
捷	-18043
浦	-18044
輛	-18045
甘	-18046
誌	-18047
简	-18048
换	-18049
曹	-18050
朋	-18051
蛋	-18052
а	-18053
症	-18054
頻	-18055
訪	-18056
侯	-18057
ル	-18058
陷	-18059
轮	-18060
拒	-18061
租	-18062
湾	-18063
棒	-18064
桃	-18065
寧	-18066
楚	-18067
衝	-18068
盃	-18069
貨	-18070
遗	-18071
菜	-18072
綠	-18073
叶	-18074
戀	-18075
势	-18076
顧	-18077
零	-18078
檢	-18079
イ	-18080
伴	-18081
講	-18082
適	-18083
墓	-18084
崇	-18085
借	-18086
鳥	-18087
滅	-18088
茨	-18089
障	-18090
归	-18091
亂	-18092
礼	-18093
珍	-18094
拔	-18095
桑	-18096
麦	-18097
泽	-18098
紐	-18099
駐	-18100
困	-18101
闻	-18102
宿	-18103
却	-18104
遷	-18105
拥	-18106
妮	-18107
冬	-18108
聽	-18109
搭	-18110
械	-18111
绝	-18112
柯	-18113
输	-18114
优	-18115
謝	-18116
蓋	-18117
液	-18118
о	-18119
邀	-18120
瑟	-18121
揮	-18122
祭	-18123
願	-18124
繁	-18125
柱	-18126
裂	-18127
晉	-18128
俗	-18129
吴	-18130
读	-18131
享	-18132
厅	-18133
恢	-18134
錦	-18135
孝	-18136
殊	-18137
跑	-18138
氧	-18139
競	-18140
戈	-18141
剛	-18142
晶	-18143
簽	-18144
诗	-18145
軟	-18146
談	-18147
賣	-18148
伤	-18149
答	-18150
仔	-18151
币	-18152
壁	-18153
劳	-18154
虽	-18155
贵	-18156
玛	-18157
毕	-18158
频	-18159
彼	-18160
患	-18161
尋	-18162
药	-18163
俊	-18164
粉	-18165
驻	-18166
襲	-18167
吃	-18168
陶	-18169
旁	-18170
尽	-18171
杂	-18172
跨	-18173
訴	-18174
敬	-18175
廢	-18176
估	-18177
軌	-18178
鲜	-18179
擇	-18180
逝	-18181
燃	-18182
沉	-18183
額	-18184
祥	-18185
旧	-18186
徑	-18187
齐	-18188
冲	-18189
句	-18190
н	-18191
滑	-18192
伐	-18193
餐	-18194
挑	-18195
堅	-18196
駛	-18197
俱	-18198
糖	-18199
頒	-18200
摄	-18201
跳	-18202
幅	-18203
宅	-18204
賞	-18205
茲	-18206
亿	-18207
橫	-18208
灵	-18209
允	-18210
晋	-18211
奴	-18212
牧	-18213
紫	-18214
慧	-18215
撞	-18216
灰	-18217
迁	-18218
财	-18219
辖	-18220
顶	-18221
亨	-18222
杯	-18223
療	-18224
码	-18225
乙	-18226
沈	-18227
笑	-18228
扎	-18229
检	-18230
异	-18231
译	-18232
諸	-18233
懷	-18234
訂	-18235
苦	-18236
誤	-18237
倍	-18238
徽	-18239
擴	-18240
腳	-18241
茶	-18242
覆	-18243
熙	-18244
截	-18245
促	-18246
ト	-18247
錢	-18248
叛	-18249
轄	-18250
顺	-18251
獸	-18252
函	-18253
挥	-18254
磁	-18255
凡	-18256
轻	-18257
ラ	-18258
掉	-18259
─	-18260
络	-18261
麼	-18262
葛	-18263
葡	-18264
燕	-18265
琳	-18266
и	-18267
衡	-18268
养	-18269
慢	-18270
偉	-18271
複	-18272
壞	-18273
销	-18274
柴	-18275
齊	-18276
箭	-18277
纽	-18278
插	-18279
盖	-18280
厚	-18281
拆	-18282
审	-18283
鮮	-18284
折	-18285
浙	-18286
荣	-18287
树	-18288
埔	-18289
伸	-18290
遍	-18291
芳	-18292
慈	-18293
赴	-18294
扩	-18295
輔	-18296
リ	-18297
碑	-18298
赵	-18299
凯	-18300
裔	-18301
汗	-18302
枪	-18303
績	-18304
幣	-18305
丘	-18306
憲	-18307
艘	-18308
侍	-18309
趣	-18310
莊	-18311
喬	-18312
遣	-18313
卢	-18314
買	-18315
獻	-18316
阶	-18317
棄	-18318
熊	-18319
么	-18320
番	-18321
签	-18322
减	-18323
幹	-18324
綫	-18325
慕	-18326
毀	-18327
匹	-18328
鳳	-18329
尖	-18330
钟	-18331
熟	-18332
ア	-18333
讲	-18334
勤	-18335
宙	-18336
擎	-18337
迅	-18338
鋼	-18339
脫	-18340
い	-18341
秒	-18342
寬	-18343
浩	-18344
廟	-18345
緣	-18346
软	-18347
遂	-18348
乔	-18349
够	-18350
练	-18351
释	-18352
兹	-18353
ク	-18354
靜	-18355
卓	-18356
撒	-18357
伏	-18358
疾	-18359
輝	-18360
趙	-18361
蝶	-18362
塘	-18363
憶	-18364
轨	-18365
純	-18366
丰	-18367
棋	-18368
桂	-18369
錯	-18370
宏	-18371
蓮	-18372
盧	-18373
雕	-18374
暫	-18375
访	-18376
謀	-18377
菌	-18378
杉	-18379
藉	-18380
孟	-18381
柳	-18382
艇	-18383
損	-18384
魂	-18385
×	-18386
鹿	-18387
痛	-18388
货	-18389
盡	-18390
賴	-18391
昂	-18392
谋	-18393
昆	-18394
淡	-18395
晨	-18396
с	-18397
枚	-18398
诸	-18399
隻	-18400
賢	-18401
耀	-18402
仰	-18403
恆	-18404
緊	-18405
险	-18406
裕	-18407
縮	-18408
р	-18409
彭	-18410
弘	-18411
疆	-18412
搜	-18413
浮	-18414
须	-18415
巧	-18416
檔	-18417
芝	-18418
献	-18419
屏	-18420
葬	-18421
拳	-18422
狂	-18423
潘	-18424
針	-18425
萄	-18426
霸	-18427
仲	-18428
凌	-18429
渐	-18430
宽	-18431
陰	-18432
粒	-18433
筆	-18434
帮	-18435
额	-18436
乱	-18437
损	-18438
ッ	-18439
启	-18440
砲	-18441
е	-18442
鄰	-18443
宾	-18444
适	-18445
毁	-18446
倉	-18447
购	-18448
玄	-18449
阵	-18450
詹	-18451
婦	-18452
训	-18453
炎	-18454
°	-18455
忍	-18456
补	-18457
辆	-18458
谢	-18459
仪	-18460
拓	-18461
隧	-18462
径	-18463
扮	-18464
蛇	-18465
觸	-18466
屯	-18467
隸	-18468
冊	-18469
繪	-18470
础	-18471
髮	-18472
燈	-18473
戒	-18474
欣	-18475
钱	-18476
宪	-18477
箱	-18478
洗	-18479
袭	-18480
賀	-18481
袁	-18482
夺	-18483
鱼	-18484
獄	-18485
累	-18486
庙	-18487
串	-18488
壽	-18489
郑	-18490
觉	-18491
圆	-18492
羊	-18493
驅	-18494
濱	-18495
迴	-18496
欢	-18497
貿	-18498
罕	-18499
苗	-18500
駕	-18501
牠	-18502
怀	-18503
潛	-18504
娘	-18505
敌	-18506
姬	-18507
旦	-18508
坊	-18509
乳	-18510
妃	-18511
к	-18512
梯	-18513
择	-18514
怒	-18515
隱	-18516
契	-18517
綜	-18518
袖	-18519
紹	-18520
叔	-18521
丸	-18522
〜	-18523
閣	-18524
貓	-18525
塑	-18526
祝	-18527
赞	-18528
т	-18529
冒	-18530
紙	-18531
欲	-18532
媽	-18533
茂	-18534
乏	-18535
娛	-18536
穩	-18537
藩	-18538
崔	-18539
齡	-18540
揚	-18541
涯	-18542
辽	-18543
旺	-18544
顆	-18545
臘	-18546
閉	-18547
誠	-18548
蔣	-18549
瓜	-18550
荒	-18551
孤	-18552
湯	-18553
丈	-18554
块	-18555
既	-18556
韋	-18557
災	-18558
辭	-18559
匯	-18560
岳	-18561
貌	-18562
顏	-18563
刚	-18564
讨	-18565
齒	-18566
骑	-18567
殘	-18568
镜	-18569
亭	-18570
燒	-18571
盾	-18572
爲	-18573
塊	-18574
咸	-18575
銅	-18576
坚	-18577
覽	-18578
愿	-18579
シ	-18580
壇	-18581
谈	-18582
尉	-18583
枝	-18584
絡	-18585
填	-18586
廈	-18587
听	-18588
灭	-18589
偵	-18590
仿	-18591
剩	-18592
】	-18593
【	-18594
頁	-18595
泥	-18596
诉	-18597
泳	-18598
偷	-18599
獵	-18600
割	-18601
貢	-18602
韦	-18603
礎	-18604
循	-18605
譽	-18606
阪	-18607
と	-18608
横	-18609
竞	-18610
呂	-18611
贏	-18612
顾	-18613
靖	-18614
緒	-18615
玻	-18616
撰	-18617
坏	-18618
衰	-18619
柔	-18620
窗	-18621
矿	-18622
舒	-18623
贡	-18624
买	-18625
脱	-18626
缩	-18627
汇	-18628
虛	-18629
た	-18630
废	-18631
レ	-18632
醒	-18633
盘	-18634
蟲	-18635
驚	-18636
坂	-18637
圳	-18638
傅	-18639
狗	-18640
疗	-18641
焦	-18642
吾	-18643
し	-18644
腊	-18645
豆	-18646
婆	-18647
姊	-18648
擬	-18649
な	-18650
鋒	-18651
鼠	-18652
墙	-18653
‧	-18654
锡	-18655
握	-18656
捐	-18657
脑	-18658
卿	-18659
螺	-18660
寄	-18661
床	-18662
绿	-18663
в	-18664
券	-18665
狼	-18666
犹	-18667
ジ	-18668
逆	-18669
紧	-18670
僧	-18671
阮	-18672
鈴	-18673
翠	-18674
籌	-18675
胎	-18676
措	-18677
钢	-18678
贸	-18679
污	-18680
仇	-18681
恶	-18682
蓝	-18683
斑	-18684
抽	-18685
涅	-18686
廊	-18687
彰	-18688
扬	-18689
搬	-18690
邨	-18691
腹	-18692
淘	-18693
静	-18694
耗	-18695
か	-18696
脈	-18697
マ	-18698
碳	-18699
绍	-18700
杭	-18701
夷	-18702
斜	-18703
飯	-18704
翔	-18705
稿	-18706
订	-18707
夕	-18708
悉	-18709
郵	-18710
稅	-18711
针	-18712
翁	-18713
タ	-18714
妖	-18715
碎	-18716
’	-18717
垂	-18718
狄	-18719
ド	-18720
玲	-18721
璃	-18722
琪	-18723
る	-18724
錫	-18725
丝	-18726
違	-18727
逊	-18728
匈	-18729
曆	-18730
鰭	-18731
课	-18732
湘	-18733
琉	-18734
揭	-18735
鄧	-18736
妇	-18737
怕	-18738
隶	-18739
寒	-18740
恒	-18741
縱	-18742
误	-18743
勳	-18744
疏	-18745
奶	-18746
誕	-18747
珊	-18748
驱	-18749
卜	-18750
妙	-18751
泊	-18752
ロ	-18753
薄	-18754
蕭	-18755
抱	-18756
り	-18757
勃	-18758
衍	-18759
ん	-18760
誉	-18761
税	-18762
遜	-18763
勁	-18764
跡	-18765
锦	-18766
鍵	-18767
儒	-18768
逢	-18769
聘	-18770
鎖	-18771
獅	-18772
吹	-18773
吐	-18774
擅	-18775
郊	-18776
坎	-18777
膜	-18778
嫁	-18779
犬	-18780
怖	-18781
謂	-18782
喀	-18783
肥	-18784
櫻	-18785
粵	-18786
碧	-18787
轟	-18788
错	-18789
俘	-18790
逼	-18791
悲	-18792
飓	-18793
吧	-18794
溶	-18795
陀	-18796
兆	-18797
邪	-18798
剂	-18799
疫	-18800
貫	-18801
儘	-18802
潜	-18803
俠	-18804
陕	-18805
辞	-18806
甸	-18807
陨	-18808
稍	-18809
鍾	-18810
弃	-18811
嫌	-18812
册	-18813
煙	-18814
紋	-18815
鸟	-18816
幽	-18817
综	-18818
淮	-18819
剑	-18820
粹	-18821
键	-18822
曰	-18823
鹽	-18824
曉	-18825
л	-18826
寿	-18827
迈	-18828
繞	-18829
滨	-18830
猶	-18831
寻	-18832
颱	-18833
飲	-18834
猛	-18835
稳	-18836
绘	-18837
蕾	-18838
碟	-18839
盜	-18840
弦	-18841
淑	-18842
寸	-18843
铜	-18844
譜	-18845
劫	-18846
苑	-18847
残	-18848
潭	-18849
カ	-18850
添	-18851
凤	-18852
厘	-18853
奔	-18854
闭	-18855
敢	-18856
梦	-18857
牆	-18858
慮	-18859
裏	-18860
に	-18861
旨	-18862
胸	-18863
押	-18864
汰	-18865
鼻	-18866
刷	-18867
忙	-18868
绩	-18869
轴	-18870
贊	-18871
纸	-18872
貞	-18873
嘴	-18874
朴	-18875
沖	-18876
储	-18877
傾	-18878
綱	-18879
託	-18880
逮	-18881
鴻	-18882
阴	-18883
磨	-18884
邻	-18885
灾	-18886
軸	-18887
憑	-18888
厄	-18889
赖	-18890
坪	-18891
潔	-18892
堆	-18893
娃	-18894
笔	-18895
拼	-18896
屠	-18897
掛	-18898
嶺	-18899
馮	-18900
扶	-18901
姻	-18902
阁	-18903
ü	-18904
á	-18905
斤	-18906
礦	-18907
煤	-18908
邓	-18909
詳	-18910
泡	-18911
梨	-18912
狱	-18913
汪	-18914
翌	-18915
忘	-18916
癌	-18917
ま	-18918
牵	-18919
籃	-18920
袋	-18921
迹	-18922
碩	-18923
フ	-18924
冯	-18925
遵	-18926
剪	-18927
盐	-18928
辅	-18929
抓	-18930
览	-18931
怡	-18932
紛	-18933
躍	-18934
閃	-18935
缘	-18936
屍	-18937
儲	-18938
爸	-18939
脂	-18940
竟	-18941
惟	-18942
麟	-18943
雀	-18944
叉	-18945
腐	-18946
テ	-18947
岭	-18948
姚	-18949
歇	-18950
註	-18951
脉	-18952
薇	-18953
龜	-18954
蜜	-18955
$	-18956
昇	-18957
毅	-18958
虹	-18959
う	-18960
彌	-18961
甜	-18962
峽	-18963
纵	-18964
触	-18965
罰	-18966
猪	-18967
嶼	-18968
滾	-18969
伟	-18970
鷹	-18971
矢	-18972
酷	-18973
涵	-18974
み	-18975
稻	-18976
勵	-18977
株	-18978
搖	-18979
緩	-18980
鼎	-18981
堪	-18982
晴	-18983
吕	-18984
辰	-18985
邮	-18986
恭	-18987
嗣	-18988
拖	-18989
凝	-18990
蒸	-18991
ã	-18992
恋	-18993
伽	-18994
喪	-18995
尹	-18996
鳴	-18997
オ	-18998
擾	-18999
粗	-19000
劑	-19001
崩	-19002
壘	-19003
蹈	-19004
徹	-19005
淺	-19006
姜	-19007
拟	-19008
叙	-19009
忽	-19010
薛	-19011
绪	-19012
咖	-19013
纯	-19014
扣	-19015
迦	-19016
詢	-19017
卖	-19018
颁	-19019
屈	-19020
礙	-19021
肌	-19022
讯	-19023
隐	-19024
巫	-19025
蹤	-19026
賈	-19027
コ	-19028
噴	-19029
寨	-19030
暨	-19031
烟	-19032
き	-19033
睡	-19034
虫	-19035
砂	-19036
掘	-19037
灌	-19038
卒	-19039
笼	-19040
濃	-19041
脚	-19042
※	-19043
肖	-19044
祀	-19045
キ	-19046
寮	-19047
奎	-19048
歧	-19049
酶	-19050
汀	-19051
埋	-19052
厦	-19053
扁	-19054
颜	-19055
蜂	-19056
矛	-19057
贈	-19058
脊	-19059
烧	-19060
悠	-19061
陪	-19062
缓	-19063
漁	-19064
挪	-19065
脅	-19066
抑	-19067
栗	-19068
逸	-19069
さ	-19070
恨	-19071
ら	-19072
麵	-19073
姑	-19074
姿	-19075
壤	-19076
膠	-19077
閱	-19078
邱	-19079
販	-19080
溝	-19081
ィ	-19082
伙	-19083
雞	-19084
辨	-19085
廖	-19086
蒋	-19087
宰	-19088
贾	-19089
档	-19090
祿	-19091
彥	-19092
吞	-19093
锋	-19094
札	-19095
エ	-19096
爺	-19097
丙	-19098
瓶	-19099
汤	-19100
虚	-19101
‘	-19102
邁	-19103
旬	-19104
貼	-19105
暂	-19106
敘	-19107
吨	-19108
讚	-19109
帽	-19110
虑	-19111
斐	-19112
鑑	-19113
霧	-19114
銘	-19115
寓	-19116
哪	-19117
灯	-19118
隋	-19119
惜	-19120
は	-19121
肃	-19122
搶	-19123
踏	-19124
ナ	-19125
恰	-19126
沟	-19127
て	-19128
勋	-19129
慣	-19130
弓	-19131
薪	-19132
晓	-19133
趕	-19134
銜	-19135
弄	-19136
魁	-19137
碰	-19138
у	-19139
涌	-19140
吏	-19141
筹	-19142
舟	-19143
卑	-19144
澄	-19145
帥	-19146
矩	-19147
塚	-19148
硫	-19149
萧	-19150
慎	-19151
甫	-19152
耐	-19153
披	-19154
臉	-19155
削	-19156
彦	-19157
雍	-19158
і	-19159
プ	-19160
葵	-19161
龄	-19162
暖	-19163
孕	-19164
页	-19165
菊	-19166
龐	-19167
胶	-19168
あ	-19169
赢	-19170
啡	-19171
賜	-19172
ャ	-19173
ち	-19174
愈	-19175
ム	-19176
咒	-19177
筒	-19178
挖	-19179
臂	-19180
帆	-19181
祠	-19182
绕	-19183
豫	-19184
谱	-19185
デ	-19186
腔	-19187
谓	-19188
腿	-19189
懸	-19190
撫	-19191
吻	-19192
拘	-19193
霞	-19194
耕	-19195
倡	-19196
殼	-19197
祐	-19198
斬	-19199
喇	-19200
禦	-19201
漠	-19202
く	-19203
募	-19204
挂	-19205
豬	-19206
д	-19207
巷	-19208
宴	-19209
掩	-19210
巢	-19211
摧	-19212
盆	-19213
桓	-19214
圭	-19215
违	-19216
桐	-19217
坛	-19218
聰	-19219
斥	-19220
卸	-19221
堤	-19222
悟	-19223
遲	-19224
瀨	-19225
バ	-19226
ミ	-19227
サ	-19228
衔	-19229
桌	-19230
卵	-19231
怎	-19232
椎	-19233
ö	-19234
抚	-19235
潤	-19236
贤	-19237
ニ	-19238
お	-19239
驶	-19240
鶴	-19241
链	-19242
誓	-19243
グ	-19244
賊	-19245
驾	-19246
譚	-19247
豹	-19248
繩	-19249
м	-19250
峡	-19251
朵	-19252
掠	-19253
蜀	-19254
ó	-19255
邑	-19256
蹟	-19257
催	-19258
漏	-19259
襄	-19260
硕	-19261
珀	-19262
忌	-19263
岗	-19264
搞	-19265
嘗	-19266
拱	-19267
辯	-19268
臟	-19269
茅	-19270
稀	-19271
氨	-19272
昏	-19273
椅	-19274
が	-19275
腺	-19276
醇	-19277
雇	-19278
淨	-19279
肩	-19280
ウ	-19281
沼	-19282
芙	-19283
冈	-19284
こ	-19285
丞	-19286
猜	-19287
誰	-19288
韻	-19289
淳	-19290
雌	-19291
磯	-19292
矮	-19293
噶	-19294
彻	-19295
凰	-19296
扭	-19297
ブ	-19298
蒲	-19299
仕	-19300
涼	-19301
牲	-19302
肢	-19303
踢	-19304
佑	-19305
纹	-19306
喚	-19307
忆	-19308
纷	-19309
盈	-19310
舌	-19311
壯	-19312
軒	-19313
宛	-19314
チ	-19315
>	-19316
掃	-19317
仓	-19318
亥	-19319
倾	-19320
邵	-19321
囚	-19322
框	-19323
ä	-19324
囊	-19325
れ	-19326
っ	-19327
喝	-19328
赏	-19329
劣	-19330
尿	-19331
棘	-19332
穴	-19333
梵	-19334
哀	-19335
í	-19336
ズ	-19337
棉	-19338
芭	-19339
诚	-19340
悬	-19341
貧	-19342
吊	-19343
ュ	-19344
遼	-19345
肺	-19346
兔	-19347
励	-19348
槽	-19349
祈	-19350
鄂	-19351
眠	-19352
滋	-19353
腰	-19354
禪	-19355
噸	-19356
疊	-19357
粮	-19358
爪	-19359
を	-19360
帅	-19361
で	-19362
壮	-19363
菩	-19364
蘋	-19365
メ	-19366
旭	-19367
渠	-19368
惊	-19369
跌	-19370
欺	-19371
荃	-19372
杆	-19373
篮	-19374
α	-19375
溯	-19376
勸	-19377
贺	-19378
禄	-19379
怨	-19380
冕	-19381
辉	-19382
睛	-19383
赠	-19384
診	-19385
娶	-19386
丧	-19387
鑽	-19388
铸	-19389
擺	-19390
遙	-19391
呎	-19392
颗	-19393
氯	-19394
捉	-19395
慰	-19396
瓷	-19397
鉴	-19398
謙	-19399
牽	-19400
遞	-19401
狐	-19402
閩	-19403
厭	-19404
猎	-19405
枢	-19406
榴	-19407
盗	-19408
冀	-19409
贯	-19410
罚	-19411
赐	-19412
奠	-19413
禧	-19414
芒	-19415
胺	-19416
偽	-19417
繫	-19418
鞋	-19419
汝	-19420
醉	-19421
償	-19422
氢	-19423
趁	-19424
債	-19425
漂	-19426
穗	-19427
攜	-19428
诞	-19429
殷	-19430
賭	-19431
夥	-19432
莲	-19433
棲	-19434
欠	-19435
頗	-19436
锁	-19437
抄	-19438
パ	-19439
詠	-19440
樞	-19441
庇	-19442
肝	-19443
坤	-19444
苯	-19445
ビ	-19446
胁	-19447
腓	-19448
沪	-19449
哭	-19450
烯	-19451
欽	-19452
薦	-19453
賦	-19454
茵	-19455
罷	-19456
扇	-19457
秩	-19458
鲍	-19459
逾	-19460
浸	-19461
湿	-19462
п	-19463
兽	-19464
郁	-19465
蓄	-19466
す	-19467
挺	-19468
瑜	-19469
杏	-19470
钦	-19471
黛	-19472
擋	-19473
铺	-19474
я	-19475
焰	-19476
棟	-19477
递	-19478
饮	-19479
惑	-19480
拯	-19481
駁	-19482
弥	-19483
棕	-19484
阅	-19485
欄	-19486
寇	-19487
翅	-19488
慘	-19489
鸡	-19490
肇	-19491
誘	-19492
庶	-19493
灘	-19494
焚	-19495
蝠	-19496
騙	-19497
遮	-19498
礁	-19499
眉	-19500
窄	-19501
毗	-19502
猴	-19503
痕	-19504
糧	-19505
辩	-19506
跃	-19507
炳	-19508
扰	-19509
寵	-19510
腾	-19511
猫	-19512
踪	-19513
玫	-19514
详	-19515
逻	-19516
磷	-19517
崖	-19518
廂	-19519
滩	-19520
爬	-19521
歉	-19522
闊	-19523
齋	-19524
も	-19525
勘	-19526
昔	-19527
塗	-19528
緬	-19529
霖	-19530
炭	-19531
斌	-19532
趨	-19533
г	-19534
ダ	-19535
ハ	-19536
缅	-19537
瘤	-19538
蓬	-19539
盒	-19540
帳	-19541
褐	-19542
贞	-19543
啦	-19544
坝	-19545
爐	-19546
喷	-19547
淵	-19548
滕	-19549
騰	-19550
煌	-19551
冥	-19552
轰	-19553
赶	-19554
淚	-19555
擦	-19556
瑰	-19557
柄	-19558
瞄	-19559
庸	-19560
稣	-19561
藻	-19562
輻	-19563
纲	-19564
傲	-19565
辣	-19566
橡	-19567
鴨	-19568
捲	-19569
躲	-19570
缸	-19571
奕	-19572
塌	-19573
艙	-19574
娱	-19575
憤	-19576
嵌	-19577
僑	-19578
勾	-19579
綁	-19580
桿	-19581
稚	-19582
贫	-19583
罩	-19584
廚	-19585
狙	-19586
輩	-19587
汶	-19588
緯	-19589
窮	-19590
辟	-19591
辱	-19592
萌	-19593
☆	-19594
齿	-19595
厥	-19596
懂	-19597
鬆	-19598
夾	-19599
匣	-19600
抢	-19601
橘	-19602
彎	-19603
赋	-19604
岐	-19605
鹰	-19606
摇	-19607
鮑	-19608
懼	-19609
砖	-19610
裸	-19611
憂	-19612
駿	-19613
询	-19614
閒	-19615
喻	-19616
ь	-19617
僕	-19618
鯨	-19619
畔	-19620
瓊	-19621
履	-19622
つ	-19623
埠	-19624
奮	-19625
糕	-19626
蕃	-19627
垣	-19628
凭	-19629
●	-19630
堀	-19631
笛	-19632
摔	-19633
润	-19634
邏	-19635
ガ	-19636
厢	-19637
妥	-19638
虐	-19639
侶	-19640
僚	-19641
撥	-19642
尸	-19643
帖	-19644
伪	-19645
侦	-19646
頸	-19647
涂	-19648
糊	-19649
丑	-19650
肅	-19651
嫩	-19652
匪	-19653
й	-19654
兇	-19655
鸿	-19656
穎	-19657
崙	-19658
贴	-19659
塵	-19660
奸	-19661
诏	-19662
貪	-19663
C	-19664
菱	-19665
穌	-19666
璋	-19667
瞬	-19668
浴	-19669
浓	-19670
畏	-19671
禍	-19672
熔	-19673
琼	-19674
楠	-19675
膽	-19676
饭	-19677
迟	-19678
跋	-19679
螢	-19680
婉	-19681
滚	-19682
栏	-19683
濕	-19684
梓	-19685
蘿	-19686
蒼	-19687
嘛	-19688
庞	-19689
瘋	-19690
牢	-19691
漆	-19692
氫	-19693
狹	-19694
澎	-19695
烷	-19696
鱷	-19697
2	-19698
禅	-19699
ョ	-19700
盲	-19701
嬰	-19702
竣	-19703
秉	-19704
阔	-19705
匠	-19706
諮	-19707
浅	-19708
尝	-19709
彬	-19710
潰	-19711
墜	-19712
蜥	-19713
腸	-19714
萍	-19715
裴	-19716
喊	-19717
崗	-19718
仑	-19719
戚	-19720
攀	-19721
净	-19722
翡	-19723
庚	-19724
婷	-19725
櫃	-19726
暢	-19727
閘	-19728
銳	-19729
凶	-19730
魅	-19731
紗	-19732
棚	-19733
洁	-19734
芽	-19735
モ	-19736
携	-19737
摘	-19738
鞍	-19739
亩	-19740
梭	-19741
餅	-19742
〔	-19743
鱗	-19744
〕	-19745
膚	-19746
•	-19747
狩	-19748
碍	-19749
荐	-19750
渔	-19751
傘	-19752
頌	-19753
狮	-19754
拋	-19755
劝	-19756
寂	-19757
咀	-19758
鏈	-19759
蟹	-19760
壳	-19761
鋪	-19762
唇	-19763
粤	-19764
罢	-19765
闽	-19766
颇	-19767
厝	-19768
彗	-19769
よ	-19770
喉	-19771
寡	-19772
闆	-19773
嗎	-19774
橙	-19775
侠	-19776
蛛	-19777
夸	-19778
謠	-19779
惯	-19780
誼	-19781
徙	-19782
悅	-19783
吋	-19784
鵝	-19785
凉	-19786
氛	-19787
鎊	-19788
悔	-19789
磅	-19790
丛	-19791
蝙	-19792
簧	-19793
畜	-19794
詔	-19795
咲	-19796
爽	-19797
氮	-19798
偿	-19799
煩	-19800
刃	-19801
旱	-19802
−	-19803
柬	-19804
伺	-19805
禾	-19806
荊	-19807
牟	-19808
à	-19809
汁	-19810
蓉	-19811
堵	-19812
謎	-19813
扫	-19814
趋	-19815
†	-19816
セ	-19817
凸	-19818
鸣	-19819
呢	-19820
棍	-19821
侨	-19822
叢	-19823
è	-19824
纤	-19825
铭	-19826
矶	-19827
笠	-19828
蛙	-19829
纖	-19830
肆	-19831
@	-19832
б	-19833
朔	-19834
渦	-19835
屿	-19836
樑	-19837
滴	-19838
酬	-19839
弧	-19840
韶	-19841
や	-19842
ェ	-19843
沛	-19844
虞	-19845
阜	-19846
雯	-19847
赦	-19848
债	-19849
廿	-19850
鴉	-19851
鵬	-19852
茜	-19853
垃	-19854
噪	-19855
壹	-19856
酋	-19857
辐	-19858
卧	-19859
黏	-19860
哉	-19861
胃	-19862
け	-19863
椒	-19864
涛	-19865
臀	-19866
邸	-19867
淹	-19868
煉	-19869
乞	-19870
迄	-19871
咬	-19872
氟	-19873
匿	-19874
筋	-19875
棠	-19876
繳	-19877
悼	-19878
凍	-19879
圾	-19880
舱	-19881
撲	-19882
膨	-19883
ā	-19884
茄	-19885
幢	-19886
窟	-19887
闖	-19888
脏	-19889
ノ	-19890
酮	-19891
説	-19892
僱	-19893
釣	-19894
懿	-19895
韵	-19896
鞭	-19897
纂	-19898
騷	-19899
勉	-19900
栖	-19901
綾	-19902
蘆	-19903
栽	-19904
甄	-19905
ワ	-19906
貸	-19907
だ	-19908
穷	-19909
娅	-19910
頃	-19911
瀑	-19912
籠	-19913
暑	-19914
え	-19915
妓	-19916
琦	-19917
惨	-19918
砍	-19919
摆	-19920
戦	-19921
炼	-19922
雁	-19923
剿	-19924
庵	-19925
鍊	-19926
鑼	-19927
め	-19928
懲	-19929
彙	-19930
仗	-19931
倪	-19932
碱	-19933
诊	-19934
拾	-19935
遥	-19936
侄	-19937
叠	-19938
峻	-19939
凹	-19940
禹	-19941
🔗	-19942
桶	-19943
聊	-19944
芯	-19945
稽	-19946
绥	-19947
煮	-19948
酯	-19949
ч	-19950
啤	-19951
寅	-19952
敷	-19953
蔽	-19954
顛	-19955
鬧	-19956
壩	-19957
刪	-19958
淋	-19959
殉	-19960
â	-19961
ゆ	-19962
厲	-19963
曝	-19964
β	-19965
嚇	-19966
丟	-19967
訟	-19968
粘	-19969
ا	-19970
宵	-19971
蝕	-19972
屢	-19973
淫	-19974
鹤	-19975
彪	-19976
窩	-19977
幌	-19978
啊	-19979
締	-19980
糾	-19981
耿	-19982
菁	-19983
冶	-19984
骸	-19985
籲	-19986
愚	-19987
爛	-19988
泌	-19989
膀	-19990
哺	-19991
晃	-19992
篤	-19993
じ	-19994
罐	-19995
谭	-19996
舜	-19997
闪	-19998
擠	-19999
諜	-20000
頜	-20001
舖	-20002
泄	-20003
衷	-20004
狸	-20005
匡	-20006
楓	-20007
湛	-20008
賠	-20009
諧	-20010
俞	-20011
炉	-20012
墟	-20013
縫	-20014
鍋	-20015
ツ	-20016
ひ	-20017
媛	-20018
漳	-20019
荆	-20020
妈	-20021
舅	-20022
墳	-20023
愉	-20024
橄	-20025
擲	-20026
弊	-20027
わ	-20028
奋	-20029
钻	-20030
裙	-20031
瑚	-20032
酵	-20033
霜	-20034
ư	-20035
劾	-20036
竭	-20037
麓	-20038
妍	-20039
挽	-20040
臭	-20041
陝	-20042
汕	-20043
諷	-20044
籤	-20045
蝦	-20046
ケ	-20047
颠	-20048
晰	-20049
隙	-20050
烤	-20051
夹	-20052
戎	-20053
渊	-20054
霆	-20055
杖	-20056
臥	-20057
咪	-20058
ボ	-20059
妝	-20060
1	-20061
孜	-20062
纏	-20063
鹏	-20064
蔚	-20065
猿	-20066
宦	-20067
矣	-20068
哩	-20069
炒	-20070
蜘	-20071
鐸	-20072
惹	-20073
荡	-20074
蠻	-20075
紳	-20076
擒	-20077
仆	-20078
墩	-20079
践	-20080
匙	-20081
羞	-20082
荔	-20083
馨	-20084
冤	-20085
猩	-20086
墾	-20087
嵐	-20088
犧	-20089
鯉	-20090
巾	-20091
捨	-20092
娟	-20093
毓	-20094
牡	-20095
ネ	-20096
剖	-20097
欖	-20098
禽	-20099
汐	-20100
駒	-20101
斋	-20102
燥	-20103
眷	-20104
赣	-20105
纬	-20106
苹	-20107
您	-20108
俯	-20109
溃	-20110
豚	-20111
碗	-20112
肚	-20113
谁	-20114
簿	-20115
墅	-20116
闸	-20117
傭	-20118
咨	-20119
′	-20120
孚	-20121
畿	-20122
狭	-20123
з	-20124
ァ	-20125
胤	-20126
诱	-20127
埼	-20128
戊	-20129
垒	-20130
鈞	-20131
蝴	-20132
鑄	-20133
芸	-20134
磚	-20135
敲	-20136
胖	-20137
拨	-20138
摸	-20139
綿	-20140
嬌	-20141
皓	-20142
ろ	-20143
剌	-20144
蔭	-20145
岑	-20146
疼	-20147
浏	-20148
謹	-20149
娥	-20150
隕	-20151
薰	-20152
郝	-20153
歼	-20154
腎	-20155
廁	-20156
衙	-20157
犁	-20158
闲	-20159
趾	-20160
抹	-20161
胆	-20162
瞳	-20163
抬	-20164
瑩	-20165
顱	-20166
詐	-20167
斩	-20168
硝	-20169
嶋	-20170
谊	-20171
澀	-20172
撐	-20173
濤	-20174
鬱	-20175
肪	-20176
扑	-20177
嫡	-20178
卦	-20179
叱	-20180
哨	-20181
飼	-20182
疲	-20183
濾	-20184
盔	-20185
罹	-20186
腕	-20187
蔓	-20188
妄	-20189
檀	-20190
顷	-20191
栋	-20192
漿	-20193
罵	-20194
ザ	-20195
谦	-20196
锐	-20197
褲	-20198
渴	-20199
慾	-20200
莞	-20201
倖	-20202
廓	-20203
瓣	-20204
肿	-20205
踐	-20206
谐	-20207
绑	-20208
醜	-20209
湧	-20210
脆	-20211
纺	-20212
婿	-20213
扳	-20214
晤	-20215
弼	-20216
畅	-20217
愤	-20218
塢	-20219
輿	-20220
酰	-20221
沫	-20222
釜	-20223
挫	-20224
袍	-20225
攔	-20226
竊	-20227
瞭	-20228
濫	-20229
硅	-20230
虜	-20231
睿	-20232
砌	-20233
乒	-20234
蚀	-20235
墮	-20236
艷	-20237
曜	-20238
ゃ	-20239
漲	-20240
烹	-20241
ї	-20242
羌	-20243
瀏	-20244
蔬	-20245
匾	-20246
醬	-20247
蕉	-20248
删	-20249
膛	-20250
粟	-20251
崛	-20252
谥	-20253
滤	-20254
賺	-20255
堯	-20256
馳	-20257
辜	-20258
妾	-20259
脸	-20260
嵩	-20261
勿	-20262
祺	-20263
檐	-20264
瑛	-20265
倭	-20266
贷	-20267
吟	-20268
腫	-20269
―	-20270
忧	-20271
纠	-20272
樸	-20273
禎	-20274
噬	-20275
ベ	-20276
ú	-20277
穀	-20278
笨	-20279
薯	-20280
脹	-20281
婴	-20282
樊	-20283
聪	-20284
潟	-20285
祇	-20286
μ	-20287
淀	-20288
哇	-20289
ポ	-20290
燦	-20291
楷	-20292
緝	-20293
膏	-20294
宠	-20295
慌	-20296
麒	-20297
幡	-20298
睦	-20299
莽	-20300
綽	-20301
磡	-20302
赔	-20303
渣	-20304
皖	-20305
剥	-20306
濁	-20307
祕	-20308
抛	-20309
鑰	-20310
嘲	-20311
彝	-20312
虏	-20313
犀	-20314
茹	-20315
膝	-20316
饶	-20317
峙	-20318
绵	-20319
窑	-20320
鸦	-20321
ホ	-20322
飽	-20323
糟	-20324
吁	-20325
颶	-20326
畑	-20327
茱	-20328
骚	-20329
ギ	-20330
塾	-20331
涡	-20332
枯	-20333
溢	-20334
斧	-20335
淆	-20336
肠	-20337
瀧	-20338
龟	-20339
瘦	-20340
傍	-20341
煞	-20342
髓	-20343
壢	-20344
棺	-20345
苻	-20346
瀬	-20347
ピ	-20348
紮	-20349
梧	-20350
岔	-20351
骗	-20352
浚	-20353
纜	-20354
錶	-20355
謊	-20356
芦	-20357
瑙	-20358
撃	-20359
渝	-20360
榆	-20361
禱	-20362
瑤	-20363
ゴ	-20364
闢	-20365
暱	-20366
霹	-20367
貶	-20368
岱	-20369
剝	-20370
焊	-20371
饒	-20372
沁	-20373
ソ	-20374
胚	-20375
姨	-20376
磐	-20377
坞	-20378
飄	-20379
洩	-20380
滇	-20381
萱	-20382
篠	-20383
坠	-20384
溥	-20385
吵	-20386
褒	-20387
←	-20388
闇	-20389
弯	-20390
彤	-20391
梳	-20392
肤	-20393
閥	-20394
呆	-20395
暮	-20396
雛	-20397
鯊	-20398
掀	-20399
惱	-20400
釐	-20401
○	-20402
逗	-20403
焉	-20404
樟	-20405
睹	-20406
榕	-20407
菸	-20408
倚	-20409
挡	-20410
溜	-20411
祂	-20412
钓	-20413
攤	-20414
贿	-20415
裹	-20416
淇	-20417
渭	-20418
祁	-20419
湊	-20420
敖	-20421
渤	-20422
壬	-20423
歳	-20424
舶	-20425
僵	-20426
贪	-20427
奢	-20428
敕	-20429
搏	-20430
鋁	-20431
尧	-20432
癒	-20433
撕	-20434
黔	-20435
х	-20436
鸭	-20437
ç	-20438
ы	-20439
蛺	-20440
衞	-20441
樺	-20442
饼	-20443
茉	-20444
賄	-20445
莖	-20446
铝	-20447
苷	-20448
迭	-20449
铃	-20450
淪	-20451
惧	-20452
釀	-20453
蕊	-20454
[	-20455
贬	-20456
ヤ	-20457
]	-20458
せ	-20459
悦	-20460
缝	-20461
洽	-20462
諒	-20463
颂	-20464
驳	-20465
讽	-20466
倩	-20467
劲	-20468
産	-20469
泣	-20470
绳	-20471
嘎	-20472
憾	-20473
虔	-20474
諡	-20475
苍	-20476
瑾	-20477
锅	-20478
ヒ	-20479
贼	-20480
乓	-20481
姦	-20482
★	-20483
峯	-20484
忒	-20485
羚	-20486
ê	-20487
堰	-20488
阀	-20489
襪	-20490
唤	-20491
鋸	-20492
晏	-20493
阎	-20494
綺	-20495
祸	-20496
菅	-20497
沢	-20498
庐	-20499
そ	-20500
殲	-20501
缴	-20502
ど	-20503
泵	-20504
傻	-20505
琅	-20506
擢	-20507
惩	-20508
丕	-20509
舆	-20510
詮	-20511
枕	-20512
聂	-20513
隼	-20514
骼	-20515
鹅	-20516
蕩	-20517
ل	-20518
巩	-20519
屡	-20520
牺	-20521
鈕	-20522
爷	-20523
鬚	-20524
佣	-20525
衫	-20526
厉	-20527
驟	-20528
哆	-20529
渥	-20530
đ	-20531
妒	-20532
譴	-20533
\	-20534
媳	-20535
虧	-20536
抒	-20537
雾	-20538
佬	-20539
辈	-20540
煥	-20541
酿	-20542
蕙	-20543
巻	-20544
捧	-20545
巳	-20546
餓	-20547
頑	-20548
厌	-20549
讼	-20550
緻	-20551
伶	-20552
媚	-20553
篷	-20554
溺	-20555
瀛	-20556
瑋	-20557
滯	-20558
霄	-20559
沂	-20560
陇	-20561
丢	-20562
妳	-20563
曦	-20564
颖	-20565
妨	-20566
琛	-20567
涨	-20568
璧	-20569
蠟	-20570
侏	-20571
浆	-20572
莓	-20573
颈	-20574
<	-20575
喙	-20576
疇	-20577
鞏	-20578
钠	-20579
谣	-20580
贖	-20581
炬	-20582
ц	-20583
錐	-20584
盪	-20585
紡	-20586
醛	-20587
ペ	-20588
鎧	-20589
嗜	-20590
棱	-20591
傀	-20592
啓	-20593
账	-20594
鹼	-20595
窝	-20596
芹	-20597
儡	-20598
蛮	-20599
帐	-20600
暹	-20601
胀	-20602
[...]
